<unk>	0
<s>	0
</s>	0
▁t	-0
he	-1
▁a	-2
▁s	-3
nd	-4
▁w	-5
▁the	-6
ed	-7
▁b	-8
▁to	-9
▁and	-10
▁T	-11
▁h	-12
▁f	-13
in	-14
▁wa	-15
re	-16
it	-17
ou	-18
▁l	-19
▁d	-20
▁c	-21
▁p	-22
▁The	-23
ay	-24
▁m	-25
er	-26
▁was	-27
om	-28
▁he	-29
is	-30
ar	-31
▁n	-32
im	-33
on	-34
▁sa	-35
id	-36
ll	-37
▁S	-38
▁ha	-39
▁g	-40
at	-41
ing	-42
ot	-43
en	-44
an	-45
le	-46
or	-47
end	-48
▁"	-49
ir	-50
▁H	-51
of	-52
am	-53
▁They	-54
et	-55
▁it	-56
▁th	-57
ig	-58
▁He	-59
▁in	-60
il	-61
▁pl	-62
ow	-63
ver	-64
ri	-65
ut	-66
▁be	-67
▁u	-68
▁said	-69
▁play	-70
▁O	-71
ith	-72
▁Tim	-73
▁day	-74
▁with	-75
pp	-76
▁On	-77
▁y	-78
oo	-79
ked	-80
▁r	-81
▁I	-82
▁She	-83
▁her	-84
ex	-85
ce	-86
ld	-87
▁his	-88
▁st	-89
ke	-90
▁L	-91
▁big	-92
nt	-93
ck	-94
▁you	-95
very	-96
st	-97
ve	-98
▁B	-99
▁on	-100
un	-101
▁happ	-102
riend	-103
▁friend	-104
all	-105
ily	-106
ext	-107
▁M	-108
▁they	-109
oft	-110
▁we	-111
▁had	-112
▁not	-113
▁li	-114
▁up	-115
her	-116
▁want	-117
▁of	-118
ad	-119
itt	-120
▁<	-121
|>	-122
▁<|	-123
endoft	-124
endoftext	-125
se	-126
▁do	-127
▁e	-128
▁happy	-129
ent	-130
▁very	-131
es	-132
▁that	-133
▁saw	-134
▁Lily	-135
▁One	-136
▁A	-137
ould	-138
▁mom	-139
▁for	-140
▁sh	-141
ittle	-142
▁little	-143
▁Tom	-144
▁she	-145
ch	-146
ime	-147
▁nam	-148
."	-149
▁time	-150
▁k	-151
ound	-152
▁so	-153
▁there	-154
▁named	-155
▁sm	-156
▁bo	-157
▁were	-158
▁ne	-159
▁wanted	-160
▁but	-161
out	-162
▁friends	-163
ved	-164
!"	-165
ht	-166
ird	-167
el	-168
▁bird	-169
al	-170
▁an	-171
ake	-172
▁It	-173
▁too	-174
ome	-175
ug	-176
ide	-177
▁went	-178
▁wh	-179
▁hel	-180
▁Once	-181
▁is	-182
▁all	-183
▁help	-184
ue	-185
▁loo	-186
▁lo	-187
ter	-188
▁upon	-189
ry	-190
ore	-191
ind	-192
▁fun	-193
get	-194
▁toy	-195
ill	-196
ame	-197
▁as	-198
▁at	-199
ra	-200
▁j	-201
▁did	-202
gether	-203
▁re	-204
ur	-205
▁o	-206
▁se	-207
▁together	-208
ack	-209
▁cat	-210
ly	-211
▁tre	-212
ood	-213
ic	-214
ted	-215
▁dog	-216
▁could	-217
▁can	-218
▁their	-219
ard	-220
ec	-221
ark	-222
▁gir	-223
▁played	-224
▁him	-225
▁ball	-226
?"	-227
▁girl	-228
▁ro	-229
way	-230
▁go	-231
hed	-232
my	-233
▁are	-234
▁out	-235
▁le	-236
▁fr	-237
ain	-238
▁But	-239
hen	-240
▁kn	-241
▁them	-242
um	-243
ax	-244
▁sad	-245
▁W	-246
▁Sue	-247
ul	-248
▁boy	-249
▁tree	-250
other	-251
▁have	-252
▁man	-253
▁Max	-254
▁cl	-255
▁loved	-256
▁looked	-257
oug	-258
▁found	-259
▁sp	-260
▁star	-261
one	-262
hing	-263
▁sc	-264
▁back	-265
own	-266
▁Ben	-267
are	-268
▁like	-269
ful	-270
side	-271
▁me	-272
▁bec	-273
▁Sam	-274
▁park	-275
ight	-276
ong	-277
▁car	-278
▁J	-279
op	-280
elt	-281
▁liked	-282
▁would	-283
▁make	-284
round	-285
▁la	-286
▁fa	-287
▁felt	-288
You	-289
ell	-290
▁see	-291
omet	-292
▁asked	-293
ag	-294
▁new	-295
▁no	-296
ice	-297
ouse	-298
▁started	-299
ared	-300
▁came	-301
▁al	-302
▁other	-303
ought	-304
iled	-305
▁F	-306
▁somet	-307
▁ag	-308
▁good	-309
▁small	-310
ss	-311
▁br	-312
▁smiled	-313
▁say	-314
ried	-315
ade	-316
▁Sp	-317
ings	-318
ob	-319
▁wor	-320
▁Spot	-321
▁find	-322
ia	-323
▁away	-324
ty	-325
▁put	-326
▁ex	-327
▁what	-328
▁something	-329
▁from	-330
▁made	-331
▁thought	-332
ened	-333
▁home	-334
▁playing	-335
▁co	-336
ook	-337
▁every	-338
▁wal	-339
▁mu	-340
uc	-341
ach	-342
arn	-343
▁ran	-344
ile	-345
ie	-346
▁Mia	-347
ave	-348
▁again	-349
▁some	-350
▁laug	-351
dd	-352
▁house	-353
▁down	-354
▁fl	-355
king	-356
▁took	-357
▁scared	-358
▁pr	-359
ny	-360
ure	-361
▁toys	-362
▁learn	-363
▁You	-364
if	-365
▁will	-366
▁box	-367
ick	-368
ret	-369
ab	-370
ep	-371
▁my	-372
▁around	-373
▁things	-374
▁your	-375
oud	-376
▁bl	-377
uck	-378
▁when	-379
ish	-380
▁lived	-381
▁fe	-382
▁then	-383
▁sun	-384
as	-385
▁sw	-386
▁So	-387
,"	-388
▁Mom	-389
▁ch	-390
us	-391
pped	-392
▁ab	-393
ank	-394
▁get	-395
ucy	-396
ump	-397
▁lot	-398
ist	-399
▁Lucy	-400
▁D	-401
oth	-402
ap	-403
▁tried	-404
▁know	-405
▁says	-406
▁got	-407
ited	-408
▁who	-409
Th	-410
▁kne	-411
ust	-412
▁many	-413
▁Bob	-414
nder	-415
▁int	-416
▁about	-417
▁pret	-418
▁dec	-419
▁any	-420
▁red	-421
ive	-422
▁knew	-423
ace	-424
ous	-425
▁more	-426
ise	-427
▁v	-428
▁care	-429
ally	-430
▁pic	-431
au	-432
qu	-433
▁hug	-434
▁learned	-435
▁po	-436
▁water	-437
fter	-438
▁became	-439
▁best	-440
▁And	-441
ause	-442
▁op	-443
▁gre	-444
▁E	-445
▁exc	-446
urp	-447
ways	-448
▁outside	-449
▁laughed	-450
▁look	-451
▁always	-452
▁decid	-453
▁show	-454
▁un	-455
ant	-456
▁room	-457
fe	-458
▁decided	-459
▁ho	-460
▁because	-461
▁into	-462
▁eat	-463
ite	-464
▁jump	-465
▁pe	-466
▁both	-467
ers	-468
▁Then	-469
▁dad	-470
udd	-471
▁ke	-472
▁one	-473
▁When	-474
nn	-475
▁this	-476
▁excited	-477
▁fast	-478
▁nice	-479
▁feel	-480
Yes	-481
▁run	-482
▁long	-483
▁Ann	-484
▁told	-485
▁sk	-486
▁am	-487
urpr	-488
our	-489
▁inside	-490
ull	-491
▁tr	-492
▁surpr	-493
▁mo	-494
▁His	-495
ink	-496
▁pretty	-497
iny	-498
▁sor	-499
▁take	-500
▁Fr	-501
og	-502
▁C	-503
▁sl	-504
▁each	-505
▁gave	-506
hat	-507
▁much	-508
▁gra	-509
lew	-510
▁rock	-511
▁how	-512
▁str	-513
ara	-514
imal	-515
▁animal	-516
ged	-517
▁need	-518
▁than	-519
▁Anna	-520
▁Amy	-521
ven	-522
etter	-523
▁tow	-524
▁or	-525
▁As	-526
▁under	-527
ess	-528
▁old	-529
▁sorry	-530
ge	-531
ised	-532
ro	-533
urt	-534
▁Sara	-535
▁cle	-536
▁fish	-537
▁walked	-538
▁clo	-539
and	-540
here	-541
▁bear	-542
ase	-543
ast	-544
▁hand	-545
urn	-546
▁We	-547
▁kind	-548
▁happened	-549
▁just	-550
▁flow	-551
▁Her	-552
▁food	-553
▁list	-554
▁didn	-555
▁te	-556
▁animals	-557
▁hig	-558
▁near	-559
▁wat	-560
▁In	-561
▁ide	-562
▁try	-563
ched	-564
▁sky	-565
ine	-566
▁sn	-567
pl	-568
ving	-569
▁fi	-570
▁us	-571
▁From	-572
▁idea	-573
▁better	-574
▁bug	-575
▁heard	-576
gry	-577
▁its	-578
▁tw	-579
▁let	-580
pec	-581
ate	-582
able	-583
ff	-584
▁en	-585
▁careful	-586
▁share	-587
▁if	-588
Thank	-589
▁fly	-590
▁stor	-591
ial	-592
▁flew	-593
more	-594
▁anymore	-595
▁spec	-596
▁special	-597
ion	-598
▁com	-599
▁lots	-600
▁never	-601
▁by	-602
lf	-603
ream	-604
▁dan	-605
▁bu	-606
▁fo	-607
▁wind	-608
▁don	-609
▁Every	-610
▁tal	-611
▁clean	-612
ort	-613
▁gr	-614
▁love	-615
rm	-616
ber	-617
▁end	-618
ople	-619
▁even	-620
▁mag	-621
▁K	-622
▁hard	-623
▁shiny	-624
udden	-625
▁fore	-626
▁over	-627
▁cake	-628
ak	-629
▁book	-630
▁col	-631
▁turn	-632
▁fam	-633
▁bad	-634
▁safe	-635
▁after	-636
ady	-637
uddenly	-638
▁people	-639
▁proud	-640
▁surprised	-641
pected	-642
Let	-643
▁high	-644
▁cu	-645
▁hurt	-646
▁come	-647
imb	-648
arden	-649
▁door	-650
▁garden	-651
bb	-652
▁ground	-653
▁opened	-654
▁picked	-655
▁loud	-656
▁climb	-657
expected	-658
▁unexpected	-659
hy	-660
▁gl	-661
▁che	-662
ild	-663
▁im	-664
▁give	-665
▁way	-666
ail	-667
▁thanked	-668
▁color	-669
▁blue	-670
▁still	-671
▁ever	-672
▁hugged	-673
▁P	-674
▁call	-675
▁far	-676
ip	-677
No	-678
▁off	-679
▁magic	-680
iz	-681
age	-682
ough	-683
ummy	-684
▁jumped	-685
▁should	-686
▁family	-687
▁par	-688
ool	-689
▁kid	-690
▁smile	-691
▁Jo	-692
hes	-693
uff	-694
▁place	-695
kay	-696
▁walk	-697
▁now	-698
ct	-699
▁great	-700
em	-701
▁qu	-702
▁Suddenly	-703
les	-704
▁strong	-705
▁stay	-706
▁unt	-707
▁sto	-708
aut	-709
▁forest	-710
ture	-711
ane	-712
▁bra	-713
itty	-714
▁frog	-715
▁bro	-716
▁until	-717
▁beaut	-718
dy	-719
▁squ	-720
▁stick	-721
▁next	-722
▁boat	-723
lease	-724
ning	-725
▁Sally	-726
▁After	-727
▁N	-728
▁happily	-729
▁listen	-730
aking	-731
▁kids	-732
▁tra	-733
▁Kitty	-734
ies	-735
iful	-736
▁beautiful	-737
▁app	-738
▁helped	-739
▁dra	-740
▁showed	-741
▁clos	-742
be	-743
▁imp	-744
▁story	-745
unny	-746
▁while	-747
▁town	-748
rel	-749
pt	-750
▁rain	-751
ress	-752
▁picture	-753
▁At	-754
oy	-755
▁being	-756
▁rem	-757
▁everyone	-758
ary	-759
ree	-760
▁mor	-761
▁R	-762
▁hat	-763
▁called	-764
▁met	-765
▁stopped	-766
▁ad	-767
▁game	-768
▁wo	-769
Can	-770
▁angry	-771
ger	-772
uffy	-773
▁soft	-774
▁Fin	-775
▁open	-776
▁truck	-777
▁keep	-778
▁cry	-779
▁yummy	-780
▁Th	-781
▁lost	-782
▁bed	-783
▁Let	-784
▁warm	-785
by	-786
vent	-787
▁Jack	-788
▁brave	-789
▁mouse	-790
▁ate	-791
oon	-792
ished	-793
▁de	-794
It	-795
fore	-796
▁doll	-797
so	-798
▁couldn	-799
▁watch	-800
▁leave	-801
▁also	-802
dded	-803
▁fell	-804
▁green	-805
▁face	-806
▁two	-807
▁Fl	-808
gan	-809
iss	-810
▁flowers	-811
bit	-812
ble	-813
▁noise	-814
What	-815
abbit	-816
irst	-817
owl	-818
▁where	-819
az	-820
ock	-821
▁soon	-822
self	-823
▁slide	-824
▁rabbit	-825
▁hole	-826
▁G	-827
▁before	-828
irrel	-829
▁pus	-830
ired	-831
▁sat	-832
illy	-833
▁hear	-834
▁Fluffy	-835
▁use	-836
▁pa	-837
▁kept	-838
Hi	-839
▁squirrel	-840
ear	-841
ma	-842
▁nodded	-843
▁Now	-844
▁expl	-845
▁store	-846
▁cook	-847
▁hands	-848
Look	-849
▁birds	-850
▁pain	-851
▁going	-852
▁funny	-853
▁having	-854
day	-855
▁sing	-856
aybe	-857
uch	-858
▁ey	-859
aug	-860
▁catch	-861
aught	-862
▁Can	-863
uit	-864
▁yell	-865
▁think	-866
leep	-867
▁cra	-868
▁fin	-869
▁bre	-870
▁fix	-871
▁tired	-872
▁bunny	-873
▁used	-874
▁looking	-875
▁bus	-876
ange	-877
air	-878
▁work	-879
▁wr	-880
ting	-881
▁our	-882
▁pull	-883
We	-884
▁thr	-885
That	-886
thing	-887
▁wait	-888
▁kit	-889
▁sound	-890
▁jo	-891
▁has	-892
▁mean	-893
▁pond	-894
ember	-895
▁beh	-896
▁dr	-897
▁sunny	-898
led	-899
▁others	-900
▁ask	-901
ng	-902
chen	-903
▁kitchen	-904
▁talk	-905
▁flo	-906
▁dif	-907
▁pie	-908
rew	-909
▁head	-910
▁real	-911
▁first	-912
▁tri	-913
▁mommy	-914
▁eyes	-915
ello	-916
▁import	-917
Hello	-918
Mom	-919
▁fav	-920
▁Do	-921
joy	-922
▁z	-923
▁remember	-924
▁right	-925
▁flower	-926
▁con	-927
▁mess	-928
▁Wh	-929
▁party	-930
▁cold	-931
▁vo	-932
▁swe	-933
ious	-934
ft	-935
▁sand	-936
ac	-937
ath	-938
orn	-939
▁race	-940
▁curi	-941
imes	-942
▁important	-943
▁duck	-944
▁moral	-945
▁shared	-946
zy	-947
ount	-948
▁ice	-949
▁okay	-950
▁advent	-951
▁worked	-952
llow	-953
irt	-954
▁enjoy	-955
▁dress	-956
▁bright	-957
▁making	-958
▁curious	-959
▁own	-960
▁Dad	-961
▁tall	-962
▁hop	-963
reed	-964
▁hid	-965
▁favor	-966
▁ri	-967
hn	-968
▁sleep	-969
▁dis	-970
▁favorite	-971
Wow	-972
▁thing	-973
▁began	-974
▁mon	-975
▁bag	-976
▁hill	-977
▁cla	-978
Don	-979
▁draw	-980
▁rest	-981
▁here	-982
▁yard	-983
▁This	-984
▁tell	-985
▁John	-986
ster	-987
▁watched	-988
que	-989
▁follow	-990
▁move	-991
▁bel	-992
ect	-993
▁cut	-994
▁night	-995
▁agreed	-996
▁pick	-997
co	-998
▁block	-999
▁hun	-1000
aper	-1001
lly	-1002
▁stop	-1003
▁behind	-1004
▁surprise	-1005
ied	-1006
▁sho	-1007
▁hot	-1008
▁table	-1009
▁grass	-1010
▁worry	-1011
▁dark	-1012
▁trees	-1013
▁voice	-1014
▁walking	-1015
fere	-1016
▁floor	-1017
▁farm	-1018
▁lion	-1019
▁top	-1020
▁differe	-1021
▁please	-1022
▁That	-1023
▁Mr	-1024
▁ru	-1025
▁song	-1026
▁Bobo	-1027
▁butter	-1028
▁tail	-1029
▁sweet	-1030
▁shout	-1031
▁colors	-1032
▁read	-1033
▁lady	-1034
▁forg	-1035
isy	-1036
▁Jane	-1037
▁leaves	-1038
▁closer	-1039
ign	-1040
▁cars	-1041
▁Timmy	-1042
▁turned	-1043
▁needed	-1044
▁tast	-1045
Why	-1046
aring	-1047
▁wood	-1048
▁cried	-1049
▁different	-1050
▁laugh	-1051
▁del	-1052
▁piece	-1053
ered	-1054
▁roll	-1055
▁adventure	-1056
▁fire	-1057
▁does	-1058
ike	-1059
▁cr	-1060
▁hungry	-1061
▁hair	-1062
▁paper	-1063
▁feeling	-1064
▁yellow	-1065
▁full	-1066
bo	-1067
▁prin	-1068
▁touch	-1069
▁wet	-1070
▁friendly	-1071
▁per	-1072
oom	-1073
ken	-1074
cked	-1075
▁Mommy	-1076
ached	-1077
▁swing	-1078
▁fruit	-1079
ient	-1080
▁broken	-1081
▁ready	-1082
▁All	-1083
bye	-1084
ppy	-1085
▁prom	-1086
▁another	-1087
▁light	-1088
▁pretend	-1089
▁dance	-1090
ater	-1091
▁climbed	-1092
where	-1093
▁listened	-1094
▁danc	-1095
▁running	-1096
▁only	-1097
▁plan	-1098
▁gone	-1099
▁swim	-1100
bbed	-1101
▁train	-1102
ila	-1103
ndma	-1104
sh	-1105
▁close	-1106
av	-1107
art	-1108
▁smell	-1109
aby	-1110
▁amaz	-1111
▁hold	-1112
▁blocks	-1113
▁wonder	-1114
▁repl	-1115
▁Everyone	-1116
▁Lila	-1117
▁butterf	-1118
▁sees	-1119
▁reached	-1120
▁wall	-1121
▁pu	-1122
oney	-1123
▁slow	-1124
▁helping	-1125
▁dri	-1126
▁cream	-1127
▁cool	-1128
▁glad	-1129
af	-1130
▁ant	-1131
▁less	-1132
▁been	-1133
▁goodbye	-1134
▁ac	-1135
▁fight	-1136
ather	-1137
ey	-1138
▁pushed	-1139
iced	-1140
▁fair	-1141
▁must	-1142
▁hide	-1143
▁moment	-1144
▁window	-1145
▁sit	-1146
▁ar	-1147
▁balloon	-1148
▁snow	-1149
▁child	-1150
▁explore	-1151
▁wished	-1152
▁baby	-1153
▁done	-1154
▁wag	-1155
▁ste	-1156
▁buy	-1157
▁stuck	-1158
▁perf	-1159
▁Just	-1160
▁Soon	-1161
▁thank	-1162
▁might	-1163
icy	-1164
▁name	-1165
ized	-1166
▁trying	-1167
▁bit	-1168
▁coming	-1169
▁bar	-1170
▁quick	-1171
▁fall	-1172
▁apple	-1173
▁To	-1174
▁scary	-1175
ash	-1176
▁looks	-1177
▁build	-1178
▁doing	-1179
irty	-1180
▁win	-1181
▁underst	-1182
aisy	-1183
▁din	-1184
▁dream	-1185
▁There	-1186
▁dirty	-1187
▁held	-1188
ames	-1189
▁books	-1190
▁mar	-1191
▁butterfly	-1192
▁left	-1193
▁shouted	-1194
▁count	-1195
▁replied	-1196
avy	-1197
▁reach	-1198
▁tiny	-1199
▁through	-1200
ott	-1201
▁dro	-1202
▁why	-1203
▁air	-1204
▁bran	-1205
▁land	-1206
key	-1207
▁three	-1208
▁pulled	-1209
▁spl	-1210
▁grow	-1211
▁treat	-1212
▁brother	-1213
▁wise	-1214
▁woods	-1215
▁sure	-1216
▁chair	-1217
ix	-1218
▁mat	-1219
ins	-1220
▁seen	-1221
▁pink	-1222
▁clapped	-1223
▁plant	-1224
ely	-1225
▁owl	-1226
▁cup	-1227
ield	-1228
▁sometimes	-1229
andy	-1230
▁fill	-1231
▁cloud	-1232
ask	-1233
▁swam	-1234
outh	-1235
▁job	-1236
▁colorful	-1237
▁Inside	-1238
▁remembered	-1239
▁bigger	-1240
▁nest	-1241
▁mouth	-1242
Okay	-1243
▁lesson	-1244
▁join	-1245
▁cre	-1246
ph	-1247
oup	-1248
room	-1249
▁waved	-1250
uddy	-1251
▁grabbed	-1252
▁stayed	-1253
Oh	-1254
▁paint	-1255
▁clot	-1256
▁cont	-1257
▁clothes	-1258
ower	-1259
▁Daisy	-1260
▁waited	-1261
▁quickly	-1262
cle	-1263
▁word	-1264
▁broke	-1265
ucky	-1266
▁games	-1267
▁cast	-1268
▁Buddy	-1269
▁blew	-1270
▁gent	-1271
▁Finally	-1272
▁While	-1273
▁enjoyed	-1274
▁noticed	-1275
ries	-1276
ation	-1277
▁set	-1278
▁likes	-1279
▁pictures	-1280
▁mus	-1281
ton	-1282
de	-1283
▁sea	-1284
▁heavy	-1285
▁alone	-1286
▁gif	-1287
asure	-1288
▁anything	-1289
▁spot	-1290
▁miss	-1291
▁hopped	-1292
▁world	-1293
▁turns	-1294
orm	-1295
▁year	-1296
der	-1297
▁bott	-1298
▁pat	-1299
▁pot	-1300
This	-1301
▁pen	-1302
lc	-1303
▁Sarah	-1304
▁mix	-1305
▁arm	-1306
▁bike	-1307
▁tight	-1308
▁Tommy	-1309
▁everywhere	-1310
▁won	-1311
▁tower	-1312
▁threw	-1313
▁himself	-1314
▁followed	-1315
▁ride	-1316
man	-1317
ere	-1318
pe	-1319
less	-1320
▁ju	-1321
▁je	-1322
amp	-1323
ape	-1324
▁comp	-1325
▁key	-1326
eddy	-1327
row	-1328
▁What	-1329
".	-1330
▁white	-1331
ctor	-1332
▁wrong	-1333
▁makes	-1334
▁break	-1335
arent	-1336
▁black	-1337
ee	-1338
ner	-1339
▁deep	-1340
thy	-1341
▁music	-1342
▁Em	-1343
▁pol	-1344
▁delic	-1345
cess	-1346
ued	-1347
▁forgot	-1348
▁bee	-1349
▁parent	-1350
olly	-1351
▁castle	-1352
ves	-1353
▁em	-1354
Do	-1355
iet	-1356
▁wear	-1357
▁hit	-1358
▁ve	-1359
ister	-1360
oun	-1361
▁quiet	-1362
▁round	-1363
▁Billy	-1364
ance	-1365
▁stu	-1366
▁danced	-1367
▁vis	-1368
ully	-1369
▁wants	-1370
▁leaf	-1371
▁monster	-1372
▁nap	-1373
▁understand	-1374
ang	-1375
▁bowl	-1376
os	-1377
rot	-1378
▁bor	-1379
▁talked	-1380
itten	-1381
ren	-1382
▁dry	-1383
▁faster	-1384
▁cookies	-1385
▁Gra	-1386
▁Joe	-1387
▁brought	-1388
fully	-1389
▁leg	-1390
ross	-1391
▁mum	-1392
zz	-1393
▁side	-1394
▁sign	-1395
▁smart	-1396
cy	-1397
▁rocks	-1398
▁someone	-1399
▁poin	-1400
▁sec	-1401
▁sharing	-1402
▁fox	-1403
▁well	-1404
▁res	-1405
▁rel	-1406
▁happen	-1407
▁button	-1408
▁branch	-1409
▁really	-1410
▁finished	-1411
ence	-1412
ards	-1413
▁dinner	-1414
▁sister	-1415
▁flying	-1416
▁contin	-1417
▁worried	-1418
▁ele	-1419
▁visit	-1420
▁Maybe	-1421
▁beach	-1422
▁que	-1423
th	-1424
▁secret	-1425
▁el	-1426
▁king	-1427
▁gift	-1428
gy	-1429
▁today	-1430
▁perfect	-1431
▁river	-1432
▁everything	-1433
▁silly	-1434
▁shin	-1435
ipp	-1436
▁danger	-1437
▁children	-1438
▁gu	-1439
▁field	-1440
▁filled	-1441
▁fur	-1442
▁else	-1443
▁smiles	-1444
▁welc	-1445
▁wish	-1446
▁sang	-1447
▁gi	-1448
ze	-1449
▁pudd	-1450
▁snack	-1451
▁eating	-1452
▁realized	-1453
▁pieces	-1454
▁promised	-1455
▁Ch	-1456
ord	-1457
▁spr	-1458
▁pig	-1459
▁free	-1460
▁continued	-1461
▁start	-1462
▁bite	-1463
ead	-1464
▁parents	-1465
▁carefully	-1466
ated	-1467
itting	-1468
▁jar	-1469
▁cow	-1470
Maybe	-1471
▁blank	-1472
▁drag	-1473
stead	-1474
▁orange	-1475
▁mud	-1476
▁crying	-1477
▁blanket	-1478
▁enough	-1479
▁rolled	-1480
cket	-1481
▁soup	-1482
▁sail	-1483
▁purp	-1484
imi	-1485
▁yes	-1486
ale	-1487
▁drink	-1488
▁snake	-1489
ses	-1490
▁boun	-1491
▁pet	-1492
▁crab	-1493
▁throw	-1494
▁laughing	-1495
▁fairy	-1496
▁words	-1497
▁amazing	-1498
▁Jim	-1499
▁bath	-1500
ich	-1501
▁purple	-1502
▁Jen	-1503
▁without	-1504
ire	-1505
▁Mimi	-1506
▁bottle	-1507
▁grandma	-1508
used	-1509
ons	-1510
▁past	-1511
▁money	-1512
iver	-1513
fort	-1514
▁mail	-1515
▁barked	-1516
▁wagged	-1517
▁att	-1518
chool	-1519
▁monkey	-1520
▁doctor	-1521
unch	-1522
▁brown	-1523
▁moved	-1524
ises	-1525
▁asks	-1526
▁Bl	-1527
▁getting	-1528
▁closed	-1529
▁whe	-1530
▁welcome	-1531
▁su	-1532
▁candy	-1533
▁school	-1534
▁morning	-1535
▁owner	-1536
gg	-1537
▁lon	-1538
▁mother	-1539
▁higher	-1540
▁sitting	-1541
▁treasure	-1542
▁smo	-1543
▁dangerous	-1544
▁lonely	-1545
▁living	-1546
▁apples	-1547
▁shop	-1548
ased	-1549
▁strange	-1550
vel	-1551
ush	-1552
▁shining	-1553
▁road	-1554
▁creat	-1555
una	-1556
▁paw	-1557
▁ra	-1558
▁shoes	-1559
▁pre	-1560
ible	-1561
▁stre	-1562
▁talking	-1563
althy	-1564
▁caught	-1565
▁egg	-1566
ol	-1567
▁pass	-1568
me	-1569
▁lake	-1570
▁runs	-1571
▁buck	-1572
▁letter	-1573
▁wings	-1574
▁chee	-1575
fish	-1576
▁mad	-1577
▁fan	-1578
asket	-1579
▁basket	-1580
ass	-1581
▁dragon	-1582
app	-1583
But	-1584
set	-1585
cks	-1586
▁stone	-1587
▁thinks	-1588
Tim	-1589
▁stand	-1590
▁delicious	-1591
▁nose	-1592
▁puddle	-1593
▁tom	-1594
▁belie	-1595
▁farmer	-1596
▁same	-1597
▁years	-1598
board	-1599
▁teddy	-1600
▁bat	-1601
isk	-1602
itch	-1603
▁mine	-1604
▁sear	-1605
▁coat	-1606
ches	-1607
▁Emma	-1608
igh	-1609
▁days	-1610
▁bring	-1611
▁gentle	-1612
▁fit	-1613
▁Together	-1614
▁finally	-1615
▁whist	-1616
ars	-1617
▁cray	-1618
igg	-1619
▁scream	-1620
▁kite	-1621
▁Molly	-1622
▁heart	-1623
▁pill	-1624
phant	-1625
arm	-1626
▁Re	-1627
▁vill	-1628
▁cho	-1629
▁singing	-1630
The	-1631
ella	-1632
sw	-1633
ined	-1634
▁tasty	-1635
▁ben	-1636
▁ph	-1637
▁trou	-1638
▁shell	-1639
▁herself	-1640
▁hoped	-1641
▁answ	-1642
▁wore	-1643
▁swings	-1644
sy	-1645
▁hor	-1646
▁belong	-1647
Please	-1648
▁push	-1649
iskers	-1650
▁carrot	-1651
▁arri	-1652
aughty	-1653
▁teach	-1654
▁Blue	-1655
bow	-1656
ract	-1657
▁naughty	-1658
▁bush	-1659
▁elephant	-1660
▁dropped	-1661
▁shap	-1662
ier	-1663
▁coll	-1664
sc	-1665
▁teac	-1666
▁woke	-1667
red	-1668
ball	-1669
▁pile	-1670
▁hiding	-1671
▁cour	-1672
▁Their	-1673
▁Whiskers	-1674
▁part	-1675
isa	-1676
erry	-1677
▁touc	-1678
▁min	-1679
▁puppy	-1680
▁seem	-1681
llie	-1682
▁twins	-1683
ama	-1684
▁lunch	-1685
▁bow	-1686
▁sack	-1687
▁Remy	-1688
▁pers	-1689
Tom	-1690
▁course	-1691
▁cheered	-1692
▁shapes	-1693
▁grew	-1694
▁Bella	-1695
fused	-1696
▁rope	-1697
▁village	-1698
irth	-1699
irthday	-1700
▁juice	-1701
ipped	-1702
▁rainbow	-1703
▁Lisa	-1704
▁spin	-1705
OK	-1706
▁Mark	-1707
▁shook	-1708
▁spoon	-1709
▁bench	-1710
▁street	-1711
▁fence	-1712
▁cute	-1713
▁Le	-1714
▁rob	-1715
▁nut	-1716
▁cheese	-1717
▁prob	-1718
▁touched	-1719
idge	-1720
col	-1721
▁joy	-1722
▁Jill	-1723
▁arrived	-1724
▁seed	-1725
▁war	-1726
▁teacher	-1727
▁corn	-1728
Good	-1729
▁forever	-1730
▁able	-1731
▁bell	-1732
▁few	-1733
▁carry	-1734
▁Grandma	-1735
▁most	-1736
▁plane	-1737
lem	-1738
▁eas	-1739
▁sounds	-1740
lla	-1741
▁des	-1742
▁spo	-1743
▁problem	-1744
▁birthday	-1745
▁inc	-1746
▁power	-1747
umb	-1748
br	-1749
▁bugs	-1750
ilk	-1751
▁wonderful	-1752
▁Thank	-1753
▁dolls	-1754
▁busy	-1755
ato	-1756
irp	-1757
▁wra	-1758
▁promise	-1759
▁feels	-1760
ian	-1761
eter	-1762
▁bread	-1763
ost	-1764
▁neck	-1765
▁milk	-1766
▁robot	-1767
▁rec	-1768
▁shy	-1769
ountain	-1770
▁kiss	-1771
▁band	-1772
▁cave	-1773
▁pocket	-1774
eb	-1775
ub	-1776
▁helpful	-1777
gly	-1778
▁slowly	-1779
▁believe	-1780
▁shake	-1781
umpy	-1782
eared	-1783
▁patient	-1784
▁pop	-1785
▁ob	-1786
arp	-1787
▁live	-1788
▁storm	-1789
▁Fred	-1790
▁holding	-1791
▁ugly	-1792
▁towards	-1793
▁upset	-1794
▁turt	-1795
▁shr	-1796
adow	-1797
▁cover	-1798
▁kitten	-1799
▁sharp	-1800
▁disapp	-1801
▁stories	-1802
▁suc	-1803
▁honey	-1804
ove	-1805
read	-1806
▁noises	-1807
▁cir	-1808
▁balls	-1809
▁Later	-1810
▁spark	-1811
▁gray	-1812
▁dist	-1813
▁dirt	-1814
oggy	-1815
▁late	-1816
▁driver	-1817
▁seat	-1818
▁bucket	-1819
▁meet	-1820
▁young	-1821
▁amazed	-1822
▁turtle	-1823
alm	-1824
▁spid	-1825
▁treats	-1826
▁Be	-1827
▁magical	-1828
unt	-1829
ator	-1830
▁glow	-1831
▁seek	-1832
▁zoom	-1833
▁lem	-1834
▁sandw	-1835
fortable	-1836
umber	-1837
▁trip	-1838
▁mist	-1839
▁splas	-1840
▁Leo	-1841
ourn	-1842
▁mark	-1843
▁journ	-1844
▁fold	-1845
▁mach	-1846
▁puzz	-1847
ling	-1848
▁horse	-1849
▁wild	-1850
▁organ	-1851
▁princess	-1852
pping	-1853
oose	-1854
▁cookie	-1855
ens	-1856
▁hugs	-1857
Lily	-1858
▁taking	-1859
ung	-1860
▁wheel	-1861
epend	-1862
▁cloth	-1863
▁sug	-1864
▁instead	-1865
▁bubb	-1866
▁string	-1867
▁net	-1868
▁drove	-1869
iling	-1870
▁rude	-1871
▁huge	-1872
▁coin	-1873
▁stars	-1874
▁fighting	-1875
▁spicy	-1876
▁lucky	-1877
Sure	-1878
Of	-1879
▁craw	-1880
Hey	-1881
▁bone	-1882
▁inv	-1883
ors	-1884
not	-1885
▁Mary	-1886
▁ca	-1887
pper	-1888
▁forget	-1889
up	-1890
▁di	-1891
aur	-1892
▁sal	-1893
ert	-1894
▁cannot	-1895
▁whistle	-1896
▁card	-1897
▁sick	-1898
▁path	-1899
▁cou	-1900
▁spider	-1901
▁wide	-1902
▁Mama	-1903
▁foot	-1904
▁snowman	-1905
▁life	-1906
▁songs	-1907
▁pillow	-1908
ize	-1909
▁Bu	-1910
▁fixed	-1911
▁Cat	-1912
est	-1913
▁giant	-1914
rill	-1915
▁cart	-1916
▁With	-1917
▁nod	-1918
▁boss	-1919
ular	-1920
▁last	-1921
▁comes	-1922
▁joke	-1923
▁Luna	-1924
▁moon	-1925
▁taste	-1926
den	-1927
▁machine	-1928
▁grumpy	-1929
▁Daddy	-1930
▁wave	-1931
▁thin	-1932
▁drive	-1933
▁ash	-1934
▁ser	-1935
▁grab	-1936
▁peace	-1937
▁daddy	-1938
ery	-1939
▁sel	-1940
▁shelf	-1941
▁hidden	-1942
erest	-1943
▁suddenly	-1944
▁wasn	-1945
▁write	-1946
▁landed	-1947
▁confused	-1948
lower	-1949
▁ring	-1950
▁change	-1951
▁worm	-1952
oop	-1953
▁interest	-1954
▁chased	-1955
▁fruits	-1956
▁sour	-1957
ity	-1958
▁myster	-1959
▁bark	-1960
▁rad	-1961
▁smooth	-1962
▁Come	-1963
▁adventures	-1964
▁val	-1965
▁stepped	-1966
▁fle	-1967
ope	-1968
▁oven	-1969
▁Chirp	-1970
▁takes	-1971
▁missed	-1972
let	-1973
▁selfish	-1974
kin	-1975
▁sheep	-1976
▁messy	-1977
▁across	-1978
▁ent	-1979
▁exp	-1980
to	-1981
▁ce	-1982
▁later	-1983
elly	-1984
ife	-1985
ever	-1986
▁sticks	-1987
▁tie	-1988
pect	-1989
▁step	-1990
▁bought	-1991
▁drew	-1992
▁ban	-1993
box	-1994
▁wash	-1995
▁lay	-1996
▁pour	-1997
ose	-1998
▁beak	-1999
▁jog	-2000
▁grate	-2001
▁Momo	-2002
▁ducks	-2003
▁spe	-2004
▁legs	-2005
ugg	-2006
▁fil	-2007
▁emp	-2008
mer	-2009
▁hope	-2010
▁tea	-2011
▁empty	-2012
▁slid	-2013
▁feather	-2014
▁shirt	-2015
▁sleepy	-2016
▁drum	-2017
amed	-2018
▁Chirpy	-2019
▁zoo	-2020
▁pan	-2021
eth	-2022
▁phone	-2023
▁grateful	-2024
▁fing	-2025
ions	-2026
▁Ollie	-2027
▁lemon	-2028
▁clever	-2029
▁smelly	-2030
▁imag	-2031
▁interesting	-2032
▁save	-2033
▁chick	-2034
▁calm	-2035
▁splash	-2036
▁med	-2037
▁watching	-2038
izzy	-2039
▁Jerry	-2040
izz	-2041
▁plate	-2042
▁ign	-2043
▁Bunny	-2044
yard	-2045
▁clouds	-2046
▁banan	-2047
▁line	-2048
▁faces	-2049
▁ba	-2050
▁act	-2051
▁though	-2052
▁wolf	-2053
▁backyard	-2054
wel	-2055
▁seemed	-2056
▁dogs	-2057
▁Jimmy	-2058
▁spray	-2059
▁Doggy	-2060
Come	-2061
▁prot	-2062
▁whole	-2063
▁mot	-2064
▁fancy	-2065
▁quest	-2066
▁arms	-2067
▁puzzle	-2068
▁healthy	-2069
▁supp	-2070
ward	-2071
▁finish	-2072
erly	-2073
▁along	-2074
llo	-2075
▁rocket	-2076
▁explain	-2077
ult	-2078
dge	-2079
▁easy	-2080
ont	-2081
▁jewel	-2082
▁pract	-2083
▁jelly	-2084
▁tid	-2085
▁fake	-2086
▁crayons	-2087
▁wondered	-2088
▁maybe	-2089
▁scar	-2090
▁ship	-2091
onest	-2092
▁emb	-2093
iger	-2094
▁pool	-2095
▁longer	-2096
▁St	-2097
▁anyone	-2098
ually	-2099
▁front	-2100
▁working	-2101
▁gives	-2102
irr	-2103
▁pack	-2104
▁such	-2105
▁nothing	-2106
ocked	-2107
ment	-2108
▁bossy	-2109
▁trouble	-2110
▁smelled	-2111
▁saved	-2112
▁pin	-2113
rass	-2114
▁neigh	-2115
St	-2116
arrass	-2117
iting	-2118
▁honest	-2119
▁av	-2120
arge	-2121
▁embarrass	-2122
▁lift	-2123
▁van	-2124
▁forgive	-2125
▁tidy	-2126
▁weak	-2127
urse	-2128
▁puts	-2129
unk	-2130
▁kick	-2131
▁Mum	-2132
▁mind	-2133
▁neighb	-2134
▁plants	-2135
▁Bobby	-2136
▁sol	-2137
▁gently	-2138
▁cozy	-2139
orrow	-2140
▁print	-2141
ming	-2142
▁explor	-2143
sp	-2144
▁mistake	-2145
▁yog	-2146
oc	-2147
oomy	-2148
▁pointed	-2149
▁lad	-2150
▁af	-2151
▁stood	-2152
ork	-2153
▁onto	-2154
▁jumping	-2155
▁waiting	-2156
▁prince	-2157
▁cross	-2158
▁lock	-2159
▁cheer	-2160
▁queen	-2161
▁Why	-2162
▁wing	-2163
ones	-2164
we	-2165
▁large	-2166
▁lovely	-2167
▁sur	-2168
▁ret	-2169
▁deer	-2170
▁chew	-2171
▁couch	-2172
▁bal	-2173
▁My	-2174
▁stret	-2175
aughter	-2176
era	-2177
▁places	-2178
Be	-2179
▁ladder	-2180
▁return	-2181
raid	-2182
▁Somet	-2183
▁ear	-2184
▁ants	-2185
▁dish	-2186
▁afraid	-2187
▁cleaned	-2188
▁tomorrow	-2189
▁building	-2190
▁sandwich	-2191
▁person	-2192
ek	-2193
ned	-2194
▁pretended	-2195
▁bounce	-2196
▁wip	-2197
gest	-2198
▁match	-2199
▁rich	-2200
uce	-2201
▁pizz	-2202
▁gather	-2203
▁search	-2204
▁boring	-2205
▁Tiny	-2206
oman	-2207
▁teeth	-2208
▁hum	-2209
aced	-2210
▁daughter	-2211
▁woman	-2212
▁scarf	-2213
▁goes	-2214
▁law	-2215
My	-2216
▁stra	-2217
▁swimming	-2218
▁furry	-2219
▁splashed	-2220
▁Al	-2221
▁pri	-2222
▁loves	-2223
▁true	-2224
▁Bird	-2225
▁screamed	-2226
▁lazy	-2227
▁gen	-2228
▁answer	-2229
▁eag	-2230
▁number	-2231
▁ashamed	-2232
▁pizza	-2233
aw	-2234
▁appeared	-2235
▁fear	-2236
▁nearby	-2237
▁powerful	-2238
▁flag	-2239
▁hang	-2240
vous	-2241
▁clown	-2242
▁chase	-2243
▁motor	-2244
▁wand	-2245
▁Benny	-2246
▁rub	-2247
▁success	-2248
▁chocol	-2249
▁If	-2250
▁creative	-2251
▁trust	-2252
▁wearing	-2253
▁noisy	-2254
▁matter	-2255
pa	-2256
▁dig	-2257
▁Ducky	-2258
▁hello	-2259
▁ner	-2260
▁tool	-2261
▁saf	-2262
ado	-2263
▁nervous	-2264
elp	-2265
▁test	-2266
▁smiling	-2267
▁sold	-2268
icked	-2269
oppy	-2270
osaur	-2271
▁circle	-2272
mb	-2273
Now	-2274
▁How	-2275
▁map	-2276
▁drank	-2277
▁class	-2278
▁tries	-2279
▁chocolate	-2280
▁Please	-2281
▁impress	-2282
▁knee	-2283
▁gener	-2284
▁dinosaur	-2285
▁polite	-2286
▁mirr	-2287
▁Go	-2288
▁balloons	-2289
▁gold	-2290
▁rare	-2291
▁protect	-2292
▁cand	-2293
Stop	-2294
▁Don	-2295
▁carried	-2296
ensive	-2297
▁ap	-2298
▁shadow	-2299
▁mirror	-2300
▁bald	-2301
▁gun	-2302
ina	-2303
▁expensive	-2304
▁reg	-2305
iff	-2306
▁mysterious	-2307
▁pump	-2308
▁note	-2309
▁hero	-2310
▁march	-2311
▁respect	-2312
▁har	-2313
arl	-2314
▁icy	-2315
▁weird	-2316
▁Bear	-2317
▁snee	-2318
▁cri	-2319
▁gate	-2320
▁soap	-2321
rag	-2322
ute	-2323
issors	-2324
▁poor	-2325
▁these	-2326
▁towel	-2327
▁whale	-2328
▁feet	-2329
▁tape	-2330
▁dizzy	-2331
itter	-2332
▁generous	-2333
ndpa	-2334
▁pres	-2335
nic	-2336
▁disco	-2337
Help	-2338
ventually	-2339
▁picnic	-2340
▁lead	-2341
▁mic	-2342
▁sque	-2343
▁Sometimes	-2344
▁embarrassed	-2345
▁journey	-2346
isp	-2347
▁sugar	-2348
scape	-2349
▁boot	-2350
▁tent	-2351
▁peaceful	-2352
▁fat	-2353
▁scissors	-2354
▁tasted	-2355
▁yelled	-2356
▁tick	-2357
▁mel	-2358
▁brush	-2359
▁Ella	-2360
▁dancing	-2361
ness	-2362
▁glue	-2363
▁hur	-2364
▁clap	-2365
▁rough	-2366
▁bridge	-2367
ote	-2368
▁decor	-2369
▁closet	-2370
▁crown	-2371
▁stir	-2372
▁Andy	-2373
ual	-2374
imp	-2375
owed	-2376
airs	-2377
ume	-2378
▁cap	-2379
▁lamp	-2380
▁vase	-2381
▁scare	-2382
lebr	-2383
▁relie	-2384
lves	-2385
any	-2386
▁eld	-2387
▁tele	-2388
▁celebr	-2389
▁gigg	-2390
▁whisp	-2391
▁log	-2392
▁blow	-2393
▁painted	-2394
▁sco	-2395
▁pay	-2396
erries	-2397
▁wis	-2398
▁berries	-2399
▁mixed	-2400
▁spread	-2401
▁wouldn	-2402
▁cage	-2403
▁bake	-2404
rob	-2405
getable	-2406
▁mountain	-2407
▁adm	-2408
▁drawing	-2409
▁become	-2410
▁Br	-2411
▁famous	-2412
▁knocked	-2413
▁bean	-2414
▁norm	-2415
▁vegetable	-2416
asp	-2417
▁kicked	-2418
ustr	-2419
▁shark	-2420
ser	-2421
▁incred	-2422
▁lose	-2423
▁normal	-2424
▁wrap	-2425
▁Some	-2426
ced	-2427
▁group	-2428
▁thick	-2429
▁fine	-2430
▁glass	-2431
▁ignor	-2432
oph	-2433
▁clock	-2434
▁team	-2435
▁Jenny	-2436
▁Pe	-2437
▁elderly	-2438
▁clear	-2439
▁corner	-2440
Max	-2441
▁frustr	-2442
▁mighty	-2443
robe	-2444
▁cone	-2445
▁incredible	-2446
ighed	-2447
▁moms	-2448
▁balance	-2449
▁sock	-2450
▁space	-2451
▁jam	-2452
ragile	-2453
▁fright	-2454
▁branches	-2455
▁organized	-2456
▁roar	-2457
port	-2458
▁sword	-2459
alous	-2460
▁guess	-2461
▁fool	-2462
▁sell	-2463
▁feed	-2464
▁Sammy	-2465
▁which	-2466
▁horn	-2467
Mommy	-2468
▁present	-2469
▁jealous	-2470
▁yarn	-2471
ony	-2472
▁fragile	-2473
▁burn	-2474
▁understood	-2475
▁mis	-2476
▁stubb	-2477
▁ter	-2478
Wh	-2479
▁frustrated	-2480
ray	-2481
▁hose	-2482
cient	-2483
Where	-2484
▁spent	-2485
▁shoe	-2486
▁taught	-2487
▁stubborn	-2488
▁twist	-2489
▁creature	-2490
▁chest	-2491
▁spoiled	-2492
▁relieved	-2493
▁ancient	-2494
▁Tr	-2495
ique	-2496
▁wake	-2497
▁fier	-2498
▁pray	-2499
▁fierce	-2500
▁eggs	-2501
▁cab	-2502
▁terri	-2503
▁barn	-2504
▁pumpkin	-2505
▁comfortable	-2506
▁ord	-2507
▁frightened	-2508
orry	-2509
▁toug	-2510
▁unique	-2511
▁measure	-2512
▁goat	-2513
▁wagon	-2514
▁unus	-2515
▁breath	-2516
▁foolish	-2517
▁'	-2518
▁useful	-2519
▁exploring	-2520
dle	-2521
▁straw	-2522
▁unusual	-2523
▁dug	-2524
▁clay	-2525
▁discover	-2526
▁tomato	-2527
▁dead	-2528
▁finding	-2529
▁police	-2530
▁wrote	-2531
▁clum	-2532
ym	-2533
▁exam	-2534
lace	-2535
▁Rex	-2536
▁waves	-2537
▁square	-2538
▁hears	-2539
▁cabin	-2540
▁tells	-2541
▁necklace	-2542
▁dull	-2543
▁clumsy	-2544
▁tough	-2545
▁bubbles	-2546
▁nosy	-2547
kn	-2548
▁searched	-2549
▁washed	-2550
▁bathroom	-2551
▁paws	-2552
▁Will	-2553
bby	-2554
ond	-2555
unn	-2556
anged	-2557
▁board	-2558
known	-2559
fic	-2560
▁asking	-2561
▁crazy	-2562
▁thankful	-2563
▁sunf	-2564
▁bitter	-2565
yal	-2566
▁pir	-2567
alk	-2568
▁ind	-2569
▁diffic	-2570
berry	-2571
▁rose	-2572
cil	-2573
▁swan	-2574
▁bloom	-2575
▁unknown	-2576
▁covered	-2577
▁difficult	-2578
▁add	-2579
▁pencil	-2580
▁finger	-2581
▁ham	-2582
▁hoop	-2583
▁jet	-2584
▁witch	-2585
▁drop	-2586
▁chicken	-2587
▁gloomy	-2588
apped	-2589
▁loyal	-2590
als	-2591
▁wealthy	-2592
com	-2593
light	-2594
▁Many	-2595
▁unl	-2596
▁cats	-2597
▁ending	-2598
▁guit	-2599
bled	-2600
Here	-2601
shine	-2602
▁dove	-2603
▁sort	-2604
▁joined	-2605
▁cher	-2606
anut	-2607
▁mov	-2608
▁terrible	-2609
▁yours	-2610
iant	-2611
▁salad	-2612
▁nuts	-2613
▁rat	-2614
▁lif	-2615
ground	-2616
▁tiger	-2617
▁potato	-2618
▁mask	-2619
xible	-2620
selves	-2621
▁value	-2622
▁changed	-2623
▁Brown	-2624
▁moving	-2625
▁exciting	-2626
ormous	-2627
▁body	-2628
▁Instead	-2629
▁toast	-2630
▁record	-2631
erp	-2632
▁zip	-2633
▁cheap	-2634
▁disg	-2635
▁guitar	-2636
irsty	-2637
▁knowing	-2638
▁adventur	-2639
▁yourself	-2640
▁enormous	-2641
▁hairy	-2642
▁shoot	-2643
▁bored	-2644
▁pepper	-2645
▁remind	-2646
ory	-2647
▁acorn	-2648
land	-2649
▁adventurous	-2650
▁sunshine	-2651
▁smaller	-2652
▁hats	-2653
▁stuff	-2654
▁solve	-2655
▁flexible	-2656
▁cost	-2657
rilliant	-2658
▁knife	-2659
▁perform	-2660
▁snacks	-2661
▁nods	-2662
▁shore	-2663
▁brilliant	-2664
▁thirsty	-2665
▁delicate	-2666
▁No	-2667
▁frown	-2668
▁disgust	-2669
▁collect	-2670
▁stri	-2671
▁seeds	-2672
▁counted	-2673
▁asleep	-2674
▁banana	-2675
reen	-2676
▁mailbox	-2677
iness	-2678
▁trick	-2679
▁dough	-2680
▁neighbor	-2681
Ben	-2682
ungle	-2683
▁heal	-2684
ilt	-2685
Who	-2686
live	-2687
▁Little	-2688
▁stage	-2689
ident	-2690
▁market	-2691
▁cube	-2692
▁stat	-2693
▁jungle	-2694
▁squee	-2695
mbre	-2696
▁explained	-2697
ates	-2698
▁umbre	-2699
Me	-2700
▁disgusting	-2701
▁lab	-2702
▁jolly	-2703
und	-2704
inal	-2705
▁fridge	-2706
▁crane	-2707
corn	-2708
▁suit	-2709
▁flash	-2710
pid	-2711
iddle	-2712
▁sunflower	-2713
ict	-2714
▁times	-2715
erpill	-2716
▁caterpill	-2717
▁relax	-2718
▁shiver	-2719
▁four	-2720
▁island	-2721
iginal	-2722
▁harm	-2723
ying	-2724
▁stupid	-2725
▁medic	-2726
▁comb	-2727
▁goose	-2728
▁cro	-2729
edient	-2730
▁Jake	-2731
▁stove	-2732
If	-2733
Are	-2734
▁independ	-2735
most	-2736
▁spring	-2737
▁gem	-2738
▁batter	-2739
▁sighed	-2740
▁vegetables	-2741
▁Your	-2742
▁stones	-2743
pes	-2744
▁shine	-2745
▁medicine	-2746
▁depend	-2747
▁rug	-2748
▁careless	-2749
▁original	-2750
▁stamp	-2751
▁gar	-2752
▁cries	-2753
gu	-2754
▁carrots	-2755
▁scr	-2756
▁successful	-2757
▁sauce	-2758
▁jeep	-2759
▁popcorn	-2760
▁meal	-2761
▁obedient	-2762
▁almost	-2763
▁middle	-2764
▁magn	-2765
▁study	-2766
▁independent	-2767
▁Emily	-2768
▁fearful	-2769
▁jack	-2770
met	-2771
inky	-2772
Sorry	-2773
▁escape	-2774
▁caterpillar	-2775
▁serious	-2776
▁peanut	-2777
▁bedroom	-2778
▁eager	-2779
aken	-2780
▁gets	-2781
▁parrot	-2782
▁statue	-2783
▁helmet	-2784
▁pebb	-2785
▁fountain	-2786
▁Today	-2787
▁ang	-2788
▁raven	-2789
▁pasta	-2790
▁umbrella	-2791
▁compet	-2792
arth	-2793
▁jacket	-2794
▁belonged	-2795
▁dest	-2796
▁filthy	-2797
▁design	-2798
▁borrow	-2799
▁cam	-2800
erable	-2801
▁houses	-2802
▁belt	-2803
▁prize	-2804
▁hay	-2805
▁brace	-2806
▁standing	-2807
▁miserable	-2808
▁bracelet	-2809
▁raced	-2810
▁taken	-2811
ages	-2812
▁fork	-2813
▁crayon	-2814
▁painting	-2815
▁triang	-2816
io	-2817
▁impressive	-2818
▁choose	-2819
▁fig	-2820
▁point	-2821
▁tied	-2822
iable	-2823
▁spotted	-2824
▁lifted	-2825
▁slipped	-2826
ours	-2827
▁tank	-2828
▁thoughtful	-2829
▁dependable	-2830
▁steal	-2831
▁garage	-2832
▁built	-2833
▁er	-2834
ipe	-2835
▁Sn	-2836
▁mole	-2837
▁crawled	-2838
▁scale	-2839
▁boats	-2840
▁pant	-2841
▁pian	-2842
▁hammer	-2843
▁bottom	-2844
▁True	-2845
▁cheerful	-2846
lph	-2847
▁using	-2848
▁Peter	-2849
▁smoke	-2850
▁picks	-2851
Sam	-2852
▁moder	-2853
▁shows	-2854
berries	-2855
rn	-2856
▁piano	-2857
▁magnet	-2858
dile	-2859
codile	-2860
▁hurts	-2861
inary	-2862
▁ref	-2863
▁crack	-2864
▁eng	-2865
oin	-2866
▁aunt	-2867
▁melon	-2868
▁Even	-2869
▁waff	-2870
▁modern	-2871
▁dolph	-2872
unnel	-2873
cream	-2874
pack	-2875
▁tunnel	-2876
▁arrow	-2877
▁mush	-2878
▁reliable	-2879
▁hopping	-2880
▁mushroom	-2881
▁jug	-2882
▁squash	-2883
▁gum	-2884
▁sink	-2885
▁movie	-2886
▁tax	-2887
▁flute	-2888
▁beet	-2889
▁lean	-2890
iv	-2891
▁popular	-2892
icop	-2893
icopter	-2894
▁cryst	-2895
▁ones	-2896
▁sil	-2897
▁competit	-2898
▁helicopter	-2899
aser	-2900
▁needs	-2901
ipop	-2902
llipop	-2903
▁crocodile	-2904
▁liz	-2905
▁press	-2906
▁troubled	-2907
▁pige	-2908
▁locked	-2909
▁tricks	-2910
▁lollipop	-2911
▁playful	-2912
▁humble	-2913
▁taxi	-2914
▁kissed	-2915
appy	-2916
▁low	-2917
comfortable	-2918
amond	-2919
▁rid	-2920
▁uncomfortable	-2921
host	-2922
▁wander	-2923
atch	-2924
▁angel	-2925
edy	-2926
cles	-2927
▁torn	-2928
▁grace	-2929
▁anx	-2930
▁wrapped	-2931
▁muff	-2932
▁twig	-2933
▁pants	-2934
▁disappoin	-2935
▁helps	-2936
▁diamond	-2937
▁camera	-2938
oto	-2939
▁anxious	-2940
▁ghost	-2941
atter	-2942
▁ruined	-2943
How	-2944
▁tears	-2945
▁Sus	-2946
cident	-2947
ilty	-2948
▁quar	-2949
aff	-2950
▁fis	-2951
opl	-2952
eropl	-2953
▁env	-2954
▁guilty	-2955
▁bull	-2956
▁aeropl	-2957
▁helpless	-2958
▁happiness	-2959
▁lizard	-2960
▁boys	-2961
cut	-2962
▁cere	-2963
▁walks	-2964
cean	-2965
▁passed	-2966
tt	-2967
▁meant	-2968
▁ocean	-2969
▁fluffy	-2970
▁wire	-2971
▁nail	-2972
▁deaf	-2973
zed	-2974
▁stretch	-2975
▁cact	-2976
▁candle	-2977
▁beetle	-2978
▁mop	-2979
▁harmless	-2980
umpet	-2981
▁ordinary	-2982
▁answered	-2983
▁cop	-2984
▁collar	-2985
▁bees	-2986
▁tire	-2987
▁shape	-2988
▁quarrel	-2989
▁radio	-2990
▁flashlight	-2991
▁crystal	-2992
▁harder	-2993
▁poured	-2994
▁trumpet	-2995
▁engine	-2996
▁persist	-2997
▁hunt	-2998
▁tooth	-2999
▁cereal	-3000
▁invited	-3001
▁comput	-3002
▁tag	-3003
▁office	-3004
▁melt	-3005
▁charm	-3006
▁spill	-3007
coa	-3008
▁lit	-3009
▁scoot	-3010
▁comet	-3011
▁triangle	-3012
ief	-3013
▁mug	-3014
▁rep	-3015
ube	-3016
▁yogurt	-3017
▁spend	-3018
▁compass	-3019
▁accident	-3020
▁shade	-3021
▁Pipp	-3022
hett	-3023
aghett	-3024
aghetti	-3025
▁disappointed	-3026
▁licked	-3027
▁cactus	-3028
▁pale	-3029
▁cush	-3030
▁figure	-3031
▁giving	-3032
▁regular	-3033
▁avoc	-3034
▁sheet	-3035
▁whispered	-3036
▁Poppy	-3037
aze	-3038
uth	-3039
ellig	-3040
▁Dan	-3041
▁create	-3042
▁barber	-3043
▁intellig	-3044
▁pipe	-3045
▁rode	-3046
▁roof	-3047
▁thread	-3048
ither	-3049
▁vi	-3050
▁libr	-3051
▁load	-3052
▁gifted	-3053
ccol	-3054
▁practiced	-3055
▁delight	-3056
ccoli	-3057
▁harsh	-3058
▁pow	-3059
asses	-3060
▁dust	-3061
▁bicy	-3062
azz	-3063
▁spaghetti	-3064
▁compassion	-3065
▁sailed	-3066
urkey	-3067
▁forward	-3068
ubby	-3069
▁persistent	-3070
▁speed	-3071
▁mitten	-3072
▁pro	-3073
▁cocoa	-3074
▁envel	-3075
▁Buzz	-3076
▁questions	-3077
▁computer	-3078
▁coo	-3079
▁feathers	-3080
▁glove	-3081
ging	-3082
▁rice	-3083
▁shrimp	-3084
▁desk	-3085
▁stream	-3086
▁inse	-3087
▁pigeon	-3088
▁charming	-3089
hip	-3090
▁ears	-3091
▁carp	-3092
lcan	-3093
▁envious	-3094
▁knot	-3095
▁turkey	-3096
▁stronger	-3097
omes	-3098
▁coins	-3099
▁tap	-3100
▁raft	-3101
lcano	-3102
weet	-3103
▁trap	-3104
▁Polly	-3105
umbers	-3106
▁aeroplane	-3107
▁trunk	-3108
▁wheat	-3109
▁boxes	-3110
▁carpet	-3111
▁chubby	-3112
▁restless	-3113
▁intelligent	-3114
▁tube	-3115
▁spun	-3116
▁dreams	-3117
▁half	-3118
▁friendship	-3119
ulif	-3120
olin	-3121
▁Mummy	-3122
▁loop	-3123
▁crawl	-3124
▁broccoli	-3125
▁onion	-3126
▁week	-3127
▁deliver	-3128
▁acce	-3129
▁vide	-3130
▁volcano	-3131
▁sle	-3132
▁track	-3133
▁bri	-3134
▁caulif	-3135
▁vine	-3136
ye	-3137
▁ticket	-3138
▁thief	-3139
essie	-3140
cycle	-3141
▁louder	-3142
▁insect	-3143
▁numbers	-3144
asing	-3145
▁yaw	-3146
▁haircut	-3147
ital	-3148
▁sleeping	-3149
▁Alice	-3150
▁mill	-3151
▁alert	-3152
▁eventually	-3153
▁excite	-3154
▁pebble	-3155
▁hosp	-3156
▁attract	-3157
▁planet	-3158
anger	-3159
▁univer	-3160
isted	-3161
ulu	-3162
▁eraser	-3163
▁hospital	-3164
▁returned	-3165
▁destro	-3166
▁graceful	-3167
▁happening	-3168
▁Bet	-3169
ache	-3170
▁OK	-3171
▁decide	-3172
▁learning	-3173
▁screen	-3174
rework	-3175
▁nicely	-3176
▁leop	-3177
▁cauliflower	-3178
▁competitive	-3179
▁poem	-3180
▁celebrate	-3181
▁Pet	-3182
acht	-3183
▁curt	-3184
▁peach	-3185
▁soldier	-3186
▁saus	-3187
▁parade	-3188
atient	-3189
▁attractive	-3190
▁curtain	-3191
▁base	-3192
▁dolphin	-3193
▁violin	-3194
▁ways	-3195
▁travel	-3196
ats	-3197
▁rod	-3198
▁ignorant	-3199
ulb	-3200
▁wheels	-3201
▁yacht	-3202
▁scatter	-3203
▁deter	-3204
▁compassionate	-3205
▁barrel	-3206
▁envelope	-3207
▁bubble	-3208
▁lying	-3209
▁firework	-3210
Go	-3211
▁Lulu	-3212
▁question	-3213
zzy	-3214
▁scooter	-3215
▁determ	-3216
▁rag	-3217
▁thu	-3218
▁bicycle	-3219
elery	-3220
▁needle	-3221
▁judge	-3222
▁bulb	-3223
▁leopard	-3224
▁tem	-3225
▁pony	-3226
▁cricket	-3227
▁homes	-3228
▁order	-3229
▁ador	-3230
tern	-3231
▁truth	-3232
▁hook	-3233
dom	-3234
▁rubbed	-3235
igator	-3236
▁bushes	-3237
▁uncle	-3238
▁Miss	-3239
▁cushion	-3240
▁spell	-3241
▁grown	-3242
Sue	-3243
▁cooked	-3244
▁adorable	-3245
▁chalk	-3246
▁soar	-3247
▁purse	-3248
▁skin	-3249
▁themselves	-3250
▁impatient	-3251
▁celery	-3252
▁tray	-3253
▁Sh	-3254
▁shells	-3255
▁pengu	-3256
▁sniff	-3257
▁prun	-3258
▁walls	-3259
▁seal	-3260
▁Pete	-3261
▁lively	-3262
▁case	-3263
▁alligator	-3264
▁distant	-3265
▁radish	-3266
▁saying	-3267
▁speak	-3268
▁motorcycle	-3269
▁Tina	-3270
▁meat	-3271
▁send	-3272
▁Birdy	-3273
▁spinning	-3274
▁forth	-3275
illa	-3276
▁counting	-3277
▁enth	-3278
▁bounced	-3279
▁chain	-3280
▁ed	-3281
▁cleaning	-3282
ebra	-3283
▁film	-3284
▁slept	-3285
▁pit	-3286
▁surf	-3287
▁marry	-3288
usia	-3289
▁wallet	-3290
▁enthusia	-3291
▁metal	-3292
urb	-3293
ebook	-3294
▁bin	-3295
▁notebook	-3296
▁skip	-3297
▁wiped	-3298
ision	-3299
chair	-3300
▁biggest	-3301
▁impro	-3302
▁avocado	-3303
▁behave	-3304
▁destroy	-3305
vator	-3306
▁Fo	-3307
▁bandage	-3308
▁laughs	-3309
▁steak	-3310
▁pattern	-3311
▁post	-3312
▁elevator	-3313
▁dive	-3314
▁shut	-3315
▁skipped	-3316
▁unlock	-3317
▁diary	-3318
dest	-3319
ject	-3320
▁mint	-3321
▁zebra	-3322
▁bags	-3323
ating	-3324
▁armchair	-3325
rage	-3326
aged	-3327
▁disturb	-3328
▁oy	-3329
▁pole	-3330
▁showing	-3331
▁club	-3332
▁gathered	-3333
▁nurse	-3334
bul	-3335
▁earth	-3336
▁enc	-3337
Sp	-3338
▁stranger	-3339
▁sweater	-3340
▁jellyfish	-3341
▁Susie	-3342
▁screw	-3343
▁Rob	-3344
▁temp	-3345
▁compl	-3346
▁mixer	-3347
Give	-3348
▁skull	-3349
▁bump	-3350
▁lime	-3351
bulance	-3352
▁Cl	-3353
▁ambulance	-3354
nam	-3355
▁father	-3356
▁journal	-3357
▁loudly	-3358
ito	-3359
▁folder	-3360
▁shield	-3361
▁library	-3362
▁buttons	-3363
▁playground	-3364
▁trucks	-3365
▁ink	-3366
▁lights	-3367
▁tummy	-3368
▁pointing	-3369
▁city	-3370
▁decorate	-3371
▁station	-3372
irit	-3373
▁prep	-3374
▁falls	-3375
quito	-3376
▁fu	-3377
ention	-3378
nger	-3379
▁Rose	-3380
▁herb	-3381
nament	-3382
▁ornament	-3383
▁modest	-3384
▁guard	-3385
lies	-3386
▁mos	-3387
▁knows	-3388
▁cord	-3389
▁polish	-3390
▁marble	-3391
▁mosquito	-3392
umbled	-3393
▁salt	-3394
▁attic	-3395
▁vest	-3396
▁whenever	-3397
ctop	-3398
▁resc	-3399
▁yet	-3400
▁ple	-3401
▁disappeared	-3402
oby	-3403
ceed	-3404
▁once	-3405
▁strawberry	-3406
▁kay	-3407
▁brothers	-3408
▁itch	-3409
▁pirate	-3410
▁football	-3411
▁split	-3412
kele	-3413
keleton	-3414
▁hipp	-3415
▁aut	-3416
▁led	-3417
uring	-3418
ctopus	-3419
▁driving	-3420
▁cable	-3421
▁support	-3422
▁calling	-3423
▁cupboard	-3424
aky	-3425
▁Sunny	-3426
ushed	-3427
▁wishes	-3428
▁complet	-3429
▁tripped	-3430
▁Tweet	-3431
▁People	-3432
▁root	-3433
▁kayak	-3434
▁octopus	-3435
obile	-3436
▁added	-3437
▁edge	-3438
▁mild	-3439
stic	-3440
▁determined	-3441
▁succeed	-3442
?".	-3443
▁reading	-3444
▁coal	-3445
omobile	-3446
▁sung	-3447
utes	-3448
▁suggest	-3449
par	-3450
Well	-3451
▁stack	-3452
▁thunder	-3453
▁kindness	-3454
▁automobile	-3455
▁complain	-3456
▁enthusiastic	-3457
▁sneeze	-3458
▁cartoon	-3459
▁yoga	-3460
▁growl	-3461
htub	-3462
▁flea	-3463
▁meadow	-3464
▁drawer	-3465
▁bathtub	-3466
▁ribb	-3467
ophone	-3468
▁golf	-3469
▁hall	-3470
▁means	-3471
▁skeleton	-3472
▁Betty	-3473
▁math	-3474
▁veil	-3475
▁hunter	-3476
Re	-3477
▁gor	-3478
▁flame	-3479
▁poke	-3480
▁video	-3481
▁chess	-3482
▁cups	-3483
▁glowing	-3484
▁matt	-3485
▁oyster	-3486
work	-3487
▁penny	-3488
▁spear	-3489
lasses	-3490
▁itself	-3491
essert	-3492
▁drawings	-3493
▁hippo	-3494
▁repair	-3495
▁switch	-3496
▁sunglasses	-3497
▁teleph	-3498
▁costume	-3499
▁dessert	-3500
▁zipp	-3501
▁repe	-3502
▁muffin	-3503
▁arg	-3504
▁pastry	-3505
▁pun	-3506
▁rolling	-3507
▁minutes	-3508
▁makeup	-3509
▁packed	-3510
iron	-3511
ric	-3512
▁waffle	-3513
case	-3514
▁handle	-3515
▁maze	-3516
▁pear	-3517
▁telephone	-3518
▁Toby	-3519
ophy	-3520
▁pine	-3521
ait	-3522
▁Pippin	-3523
▁gear	-3524
▁hedge	-3525
▁mattress	-3526
▁package	-3527
aving	-3528
▁shocked	-3529
ines	-3530
▁trophy	-3531
▁powder	-3532
▁knight	-3533
▁cob	-3534
▁Bessie	-3535
▁missile	-3536
▁frame	-3537
▁managed	-3538
▁encou	-3539
▁wife	-3540
Spot	-3541
▁ok	-3542
▁separ	-3543
web	-3544
▁stairs	-3545
▁rot	-3546
▁camp	-3547
time	-3548
urch	-3549
rophone	-3550
▁magaz	-3551
▁colour	-3552
▁strugg	-3553
▁grapes	-3554
old	-3555
▁file	-3556
head	-3557
▁basketball	-3558
Bye	-3559
per	-3560
▁cobweb	-3561
▁perm	-3562
▁wool	-3563
▁microphone	-3564
esday	-3565
▁eye	-3566
▁leash	-3567
▁gasp	-3568
iew	-3569
keep	-3570
▁weep	-3571
▁Spike	-3572
▁barking	-3573
ature	-3574
▁safely	-3575
▁tear	-3576
▁Snow	-3577
▁view	-3578
▁slides	-3579
offe	-3580
▁steps	-3581
istol	-3582
offee	-3583
▁bananas	-3584
▁staff	-3585
▁spirit	-3586
▁task	-3587
▁giggled	-3588
▁hoc	-3589
▁Look	-3590
▁hockey	-3591
▁vend	-3592
▁those	-3593
▁gorilla	-3594
▁cooler	-3595
was	-3596
cing	-3597
▁early	-3598
▁marched	-3599
rosc	-3600
washer	-3601
▁flour	-3602
▁hotel	-3603
▁sailor	-3604
▁Mar	-3605
hic	-3606
▁photo	-3607
roscope	-3608
▁vehic	-3609
ilot	-3610
▁oft	-3611
▁often	-3612
▁church	-3613
▁cooking	-3614
▁remain	-3615
▁Next	-3616
hin	-3617
▁five	-3618
▁Mrs	-3619
otter	-3620
▁sausage	-3621
▁ten	-3622
▁tools	-3623
See	-3624
▁medal	-3625
▁either	-3626
▁fireman	-3627
chor	-3628
▁grandpa	-3629
▁otter	-3630
▁baseball	-3631
▁pistol	-3632
▁pretending	-3633
▁dishwasher	-3634
▁rever	-3635
▁organize	-3636
▁pee	-3637
▁vendor	-3638
▁knock	-3639
▁sight	-3640
▁grill	-3641
▁temple	-3642
▁battery	-3643
▁thinking	-3644
▁opens	-3645
▁ow	-3646
▁Kim	-3647
▁Grandpa	-3648
▁realised	-3649
▁iron	-3650
▁laser	-3651
▁sne	-3652
▁oil	-3653
▁sandbox	-3654
▁patch	-3655
▁hours	-3656
▁rise	-3657
▁whip	-3658
ne	-3659
ctory	-3660
▁Give	-3661
▁anchor	-3662
▁trash	-3663
▁skirt	-3664
ense	-3665
▁short	-3666
ney	-3667
▁rhin	-3668
▁factory	-3669
seum	-3670
▁may	-3671
▁ward	-3672
ately	-3673
▁cardboard	-3674
ugged	-3675
▁lotion	-3676
▁message	-3677
▁valu	-3678
▁wardrobe	-3679
▁cell	-3680
▁museum	-3681
apers	-3682
▁ur	-3683
ination	-3684
▁hanging	-3685
eer	-3686
ucet	-3687
ailable	-3688
▁hive	-3689
▁towers	-3690
keeper	-3691
▁blackboard	-3692
▁mem	-3693
loo	-3694
▁excitement	-3695
▁pilot	-3696
▁coffee	-3697
ready	-3698
▁napkin	-3699
▁penguin	-3700
▁check	-3701
▁reward	-3702
ron	-3703
▁quit	-3704
▁cane	-3705
▁picking	-3706
place	-3707
azor	-3708
▁ig	-3709
▁faucet	-3710
▁passport	-3711
▁stumbled	-3712
▁dreamed	-3713
▁igloo	-3714
enny	-3715
aroo	-3716
angaroo	-3717
▁freez	-3718
▁juicy	-3719
▁allowed	-3720
play	-3721
▁holds	-3722
▁already	-3723
▁available	-3724
▁sett	-3725
▁bathe	-3726
▁Everywhere	-3727
▁tornado	-3728
imney	-3729
▁fingers	-3730
htray	-3731
▁hanger	-3732
▁newsp	-3733
▁size	-3734
▁laund	-3735
▁lend	-3736
▁Before	-3737
▁chimney	-3738
▁laundry	-3739
▁oak	-3740
▁fisher	-3741
▁kangaroo	-3742
▁men	-3743
▁telling	-3744
▁novel	-3745
body	-3746
▁mummy	-3747
▁pal	-3748
▁mule	-3749
▁cherries	-3750
▁notice	-3751
▁practice	-3752
▁spilled	-3753
▁reind	-3754
▁complete	-3755
▁enjoying	-3756
▁microscope	-3757
ampoo	-3758
▁gain	-3759
▁sub	-3760
▁fireplace	-3761
▁imagine	-3762
anda	-3763
▁display	-3764
ocer	-3765
▁fastest	-3766
▁magazine	-3767
▁hurry	-3768
▁cabinet	-3769
▁shrink	-3770
▁Teddy	-3771
▁ashtray	-3772
Wait	-3773
▁cows	-3774
gen	-3775
▁palace	-3776
▁improve	-3777
aches	-3778
▁rake	-3779
arian	-3780
▁reindeer	-3781
▁falling	-3782
ilet	-3783
oceros	-3784
ured	-3785
▁Mandy	-3786
▁discovered	-3787
▁stared	-3788
▁roared	-3789
aid	-3790
▁silver	-3791
▁tub	-3792
▁trail	-3793
▁miner	-3794
There	-3795
come	-3796
▁bill	-3797
▁fog	-3798
iction	-3799
▁ax	-3800
stairs	-3801
▁hut	-3802
▁happier	-3803
▁toilet	-3804
▁taller	-3805
ictionary	-3806
▁oats	-3807
▁fisherman	-3808
▁object	-3809
▁por	-3810
vision	-3811
▁valuable	-3812
▁shampoo	-3813
▁Here	-3814
▁holes	-3815
▁offered	-3816
▁boots	-3817
▁rhinoceros	-3818
▁names	-3819
▁Dolly	-3820
▁climbing	-3821
▁blin	-3822
vice	-3823
▁stretched	-3824
iest	-3825
▁zipper	-3826
Is	-3827
▁listening	-3828
▁sym	-3829
▁bathrobe	-3830
alend	-3831
▁jewelry	-3832
▁jokes	-3833
▁television	-3834
▁prov	-3835
▁calend	-3836
▁stops	-3837
▁axe	-3838
▁jumps	-3839
▁fuel	-3840
cu	-3841
▁sparkly	-3842
▁perfume	-3843
▁bury	-3844
bol	-3845
▁pressed	-3846
Ow	-3847
lu	-3848
reek	-3849
▁rece	-3850
▁neat	-3851
▁creek	-3852
▁popped	-3853
▁opera	-3854
▁calendar	-3855
▁snap	-3856
▁attach	-3857
▁gasped	-3858
▁symbol	-3859
▁tuna	-3860
▁papers	-3861
▁unpack	-3862
▁resist	-3863
▁dictionary	-3864
▁subway	-3865
▁letters	-3866
▁freezer	-3867
▁chose	-3868
▁pinch	-3869
▁Mike	-3870
zag	-3871
▁spoke	-3872
▁anyway	-3873
▁super	-3874
▁porch	-3875
▁helper	-3876
affe	-3877
▁bikes	-3878
▁lie	-3879
iches	-3880
▁comfort	-3881
▁tightly	-3882
▁shaking	-3883
▁bookcase	-3884
▁Pandy	-3885
▁Are	-3886
▁son	-3887
▁razor	-3888
aurant	-3889
▁sandwiches	-3890
arry	-3891
▁ext	-3892
igzag	-3893
▁weigh	-3894
▁against	-3895
▁stickers	-3896
▁restaurant	-3897
▁newspaper	-3898
▁blouse	-3899
te	-3900
▁vehicle	-3901
▁swinging	-3902
▁ped	-3903
▁disag	-3904
▁nature	-3905
▁squirrels	-3906
ival	-3907
▁belongs	-3908
▁swamp	-3909
▁butterflies	-3910
▁gym	-3911
del	-3912
▁inclu	-3913
▁growing	-3914
▁buckle	-3915
omed	-3916
▁stirred	-3917
▁mustache	-3918
▁billboard	-3919
▁beep	-3920
xy	-3921
▁alarm	-3922
▁lip	-3923
▁fest	-3924
▁lightning	-3925
▁hung	-3926
utor	-3927
▁distance	-3928
▁cards	-3929
ogn	-3930
▁obser	-3931
▁agree	-3932
▁tease	-3933
▁recogn	-3934
▁rubber	-3935
ik	-3936
▁sof	-3937
▁hate	-3938
fast	-3939
▁doesn	-3940
▁musician	-3941
▁advice	-3942
▁fort	-3943
▁beef	-3944
▁serve	-3945
Ouch	-3946
aspoon	-3947
▁sweetie	-3948
ef	-3949
▁model	-3950
lter	-3951
▁crib	-3952
▁blueberries	-3953
▁sofa	-3954
▁circles	-3955
▁breakfast	-3956
▁tutor	-3957
asis	-3958
▁bookshe	-3959
▁Ellie	-3960
▁giraffe	-3961
stri	-3962
▁festival	-3963
▁separate	-3964
▁shelter	-3965
▁gas	-3966
▁airport	-3967
▁olive	-3968
▁Co	-3969
▁Dave	-3970
▁rail	-3971
▁bookshelf	-3972
▁frogs	-3973
▁teaspoon	-3974
▁reverse	-3975
▁junk	-3976
▁riding	-3977
▁pleased	-3978
▁drain	-3979
▁wipe	-3980
▁oasis	-3981
▁soil	-3982
▁ahead	-3983
▁rescue	-3984
▁leaving	-3985
▁Bill	-3986
ummer	-3987
▁Bubb	-3988
▁painter	-3989
▁chance	-3990
▁squeeze	-3991
▁knob	-3992
▁poked	-3993
▁peeked	-3994
▁lumber	-3995
Dad	-3996
▁trains	-3997
la	-3998
▁extra	-3999
▁slipp	-4000
▁Johnny	-4001
▁quiz	-4002
▁refused	-4003
res	-4004
rmomet	-4005
▁page	-4006
▁rules	-4007
▁happens	-4008
▁ins	-4009
▁sounded	-4010
▁winter	-4011
▁dancer	-4012
▁birdc	-4013
▁disappear	-4014
rmometer	-4015
▁Carl	-4016
▁waste	-4017
▁weather	-4018
▁birdcage	-4019
▁lic	-4020
▁reef	-4021
▁theater	-4022
▁carrying	-4023
▁Spe	-4024
▁invite	-4025
▁Bow	-4026
iform	-4027
▁goal	-4028
▁ostri	-4029
▁swung	-4030
▁uniform	-4031
▁trade	-4032
▁cliff	-4033
ience	-4034
▁lawn	-4035
ola	-4036
▁leaned	-4037
angu	-4038
▁accept	-4039
▁Boun	-4040
They	-4041
▁admire	-4042
▁accidentally	-4043
▁pastel	-4044
▁stom	-4045
▁Lee	-4046
▁langu	-4047
na	-4048
▁twir	-4049
▁suff	-4050
▁panda	-4051
▁bet	-4052
riger	-4053
rigerator	-4054
▁peek	-4055
render	-4056
▁blinked	-4057
▁starts	-4058
▁refrigerator	-4059
▁anywhere	-4060
!".	-4061
▁imagined	-4062
▁dreaming	-4063
▁remove	-4064
night	-4065
▁shower	-4066
▁ceiling	-4067
▁classroom	-4068
▁Buzzy	-4069
▁caring	-4070
ium	-4071
▁Soph	-4072
▁Where	-4073
▁grand	-4074
▁Jazz	-4075
▁missing	-4076
aked	-4077
▁license	-4078
▁stable	-4079
▁Big	-4080
▁monkeys	-4081
▁thermometer	-4082
astic	-4083
▁warned	-4084
▁summer	-4085
▁above	-4086
▁brick	-4087
ected	-4088
▁cudd	-4089
med	-4090
▁Pat	-4091
▁problems	-4092
amber	-4093
▁chasing	-4094
▁apron	-4095
▁label	-4096
▁sent	-4097
iture	-4098
▁lawy	-4099
urniture	-4100
▁lid	-4101
uggage	-4102
▁Binky	-4103
▁respectful	-4104
▁furniture	-4105
▁frowned	-4106
▁zoomed	-4107
▁pages	-4108
▁prevent	-4109
▁bent	-4110
▁Eventually	-4111
▁luggage	-4112
▁Red	-4113
▁Lola	-4114
▁mistakes	-4115
▁sunset	-4116
▁ostrich	-4117
He	-4118
ison	-4119
▁suggested	-4120
▁windows	-4121
ations	-4122
▁jail	-4123
▁wine	-4124
▁Freddy	-4125
▁ribbon	-4126
▁older	-4127
▁shouts	-4128
▁grape	-4129
▁wigg	-4130
ucture	-4131
▁structure	-4132
▁spoil	-4133
eor	-4134
▁fixing	-4135
▁chamber	-4136
▁lions	-4137
▁delay	-4138
▁finds	-4139
▁handed	-4140
▁searching	-4141
▁unite	-4142
▁fought	-4143
▁lawyer	-4144
▁brightly	-4145
▁meeting	-4146
▁pair	-4147
Did	-4148
▁choice	-4149
▁art	-4150
▁Hel	-4151
▁surprises	-4152
▁favour	-4153
eterin	-4154
adium	-4155
eterinarian	-4156
▁Y	-4157
low	-4158
▁stadium	-4159
▁proudly	-4160
iki	-4161
▁Geor	-4162
▁veterinarian	-4163
vet	-4164
▁chairs	-4165
▁slip	-4166
rod	-4167
Ann	-4168
▁sadly	-4169
▁incre	-4170
▁puddles	-4171
▁berry	-4172
▁introd	-4173
▁ranch	-4174
veal	-4175
▁argue	-4176
▁admired	-4177
▁Olive	-4178
▁favourite	-4179
▁cur	-4180
▁Pa	-4181
▁inf	-4182
Your	-4183
▁excitedly	-4184
▁rac	-4185
▁grabs	-4186
mend	-4187
▁steam	-4188
thank	-4189
▁human	-4190
▁Ru	-4191
sity	-4192
▁Speedy	-4193
▁pushing	-4194
▁saving	-4195
▁reveal	-4196
alley	-4197
ommend	-4198
▁yield	-4199
olog	-4200
▁mall	-4201
▁reminded	-4202
▁recommend	-4203
▁leak	-4204
▁surrender	-4205
▁harb	-4206
▁appl	-4207
cuss	-4208
▁weap	-4209
▁regret	-4210
▁putting	-4211
▁valley	-4212
▁Bubbles	-4213
▁George	-4214
▁Lilly	-4215
▁mineral	-4216
▁evening	-4217
elcome	-4218
▁forgave	-4219
▁matches	-4220
▁sneezed	-4221
▁aw	-4222
▁pup	-4223
▁rushed	-4224
ecause	-4225
▁spade	-4226
▁apolog	-4227
▁plates	-4228
▁discuss	-4229
▁prepare	-4230
▁harbor	-4231
▁ignore	-4232
▁Ow	-4233
▁country	-4234
▁language	-4235
▁pulls	-4236
▁plastic	-4237
▁supply	-4238
▁float	-4239
▁sniffed	-4240
▁replace	-4241
▁meas	-4242
▁shovel	-4243
▁raise	-4244
▁strip	-4245
▁fre	-4246
▁cared	-4247
▁socks	-4248
▁doors	-4249
▁mystery	-4250
▁lives	-4251
▁restore	-4252
▁sticker	-4253
▁sudden	-4254
ero	-4255
..	-4256
▁kinds	-4257
▁Paul	-4258
▁slippery	-4259
▁player	-4260
▁panic	-4261
ricane	-4262
▁hoping	-4263
iday	-4264
▁shone	-4265
lex	-4266
ari	-4267
hero	-4268
▁beg	-4269
Anna	-4270
▁superhero	-4271
▁Kiki	-4272
▁delighted	-4273
▁gro	-4274
aud	-4275
chan	-4276
▁chickens	-4277
▁Charl	-4278
▁shoulder	-4279
▁rained	-4280
▁colourful	-4281
▁breat	-4282
▁claw	-4283
▁softly	-4284
rise	-4285
▁port	-4286
▁hol	-4287
icer	-4288
▁holiday	-4289
oof	-4290
▁barks	-4291
ason	-4292
▁throwing	-4293
▁planes	-4294
▁bend	-4295
Yay	-4296
▁shakes	-4297
oe	-4298
▁ended	-4299
▁infant	-4300
▁shivering	-4301
▁kneel	-4302
▁sunrise	-4303
Yuck	-4304
▁pushes	-4305
▁thanks	-4306
▁fresh	-4307
▁suffer	-4308
▁points	-4309
imed	-4310
wards	-4311
▁tip	-4312
▁freeze	-4313
▁keeping	-4314
▁Would	-4315
▁copper	-4316
▁giggle	-4317
▁Alex	-4318
▁smells	-4319
▁dear	-4320
▁enter	-4321
▁End	-4322
▁provide	-4323
cast	-4324
chanic	-4325
▁dishes	-4326
cond	-4327
▁unh	-4328
▁applaud	-4329
▁heads	-4330
▁hurricane	-4331
▁Ted	-4332
▁cherry	-4333
▁mass	-4334
▁menu	-4335
▁thumb	-4336
▁meowed	-4337
▁second	-4338
▁brighter	-4339
ince	-4340
▁sandcast	-4341
▁mechanic	-4342
▁wre	-4343
Mia	-4344
▁Danny	-4345
▁sprayed	-4346
▁event	-4347
▁letting	-4348
▁weapon	-4349
▁x	-4350
▁laught	-4351
▁laughter	-4352
▁Grace	-4353
▁clapping	-4354
▁feelings	-4355
▁Or	-4356
icky	-4357
▁splashing	-4358
ement	-4359
acked	-4360
▁castles	-4361
▁Joey	-4362
One	-4363
cer	-4364
▁score	-4365
apping	-4366
▁universe	-4367
▁navy	-4368
▁Hoppy	-4369
▁dem	-4370
▁sticky	-4371
▁row	-4372
▁rooms	-4373
▁flies	-4374
igi	-4375
▁unhappy	-4376
▁greedy	-4377
▁Sophie	-4378
▁dare	-4379
▁alive	-4380
▁breaks	-4381
▁ener	-4382
▁Bee	-4383
▁courage	-4384
▁invit	-4385
▁repeat	-4386
▁demand	-4387
Ready	-4388
▁Gigi	-4389
▁trusted	-4390
▁somewhere	-4391
▁prune	-4392
bles	-4393
▁wreck	-4394
▁skill	-4395
▁examine	-4396
▁parts	-4397
▁Hen	-4398
year	-4399
▁eaten	-4400
erc	-4401
▁mention	-4402
▁Help	-4403
▁raining	-4404
▁Annie	-4405
▁throws	-4406
▁jogged	-4407
quest	-4408
▁starting	-4409
▁rush	-4410
▁Charlie	-4411
▁Sque	-4412
▁chirp	-4413
▁poison	-4414
▁pirates	-4415
heart	-4416
▁vac	-4417
▁content	-4418
▁Su	-4419
▁sigh	-4420
▁flapped	-4421
▁drops	-4422
▁sport	-4423
▁sparkled	-4424
▁Henry	-4425
▁given	-4426
▁streng	-4427
▁steel	-4428
▁bumped	-4429
▁yawned	-4430
▁stud	-4431
▁request	-4432
▁scold	-4433
▁myself	-4434
▁strength	-4435
▁shrugged	-4436
▁coats	-4437
▁punish	-4438
▁equ	-4439
▁snugg	-4440
▁Sm	-4441
▁university	-4442
▁paid	-4443
▁pigs	-4444
▁scratch	-4445
▁toe	-4446
▁exerc	-4447
▁tracks	-4448
▁upstairs	-4449
▁prayed	-4450
▁crossed	-4451
▁squeezed	-4452
▁flood	-4453
▁impressed	-4454
▁expect	-4455
▁bouncing	-4456
▁rhy	-4457
▁rabbits	-4458
ges	-4459
▁badly	-4460
▁warn	-4461
▁leather	-4462
▁news	-4463
▁tide	-4464
▁Lucky	-4465
▁minute	-4466
▁Snowy	-4467
▁bears	-4468
▁claws	-4469
▁buzz	-4470
▁sweetheart	-4471
▁nation	-4472
▁Sk	-4473
thm	-4474
▁heat	-4475
▁hist	-4476
▁vacation	-4477
▁strawberries	-4478
▁observe	-4479
▁explored	-4480
▁settle	-4481
▁sandcastle	-4482
▁yawn	-4483
▁history	-4484
▁Finny	-4485
mare	-4486
▁See	-4487
▁Finn	-4488
ially	-4489
inking	-4490
▁believed	-4491
▁horses	-4492
▁Elly	-4493
▁checked	-4494
▁tour	-4495
▁network	-4496
▁cheek	-4497
▁offer	-4498
▁easily	-4499
▁placed	-4500
spec	-4501
▁spots	-4502
▁snowball	-4503
ween	-4504
men	-4505
▁energy	-4506
▁imagination	-4507
▁blueberry	-4508
▁between	-4509
otten	-4510
specially	-4511
izes	-4512
▁daisy	-4513
▁waving	-4514
reeze	-4515
reat	-4516
▁Harry	-4517
▁Fox	-4518
▁Tilly	-4519
▁vroom	-4520
▁soak	-4521
▁rhythm	-4522
▁safari	-4523
▁massage	-4524
▁stomach	-4525
▁baking	-4526
quake	-4527
▁nightmare	-4528
▁insisted	-4529
▁blowing	-4530
▁entered	-4531
▁stair	-4532
▁palm	-4533
▁beauty	-4534
▁twisted	-4535
▁bother	-4536
▁writing	-4537
▁scoop	-4538
▁prunes	-4539
▁brain	-4540
▁ing	-4541
▁Penny	-4542
ipment	-4543
▁hills	-4544
▁poppy	-4545
noon	-4546
▁afternoon	-4547
▁equipment	-4548
▁especially	-4549
hest	-4550
▁sir	-4551
▁pad	-4552
▁ingred	-4553
▁calls	-4554
▁ingredient	-4555
▁earthquake	-4556
▁ignored	-4557
▁burned	-4558
▁nobody	-4559
mble	-4560
▁sty	-4561
apa	-4562
▁sew	-4563
▁tug	-4564
isty	-4565
xygen	-4566
▁hearts	-4567
▁lear	-4568
▁learnt	-4569
▁lemonade	-4570
Sh	-4571
▁increase	-4572
▁Maria	-4573
▁gaz	-4574
▁backpack	-4575
▁mailman	-4576
▁pedal	-4577
▁whistled	-4578
▁shopkeeper	-4579
ffic	-4580
▁permit	-4581
▁tremble	-4582
▁Mill	-4583
▁yucky	-4584
anges	-4585
▁moves	-4586
▁introduce	-4587
▁lemons	-4588
▁crash	-4589
▁Mag	-4590
▁beans	-4591
▁floated	-4592
edn	-4593
ednesday	-4594
ittens	-4595
▁Wednesday	-4596
▁Coco	-4597
▁planned	-4598
Welcome	-4599
▁Ros	-4600
▁strike	-4601
▁traffic	-4602
Lucy	-4603
▁include	-4604
▁slap	-4605
▁racing	-4606
resses	-4607
▁Whenever	-4608
▁wisdom	-4609
▁pur	-4610
▁wags	-4611
laimed	-4612
▁luck	-4613
▁following	-4614
▁price	-4615
ecting	-4616
▁mama	-4617
▁pitch	-4618
▁below	-4619
▁Have	-4620
▁Sandy	-4621
▁Pip	-4622
▁Squeaky	-4623
▁weight	-4624
▁exclaimed	-4625
▁Owl	-4626
house	-4627
uct	-4628
▁buried	-4629
▁comf	-4630
▁follows	-4631
▁recognize	-4632
▁ingredients	-4633
▁Froggy	-4634
▁Mittens	-4635
▁Dog	-4636
▁furt	-4637
tain	-4638
▁Bounce	-4639
▁candles	-4640
▁marbles	-4641
riage	-4642
unday	-4643
emember	-4644
eration	-4645
▁apart	-4646
▁Sunday	-4647
▁growled	-4648
▁Is	-4649
▁Who	-4650
▁conf	-4651
▁hopes	-4652
▁folded	-4653
▁teaching	-4654
▁closely	-4655
▁chore	-4656
▁heel	-4657
▁encourage	-4658
▁Kate	-4659
▁zigzag	-4660
▁pulling	-4661
▁digg	-4662
▁bouncy	-4663
▁Millie	-4664
ippy	-4665
▁further	-4666
▁chewed	-4667
▁digging	-4668
▁winning	-4669
nce	-4670
Woof	-4671
▁dresses	-4672
▁image	-4673
rec	-4674
cery	-4675
▁shouting	-4676
▁Rock	-4677
▁grocery	-4678
▁twisty	-4679
Sara	-4680
▁peanuts	-4681
▁puzzles	-4682
▁James	-4683
bbing	-4684
look	-4685
▁scrat	-4686
▁chores	-4687
▁whisper	-4688
▁spike	-4689
▁cape	-4690
▁snail	-4691
▁acorns	-4692
▁worms	-4693
hood	-4694
▁Tw	-4695
▁deeper	-4696
▁urge	-4697
▁Pinky	-4698
ifi	-4699
▁Ro	-4700
▁Tony	-4701
▁Bluey	-4702
▁planted	-4703
▁attention	-4704
ecture	-4705
▁exercise	-4706
▁Baby	-4707
▁Papa	-4708
▁exper	-4709
▁cub	-4710
▁operation	-4711
▁underground	-4712
▁hon	-4713
▁agre	-4714
▁quite	-4715
▁creatures	-4716
▁simp	-4717
▁struggle	-4718
oral	-4719
ddy	-4720
▁blood	-4721
▁lecture	-4722
▁Fifi	-4723
▁May	-4724
▁washing	-4725
▁hurting	-4726
▁gifts	-4727
▁Sharing	-4728
▁vanished	-4729
▁dressed	-4730
▁invitation	-4731
▁solved	-4732
▁licks	-4733
▁snuggled	-4734
▁Ruby	-4735
▁ble	-4736
▁marriage	-4737
▁quietly	-4738
gie	-4739
To	-4740
▁warning	-4741
▁jazz	-4742
▁breathe	-4743
reci	-4744
▁elephants	-4745
▁Tu	-4746
▁sizes	-4747
Bob	-4748
▁dried	-4749
▁fallen	-4750
▁landscape	-4751
ories	-4752
▁sprink	-4753
▁neighbour	-4754
▁mice	-4755
▁appreci	-4756
▁Tuesday	-4757
▁eagerly	-4758
▁sailing	-4759
▁Good	-4760
▁paused	-4761
ips	-4762
ncle	-4763
▁counter	-4764
And	-4765
▁worth	-4766
looking	-4767
▁Liz	-4768
▁First	-4769
▁oxygen	-4770
▁release	-4771
▁shined	-4772
pted	-4773
▁reaches	-4774
▁balan	-4775
▁oh	-4776
isses	-4777
▁kisses	-4778
▁style	-4779
▁bricks	-4780
▁glo	-4781
▁plays	-4782
▁ideas	-4783
sed	-4784
▁inst	-4785
▁Ste	-4786
▁wob	-4787
▁fireworks	-4788
Will	-4789
▁Kat	-4790
▁Everything	-4791
iggly	-4792
ucked	-4793
▁seeing	-4794
▁flap	-4795
▁accepted	-4796
▁blink	-4797
mm	-4798
▁tremb	-4799
▁muddy	-4800
▁memory	-4801
▁married	-4802
▁tomatoes	-4803
These	-4804
▁exit	-4805
ops	-4806
▁wagging	-4807
▁fash	-4808
▁Jul	-4809
▁wandered	-4810
unately	-4811
ipping	-4812
right	-4813
▁gloves	-4814
▁Each	-4815
▁captain	-4816
▁pillows	-4817
▁receive	-4818
▁resp	-4819
raged	-4820
▁during	-4821
Not	-4822
etch	-4823
▁web	-4824
▁petals	-4825
▁watered	-4826
Because	-4827
ived	-4828
▁Rosie	-4829
▁manage	-4830
▁brings	-4831
▁pinched	-4832
▁cakes	-4833
▁vanish	-4834
▁fashion	-4835
▁printer	-4836
▁destroyed	-4837
▁Ab	-4838
▁treasures	-4839
▁allow	-4840
▁Clara	-4841
ups	-4842
▁hadn	-4843
▁worse	-4844
▁vel	-4845
▁hits	-4846
▁bur	-4847
xu	-4848
do	-4849
▁velvet	-4850
▁appear	-4851
▁disagree	-4852
▁catching	-4853
▁scattered	-4854
▁memories	-4855
▁sorts	-4856
▁hers	-4857
▁scolded	-4858
▁pears	-4859
▁signs	-4860
▁oranges	-4861
▁bones	-4862
▁rang	-4863
▁sits	-4864
▁seats	-4865
▁snapped	-4866
uxu	-4867
▁gazed	-4868
▁raised	-4869
▁Spark	-4870
▁Wiggly	-4871
▁Pr	-4872
▁si	-4873
▁God	-4874
▁zipped	-4875
▁pies	-4876
▁prints	-4877
▁shot	-4878
▁sliding	-4879
▁fro	-4880
▁easier	-4881
ssible	-4882
▁skills	-4883
urprise	-4884
▁climbs	-4885
▁twirled	-4886
▁blankets	-4887
▁forgotten	-4888
ester	-4889
▁baked	-4890
esterday	-4891
▁difference	-4892
▁luxu	-4893
orted	-4894
▁golden	-4895
ccer	-4896
Yum	-4897
ising	-4898
▁kitty	-4899
▁cutting	-4900
▁season	-4901
▁crow	-4902
▁nowhere	-4903
▁Wally	-4904
▁soccer	-4905
▁dared	-4906
ah	-4907
▁bites	-4908
▁lung	-4909
▁celebrated	-4910
choo	-4911
chie	-4912
▁straight	-4913
▁unlocked	-4914
sters	-4915
▁Me	-4916
▁An	-4917
▁sorting	-4918
▁bleed	-4919
▁collected	-4920
▁Moral	-4921
aped	-4922
ding	-4923
▁welcomed	-4924
▁visited	-4925
▁spoons	-4926
▁Out	-4927
▁ours	-4928
▁stitch	-4929
▁Maggie	-4930
▁jogging	-4931
▁Tuna	-4932
medi	-4933
▁emer	-4934
mediately	-4935
▁isn	-4936
▁tong	-4937
▁trave	-4938
▁winner	-4939
umble	-4940
Surprise	-4941
▁ruin	-4942
▁since	-4943
▁prett	-4944
Ok	-4945
▁attached	-4946
▁King	-4947
▁weeping	-4948
▁marching	-4949
▁luxury	-4950
▁simple	-4951
▁shouldn	-4952
▁guessed	-4953
▁zero	-4954
▁created	-4955
▁stuffed	-4956
▁pets	-4957
▁Smith	-4958
ction	-4959
▁famil	-4960
▁waist	-4961
▁urged	-4962
▁bowed	-4963
▁selling	-4964
▁Gr	-4965
▁Suzy	-4966
▁floating	-4967
▁bye	-4968
▁vict	-4969
▁kingdom	-4970
▁olives	-4971
▁kicking	-4972
▁punished	-4973
sit	-4974
▁Bo	-4975
▁toes	-4976
▁grant	-4977
▁muscles	-4978
▁jewels	-4979
▁beds	-4980
▁melted	-4981
▁slice	-4982
Goodbye	-4983
▁grin	-4984
▁understanding	-4985
rr	-4986
▁collection	-4987
▁tore	-4988
▁measured	-4989
▁cras	-4990
aker	-4991
▁Both	-4992
▁Slow	-4993
iers	-4994
omeday	-4995
▁trapped	-4996
▁Dr	-4997
▁lined	-4998
▁acted	-4999
fortunately	-5000
▁encouraged	-5001
va	-5002
▁received	-5003
▁waffles	-5004
▁Che	-5005
▁west	-5006
▁meow	-5007
ents	-5008
▁patterns	-5009
▁Din	-5010
▁Boo	-5011
▁brus	-5012
▁mouths	-5013
kins	-5014
▁bang	-5015
ring	-5016
Meow	-5017
▁peaches	-5018
▁breeze	-5019
aded	-5020
une	-5021
▁printed	-5022
▁soldiers	-5023
▁someday	-5024
▁potatoes	-5025
▁pupil	-5026
umes	-5027
▁drinks	-5028
▁result	-5029
▁shed	-5030
▁experience	-5031
▁presents	-5032
▁firef	-5033
▁surround	-5034
▁none	-5035
osed	-5036
▁voices	-5037
▁drinking	-5038
ishing	-5039
▁relaxed	-5040
▁victory	-5041
cus	-5042
▁paints	-5043
▁breaking	-5044
▁hurried	-5045
▁twink	-5046
ission	-5047
▁tongue	-5048
eep	-5049
▁costumes	-5050
▁flat	-5051
▁mentioned	-5052
▁begged	-5053
▁teasing	-5054
▁whistling	-5055
▁fetch	-5056
▁permission	-5057
▁sip	-5058
▁disagreed	-5059
▁These	-5060
▁pearl	-5061
▁six	-5062
▁Toto	-5063
Amy	-5064
akes	-5065
▁stro	-5066
vest	-5067
▁Rocky	-5068
▁esc	-5069
▁appro	-5070
▁skipping	-5071
▁fishing	-5072
▁highest	-5073
▁pra	-5074
▁watches	-5075
▁Chicky	-5076
▁sorted	-5077
▁ringing	-5078
ship	-5079
▁tonight	-5080
▁opin	-5081
▁lets	-5082
icing	-5083
Next	-5084
▁perfectly	-5085
▁shadows	-5086
▁immediately	-5087
▁herbs	-5088
▁warmth	-5089
▁spit	-5090
▁remained	-5091
▁Its	-5092
ther	-5093
walk	-5094
▁Pepper	-5095
irring	-5096
▁sneak	-5097
▁lips	-5098
▁kneeled	-5099
▁Milly	-5100
▁contest	-5101
utter	-5102
▁cartoons	-5103
Mr	-5104
▁sidewalk	-5105
▁colours	-5106
▁Follow	-5107
▁stamps	-5108
▁ago	-5109
▁east	-5110
▁headed	-5111
oved	-5112
",	-5113
▁strang	-5114
Ha	-5115
▁fed	-5116
▁ladyb	-5117
▁supposed	-5118
▁Sky	-5119
▁lick	-5120
▁roots	-5121
▁crunch	-5122
▁Hop	-5123
▁Dino	-5124
▁mixing	-5125
▁works	-5126
▁decorations	-5127
▁known	-5128
▁melting	-5129
▁emergen	-5130
▁rested	-5131
▁lines	-5132
▁lily	-5133
▁instr	-5134
▁laid	-5135
▁cones	-5136
▁succeeded	-5137
▁wiggle	-5138
ety	-5139
sing	-5140
▁shock	-5141
▁setting	-5142
▁Frank	-5143
▁studied	-5144
▁strangers	-5145
Really	-5146
▁twigs	-5147
▁brid	-5148
▁theirs	-5149
▁girls	-5150
boo	-5151
!",	-5152
▁screams	-5153
▁lands	-5154
▁ordered	-5155
▁However	-5156
▁fields	-5157
▁moments	-5158
▁stirring	-5159
▁alright	-5160
▁stealing	-5161
ded	-5162
▁rul	-5163
▁bravely	-5164
avid	-5165
▁mister	-5166
!'	-5167
▁invest	-5168
▁scratched	-5169
▁playtime	-5170
▁ripped	-5171
▁investig	-5172
▁tucked	-5173
▁burning	-5174
▁resting	-5175
ishes	-5176
▁Mo	-5177
▁bridges	-5178
▁text	-5179
▁Am	-5180
▁officer	-5181
please	-5182
▁Steve	-5183
abies	-5184
▁David	-5185
▁settled	-5186
▁achie	-5187
▁matched	-5188
▁Someone	-5189
▁texture	-5190
▁waits	-5191
▁turning	-5192
nfortunately	-5193
ored	-5194
▁trembling	-5195
isten	-5196
▁nails	-5197
▁muffins	-5198
ids	-5199
▁escaped	-5200
▁piles	-5201
▁investigate	-5202
osity	-5203
▁broom	-5204
▁ladybug	-5205
▁sore	-5206
▁Happy	-5207
▁admir	-5208
▁appreciate	-5209
▁Lizzy	-5210
▁threat	-5211
▁babies	-5212
▁silence	-5213
▁sisters	-5214
▁area	-5215
▁emergency	-5216
ides	-5217
▁dads	-5218
▁Slowly	-5219
▁Frog	-5220
▁answers	-5221
▁pupp	-5222
Little	-5223
▁keys	-5224
▁Hope	-5225
▁chewing	-5226
▁slapped	-5227
▁wiz	-5228
▁importance	-5229
▁served	-5230
▁safety	-5231
▁Bug	-5232
izing	-5233
▁Rabbit	-5234
Would	-5235
▁Katie	-5236
▁sparkle	-5237
▁touching	-5238
▁soared	-5239
igail	-5240
▁sings	-5241
▁hen	-5242
allen	-5243
bers	-5244
antly	-5245
▁keeps	-5246
▁amazement	-5247
▁challen	-5248
▁El	-5249
▁twin	-5250
▁hesit	-5251
▁revealed	-5252
anna	-5253
achel	-5254
▁dire	-5255
▁item	-5256
▁soaked	-5257
zing	-5258
▁writ	-5259
▁Abigail	-5260
▁foods	-5261
▁rides	-5262
▁dinosaurs	-5263
▁Rachel	-5264
▁recorded	-5265
▁tickle	-5266
▁inch	-5267
▁wizard	-5268
▁vet	-5269
▁trips	-5270
▁glowed	-5271
▁Something	-5272
▁Mat	-5273
▁Not	-5274
Mmm	-5275
▁hi	-5276
▁beamed	-5277
▁quack	-5278
▁curled	-5279
▁hated	-5280
▁wink	-5281
▁shopping	-5282
▁eats	-5283
▁Beep	-5284
▁praised	-5285
▁wooden	-5286
▁bringing	-5287
▁mittens	-5288
▁studying	-5289
▁guy	-5290
int	-5291
Happy	-5292
▁brushes	-5293
▁Aunt	-5294
▁spaceship	-5295
▁gust	-5296
▁crawling	-5297
▁Joy	-5298
▁ruler	-5299
▁flav	-5300
▁downstairs	-5301
▁shooting	-5302
▁Star	-5303
▁tastes	-5304
▁napping	-5305
▁marks	-5306
▁sprinkles	-5307
▁cuddled	-5308
▁dot	-5309
hello	-5310
▁fut	-5311
ales	-5312
aved	-5313
▁future	-5314
▁monsters	-5315
▁collecting	-5316
'.	-5317
▁measuring	-5318
▁families	-5319
Kitty	-5320
▁thrill	-5321
▁oat	-5322
▁approached	-5323
act	-5324
▁crunchy	-5325
▁remem	-5326
▁bleeding	-5327
▁remembers	-5328
▁Ho	-5329
▁beat	-5330
▁nicer	-5331
▁Jess	-5332
ibb	-5333
▁sneaky	-5334
▁disturbed	-5335
▁leader	-5336
▁Beh	-5337
▁scaring	-5338
▁Ray	-5339
▁peel	-5340
▁firemen	-5341
▁Did	-5342
▁neighborhood	-5343
▁grey	-5344
Boo	-5345
▁motion	-5346
▁noon	-5347
▁possible	-5348
▁apologized	-5349
▁Behind	-5350
Or	-5351
▁weighed	-5352
ues	-5353
▁Sad	-5354
▁tickets	-5355
▁naps	-5356
When	-5357
▁loose	-5358
Jo	-5359
▁pride	-5360
▁youth	-5361
▁Squ	-5362
▁swims	-5363
ped	-5364
▁strings	-5365
▁recognized	-5366
▁siren	-5367
▁poking	-5368
fied	-5369
ha	-5370
cious	-5371
She	-5372
elvet	-5373
▁tricked	-5374
▁gained	-5375
▁wonders	-5376
▁crashed	-5377
▁wanting	-5378
uick	-5379
▁obe	-5380
▁seesaw	-5381
▁worker	-5382
unnies	-5383
▁Jam	-5384
oming	-5385
▁draws	-5386
▁scooped	-5387
.'	-5388
▁zooming	-5389
▁opinion	-5390
▁yelling	-5391
▁prepared	-5392
▁Pippa	-5393
▁grinned	-5394
▁awe	-5395
▁Friend	-5396
▁doggy	-5397
▁poems	-5398
▁acting	-5399
▁Always	-5400
▁happiest	-5401
▁chef	-5402
▁sneaked	-5403
▁respons	-5404
▁eff	-5405
uack	-5406
▁Car	-5407
▁bunnies	-5408
▁owned	-5409
▁Je	-5410
▁anytime	-5411
▁struck	-5412
▁pedals	-5413
ena	-5414
▁knelt	-5415
oys	-5416
▁Nan	-5417
▁secrets	-5418
▁pause	-5419
▁decorated	-5420
▁horns	-5421
▁agreement	-5422
▁Robby	-5423
ided	-5424
▁frost	-5425
▁During	-5426
▁tallest	-5427
▁obey	-5428
▁Ju	-5429
▁Chr	-5430
ogo	-5431
▁Stop	-5432
▁By	-5433
Remember	-5434
▁decides	-5435
Have	-5436
▁Jan	-5437
▁behaved	-5438
▁tugged	-5439
▁gran	-5440
▁sides	-5441
▁woof	-5442
lier	-5443
▁slim	-5444
zen	-5445
▁goodnight	-5446
▁keeper	-5447
▁chirped	-5448
▁sparkling	-5449
▁precious	-5450
mother	-5451
ien	-5452
▁repeated	-5453
▁claps	-5454
indy	-5455
affes	-5456
▁contain	-5457
▁snowballs	-5458
rs	-5459
▁ourselves	-5460
▁Stitch	-5461
▁Bree	-5462
allow	-5463
▁giraffes	-5464
▁balancing	-5465
▁kindly	-5466
▁Like	-5467
▁spending	-5468
omas	-5469
▁writes	-5470
ays	-5471
ppers	-5472
▁prop	-5473
▁Bouncy	-5474
▁Ad	-5475
▁hissed	-5476
▁frozen	-5477
▁frosting	-5478
▁effort	-5479
▁Spl	-5480
▁buzzing	-5481
▁struggled	-5482
ud	-5483
Sally	-5484
▁admiring	-5485
▁rele	-5486
▁sweeties	-5487
▁slimy	-5488
▁Gogo	-5489
▁brushed	-5490
▁Birdie	-5491
▁bloomed	-5492
▁polished	-5493
▁Dare	-5494
▁Thomas	-5495
Al	-5496
▁comfy	-5497
▁boo	-5498
▁staying	-5499
▁Green	-5500
▁rubbing	-5501
▁pockets	-5502
▁rocking	-5503
▁thrilled	-5504
▁beside	-5505
▁Ava	-5506
▁comple	-5507
▁eight	-5508
urry	-5509
isdom	-5510
▁machines	-5511
iggy	-5512
▁earlier	-5513
▁seems	-5514
▁yesterday	-5515
▁rust	-5516
▁Julie	-5517
▁Keep	-5518
▁Olly	-5519
▁traveled	-5520
▁folding	-5521
▁boom	-5522
▁cracked	-5523
ities	-5524
▁hugging	-5525
Ah	-5526
▁radishes	-5527
▁loving	-5528
▁opening	-5529
▁circus	-5530
▁curiosity	-5531
▁surrounded	-5532
▁spraying	-5533
▁demanded	-5534
▁paintings	-5535
▁removed	-5536
▁gaze	-5537
oh	-5538
▁honk	-5539
▁pebbles	-5540
▁hardly	-5541
▁zookeeper	-5542
▁catches	-5543
edding	-5544
▁sting	-5545
▁powers	-5546
▁stripes	-5547
▁loaded	-5548
Daddy	-5549
▁pots	-5550
▁splashes	-5551
▁petted	-5552
▁matching	-5553
▁toss	-5554
▁belly	-5555
▁stare	-5556
▁Beth	-5557
▁whatever	-5558
▁apologize	-5559
▁rocked	-5560
▁comforted	-5561
▁Everyday	-5562
▁decision	-5563
▁ribbons	-5564
ern	-5565
Yummy	-5566
▁struggling	-5567
Ch	-5568
▁expected	-5569
▁steep	-5570
▁Jamie	-5571
▁protected	-5572
▁neighbors	-5573
▁chases	-5574
▁smiley	-5575
▁Lou	-5576
▁granted	-5577
▁crumb	-5578
▁Water	-5579
▁purred	-5580
▁diving	-5581
▁Abby	-5582
▁sadness	-5583
▁organizing	-5584
▁eagle	-5585
▁heroes	-5586
▁dipped	-5587
▁Spring	-5588
▁sunlight	-5589
▁lied	-5590
▁pastels	-5591
▁Nina	-5592
▁roads	-5593
▁safer	-5594
▁Because	-5595
▁scru	-5596
▁argued	-5597
Somet	-5598
▁goals	-5599
▁discovery	-5600
▁Sure	-5601
▁peered	-5602
▁villag	-5603
▁deser	-5604
Gra	-5605
▁Splash	-5606
loe	-5607
use	-5608
▁tim	-5609
▁dragons	-5610
▁Mir	-5611
▁Lu	-5612
▁buckets	-5613
▁buildings	-5614
▁parties	-5615
...	-5616
▁beard	-5617
▁Wisdom	-5618
▁wedding	-5619
▁flutter	-5620
▁planets	-5621
▁ann	-5622
▁polishing	-5623
▁fasc	-5624
▁For	-5625
▁released	-5626
▁Watch	-5627
▁crabs	-5628
▁tails	-5629
▁Cla	-5630
▁sausages	-5631
▁argu	-5632
Bird	-5633
▁contro	-5634
▁bottles	-5635
▁wiggled	-5636
▁teased	-5637
Thanks	-5638
▁arguing	-5639
▁sled	-5640
▁dragged	-5641
▁padd	-5642
▁Chloe	-5643
▁roaring	-5644
▁Josh	-5645
▁clearing	-5646
▁movies	-5647
▁shirts	-5648
▁gathering	-5649
▁airpl	-5650
▁wid	-5651
joyed	-5652
▁Remember	-5653
▁spiders	-5654
▁teaches	-5655
▁limes	-5656
▁overjoyed	-5657
▁actually	-5658
▁Hippy	-5659
▁sighs	-5660
▁continue	-5661
anny	-5662
▁cuddle	-5663
▁soaring	-5664
▁smallest	-5665
▁Ol	-5666
▁Kay	-5667
▁drives	-5668
▁rip	-5669
▁sparkles	-5670
▁situ	-5671
▁cubes	-5672
▁refres	-5673
▁talent	-5674
▁challenge	-5675
▁grandmother	-5676
umm	-5677
▁Moo	-5678
▁pouring	-5679
▁fascin	-5680
▁pretends	-5681
▁Hanna	-5682
▁cuts	-5683
▁bank	-5684
▁quarreling	-5685
▁mane	-5686
▁Being	-5687
▁peppers	-5688
▁shivered	-5689
ten	-5690
▁dusty	-5691
ib	-5692
ley	-5693
▁villagers	-5694
▁wondering	-5695
▁stretching	-5696
njoy	-5697
▁weeks	-5698
▁darker	-5699
▁wherever	-5700
jam	-5701
sses	-5702
▁rings	-5703
▁onwards	-5704
▁united	-5705
▁Bop	-5706
Achoo	-5707
John	-5708
▁bead	-5709
▁prettiest	-5710
▁caut	-5711
lowers	-5712
▁realize	-5713
▁company	-5714
▁penguins	-5715
▁Catty	-5716
▁bedtime	-5717
▁completed	-5718
▁Leave	-5719
▁control	-5720
▁knights	-5721
▁flags	-5722
▁playroom	-5723
▁Prin	-5724
▁actions	-5725
▁learns	-5726
▁gotten	-5727
▁patience	-5728
inda	-5729
▁shrug	-5730
▁Fish	-5731
▁Two	-5732
▁kites	-5733
▁Lena	-5734
▁responsible	-5735
▁fears	-5736
▁destination	-5737
▁reply	-5738
▁wires	-5739
▁dam	-5740
▁wrist	-5741
▁Anne	-5742
▁Chew	-5743
aws	-5744
▁Earth	-5745
▁packing	-5746
▁fault	-5747
▁applauded	-5748
▁mountains	-5749
▁ma	-5750
▁scrubbed	-5751
▁crept	-5752
▁satis	-5753
Fl	-5754
▁Cra	-5755
Mama	-5756
▁Adam	-5757
▁phot	-5758
▁third	-5759
▁pencils	-5760
▁wins	-5761
▁sticking	-5762
▁baker	-5763
▁visiting	-5764
▁wound	-5765
▁uses	-5766
▁peas	-5767
▁reminder	-5768
ashed	-5769
▁Put	-5770
▁joking	-5771
▁awake	-5772
▁instruct	-5773
▁healed	-5774
▁staring	-5775
▁Blink	-5776
▁hitting	-5777
▁Friends	-5778
▁screaming	-5779
▁begin	-5780
▁Luck	-5781
▁Brownie	-5782
icorn	-5783
▁Mad	-5784
▁helmets	-5785
enty	-5786
ler	-5787
▁unicorn	-5788
seek	-5789
▁Hannah	-5790
▁towels	-5791
▁Luckily	-5792
Mum	-5793
▁chips	-5794
ica	-5795
▁creation	-5796
▁wasted	-5797
Sometimes	-5798
bie	-5799
Just	-5800
▁masks	-5801
▁forgi	-5802
▁items	-5803
▁Sun	-5804
▁firefight	-5805
▁outdo	-5806
▁lollipops	-5807
▁Mira	-5808
▁heav	-5809
Watch	-5810
▁guns	-5811
▁died	-5812
▁seas	-5813
▁glitter	-5814
▁Princess	-5815
▁Mouse	-5816
▁Mon	-5817
uddles	-5818
▁Claire	-5819
▁arrive	-5820
Silly	-5821
▁stole	-5822
▁weren	-5823
▁scales	-5824
die	-5825
▁accom	-5826
▁perched	-5827
▁Love	-5828
▁logs	-5829
▁achieve	-5830
▁practicing	-5831
ining	-5832
▁whose	-5833
▁pumpkins	-5834
▁instructions	-5835
▁swoop	-5836
▁batteries	-5837
▁agrees	-5838
▁candies	-5839
▁project	-5840
▁snakes	-5841
▁chirping	-5842
▁Jilly	-5843
▁shelves	-5844
▁Hoot	-5845
▁protecting	-5846
▁exact	-5847
▁parked	-5848
Stay	-5849
▁patiently	-5850
▁activ	-5851
▁Ally	-5852
▁videos	-5853
▁shoulders	-5854
▁blows	-5855
▁promises	-5856
▁dent	-5857
go	-5858
▁Matt	-5859
ners	-5860
uest	-5861
jamas	-5862
▁airplane	-5863
▁examined	-5864
▁Foxy	-5865
▁roses	-5866
▁accompl	-5867
hee	-5868
▁tasks	-5869
▁Squirrel	-5870
▁Susan	-5871
▁beads	-5872
▁bowls	-5873
▁crumbs	-5874
zes	-5875
▁Dot	-5876
▁Whist	-5877
▁listens	-5878
Fluffy	-5879
▁bunch	-5880
▁dolphins	-5881
Today	-5882
▁cough	-5883
▁guest	-5884
Ex	-5885
▁Cuddles	-5886
cakes	-5887
▁requested	-5888
▁remote	-5889
▁improved	-5890
anta	-5891
▁Bye	-5892
▁reaching	-5893
▁brand	-5894
▁alien	-5895
irm	-5896
▁copy	-5897
▁cheering	-5898
Mummy	-5899
▁Jeff	-5900
▁photos	-5901
▁cans	-5902
▁bene	-5903
▁timer	-5904
▁replaced	-5905
▁workers	-5906
▁stern	-5907
▁Enjoy	-5908
▁adult	-5909
Bad	-5910
aster	-5911
▁neither	-5912
▁misses	-5913
▁puppet	-5914
▁passing	-5915
▁curtains	-5916
▁confl	-5917
▁twirl	-5918
▁rainbows	-5919
▁rubs	-5920
▁Luke	-5921
▁rolls	-5922
uctantly	-5923
▁Jessie	-5924
▁patted	-5925
▁conflict	-5926
ilo	-5927
▁pajamas	-5928
▁outdoors	-5929
esome	-5930
dies	-5931
▁complaining	-5932
▁Dizzy	-5933
▁closes	-5934
▁beneath	-5935
▁lap	-5936
▁drums	-5937
Run	-5938
▁tune	-5939
▁Santa	-5940
Ro	-5941
▁filling	-5942
angled	-5943
▁Sorry	-5944
▁refuse	-5945
▁sweat	-5946
▁faced	-5947
▁seven	-5948
▁balanced	-5949
▁rescued	-5950
bl	-5951
neath	-5952
▁quacked	-5953
▁Days	-5954
▁Our	-5955
▁Yes	-5956
▁awesome	-5957
▁mission	-5958
▁guys	-5959
▁cautious	-5960
▁vent	-5961
▁cause	-5962
▁observed	-5963
Cat	-5964
▁introduc	-5965
▁pastries	-5966
nie	-5967
▁doctors	-5968
▁exactly	-5969
▁rule	-5970
▁Henny	-5971
▁becoming	-5972
▁mes	-5973
▁policeman	-5974
lay	-5975
▁rockets	-5976
uly	-5977
you	-5978
▁fairies	-5979
▁pout	-5980
▁Linda	-5981
▁Jac	-5982
▁insist	-5983
▁blooming	-5984
▁tractor	-5985
Tommy	-5986
▁farther	-5987
avi	-5988
Oops	-5989
▁desert	-5990
▁included	-5991
▁remembering	-5992
▁curly	-5993
▁teamwork	-5994
zie	-5995
Great	-5996
▁fascinated	-5997
▁slam	-5998
▁wobbled	-5999
▁truly	-6000
▁helpers	-6001
Fine	-6002
▁sights	-6003
▁paddle	-6004
▁firm	-6005
▁stumble	-6006
▁caused	-6007
▁prayer	-6008
▁Jenna	-6009
Then	-6010
▁spong	-6011
▁recording	-6012
kelly	-6013
eah	-6014
▁traded	-6015
▁starfish	-6016
▁Sc	-6017
▁supplies	-6018
▁thro	-6019
▁pointy	-6020
▁inviting	-6021
▁situation	-6022
gers	-6023
▁everyday	-6024
▁neighbourhood	-6025
▁ornaments	-6026
▁Ant	-6027
▁Whistle	-6028
inkle	-6029
▁valued	-6030
▁adding	-6031
ais	-6032
▁reluctantly	-6033
▁dots	-6034
▁Rover	-6035
▁stays	-6036
▁bare	-6037
▁tables	-6038
▁prettier	-6039
▁Mix	-6040
▁Skelly	-6041
▁Jon	-6042
▁Jacob	-6043
▁snowmen	-6044
▁steady	-6045
▁minerals	-6046
▁Gina	-6047
araway	-6048
▁Milo	-6049
▁thorn	-6050
▁Get	-6051
▁ast	-6052
▁Welcome	-6053
▁faraway	-6054
▁glasses	-6055
▁Duck	-6056
▁Po	-6057
▁swooped	-6058
▁Betsy	-6059
▁unf	-6060
▁forks	-6061
▁usual	-6062
▁usually	-6063
▁dar	-6064
▁winked	-6065
▁sneezing	-6066
▁solut	-6067
▁Dara	-6068
▁loading	-6069
▁sponge	-6070
▁insects	-6071
▁Dee	-6072
ody	-6073
▁Stay	-6074
▁pans	-6075
▁sobbed	-6076
▁growling	-6077
sm	-6078
▁throat	-6079
▁noses	-6080
▁Want	-6081
▁Kids	-6082
▁scarves	-6083
▁confident	-6084
▁yourselves	-6085
agull	-6086
arter	-6087
▁Suzie	-6088
▁homework	-6089
▁superheroes	-6090
..."	-6091
▁Ash	-6092
▁smarter	-6093
▁windy	-6094
▁librarian	-6095
Timmy	-6096
▁gems	-6097
▁Fu	-6098
ora	-6099
▁underneath	-6100
▁kicks	-6101
▁knowled	-6102
▁itchy	-6103
▁jackets	-6104
▁knowledge	-6105
▁surface	-6106
▁untie	-6107
▁comm	-6108
▁princesses	-6109
Time	-6110
ido	-6111
Yeah	-6112
coon	-6113
▁Paws	-6114
▁squares	-6115
▁giggling	-6116
▁warnings	-6117
iar	-6118
Those	-6119
▁reads	-6120
vin	-6121
▁choo	-6122
▁younger	-6123
▁Dodo	-6124
▁clowns	-6125
son	-6126
▁ropes	-6127
▁Wink	-6128
Our	-6129
▁Sadly	-6130
Hold	-6131
▁biting	-6132
Le	-6133
▁crowd	-6134
pite	-6135
▁seagull	-6136
▁paddled	-6137
▁wears	-6138
▁delivered	-6139
▁buzzed	-6140
▁onions	-6141
▁complained	-6142
eed	-6143
▁bumpy	-6144
▁stem	-6145
Ew	-6146
▁piggy	-6147
▁Skip	-6148
▁Jones	-6149
▁direction	-6150
ouch	-6151
▁dived	-6152
▁startled	-6153
▁tangled	-6154
▁leaning	-6155
bbie	-6156
pr	-6157
Roar	-6158
▁Fido	-6159
▁badge	-6160
▁Yesterday	-6161
▁Nana	-6162
▁Jessica	-6163
Fo	-6164
▁deal	-6165
▁unp	-6166
though	-6167
▁Buggy	-6168
▁vowed	-6169
▁napkins	-6170
anes	-6171
▁risk	-6172
▁tickled	-6173
▁covers	-6174
▁pec	-6175
Shh	-6176
▁Cara	-6177
▁yells	-6178
▁satisfied	-6179
▁Near	-6180
▁knocks	-6181
▁refreshed	-6182
cuse	-6183
tuce	-6184
▁cous	-6185
▁Cathy	-6186
▁arrows	-6187
▁wipes	-6188
▁speaking	-6189
▁guessing	-6190
▁lettuce	-6191
▁ripe	-6192
▁Cindy	-6193
▁hides	-6194
▁choices	-6195
▁Lion	-6196
▁signed	-6197
▁slower	-6198
▁seeker	-6199
▁introduced	-6200
irl	-6201
▁Kayla	-6202
▁singer	-6203
▁creating	-6204
▁Tara	-6205
▁cent	-6206
▁froze	-6207
uggles	-6208
▁joked	-6209
▁squeal	-6210
▁Julia	-6211
▁toaster	-6212
▁explorers	-6213
▁Mel	-6214
▁avo	-6215
anging	-6216
▁praying	-6217
▁written	-6218
▁discovering	-6219
▁provided	-6220
▁refle	-6221
Excuse	-6222
Jack	-6223
▁mushrooms	-6224
▁knees	-6225
▁paying	-6226
fit	-6227
ences	-6228
▁hider	-6229
▁wandering	-6230
▁Rolly	-6231
▁images	-6232
▁stung	-6233
▁barely	-6234
▁magnets	-6235
▁behaving	-6236
▁tipto	-6237
?",	-6238
▁marked	-6239
▁Snuggles	-6240
brush	-6241
Dog	-6242
▁Grumpy	-6243
▁restored	-6244
▁leading	-6245
lled	-6246
▁chuck	-6247
▁Oliver	-6248
ados	-6249
▁nine	-6250
▁greet	-6251
▁gears	-6252
▁bravery	-6253
▁competition	-6254
▁outfit	-6255
oline	-6256
▁wishing	-6257
▁properly	-6258
▁ventured	-6259
aa	-6260
tle	-6261
▁chat	-6262
▁dances	-6263
▁muscle	-6264
▁pens	-6265
▁Mikey	-6266
▁salty	-6267
amb	-6268
▁ranger	-6269
▁deserve	-6270
▁however	-6271
rrr	-6272
sequ	-6273
▁matters	-6274
▁burst	-6275
▁darkness	-6276
▁rainy	-6277
▁cobwebs	-6278
▁ruining	-6279
▁bak	-6280
▁chefs	-6281
▁consequ	-6282
▁blocking	-6283
usted	-6284
itely	-6285
▁scur	-6286
▁vines	-6287
▁Copper	-6288
▁fab	-6289
abel	-6290
▁fabric	-6291
▁entire	-6292
▁basement	-6293
▁least	-6294
▁performed	-6295
▁Laser	-6296
▁scratches	-6297
▁heavier	-6298
Cl	-6299
▁mints	-6300
▁avocados	-6301
▁twirling	-6302
fl	-6303
rink	-6304
▁Jay	-6305
▁losing	-6306
▁scurried	-6307
▁sunflowers	-6308
▁rainco	-6309
▁swords	-6310
▁click	-6311
▁Nothing	-6312
▁jobs	-6313
▁silent	-6314
Grandma	-6315
▁flames	-6316
▁necklaces	-6317
▁Snap	-6318
▁relief	-6319
▁snat	-6320
▁sewed	-6321
▁rotting	-6322
▁tricky	-6323
▁Without	-6324
▁lighter	-6325
▁bows	-6326
Listen	-6327
▁Pup	-6328
▁exha	-6329
▁solution	-6330
▁consequences	-6331
len	-6332
Follow	-6333
ho	-6334
▁stain	-6335
▁tires	-6336
▁unpacked	-6337
rance	-6338
▁Ex	-6339
▁Larry	-6340
▁partic	-6341
▁races	-6342
▁pins	-6343
▁bumps	-6344
▁wraps	-6345
▁Sophia	-6346
▁wow	-6347
aisies	-6348
▁backed	-6349
▁decorating	-6350
cher	-6351
▁dentist	-6352
▁purr	-6353
▁needles	-6354
▁cautiously	-6355
▁lifting	-6356
izzie	-6357
▁Tree	-6358
▁Those	-6359
▁accomplish	-6360
▁daisies	-6361
▁triangles	-6362
ept	-6363
▁annoy	-6364
▁hesitated	-6365
▁growls	-6366
▁Twinkle	-6367
▁crackers	-6368
▁Bark	-6369
▁stomped	-6370
▁cott	-6371
▁grabbing	-6372
▁bodies	-6373
▁figured	-6374
▁mater	-6375
▁buying	-6376
▁material	-6377
oke	-6378
▁Pam	-6379
▁swans	-6380
▁ties	-6381
▁gri	-6382
vers	-6383
▁grows	-6384
▁Bloom	-6385
▁Goodbye	-6386
▁sweets	-6387
▁cheeks	-6388
▁flavor	-6389
▁owners	-6390
▁Lizzie	-6391
▁suffering	-6392
vroom	-6393
▁fact	-6394
▁groups	-6395
bly	-6396
▁forehead	-6397
▁lungs	-6398
▁repa	-6399
▁Trust	-6400
▁bakery	-6401
▁interested	-6402
▁Rain	-6403
▁freed	-6404
itches	-6405
▁Ball	-6406
▁chuckled	-6407
▁conn	-6408
▁swept	-6409
?'	-6410
▁thud	-6411
▁exhausted	-6412
▁tapped	-6413
▁twinkling	-6414
▁nect	-6415
elle	-6416
▁nectar	-6417
▁feast	-6418
▁Christ	-6419
▁darling	-6420
indr	-6421
▁Try	-6422
▁worries	-6423
▁uns	-6424
▁fuzzy	-6425
▁tunnels	-6426
▁Peanut	-6427
▁reason	-6428
▁repaired	-6429
▁June	-6430
▁activities	-6431
▁Listen	-6432
▁pecked	-6433
▁entrance	-6434
▁Els	-6435
▁meals	-6436
▁raindr	-6437
▁completely	-6438
▁particular	-6439
no	-6440
▁mailed	-6441
ctions	-6442
▁Frost	-6443
▁nests	-6444
▁cuddly	-6445
▁waiter	-6446
▁sense	-6447
▁colored	-6448
▁leap	-6449
band	-6450
step	-6451
▁plenty	-6452
▁peeking	-6453
▁slammed	-6454
▁Birthday	-6455
▁players	-6456
▁budge	-6457
▁month	-6458
▁scra	-6459
▁forgets	-6460
▁den	-6461
▁Frosty	-6462
▁Robert	-6463
▁handful	-6464
▁mer	-6465
▁Rollie	-6466
▁genie	-6467
▁stool	-6468
iggie	-6469
▁talks	-6470
ossible	-6471
▁feeding	-6472
▁passports	-6473
▁films	-6474
▁baths	-6475
▁impossible	-6476
▁Stella	-6477
▁Nick	-6478
▁determination	-6479
▁printing	-6480
boat	-6481
▁designed	-6482
▁Other	-6483
▁buses	-6484
▁opp	-6485
ueen	-6486
▁bars	-6487
lephant	-6488
▁suitcase	-6489
▁nibb	-6490
▁counts	-6491
▁stolen	-6492
▁spikes	-6493
▁spreading	-6494
Lila	-6495
▁steer	-6496
▁wiping	-6497
▁lamb	-6498
▁honked	-6499
nies	-6500
▁cowb	-6501
ky	-6502
▁separated	-6503
blings	-6504
▁siblings	-6505
▁hops	-6506
Whee	-6507
▁Lau	-6508
▁chop	-6509
▁fires	-6510
▁sewing	-6511
▁fever	-6512
▁twinkle	-6513
▁ty	-6514
▁camping	-6515
▁lower	-6516
▁changing	-6517
yes	-6518
retch	-6519
▁Missy	-6520
▁behavi	-6521
Rex	-6522
mas	-6523
▁liqu	-6524
▁celebration	-6525
▁squealed	-6526
▁dollhouse	-6527
▁backward	-6528
▁age	-6529
▁Maya	-6530
▁snatched	-6531
but	-6532
▁Abbie	-6533
▁Biggie	-6534
Bobo	-6535
▁cash	-6536
▁twice	-6537
▁Mic	-6538
lee	-6539
▁sway	-6540
itched	-6541
uzz	-6542
▁celebrating	-6543
▁ache	-6544
▁shrinking	-6545
weed	-6546
▁kings	-6547
▁Hold	-6548
rious	-6549
▁shops	-6550
▁kittens	-6551
▁Robbie	-6552
cope	-6553
cky	-6554
▁hus	-6555
▁touches	-6556
airy	-6557
▁Lia	-6558
▁pancakes	-6559
▁avoid	-6560
▁spat	-6561
hog	-6562
rig	-6563
▁Woof	-6564
▁paths	-6565
hile	-6566
ives	-6567
▁calmed	-6568
▁rotten	-6569
▁seaweed	-6570
▁dropping	-6571
iles	-6572
▁stroked	-6573
▁twisting	-6574
▁untied	-6575
llen	-6576
▁playhouse	-6577
▁puppies	-6578
▁students	-6579
cl	-6580
hi	-6581
▁Ry	-6582
▁Izzy	-6583
▁astron	-6584
▁screws	-6585
▁somebody	-6586
▁Chris	-6587
igning	-6588
▁liquid	-6589
▁wakes	-6590
▁squish	-6591
▁Laura	-6592
▁Robo	-6593
▁astronaut	-6594
▁bracelets	-6595
aren	-6596
immer	-6597
▁thrown	-6598
▁loops	-6599
▁wrapping	-6600
▁plain	-6601
▁tramp	-6602
▁planning	-6603
▁aimed	-6604
▁skunk	-6605
▁Fuzzy	-6606
▁pennies	-6607
▁shoo	-6608
▁lifts	-6609
▁dancers	-6610
▁sparks	-6611
▁firefly	-6612
pen	-6613
▁Christmas	-6614
▁poster	-6615
endy	-6616
▁cust	-6617
▁objects	-6618
▁rewarded	-6619
▁directions	-6620
ingo	-6621
using	-6622
▁husband	-6623
▁reflection	-6624
river	-6625
▁Doctor	-6626
Take	-6627
▁Rich	-6628
▁clues	-6629
uppy	-6630
▁Woo	-6631
▁Sparky	-6632
▁leads	-6633
▁increased	-6634
▁blocked	-6635
▁rising	-6636
▁dod	-6637
▁cousin	-6638
▁Elephant	-6639
▁forgetting	-6640
rigued	-6641
▁custom	-6642
▁Rudy	-6643
▁beginning	-6644
▁trampoline	-6645
▁pouted	-6646
▁storekeeper	-6647
artha	-6648
▁zebras	-6649
▁aff	-6650
▁Ryan	-6651
▁hedgehog	-6652
▁Ang	-6653
▁borrowed	-6654
▁Karen	-6655
▁snowfl	-6656
▁countryside	-6657
ude	-6658
▁mesmer	-6659
▁vehicles	-6660
▁Only	-6661
▁instrum	-6662
▁Moon	-6663
▁frowning	-6664
Some	-6665
ivity	-6666
Buddy	-6667
▁marker	-6668
yond	-6669
▁Fire	-6670
▁beyond	-6671
▁presses	-6672
▁fart	-6673
▁damage	-6674
ammy	-6675
ivery	-6676
▁Along	-6677
iece	-6678
▁Farm	-6679
jo	-6680
Beep	-6681
▁health	-6682
▁slips	-6683
▁swimsuit	-6684
▁whispers	-6685
▁Emmy	-6686
▁warmer	-6687
▁flapping	-6688
▁Martha	-6689
▁tiptoed	-6690
▁regretted	-6691
▁Sim	-6692
itted	-6693
▁laying	-6694
ades	-6695
▁yelp	-6696
▁glued	-6697
▁rains	-6698
▁everybody	-6699
▁Stretch	-6700
▁Mabel	-6701
▁creations	-6702
▁hearing	-6703
▁colder	-6704
iversity	-6705
nk	-6706
ael	-6707
▁shaped	-6708
▁fins	-6709
▁streets	-6710
▁rusty	-6711
▁cushions	-6712
▁Sw	-6713
▁farthest	-6714
▁creativity	-6715
▁Ma	-6716
▁sale	-6717
ans	-6718
▁Toot	-6719
iam	-6720
▁strongest	-6721
ibbit	-6722
▁fits	-6723
▁bells	-6724
▁dollars	-6725
▁Ron	-6726
▁earn	-6727
angle	-6728
▁lending	-6729
▁Beaky	-6730
eese	-6731
▁cashier	-6732
▁including	-6733
▁sank	-6734
▁sniffs	-6735
▁raincoat	-6736
▁stopping	-6737
▁trembled	-6738
Always	-6739
▁source	-6740
iti	-6741
▁indeed	-6742
▁wobbly	-6743
ters	-6744
▁Farmer	-6745
▁guests	-6746
▁single	-6747
▁recommended	-6748
▁Granny	-6749
▁spells	-6750
▁Tia	-6751
▁accomplishment	-6752
▁belts	-6753
▁ends	-6754
▁Snowman	-6755
▁Afterwards	-6756
▁surprising	-6757
▁hopeful	-6758
▁Take	-6759
eal	-6760
▁seasons	-6761
▁plans	-6762
Jump	-6763
ichael	-6764
▁encourag	-6765
▁supported	-6766
stick	-6767
▁artist	-6768
▁suffered	-6769
illed	-6770
▁performance	-6771
eet	-6772
▁slowed	-6773
▁gross	-6774
▁flavors	-6775
iding	-6776
ertain	-6777
▁spins	-6778
cho	-6779
▁Simon	-6780
▁labels	-6781
▁delivery	-6782
▁raindrops	-6783
arac	-6784
uing	-6785
▁raccoon	-6786
▁forgiving	-6787
obody	-6788
▁pours	-6789
ility	-6790
▁stands	-6791
▁turtles	-6792
▁vanilla	-6793
▁Bones	-6794
▁Michael	-6795
uess	-6796
▁beam	-6797
▁recipe	-6798
▁tying	-6799
▁Spirit	-6800
▁geese	-6801
▁drawn	-6802
▁robber	-6803
▁willing	-6804
▁wept	-6805
▁Kit	-6806
▁charac	-6807
▁pops	-6808
▁corners	-6809
elia	-6810
▁Holly	-6811
▁queens	-6812
▁die	-6813
▁grip	-6814
▁Barky	-6815
▁sailboat	-6816
▁drivers	-6817
▁moo	-6818
itude	-6819
▁hallway	-6820
▁imagining	-6821
▁seconds	-6822
▁Ana	-6823
▁Jump	-6824
▁preparing	-6825
▁widened	-6826
Mine	-6827
▁coop	-6828
▁grocer	-6829
▁Patch	-6830
▁talented	-6831
▁Janie	-6832
ummies	-6833
▁sailors	-6834
▁Titi	-6835
Tr	-6836
lling	-6837
▁aside	-6838
▁softer	-6839
▁watering	-6840
▁knots	-6841
▁sending	-6842
▁tipped	-6843
▁unsure	-6844
▁horiz	-6845
▁treehouse	-6846
▁Ph	-6847
▁notes	-6848
▁echo	-6849
▁Exc	-6850
igers	-6851
▁achieved	-6852
▁Crab	-6853
▁horizon	-6854
▁squeak	-6855
▁delivering	-6856
▁Play	-6857
▁hotter	-6858
▁pleasure	-6859
▁pupils	-6860
▁burrow	-6861
▁angels	-6862
▁curiously	-6863
▁yum	-6864
▁blinking	-6865
▁det	-6866
▁tweet	-6867
▁symbols	-6868
wk	-6869
▁passen	-6870
▁tummies	-6871
▁tiss	-6872
▁figures	-6873
▁pigeons	-6874
umbling	-6875
▁bandages	-6876
▁Turt	-6877
▁coup	-6878
oey	-6879
▁Sl	-6880
▁robots	-6881
▁tossed	-6882
▁hour	-6883
▁backwards	-6884
▁roars	-6885
alph	-6886
▁merma	-6887
▁rather	-6888
atur	-6889
▁Tess	-6890
ighting	-6891
▁groceries	-6892
▁zipping	-6893
▁unw	-6894
▁Excited	-6895
▁among	-6896
▁blown	-6897
▁icing	-6898
Put	-6899
▁Thanks	-6900
▁rumble	-6901
▁afterwards	-6902
ipper	-6903
▁screwd	-6904
▁glee	-6905
▁sped	-6906
ushing	-6907
▁prove	-6908
▁dip	-6909
▁overcome	-6910
print	-6911
▁surfboard	-6912
▁shovels	-6913
▁slices	-6914
▁Jackie	-6915
▁merry	-6916
▁mate	-6917
▁Ralph	-6918
▁wobble	-6919
▁Abi	-6920
▁Wendy	-6921
▁heading	-6922
▁disturbing	-6923
▁Wo	-6924
▁swall	-6925
▁reversed	-6926
▁firefighters	-6927
▁swallowed	-6928
▁chip	-6929
▁scored	-6930
▁flipped	-6931
eds	-6932
▁squeezing	-6933
▁waking	-6934
▁Marie	-6935
▁intrigued	-6936
▁maker	-6937
awn	-6938
▁puff	-6939
usty	-6940
▁hawk	-6941
▁encouraging	-6942
▁aud	-6943
▁Lenny	-6944
osen	-6945
onies	-6946
▁Willy	-6947
▁chosen	-6948
▁Davey	-6949
niversity	-6950
▁couple	-6951
the	-6952
▁designs	-6953
▁Des	-6954
▁slipping	-6955
▁screwdriver	-6956
▁squishy	-6957
Like	-6958
▁center	-6959
▁gardener	-6960
▁rivers	-6961
▁markers	-6962
▁respond	-6963
iley	-6964
▁jars	-6965
▁tigers	-6966
pecting	-6967
▁frowns	-6968
bird	-6969
▁fluttered	-6970
▁firefighter	-6971
▁suits	-6972
▁secure	-6973
▁sprinkled	-6974
▁creamy	-6975
▁bru	-6976
ashes	-6977
▁sharks	-6978
▁ignoring	-6979
▁giggles	-6980
▁Sleep	-6981
▁Tweetie	-6982
Ribbit	-6983
▁tissue	-6984
▁tighter	-6985
▁firmly	-6986
Bl	-6987
▁Jacky	-6988
▁Nobody	-6989
▁Roo	-6990
▁shown	-6991
▁familiar	-6992
fly	-6993
▁thorns	-6994
▁Time	-6995
▁drawers	-6996
▁def	-6997
child	-6998
▁Judy	-6999
▁express	-7000
ments	-7001
▁daring	-7002
▁audience	-7003
▁crossing	-7004
▁Since	-7005
▁cloudy	-7006
▁coloured	-7007
▁performing	-7008
▁ais	-7009
▁cor	-7010
▁Turtle	-7011
rat	-7012
▁pedaled	-7013
▁mixture	-7014
▁gracefully	-7015
ggy	-7016
▁haircuts	-7017
Fr	-7018
▁yielded	-7019
▁ponies	-7020
▁disob	-7021
▁crowns	-7022
▁bits	-7023
Fin	-7024
Get	-7025
▁todd	-7026
▁hangers	-7027
▁nervously	-7028
bbled	-7029
▁Chewy	-7030
▁Kip	-7031
▁Todd	-7032
▁pays	-7033
▁peck	-7034
▁stroke	-7035
▁ev	-7036
fall	-7037
▁napped	-7038
▁respected	-7039
aven	-7040
▁minded	-7041
▁Wise	-7042
▁Momma	-7043
ddie	-7044
ably	-7045
▁Ali	-7046
▁tested	-7047
Boys	-7048
ading	-7049
parent	-7050
▁Maddie	-7051
arrow	-7052
▁beeh	-7053
▁surfing	-7054
▁neighbours	-7055
▁Bally	-7056
▁Yet	-7057
First	-7058
vered	-7059
▁shady	-7060
iona	-7061
▁darl	-7062
▁darlings	-7063
▁magician	-7064
▁enthusiasm	-7065
▁wisely	-7066
▁Jojo	-7067
▁sails	-7068
▁stitches	-7069
▁Yog	-7070
▁weekend	-7071
▁thoughts	-7072
▁reminds	-7073
fted	-7074
▁Mina	-7075
▁temper	-7076
oring	-7077
antha	-7078
ilted	-7079
▁fleas	-7080
▁spits	-7081
▁surroundings	-7082
▁teams	-7083
▁fills	-7084
▁lessons	-7085
een	-7086
▁flip	-7087
Dear	-7088
▁melons	-7089
▁paintbrush	-7090
▁Puppy	-7091
▁mermaid	-7092
Bang	-7093
▁Outside	-7094
▁Although	-7095
▁Win	-7096
▁grandchild	-7097
▁elbow	-7098
▁explo	-7099
▁hoops	-7100
▁Cu	-7101
▁Soft	-7102
▁sports	-7103
▁lies	-7104
▁Fighting	-7105
rac	-7106
▁Fiona	-7107
▁panicked	-7108
▁amount	-7109
▁cleaner	-7110
cused	-7111
▁longest	-7112
▁Samantha	-7113
▁scooters	-7114
▁lent	-7115
▁Sadie	-7116
ita	-7117
▁sill	-7118
immering	-7119
▁beloved	-7120
▁beehive	-7121
Alright	-7122
lle	-7123
ongrat	-7124
oni	-7125
▁Mixy	-7126
ongratul	-7127
▁oysters	-7128
▁grandparent	-7129
Guess	-7130
▁Mother	-7131
▁forgiven	-7132
▁Sparkle	-7133
▁magazines	-7134
▁arr	-7135
▁elf	-7136
ces	-7137
▁repeating	-7138
▁discussed	-7139
▁Dani	-7140
▁sweetest	-7141
▁wadd	-7142
▁Everybody	-7143
▁reass	-7144
Keep	-7145
▁nightmares	-7146
▁tubes	-7147
▁spoonful	-7148
▁understands	-7149
▁Pen	-7150
▁nood	-7151
▁bathing	-7152
asty	-7153
▁sweep	-7154
▁manners	-7155
crow	-7156
▁nur	-7157
▁bully	-7158
▁wrink	-7159
▁sprang	-7160
▁guide	-7161
▁Mint	-7162
▁crew	-7163
▁Amelia	-7164
omise	-7165
onna	-7166
▁breathed	-7167
ilda	-7168
ently	-7169
steps	-7170
while	-7171
▁Ke	-7172
▁Well	-7173
▁bulbs	-7174
▁coug	-7175
▁neare	-7176
▁grassy	-7177
▁spies	-7178
▁wiggly	-7179
▁testing	-7180
▁Eddie	-7181
▁sheets	-7182
▁solving	-7183
▁Start	-7184
▁footsteps	-7185
immy	-7186
ntil	-7187
▁speeding	-7188
hew	-7189
Doggy	-7190
▁focused	-7191
cept	-7192
ounced	-7193
?!"	-7194
▁Herb	-7195
▁camel	-7196
▁braver	-7197
▁mesmerized	-7198
▁hesitant	-7199
▁licking	-7200
▁Angel	-7201
▁rushing	-7202
Moo	-7203
▁joining	-7204
▁polar	-7205
▁greeted	-7206
▁worn	-7207
▁changes	-7208
▁materials	-7209
undred	-7210
▁Despite	-7211
Which	-7212
▁Bess	-7213
▁stored	-7214
▁bicycles	-7215
▁Back	-7216
▁mast	-7217
▁anger	-7218
Leave	-7219
▁peacefully	-7220
▁Show	-7221
▁ships	-7222
Tweet	-7223
▁spice	-7224
▁nuzz	-7225
▁gonna	-7226
▁terrified	-7227
▁Cow	-7228
▁politely	-7229
▁Mean	-7230
▁spills	-7231
▁scarecrow	-7232
▁Meg	-7233
▁knives	-7234
ppies	-7235
▁evil	-7236
▁burying	-7237
ca	-7238
Billy	-7239
On	-7240
▁aren	-7241
▁healing	-7242
▁donkey	-7243
▁aeroplanes	-7244
freeze	-7245
agic	-7246
▁miles	-7247
▁seals	-7248
▁scattering	-7249
amboo	-7250
▁dump	-7251
▁Nice	-7252
▁worrying	-7253
Mimi	-7254
▁Gary	-7255
zoom	-7256
beep	-7257
▁puzzled	-7258
▁stacked	-7259
▁Ruth	-7260
▁loses	-7261
dding	-7262
▁baskets	-7263
▁travelled	-7264
▁Okay	-7265
▁Chess	-7266
▁blast	-7267
▁gazing	-7268
erm	-7269
ipes	-7270
▁Fairy	-7271
▁temperature	-7272
▁und	-7273
▁clue	-7274
▁tasting	-7275
▁dripping	-7276
▁believing	-7277
▁pinching	-7278
▁rats	-7279
▁soaking	-7280
Hurry	-7281
isc	-7282
▁Poor	-7283
▁Isn	-7284
▁sandy	-7285
rect	-7286
▁Mindy	-7287
rey	-7288
▁Meanwhile	-7289
▁Hug	-7290
▁Navy	-7291
▁banged	-7292
▁punishment	-7293
▁humans	-7294
▁crashing	-7295
▁Sof	-7296
▁Bra	-7297
▁gest	-7298
▁hundred	-7299
▁swimmer	-7300
▁Te	-7301
▁snowflakes	-7302
▁relaxing	-7303
form	-7304
▁Stan	-7305
▁beeped	-7306
▁resisted	-7307
▁quarreled	-7308
elie	-7309
▁ramp	-7310
▁Still	-7311
▁joins	-7312
abby	-7313
▁Dina	-7314
▁Eliz	-7315
▁backpacks	-7316
years	-7317
▁delayed	-7318
▁dressing	-7319
▁Cr	-7320
▁toddler	-7321
▁flight	-7322
▁Another	-7323
▁covering	-7324
orter	-7325
▁benches	-7326
▁encouragement	-7327
▁Maddy	-7328
▁toward	-7329
▁scraped	-7330
Open	-7331
▁focus	-7332
▁purpose	-7333
▁correct	-7334
'."	-7335
▁lipstick	-7336
ider	-7337
▁bamboo	-7338
▁months	-7339
▁potion	-7340
▁twinkled	-7341
▁permitted	-7342
▁languages	-7343
▁orders	-7344
▁freedom	-7345
▁Judge	-7346
▁risks	-7347
▁master	-7348
▁poppies	-7349
shm	-7350
▁Maisy	-7351
▁noodles	-7352
▁faded	-7353
▁Blinky	-7354
▁wounds	-7355
All	-7356
rier	-7357
▁Loop	-7358
shmallow	-7359
isions	-7360
▁creams	-7361
▁birdhouse	-7362
▁cells	-7363
▁annoyed	-7364
opes	-7365
▁adults	-7366
▁cheers	-7367
▁sniffing	-7368
▁unwra	-7369
ecca	-7370
▁puck	-7371
▁floats	-7372
▁opinions	-7373
▁Jonny	-7374
▁Sofia	-7375
▁Ria	-7376
andas	-7377
▁Eva	-7378
▁flown	-7379
▁Shelly	-7380
▁scen	-7381
▁sneezes	-7382
▁handsome	-7383
Kids	-7384
▁nodding	-7385
▁burnt	-7386
▁smelling	-7387
▁Razor	-7388
▁drifted	-7389
▁within	-7390
bage	-7391
▁height	-7392
▁scient	-7393
▁damaged	-7394
▁bothering	-7395
▁pleaded	-7396
▁slither	-7397
▁tearing	-7398
▁instruments	-7399
▁Yoga	-7400
▁ease	-7401
▁scientist	-7402
▁pound	-7403
▁Say	-7404
▁seller	-7405
▁handing	-7406
▁germ	-7407
▁Flick	-7408
▁files	-7409
▁wasting	-7410
▁dreamt	-7411
▁results	-7412
Goodnight	-7413
bell	-7414
▁brushing	-7415
▁explains	-7416
▁destroying	-7417
ousy	-7418
▁hiss	-7419
▁characters	-7420
▁certain	-7421
▁sweaty	-7422
unched	-7423
▁Megan	-7424
▁Prince	-7425
▁business	-7426
In	-7427
▁Fe	-7428
▁Honey	-7429
▁onward	-7430
▁talents	-7431
▁bravest	-7432
▁engines	-7433
ition	-7434
▁sternly	-7435
prints	-7436
▁swirl	-7437
▁postman	-7438
▁mosquitoes	-7439
▁minds	-7440
cake	-7441
under	-7442
▁tuck	-7443
▁scares	-7444
▁Ricky	-7445
▁stomp	-7446
▁apologised	-7447
▁manag	-7448
▁Se	-7449
▁Gerry	-7450
▁snuck	-7451
▁bitten	-7452
Sn	-7453
uel	-7454
attered	-7455
▁tilted	-7456
▁Frankie	-7457
▁switched	-7458
▁decisions	-7459
▁reminding	-7460
▁Shadow	-7461
▁desper	-7462
▁singers	-7463
▁behavior	-7464
bbers	-7465
▁peeled	-7466
▁squeaked	-7467
Try	-7468
▁Cari	-7469
ashing	-7470
inny	-7471
▁yumm	-7472
▁purrs	-7473
▁Mousy	-7474
▁Ruff	-7475
▁smashed	-7476
▁treated	-7477
▁rustling	-7478
▁displayed	-7479
▁matey	-7480
▁neatly	-7481
▁planting	-7482
An	-7483
▁Katy	-7484
▁marshmallow	-7485
▁insp	-7486
Big	-7487
▁sy	-7488
▁cracks	-7489
▁yelped	-7490
▁bellies	-7491
▁grandparents	-7492
aver	-7493
▁Nut	-7494
▁scamp	-7495
▁shines	-7496
▁hoo	-7497
▁Fishy	-7498
▁failed	-7499
▁coloring	-7500
▁Make	-7501
▁Luc	-7502
line	-7503
▁zooms	-7504
rup	-7505
▁nasty	-7506
▁breathing	-7507
▁combed	-7508
▁pandas	-7509
▁Curious	-7510
▁despite	-7511
▁address	-7512
▁Cro	-7513
▁Tri	-7514
ighing	-7515
▁waterfall	-7516
uffin	-7517
Tw	-7518
cc	-7519
▁Nancy	-7520
▁antic	-7521
▁wider	-7522
▁robbers	-7523
▁Louise	-7524
▁Im	-7525
▁Patty	-7526
▁echoed	-7527
▁doorway	-7528
▁sweaters	-7529
▁edges	-7530
omp	-7531
▁inj	-7532
▁force	-7533
▁gap	-7534
▁disobey	-7535
wise	-7536
▁tar	-7537
▁Rita	-7538
Daisy	-7539
orking	-7540
oscope	-7541
▁taped	-7542
▁magnif	-7543
father	-7544
▁flaps	-7545
▁action	-7546
▁scolds	-7547
▁crawls	-7548
▁swap	-7549
▁backs	-7550
▁gobbled	-7551
▁warri	-7552
▁curl	-7553
▁sever	-7554
▁steth	-7555
▁shinier	-7556
▁probably	-7557
▁newspapers	-7558
▁occ	-7559
▁Bang	-7560
▁Kelly	-7561
▁several	-7562
▁Gl	-7563
▁encount	-7564
Wake	-7565
▁Share	-7566
▁plucked	-7567
▁quieter	-7568
▁serving	-7569
▁connected	-7570
tock	-7571
▁ouch	-7572
▁Nurse	-7573
▁Flo	-7574
igger	-7575
▁Jax	-7576
▁gesture	-7577
▁plot	-7578
▁student	-7579
▁doorbell	-7580
▁Bubba	-7581
▁cares	-7582
▁squaw	-7583
fire	-7584
▁Joh	-7585
▁grandson	-7586
▁rescuing	-7587
▁spy	-7588
▁rows	-7589
▁simply	-7590
▁goo	-7591
▁whistles	-7592
mies	-7593
▁Bri	-7594
▁Pl	-7595
Play	-7596
vant	-7597
▁snaps	-7598
▁shorter	-7599
▁astronauts	-7600
ssss	-7601
Bunny	-7602
▁cottage	-7603
▁unpacking	-7604
Too	-7605
▁swo	-7606
▁accidents	-7607
For	-7608
ibi	-7609
▁mood	-7610
Shrink	-7611
▁swollen	-7612
verse	-7613
▁Kevin	-7614
abelle	-7615
▁bothered	-7616
aint	-7617
▁Muffin	-7618
▁stethoscope	-7619
▁Ar	-7620
▁Elle	-7621
▁Phil	-7622
▁Wooly	-7623
▁causing	-7624
▁trusting	-7625
▁Bad	-7626
▁leapt	-7627
▁dresser	-7628
▁sou	-7629
found	-7630
▁pills	-7631
▁proper	-7632
ears	-7633
retty	-7634
▁throughout	-7635
Magic	-7636
▁runner	-7637
▁prayers	-7638
▁Ne	-7639
▁joyful	-7640
what	-7641
▁Ready	-7642
mates	-7643
▁Wait	-7644
▁locks	-7645
ulp	-7646
▁goats	-7647
▁target	-7648
rest	-7649
▁dears	-7650
▁Toys	-7651
▁flips	-7652
▁munch	-7653
▁waddled	-7654
▁lowered	-7655
▁Pop	-7656
▁Startled	-7657
▁stepping	-7658
▁Flop	-7659
▁cons	-7660
▁Speed	-7661
▁Taking	-7662
▁teachers	-7663
▁Daniel	-7664
▁cowboy	-7665
▁inches	-7666
▁envelopes	-7667
▁Elsa	-7668
▁char	-7669
▁Ty	-7670
▁anticip	-7671
▁explorer	-7672
▁playd	-7673
unity	-7674
▁Fel	-7675
ening	-7676
▁floors	-7677
▁efforts	-7678
▁knocking	-7679
▁uniforms	-7680
lied	-7681
▁aware	-7682
▁footprints	-7683
Nice	-7684
▁Bumpy	-7685
▁nearly	-7686
llas	-7687
▁Bibi	-7688
▁disc	-7689
ivi	-7690
▁sens	-7691
▁trot	-7692
▁glitt	-7693
▁whimp	-7694
▁appreciation	-7695
▁Becky	-7696
▁necks	-7697
▁checks	-7698
▁collap	-7699
▁lapt	-7700
▁except	-7701
▁Min	-7702
▁plug	-7703
▁charge	-7704
rie	-7705
oosh	-7706
▁Rog	-7707
▁fluttering	-7708
▁umbrellas	-7709
▁Seeing	-7710
▁stamped	-7711
▁sandcastles	-7712
▁statues	-7713
omb	-7714
ails	-7715
iscuit	-7716
▁shrank	-7717
rily	-7718
▁adds	-7719
▁Biggy	-7720
▁prick	-7721
▁finishing	-7722
▁Ot	-7723
Blue	-7724
rons	-7725
▁Joan	-7726
▁dodged	-7727
▁stroll	-7728
▁hunters	-7729
▁chocolates	-7730
▁germs	-7731
▁passengers	-7732
▁aisle	-7733
▁wrigg	-7734
▁aprons	-7735
▁Cle	-7736
▁sets	-7737
.'"	-7738
▁weeds	-7739
▁novels	-7740
order	-7741
▁demanding	-7742
▁meows	-7743
▁scratching	-7744
▁De	-7745
▁nurses	-7746
issa	-7747
▁minding	-7748
▁discussing	-7749
▁killed	-7750
urrender	-7751
▁driveway	-7752
acy	-7753
▁becomes	-7754
▁Oh	-7755
▁Jason	-7756
▁haird	-7757
▁laptop	-7758
▁toolbox	-7759
▁posit	-7760
▁attack	-7761
So	-7762
Luna	-7763
sol	-7764
▁bounces	-7765
▁scampered	-7766
▁deed	-7767
▁Softy	-7768
▁sprays	-7769
▁supplied	-7770
▁tempt	-7771
▁burns	-7772
▁suggestion	-7773
▁friendships	-7774
Every	-7775
▁closing	-7776
▁slapping	-7777
Arrr	-7778
▁Roger	-7779
▁invites	-7780
▁belongings	-7781
▁anticipation	-7782
▁Eric	-7783
▁form	-7784
▁erase	-7785
▁cotton	-7786
▁springing	-7787
▁rays	-7788
▁twists	-7789
▁Never	-7790
▁snuggle	-7791
▁forgives	-7792
▁shall	-7793
▁models	-7794
▁Gus	-7795
▁Jolly	-7796
▁humming	-7797
▁massages	-7798
▁Man	-7799
▁conc	-7800
▁newfound	-7801
▁responded	-7802
▁ghosts	-7803
▁expecting	-7804
▁cheated	-7805
Does	-7806
ots	-7807
▁Yawn	-7808
otte	-7809
▁Flutter	-7810
▁traveling	-7811
▁cond	-7812
▁battle	-7813
▁although	-7814
alloween	-7815
▁mommies	-7816
▁Mae	-7817
▁aim	-7818
Friend	-7819
▁carries	-7820
▁invitations	-7821
▁Ag	-7822
▁refreshing	-7823
▁Rel	-7824
Chirp	-7825
▁presented	-7826
▁Grand	-7827
▁rowed	-7828
▁twenty	-7829
▁squir	-7830
Someone	-7831
▁Bingo	-7832
Jane	-7833
▁foxes	-7834
▁cooper	-7835
▁Elsie	-7836
▁final	-7837
▁duckling	-7838
▁cafe	-7839
▁Gray	-7840
▁Dotty	-7841
▁marshmallows	-7842
▁Freddie	-7843
▁clicked	-7844
▁jets	-7845
▁beaver	-7846
▁designing	-7847
five	-7848
▁Whoever	-7849
▁Halloween	-7850
▁mugs	-7851
▁drown	-7852
po	-7853
onnie	-7854
▁oppos	-7855
▁convin	-7856
▁picnics	-7857
▁tricycle	-7858
iens	-7859
inted	-7860
▁Terry	-7861
▁Charlotte	-7862
▁scoops	-7863
▁congratul	-7864
off	-7865
uacky	-7866
▁aliens	-7867
▁travels	-7868
▁tests	-7869
▁questioned	-7870
▁Lina	-7871
▁Piggy	-7872
▁strips	-7873
ana	-7874
▁defe	-7875
covered	-7876
▁Truck	-7877
hel	-7878
ended	-7879
▁Chick	-7880
▁fights	-7881
roken	-7882
▁opposite	-7883
Hmm	-7884
▁rout	-7885
▁afford	-7886
▁encountered	-7887
▁grandfather	-7888
▁decl	-7889
inch	-7890
Whiskers	-7891
▁More	-7892
▁raising	-7893
iment	-7894
▁upside	-7895
▁calmly	-7896
▁flashed	-7897
▁Playing	-7898
▁sincere	-7899
▁yawning	-7900
▁realizes	-7901
Find	-7902
▁buddy	-7903
aturday	-7904
▁William	-7905
▁crystals	-7906
▁Missile	-7907
▁buckled	-7908
▁cupcakes	-7909
byes	-7910
▁defin	-7911
▁Flappy	-7912
▁winners	-7913
▁Saturday	-7914
',	-7915
▁Thunder	-7916
▁caw	-7917
▁weapons	-7918
shadow	-7919
▁cheat	-7920
▁Amanda	-7921
▁packages	-7922
Choo	-7923
▁attem	-7924
▁coach	-7925
▁sacks	-7926
▁messes	-7927
▁goodbyes	-7928
quet	-7929
▁Nutty	-7930
▁convers	-7931
val	-7932
▁Jet	-7933
▁caps	-7934
emies	-7935
▁Cook	-7936
▁enemies	-7937
Em	-7938
asha	-7939
▁scrub	-7940
▁Tweety	-7941
▁yummiest	-7942
Ball	-7943
▁swallow	-7944
▁returning	-7945
▁admiration	-7946
romise	-7947
▁sprout	-7948
▁unable	-7949
ugging	-7950
▁bless	-7951
▁sadder	-7952
▁freezing	-7953
▁brightest	-7954
▁respon	-7955
Trust	-7956
▁cosy	-7957
reverse	-7958
▁response	-7959
Molly	-7960
iri	-7961
▁bride	-7962
▁diamonds	-7963
His	-7964
ooks	-7965
stalk	-7966
▁reapp	-7967
▁opport	-7968
▁garbage	-7969
▁honking	-7970
▁prevented	-7971
▁stretches	-7972
▁whispering	-7973
erk	-7974
▁odd	-7975
▁awful	-7976
antastic	-7977
▁whoever	-7978
alth	-7979
▁Jean	-7980
▁awoke	-7981
▁weighs	-7982
▁journeys	-7983
Brrr	-7984
▁Oliv	-7985
▁Shark	-7986
▁traps	-7987
▁spices	-7988
▁dragonfly	-7989
atty	-7990
▁born	-7991
▁Floppy	-7992
▁clip	-7993
▁reassured	-7994
▁argum	-7995
▁stall	-7996
▁beanstalk	-7997
▁beetles	-7998
▁examining	-7999
▁definitely	-8000
▁automobiles	-8001
ici	-8002
mine	-8003
▁Bub	-8004
▁Tammy	-8005
▁playdate	-8006
▁stuffing	-8007
▁visitors	-8008
▁Any	-8009
▁washes	-8010
cie	-8011
broken	-8012
▁Wolf	-8013
▁wiser	-8014
▁customer	-8015
emma	-8016
uper	-8017
▁Tre	-8018
▁travelling	-8019
▁bou	-8020
▁Hello	-8021
▁bouquet	-8022
▁hairdress	-8023
,'	-8024
orse	-8025
▁Pick	-8026
▁Amber	-8027
▁Janey	-8028
▁tumbled	-8029
▁campfire	-8030
▁decoration	-8031
▁bud	-8032
▁honesty	-8033
vy	-8034
▁bomb	-8035
action	-8036
▁Jumpy	-8037
▁Magic	-8038
▁offering	-8039
▁welcoming	-8040
▁occas	-8041
▁wealth	-8042
▁troubles	-8043
▁increasing	-8044
▁loudest	-8045
▁inspired	-8046
▁type	-8047
▁groan	-8048
▁parted	-8049
▁Ashley	-8050
▁whales	-8051
▁Reb	-8052
▁Moppy	-8053
▁Rebecca	-8054
▁Har	-8055
▁Eliza	-8056
▁declared	-8057
Only	-8058
▁correctly	-8059
fus	-8060
▁Fly	-8061
▁beaks	-8062
▁craft	-8063
athan	-8064
▁cleared	-8065
▁Sal	-8066
▁cowboys	-8067
▁Gabby	-8068
▁nuzzled	-8069
Soon	-8070
▁exch	-8071
▁Brian	-8072
▁Sasha	-8073
▁prizes	-8074
▁warmly	-8075
▁Day	-8076
▁Cici	-8077
▁obeyed	-8078
▁rewards	-8079
▁customers	-8080
yl	-8081
▁Sil	-8082
▁sirens	-8083
▁comforting	-8084
ooky	-8085
Should	-8086
shaped	-8087
▁connect	-8088
da	-8089
▁Rub	-8090
match	-8091
▁towns	-8092
▁Olivia	-8093
iolet	-8094
▁rely	-8095
elieve	-8096
▁owns	-8097
▁bends	-8098
▁trigger	-8099
▁fantastic	-8100
▁insisting	-8101
▁spoiling	-8102
▁hairdresser	-8103
▁pipes	-8104
▁poses	-8105
▁cleans	-8106
▁shares	-8107
▁supporting	-8108
▁surrendered	-8109
rench	-8110
▁Bert	-8111
▁Tippy	-8112
▁wrinkled	-8113
▁Tyler	-8114
▁chopped	-8115
▁moons	-8116
▁beaming	-8117
▁recorder	-8118
Car	-8119
unes	-8120
ellow	-8121
▁Light	-8122
▁snowy	-8123
▁thanking	-8124
▁Gracie	-8125
▁Pine	-8126
▁Step	-8127
▁active	-8128
▁scurry	-8129
▁experien	-8130
▁enjoyable	-8131
▁coral	-8132
▁Baa	-8133
▁dollar	-8134
▁environ	-8135
worm	-8136
▁loc	-8137
elope	-8138
▁streamers	-8139
bble	-8140
udged	-8141
▁Sweet	-8142
▁Twist	-8143
▁examp	-8144
▁shooed	-8145
▁shorts	-8146
▁environment	-8147
▁ill	-8148
inger	-8149
▁scent	-8150
▁bruises	-8151
oor	-8152
uster	-8153
▁grat	-8154
▁Hopper	-8155
▁Joke	-8156
▁hisses	-8157
acle	-8158
▁self	-8159
▁plugged	-8160
▁steering	-8161
▁Pretty	-8162
▁warrior	-8163
▁Monkey	-8164
▁visits	-8165
▁exercises	-8166
over	-8167
aptain	-8168
▁cuddles	-8169
▁dangers	-8170
screen	-8171
▁signing	-8172
▁squished	-8173
▁unfortunately	-8174
▁disappoint	-8175
bee	-8176
▁pilots	-8177
munk	-8178
▁Nora	-8179
▁gratitude	-8180
▁applauding	-8181
▁Wil	-8182
▁providing	-8183
alf	-8184
▁ting	-8185
▁tickles	-8186
▁jud	-8187
▁badger	-8188
▁nights	-8189
▁storms	-8190
▁convinced	-8191
▁youn	-8192
▁choosing	-8193
▁responsib	-8194
▁brains	-8195
▁nearest	-8196
▁activity	-8197
▁youngest	-8198
▁coughed	-8199
▁arranged	-8200
▁exploded	-8201
▁Off	-8202
Bella	-8203
▁Auntie	-8204
▁rewarding	-8205
good	-8206
▁bond	-8207
▁peep	-8208
▁Rufus	-8209
erpiece	-8210
▁sunscreen	-8211
Tree	-8212
asers	-8213
Ollie	-8214
▁Fort	-8215
ilities	-8216
▁annoying	-8217
sn	-8218
Grow	-8219
▁Flora	-8220
▁soapy	-8221
meow	-8222
▁Berry	-8223
▁Tessa	-8224
▁laces	-8225
▁rails	-8226
▁offic	-8227
▁tapping	-8228
▁threads	-8229
▁appreciated	-8230
▁Helen	-8231
boards	-8232
▁Cally	-8233
▁emerged	-8234
▁weighing	-8235
▁heartbroken	-8236
▁congratulated	-8237
▁Microscope	-8238
Bear	-8239
▁tin	-8240
Danger	-8241
▁Gilly	-8242
▁clerk	-8243
▁Tomorrow	-8244
▁crocodiles	-8245
▁scram	-8246
▁attempt	-8247
Ahoy	-8248
water	-8249
▁dial	-8250
▁snug	-8251
▁messed	-8252
▁example	-8253
▁Jenn	-8254
▁hooks	-8255
▁tops	-8256
▁chipmunk	-8257
▁soot	-8258
▁bathed	-8259
▁guarding	-8260
Sarah	-8261
▁manager	-8262
▁Penelope	-8263
Pe	-8264
▁Fortunately	-8265
etah	-8266
▁masterpiece	-8267
▁Mart	-8268
ending	-8269
▁erasers	-8270
▁fet	-8271
▁tips	-8272
▁Felix	-8273
▁common	-8274
▁finishes	-8275
mbers	-8276
▁digs	-8277
▁members	-8278
▁nibbled	-8279
▁trotted	-8280
▁Fay	-8281
▁Set	-8282
▁expert	-8283
▁kinder	-8284
▁cheetah	-8285
▁Peggy	-8286
▁blond	-8287
▁chews	-8288
▁particularly	-8289
ircle	-8290
▁rips	-8291
▁beast	-8292
▁Riri	-8293
▁argument	-8294
ative	-8295
▁faith	-8296
▁Helping	-8297
Ab	-8298
▁Super	-8299
▁Andrew	-8300
▁earned	-8301
▁observing	-8302
▁forgiveness	-8303
▁fishes	-8304
chievous	-8305
▁cheaper	-8306
▁instantly	-8307
▁experienced	-8308
▁cages	-8309
▁generosity	-8310
▁mischievous	-8311
▁foam	-8312
▁meowing	-8313
Mark	-8314
mered	-8315
▁Barry	-8316
Friends	-8317
▁Buster	-8318
▁grandd	-8319
▁stores	-8320
▁Excitedly	-8321
▁mattered	-8322
▁Ice	-8323
▁limp	-8324
etchup	-8325
▁teles	-8326
▁passes	-8327
▁Captain	-8328
▁sleeps	-8329
▁Fle	-8330
▁Puffy	-8331
▁breaths	-8332
▁rin	-8333
▁gasps	-8334
ordinary	-8335
▁Gill	-8336
Got	-8337
▁hatch	-8338
▁trans	-8339
▁Matilda	-8340
▁rumbling	-8341
abra	-8342
▁satisf	-8343
▁grassho	-8344
▁accomplished	-8345
acing	-8346
▁mats	-8347
▁strum	-8348
▁thump	-8349
▁smartest	-8350
▁telescope	-8351
▁moat	-8352
▁Bobbie	-8353
▁whined	-8354
▁jugg	-8355
▁farmers	-8356
▁scrambled	-8357
▁Mila	-8358
▁drip	-8359
▁syrup	-8360
▁angrily	-8361
▁gardens	-8362
▁collapsed	-8363
idey	-8364
▁vegg	-8365
ouraged	-8366
▁styles	-8367
▁forests	-8368
▁discoveries	-8369
▁experiences	-8370
hole	-8371
▁tor	-8372
ering	-8373
Chirpy	-8374
▁Cloud	-8375
▁Tiger	-8376
▁faint	-8377
▁medals	-8378
▁Does	-8379
▁conqu	-8380
▁court	-8381
▁types	-8382
▁otters	-8383
▁meaning	-8384
pit	-8385
▁Ly	-8386
▁fif	-8387
acock	-8388
▁Waff	-8389
adabra	-8390
▁hardest	-8391
▁snapping	-8392
▁movements	-8393
▁expression	-8394
▁Pig	-8395
acles	-8396
▁Otto	-8397
▁surv	-8398
▁affect	-8399
▁bubbly	-8400
▁chilly	-8401
▁vests	-8402
▁unfair	-8403
▁scores	-8404
▁toothbrush	-8405
▁extraordinary	-8406
▁App	-8407
▁mir	-8408
▁Peep	-8409
▁Butter	-8410
▁attitude	-8411
Teddy	-8412
▁vibr	-8413
▁horri	-8414
▁bluebird	-8415
▁Pinch	-8416
▁Rainbow	-8417
lls	-8418
mel	-8419
▁Right	-8420
▁spears	-8421
Once	-8422
▁ketchup	-8423
▁sooner	-8424
▁behaviour	-8425
▁grasshopper	-8426
▁habit	-8427
▁patches	-8428
Remy	-8429
▁afar	-8430
▁momma	-8431
▁pokes	-8432
▁Gold	-8433
▁Life	-8434
ieves	-8435
▁scri	-8436
▁thicker	-8437
▁icky	-8438
▁shrunk	-8439
▁squeezes	-8440
▁slithered	-8441
▁classmates	-8442
▁Rosa	-8443
▁prickly	-8444
▁glittering	-8445
Joe	-8446
▁Bonnie	-8447
▁topp	-8448
▁kneeling	-8449
▁announced	-8450
plash	-8451
elling	-8452
▁marking	-8453
▁peacock	-8454
▁Sand	-8455
lt	-8456
▁Sir	-8457
ctric	-8458
▁Achoo	-8459
▁costs	-8460
▁Melissa	-8461
▁Ac	-8462
▁Mixie	-8463
▁thieves	-8464
▁zigzags	-8465
▁watermel	-8466
▁Lung	-8467
▁acts	-8468
▁hood	-8469
▁Silver	-8470
▁jumper	-8471
▁skirts	-8472
▁Spidey	-8473
▁wolves	-8474
▁drift	-8475
▁Animal	-8476
▁cocoon	-8477
▁thumbs	-8478
▁squeaky	-8479
▁Annabelle	-8480
lo	-8481
▁Ed	-8482
Jimmy	-8483
ounce	-8484
▁Jelly	-8485
▁boards	-8486
▁woodcut	-8487
▁servant	-8488
Baa	-8489
idence	-8490
▁Riley	-8491
▁cheating	-8492
bu	-8493
cat	-8494
▁raking	-8495
▁trading	-8496
Leo	-8497
▁Math	-8498
▁Mine	-8499
▁explaining	-8500
▁tidied	-8501
▁biscuit	-8502
▁luckily	-8503
▁lunchtime	-8504
anced	-8505
idy	-8506
▁Inky	-8507
▁spilling	-8508
Honey	-8509
▁Paula	-8510
▁Monster	-8511
▁concer	-8512
▁desserts	-8513
▁transform	-8514
ror	-8515
▁Ky	-8516
▁Li	-8517
its	-8518
rough	-8519
▁messages	-8520
▁chill	-8521
▁beating	-8522
▁windowsill	-8523
Mouse	-8524
▁Boom	-8525
▁seeking	-8526
▁actor	-8527
amma	-8528
sess	-8529
▁Hi	-8530
pril	-8531
▁foreshadow	-8532
war	-8533
Never	-8534
▁Carla	-8535
▁leans	-8536
▁dev	-8537
▁Jose	-8538
▁cloths	-8539
▁hissing	-8540
racadabra	-8541
▁flashing	-8542
▁watermelon	-8543
▁funn	-8544
▁teap	-8545
▁winding	-8546
▁positive	-8547
▁discouraged	-8548
pop	-8549
▁Feel	-8550
▁Yummy	-8551
▁forts	-8552
▁compete	-8553
▁dripped	-8554
▁woodcutter	-8555
▁pressing	-8556
▁disagreeing	-8557
Fire	-8558
Freeze	-8559
▁Tooth	-8560
▁glimmering	-8561
▁trusts	-8562
▁tidying	-8563
▁veggies	-8564
▁kangaroos	-8565
▁Boat	-8566
▁landing	-8567
▁tempted	-8568
▁dock	-8569
icking	-8570
▁Peace	-8571
lers	-8572
▁Chip	-8573
▁overw	-8574
▁Slinky	-8575
▁Steven	-8576
▁formed	-8577
▁teapot	-8578
▁shallow	-8579
▁fade	-8580
▁rack	-8581
▁Ratty	-8582
▁cops	-8583
▁worst	-8584
flowers	-8585
▁electric	-8586
▁apology	-8587
creams	-8588
▁sleds	-8589
Grandpa	-8590
▁Squeak	-8591
upid	-8592
▁ass	-8593
▁comets	-8594
▁Circle	-8595
▁sav	-8596
▁papa	-8597
▁Hurry	-8598
▁Waffle	-8599
▁officers	-8600
▁situations	-8601
▁conversation	-8602
▁Tip	-8603
▁slee	-8604
▁Woolly	-8605
Sun	-8606
storm	-8607
▁ding	-8608
▁suns	-8609
▁zips	-8610
▁miller	-8611
▁pizzas	-8612
▁overwhel	-8613
▁scurrying	-8614
▁structures	-8615
▁Snake	-8616
▁foggy	-8617
▁granddaughter	-8618
ni	-8619
▁webs	-8620
uickly	-8621
▁April	-8622
▁Birds	-8623
▁deserved	-8624
▁Tra	-8625
▁Faye	-8626
▁cubs	-8627
▁opportunity	-8628
iving	-8629
▁Ravi	-8630
▁rhino	-8631
▁Yellow	-8632
▁snorted	-8633
▁differences	-8634
▁Tell	-8635
▁quacking	-8636
▁Immediately	-8637
oot	-8638
ifully	-8639
▁heaven	-8640
▁unlo	-8641
▁inter	-8642
▁levers	-8643
▁inchworm	-8644
Jill	-8645
▁Smoke	-8646
▁approach	-8647
▁pos	-8648
▁Mole	-8649
▁Mona	-8650
▁possess	-8651
▁seagulls	-8652
▁cooperate	-8653
sers	-8654
ragon	-8655
▁Ever	-8656
welcome	-8657
▁Flopsy	-8658
▁Over	-8659
▁pose	-8660
▁disappointment	-8661
▁dep	-8662
▁Cars	-8663
▁binoc	-8664
▁sneaks	-8665
▁speaks	-8666
sie	-8667
snap	-8668
▁artwork	-8669
▁Liza	-8670
▁scowl	-8671
▁surfed	-8672
▁answering	-8673
Rock	-8674
▁shortcut	-8675
▁Candy	-8676
▁robin	-8677
▁sipped	-8678
ssy	-8679
rick	-8680
▁arrest	-8681
▁Mus	-8682
▁reun	-8683
▁amused	-8684
▁ribbit	-8685
▁unwrapped	-8686
▁repeats	-8687
▁applause	-8688
▁pepperoni	-8689
▁keyhole	-8690
▁checkout	-8691
Deal	-8692
ugar	-8693
▁puppets	-8694
▁visitor	-8695
▁paddling	-8696
▁striking	-8697
Eat	-8698
▁unz	-8699
▁Beef	-8700
▁croaked	-8701
▁attacked	-8702
orsie	-8703
▁spooky	-8704
uses	-8705
▁Con	-8706
▁groaned	-8707
▁beautifully	-8708
cidents	-8709
▁checking	-8710
▁consider	-8711
▁swimsuits	-8712
gar	-8713
▁March	-8714
jest	-8715
▁groom	-8716
▁waters	-8717
Lisa	-8718
▁Jody	-8719
▁Liam	-8720
▁invent	-8721
otion	-8722
▁nets	-8723
▁exams	-8724
▁Find	-8725
▁Ring	-8726
▁drying	-8727
Climb	-8728
agine	-8729
▁lump	-8730
▁Cammy	-8731
▁Janet	-8732
▁shrugs	-8733
lest	-8734
▁Bubu	-8735
▁heels	-8736
▁honks	-8737
▁shyly	-8738
▁shoots	-8739
▁sobbing	-8740
▁cheerfully	-8741
Emma	-8742
▁shh	-8743
esses	-8744
▁Doug	-8745
▁chin	-8746
ili	-8747
anish	-8748
▁Glow	-8749
▁hangs	-8750
▁Horsie	-8751
▁healthier	-8752
▁whimpered	-8753
icious	-8754
▁caterpillars	-8755
izzes	-8756
▁fries	-8757
▁squinted	-8758
▁magnifying	-8759
▁blamed	-8760
▁fascinating	-8761
▁sculp	-8762
▁tablet	-8763
▁sculpture	-8764
▁frustration	-8765
▁Heli	-8766
ouched	-8767
▁Martin	-8768
▁Through	-8769
▁shimmering	-8770
▁poss	-8771
edic	-8772
▁Old	-8773
▁suck	-8774
▁Johny	-8775
▁pleas	-8776
▁numbered	-8777
▁Ba	-8778
▁Oxy	-8779
▁Past	-8780
▁nibble	-8781
othy	-8782
▁Alf	-8783
▁baa	-8784
ellie	-8785
▁flowing	-8786
hings	-8787
▁raked	-8788
▁grumbled	-8789
oll	-8790
▁builder	-8791
emy	-8792
that	-8793
racted	-8794
▁facing	-8795
▁guards	-8796
▁Feeling	-8797
▁Looking	-8798
▁petting	-8799
▁swaying	-8800
▁Match	-8801
▁details	-8802
▁sprinkle	-8803
▁mysteries	-8804
▁enemy	-8805
▁flock	-8806
▁snort	-8807
eat	-8808
amil	-8809
▁Bun	-8810
▁White	-8811
▁goodies	-8812
▁textures	-8813
▁wig	-8814
▁popping	-8815
ulars	-8816
▁fans	-8817
▁crops	-8818
▁marve	-8819
▁stacks	-8820
▁Johnson	-8821
▁countries	-8822
▁wildflowers	-8823
how	-8824
▁knobs	-8825
Any	-8826
▁bushy	-8827
▁local	-8828
▁stew	-8829
Sharing	-8830
▁bowing	-8831
▁peeped	-8832
▁angrier	-8833
▁drowned	-8834
▁hunting	-8835
▁binoculars	-8836
▁maps	-8837
▁niece	-8838
▁quizzes	-8839
▁moonlight	-8840
▁Deal	-8841
▁Sleepy	-8842
▁outfits	-8843
▁Triangle	-8844
OO	-8845
▁Icy	-8846
▁weaker	-8847
▁whoosh	-8848
▁wrench	-8849
▁crowded	-8850
▁mindful	-8851
▁Kn	-8852
▁Coal	-8853
cycles	-8854
▁endings	-8855
▁Cut	-8856
▁Care	-8857
▁Wonder	-8858
▁flashes	-8859
▁property	-8860
▁hesitation	-8861
▁Fix	-8862
▁boil	-8863
▁fond	-8864
▁Spicy	-8865
▁carts	-8866
amiliar	-8867
▁unless	-8868
▁ability	-8869
▁imaginations	-8870
getic	-8871
▁Oxygen	-8872
▁glared	-8873
▁Accidents	-8874
▁Too	-8875
stand	-8876
▁knit	-8877
▁folds	-8878
▁haven	-8879
▁spaces	-8880
▁unfamiliar	-8881
saw	-8882
ths	-8883
▁microw	-8884
▁dirtier	-8885
▁responsibility	-8886
Momo	-8887
bank	-8888
▁Leah	-8889
▁desks	-8890
▁pouch	-8891
▁microwave	-8892
sey	-8893
ibly	-8894
▁Surpr	-8895
▁Trucky	-8896
▁cracker	-8897
rnie	-8898
▁Jas	-8899
▁aston	-8900
▁member	-8901
▁swapped	-8902
ets	-8903
▁Per	-8904
▁date	-8905
▁rebu	-8906
▁whine	-8907
▁doorstep	-8908
▁softened	-8909
▁disappearing	-8910
free	-8911
▁natur	-8912
▁quacks	-8913
scar	-8914
▁Bro	-8915
▁Carly	-8916
▁writer	-8917
▁listener	-8918
▁priv	-8919
▁blushed	-8920
uke	-8921
▁Res	-8922
Bless	-8923
venir	-8924
▁palms	-8925
▁noticing	-8926
upt	-8927
peat	-8928
poison	-8929
▁Crabby	-8930
▁souvenir	-8931
entr	-8932
▁Pot	-8933
▁laws	-8934
endant	-8935
repeat	-8936
▁Animals	-8937
▁disaster	-8938
ai	-8939
reg	-8940
str	-8941
Want	-8942
▁Belle	-8943
▁phones	-8944
▁confidence	-8945
ala	-8946
ingly	-8947
▁stirs	-8948
▁timid	-8949
▁overwhelmed	-8950
▁flick	-8951
▁mayor	-8952
▁''	-8953
▁Run	-8954
guess	-8955
▁tugging	-8956
Two	-8957
▁Flap	-8958
▁owls	-8959
▁injured	-8960
▁mailing	-8961
▁untangle	-8962
sa	-8963
Whose	-8964
▁Books	-8965
▁Sandra	-8966
▁concentr	-8967
▁satisfaction	-8968
ching	-8969
▁Clean	-8970
▁Close	-8971
▁Mamma	-8972
mers	-8973
▁Eat	-8974
▁lim	-8975
this	-8976
▁prank	-8977
▁Joanna	-8978
▁Coby	-8979
▁Hank	-8980
▁Jennie	-8981
▁hooves	-8982
well	-8983
▁fixer	-8984
▁Flicker	-8985
▁Ken	-8986
icate	-8987
▁clut	-8988
▁snar	-8989
▁Reliable	-8990
bling	-8991
▁Sing	-8992
▁skies	-8993
▁instrument	-8994
▁Fa	-8995
▁capt	-8996
Rain	-8997
lish	-8998
▁desc	-8999
adually	-9000
▁disagre	-9001
iky	-9002
▁Pink	-9003
▁creak	-9004
▁pecks	-9005
▁rinse	-9006
▁stains	-9007
▁Jasmine	-9008
▁Stanley	-9009
▁wriggled	-9010
▁Kyle	-9011
▁Nate	-9012
▁Oscar	-9013
▁shave	-9014
Nothing	-9015
▁bumping	-9016
▁Scissors	-9017
ulf	-9018
▁Of	-9019
▁ruff	-9020
▁Greeny	-9021
▁bending	-9022
Owl	-9023
▁Cher	-9024
▁swir	-9025
cessary	-9026
▁chatted	-9027
▁sandpit	-9028
▁exploration	-9029
▁Brad	-9030
▁rods	-9031
▁facts	-9032
▁lever	-9033
▁attaching	-9034
▁Climb	-9035
▁burger	-9036
▁fooled	-9037
Close	-9038
▁glows	-9039
▁Settle	-9040
▁clearly	-9041
▁concerned	-9042
Rob	-9043
Make	-9044
▁lava	-9045
▁salon	-9046
▁compan	-9047
▁certainly	-9048
▁reversing	-9049
els	-9050
▁Lots	-9051
▁circ	-9052
▁Black	-9053
▁smelt	-9054
▁fetched	-9055
▁motorcycles	-9056
▁troll	-9057
▁tunes	-9058
▁oldest	-9059
▁sometime	-9060
▁fireflies	-9061
▁Ms	-9062
▁prod	-9063
▁Summer	-9064
▁blonde	-9065
▁kissing	-9066
▁challenges	-9067
▁warmed	-9068
▁rubb	-9069
▁bound	-9070
▁natural	-9071
▁Lightning	-9072
▁unlocking	-9073
▁differently	-9074
erg	-9075
urple	-9076
▁Open	-9077
▁cutter	-9078
▁detect	-9079
▁cupcake	-9080
▁conquered	-9081
▁riverbank	-9082
Abracadabra	-9083
▁Raven	-9084
▁alley	-9085
▁hates	-9086
ula	-9087
sorry	-9088
▁sends	-9089
▁swirls	-9090
▁realise	-9091
rap	-9092
▁Again	-9093
▁banging	-9094
▁munched	-9095
▁wiggling	-9096
▁sensation	-9097
Isn	-9098
▁Alan	-9099
▁fist	-9100
▁clips	-9101
▁hippos	-9102
▁toppings	-9103
▁robe	-9104
▁Winky	-9105
▁brakes	-9106
▁halves	-9107
▁stings	-9108
▁swayed	-9109
▁Patrick	-9110
▁miracle	-9111
▁Sugar	-9112
Playing	-9113
▁Working	-9114
▁survive	-9115
▁ostriches	-9116
bert	-9117
Splash	-9118
▁embra	-9119
▁torto	-9120
keepers	-9121
▁crushed	-9122
▁bubbling	-9123
▁otherwise	-9124
▁Avery	-9125
▁Grump	-9126
▁Lucas	-9127
▁tents	-9128
▁Carrie	-9129
▁Inch	-9130
▁repairing	-9131
▁Which	-9132
▁lizards	-9133
▁rubbish	-9134
▁stretchy	-9135
Being	-9136
▁Rusty	-9137
▁vinegar	-9138
▁passenger	-9139
Snow	-9140
aste	-9141
▁Josie	-9142
▁Robin	-9143
▁Ginger	-9144
▁pounced	-9145
▁vibrant	-9146
▁tortoise	-9147
Tiny	-9148
▁Duke	-9149
▁scene	-9150
▁mooed	-9151
▁Orange	-9152
▁glided	-9153
▁Sundays	-9154
▁desperately	-9155
gr	-9156
▁Hor	-9157
▁bas	-9158
▁snip	-9159
▁calmer	-9160
▁copied	-9161
▁majest	-9162
▁intently	-9163
net	-9164
ooh	-9165
▁jing	-9166
▁poop	-9167
▁rags	-9168
▁twel	-9169
▁woken	-9170
▁judges	-9171
▁coolest	-9172
▁joyfully	-9173
▁glob	-9174
▁Bruce	-9175
▁Ernie	-9176
▁Tears	-9177
▁Things	-9178
smelling	-9179
▁lectures	-9180
lyn	-9181
anie	-9182
▁hips	-9183
isible	-9184
▁quilt	-9185
▁cousins	-9186
▁astonished	-9187
▁Law	-9188
▁capes	-9189
Eww	-9190
uno	-9191
▁Whee	-9192
▁gooey	-9193
▁arrives	-9194
▁guesses	-9195
▁speaker	-9196
▁reunited	-9197
▁invisible	-9198
▁successfully	-9199
Fly	-9200
ani	-9201
why	-9202
▁bats	-9203
▁twelve	-9204
rum	-9205
urity	-9206
▁Puff	-9207
▁chatting	-9208
▁goodness	-9209
▁computers	-9210
▁Pinchy	-9211
▁Starry	-9212
▁Sunshine	-9213
▁stacking	-9214
▁snowflake	-9215
▁sus	-9216
istory	-9217
▁parks	-9218
▁racer	-9219
▁commun	-9220
▁pounds	-9221
▁companion	-9222
▁desperate	-9223
▁reappeared	-9224
▁ank	-9225
▁dou	-9226
▁level	-9227
▁luckiest	-9228
bed	-9229
▁dumb	-9230
▁gall	-9231
▁tale	-9232
▁Dilly	-9233
▁sells	-9234
▁crickets	-9235
▁stomachs	-9236
iggles	-9237
▁gates	-9238
▁winds	-9239
▁disobeyed	-9240
▁disagreement	-9241
mie	-9242
▁Iron	-9243
▁Spin	-9244
▁Comet	-9245
▁Reddy	-9246
▁crisp	-9247
▁hoses	-9248
▁Marley	-9249
▁awhile	-9250
▁pearls	-9251
lor	-9252
ites	-9253
▁Socky	-9254
▁Winter	-9255
▁popsic	-9256
▁loyalty	-9257
▁soda	-9258
▁Gemma	-9259
▁tongues	-9260
ts	-9261
▁CD	-9262
oard	-9263
▁Bea	-9264
usion	-9265
▁rider	-9266
▁Swimmy	-9267
Ooh	-9268
▁Jere	-9269
des	-9270
pan	-9271
▁Smo	-9272
▁surely	-9273
rent	-9274
▁Roar	-9275
▁bund	-9276
colored	-9277
▁Jonathan	-9278
▁occasion	-9279
dog	-9280
izza	-9281
▁stun	-9282
▁Carol	-9283
▁Sharp	-9284
▁chicks	-9285
▁guitars	-9286
Ring	-9287
chief	-9288
▁Park	-9289
▁aboard	-9290
▁seashe	-9291
▁rebuild	-9292
▁alligators	-9293
▁separating	-9294
▁intelligence	-9295
raw	-9296
Found	-9297
▁Race	-9298
▁creep	-9299
▁croak	-9300
aids	-9301
▁Libby	-9302
▁caution	-9303
▁learner	-9304
▁cuc	-9305
solut	-9306
▁rins	-9307
▁Whale	-9308
▁spiky	-9309
▁whines	-9310
▁revealing	-9311
oss	-9312
▁Rara	-9313
▁Pebby	-9314
▁escap	-9315
working	-9316
▁tickling	-9317
Ella	-9318
▁Hur	-9319
▁lace	-9320
▁globe	-9321
▁crouched	-9322
▁underwater	-9323
!'.	-9324
oma	-9325
▁prog	-9326
▁blooms	-9327
▁appearance	-9328
ifer	-9329
stop	-9330
Benny	-9331
fived	-9332
▁hatched	-9333
▁leaking	-9334
▁strokes	-9335
▁guardian	-9336
mo	-9337
Catch	-9338
▁tant	-9339
arning	-9340
▁doves	-9341
▁routine	-9342
▁zookeepers	-9343
▁persistence	-9344
▁Ami	-9345
▁taps	-9346
▁admit	-9347
▁blame	-9348
▁Breezy	-9349
▁painful	-9350
▁lighting	-9351
▁squashes	-9352
▁ripp	-9353
▁Crusty	-9354
▁Dragon	-9355
▁deeply	-9356
▁tempting	-9357
▁shattered	-9358
ggles	-9359
▁peeks	-9360
▁centre	-9361
▁throne	-9362
▁burgers	-9363
▁security	-9364
▁squirted	-9365
▁electricity	-9366
emon	-9367
▁mold	-9368
▁Allie	-9369
▁Giant	-9370
▁Squee	-9371
▁cooks	-9372
▁allowing	-9373
▁realizing	-9374
Ahh	-9375
cker	-9376
▁lar	-9377
Bobby	-9378
ushes	-9379
▁Bell	-9380
▁Turn	-9381
▁chopping	-9382
▁exchange	-9383
con	-9384
▁Colin	-9385
▁sweetly	-9386
Toys	-9387
Share	-9388
▁rinsed	-9389
▁sweeter	-9390
▁glittered	-9391
isapp	-9392
vering	-9393
▁melts	-9394
▁Spinny	-9395
▁melody	-9396
▁furious	-9397
▁goggles	-9398
▁builders	-9399
▁defeated	-9400
▁energetic	-9401
asy	-9402
▁Cats	-9403
▁waded	-9404
▁chooses	-9405
▁tantrum	-9406
▁Jennifer	-9407
▁sniffled	-9408
▁Otherwise	-9409
▁Pee	-9410
▁Hops	-9411
▁Patient	-9412
▁competing	-9413
▁container	-9414
Hop	-9415
▁Ra	-9416
Frog	-9417
bang	-9418
▁Graceful	-9419
arted	-9420
▁hudd	-9421
▁lull	-9422
▁larger	-9423
▁undone	-9424
▁attempts	-9425
▁seriously	-9426
▁protection	-9427
Shoo	-9428
▁Bar	-9429
▁Randy	-9430
▁cluck	-9431
▁cooed	-9432
▁buckles	-9433
▁tossing	-9434
▁helicopters	-9435
aps	-9436
▁Joseph	-9437
?!	-9438
▁Didi	-9439
▁Gert	-9440
▁dedic	-9441
▁hummed	-9442
solutely	-9443
▁courageous	-9444
▁god	-9445
▁Girl	-9446
▁Last	-9447
▁aloud	-9448
▁muster	-9449
▁racers	-9450
▁deserves	-9451
▁patients	-9452
▁Mop	-9453
Red	-9454
Fred	-9455
▁Lay	-9456
▁meets	-9457
▁tours	-9458
▁marvel	-9459
▁Gret	-9460
▁Land	-9461
▁wrapper	-9462
▁Kind	-9463
▁Clare	-9464
▁booth	-9465
▁nicest	-9466
▁whiskers	-9467
▁improving	-9468
▁Roxy	-9469
▁Kenny	-9470
▁Jeremy	-9471
▁Number	-9472
▁Gu	-9473
▁bold	-9474
▁Brain	-9475
▁meadows	-9476
▁imaginary	-9477
"!	-9478
!'"	-9479
▁Greg	-9480
▁Tidy	-9481
▁obst	-9482
▁blades	-9483
Che	-9484
ware	-9485
▁opt	-9486
▁cruel	-9487
▁pairs	-9488
▁risky	-9489
Surrender	-9490
▁strolled	-9491
▁Nelly	-9492
▁peels	-9493
ssssssss	-9494
▁Thankfully	-9495
▁winks	-9496
▁incredibly	-9497
OP	-9498
meal	-9499
▁Pass	-9500
ically	-9501
▁tanks	-9502
▁nearer	-9503
▁squawk	-9504
Say	-9505
los	-9506
▁tot	-9507
▁Read	-9508
▁army	-9509
▁lamps	-9510
▁messier	-9511
▁pedaling	-9512
▁transformed	-9513
can	-9514
ris	-9515
teen	-9516
▁fail	-9517
▁inju	-9518
▁stur	-9519
ka	-9520
illas	-9521
▁fuss	-9522
▁peak	-9523
▁rect	-9524
shrink	-9525
▁Stand	-9526
▁horrible	-9527
▁munching	-9528
Aw	-9529
Ray	-9530
kind	-9531
guard	-9532
ighty	-9533
▁treas	-9534
▁Square	-9535
▁narrow	-9536
▁unwrap	-9537
▁holidays	-9538
▁overhead	-9539
she	-9540
▁Char	-9541
▁bolt	-9542
▁dryer	-9543
▁puffed	-9544
▁boiling	-9545
▁panicking	-9546
oned	-9547
▁host	-9548
▁dives	-9549
▁possib	-9550
cloth	-9551
shirt	-9552
▁Panda	-9553
▁offers	-9554
▁softest	-9555
▁Crocodile	-9556
▁confusion	-9557
▁mustn	-9558
▁allerg	-9559
▁marveled	-9560
▁uncovered	-9561
▁Ned	-9562
▁Dogs	-9563
▁Soar	-9564
uction	-9565
▁Bruno	-9566
▁cooled	-9567
▁elders	-9568
Jenny	-9569
Sweet	-9570
▁dips	-9571
▁hint	-9572
▁scre	-9573
iciest	-9574
▁current	-9575
▁mustered	-9576
▁Hurricane	-9577
Ice	-9578
▁Ha	-9579
Sleep	-9580
▁Horsy	-9581
▁ankle	-9582
▁chains	-9583
▁rotted	-9584
▁Matthew	-9585
▁cherish	-9586
▁glanced	-9587
▁heights	-9588
▁coughing	-9589
▁treasured	-9590
▁gratefully	-9591
idi	-9592
▁Crane	-9593
parable	-9594
▁Father	-9595
'?"	-9596
aly	-9597
losure	-9598
▁shaky	-9599
▁Purple	-9600
▁heavily	-9601
▁sinking	-9602
▁cupboards	-9603
▁enclosure	-9604
▁mac	-9605
▁Clay	-9606
▁spare	-9607
▁gallop	-9608
▁sleigh	-9609
▁inseparable	-9610
▁oatmeal	-9611
Jen	-9612
▁hob	-9613
iring	-9614
oured	-9615
▁canv	-9616
▁lush	-9617
▁unst	-9618
ippers	-9619
▁Fluff	-9620
▁clubs	-9621
▁dashed	-9622
▁riddle	-9623
▁section	-9624
▁necessary	-9625
Bu	-9626
afe	-9627
Move	-9628
▁conv	-9629
people	-9630
stantly	-9631
▁Gw	-9632
Fish	-9633
rice	-9634
Enjoy	-9635
iraffe	-9636
▁Fizzy	-9637
▁Del	-9638
▁Oak	-9639
▁Whe	-9640
▁sax	-9641
▁Carrot	-9642
▁devast	-9643
▁praise	-9644
▁glittery	-9645
▁ordering	-9646
▁plat	-9647
▁Potato	-9648
▁scenery	-9649
▁zippers	-9650
▁allergic	-9651
▁hundreds	-9652
▁raincoats	-9653
▁Friendship	-9654
ggie	-9655
antern	-9656
▁rowing	-9657
▁suggests	-9658
▁completing	-9659
▁Stu	-9660
bbles	-9661
▁convince	-9662
Three	-9663
▁mushy	-9664
▁Minnie	-9665
▁floppy	-9666
▁nations	-9667
▁character	-9668
▁condition	-9669
atest	-9670
▁Nicky	-9671
▁musicians	-9672
▁practised	-9673
▁recommendation	-9674
otch	-9675
isbee	-9676
▁seated	-9677
▁chatter	-9678
Squ	-9679
▁skips	-9680
Promise	-9681
▁Skeleton	-9682
shop	-9683
udge	-9684
▁Yum	-9685
alled	-9686
▁Cell	-9687
▁slot	-9688
ildren	-9689
▁Could	-9690
▁drill	-9691
▁canvas	-9692
▁huddled	-9693
▁borrowing	-9694
ino	-9695
hand	-9696
aisie	-9697
▁Leaf	-9698
▁lullaby	-9699
▁hovering	-9700
▁soothing	-9701
▁devastated	-9702
▁experiment	-9703
nna	-9704
clock	-9705
▁JoJo	-9706
▁remo	-9707
▁Alarm	-9708
▁enjoys	-9709
▁glisten	-9710
Bee	-9711
ico	-9712
▁Mac	-9713
apple	-9714
epeat	-9715
▁reck	-9716
▁pleasant	-9717
ift	-9718
mate	-9719
aming	-9720
▁fulf	-9721
▁hoot	-9722
▁chili	-9723
▁rocky	-9724
▁Respect	-9725
▁sparrow	-9726
▁Jodie	-9727
▁Cherry	-9728
▁values	-9729
▁showers	-9730
▁airplanes	-9731
▁compromise	-9732
▁temptation	-9733
▁Fun	-9734
▁susp	-9735
▁hairs	-9736
▁royal	-9737
▁chalks	-9738
▁conduct	-9739
Im	-9740
robes	-9741
▁Marg	-9742
▁anten	-9743
immered	-9744
▁folders	-9745
▁distracted	-9746
alue	-9747
aling	-9748
▁Club	-9749
▁Mild	-9750
▁Tick	-9751
▁unfold	-9752
▁reckless	-9753
▁compliment	-9754
▁Kai	-9755
▁Par	-9756
▁Spoon	-9757
▁Joanne	-9758
▁actors	-9759
▁recess	-9760
Something	-9761
▁gorillas	-9762
▁headache	-9763
▁platform	-9764
▁mustaches	-9765
▁absolutely	-9766
▁Sis	-9767
▁Wake	-9768
▁cords	-9769
▁piled	-9770
▁Eating	-9771
▁considerate	-9772
▁townspeople	-9773
aily	-9774
like	-9775
▁Maisie	-9776
▁smoking	-9777
▁combs	-9778
▁lasers	-9779
▁charged	-9780
Bug	-9781
iana	-9782
rings	-9783
▁Bebe	-9784
▁Rick	-9785
▁aroma	-9786
▁pantry	-9787
▁sturdy	-9788
▁shields	-9789
HE	-9790
Miss	-9791
ders	-9792
scotch	-9793
▁La	-9794
▁pea	-9795
▁Fore	-9796
▁soul	-9797
▁wanna	-9798
▁horror	-9799
▁wax	-9800
ibbles	-9801
▁Mumma	-9802
▁Robot	-9803
▁ashes	-9804
▁beeping	-9805
▁Broccoli	-9806
▁conductor	-9807
▁disappears	-9808
▁communicate	-9809
acey	-9810
▁Rad	-9811
▁buys	-9812
▁petal	-9813
▁fences	-9814
▁spades	-9815
▁ladybugs	-9816
▁silently	-9817
▁Eve	-9818
▁lun	-9819
▁aback	-9820
▁wobbles	-9821
Co	-9822
▁Tay	-9823
▁len	-9824
▁silk	-9825
▁yuck	-9826
▁magnific	-9827
▁hollow	-9828
▁Timothy	-9829
▁hamster	-9830
▁warmest	-9831
▁Carefully	-9832
▁Op	-9833
▁Ouch	-9834
▁pail	-9835
▁caves	-9836
▁loads	-9837
▁motions	-9838
▁movement	-9839
▁lifeguard	-9840
▁Di	-9841
▁sly	-9842
▁Gwen	-9843
▁Rory	-9844
▁snoring	-9845
▁agreeing	-9846
▁earrings	-9847
▁embarrassing	-9848
Hoor	-9849
▁Cake	-9850
▁Soap	-9851
▁clim	-9852
Hooray	-9853
ateful	-9854
▁blade	-9855
▁Fork	-9856
▁aisles	-9857
▁cables	-9858
▁payoff	-9859
▁scowled	-9860
mark	-9861
▁hare	-9862
▁whir	-9863
▁slight	-9864
▁alongside	-9865
▁possibilities	-9866
▁Af	-9867
▁Jes	-9868
▁lil	-9869
oomie	-9870
▁Noah	-9871
▁Silly	-9872
▁antlers	-9873
▁scratchy	-9874
▁Hat	-9875
▁pads	-9876
barrow	-9877
▁Apple	-9878
▁dedication	-9879
▁wheelbarrow	-9880
Sw	-9881
rem	-9882
▁Kel	-9883
▁Pear	-9884
▁huff	-9885
▁dumped	-9886
▁lookout	-9887
▁Tuesdays	-9888
▁confidently	-9889
Aunt	-9890
▁Pep	-9891
▁Son	-9892
▁plank	-9893
▁roast	-9894
▁woodpe	-9895
ibo	-9896
▁Boy	-9897
▁Tuck	-9898
▁Matty	-9899
▁Magnet	-9900
rin	-9901
reya	-9902
▁keen	-9903
▁Heidi	-9904
▁Reading	-9905
▁handles	-9906
▁hurtful	-9907
▁workshop	-9908
▁cherished	-9909
NG	-9910
okay	-9911
▁Oink	-9912
▁Ronny	-9913
▁collars	-9914
Boom	-9915
Birdy	-9916
Jerry	-9917
▁flyer	-9918
▁Coffee	-9919
▁Spider	-9920
▁Nibbles	-9921
▁harmony	-9922
ics	-9923
ira	-9924
Slow	-9925
umed	-9926
conut	-9927
▁Fran	-9928
▁code	-9929
▁defeat	-9930
▁unkind	-9931
▁coconut	-9932
▁harvest	-9933
▁Confused	-9934
▁greatest	-9935
▁squawked	-9936
▁mesmerised	-9937
▁magnificent	-9938
▁Wr	-9939
▁Music	-9940
▁School	-9941
▁Though	-9942
▁carton	-9943
▁raises	-9944
▁pistols	-9945
▁process	-9946
Mary	-9947
▁Freya	-9948
▁droop	-9949
▁Patches	-9950
▁crosses	-9951
▁Roy	-9952
▁gul	-9953
horse	-9954
▁gulped	-9955
▁signal	-9956
▁progress	-9957
stal	-9958
▁Claus	-9959
▁Cocoa	-9960
▁mixes	-9961
goodbye	-9962
▁Billie	-9963
▁whether	-9964
▁whipped	-9965
▁funniest	-9966
▁saxophone	-9967
ki	-9968
owing	-9969
▁inform	-9970
▁pollen	-9971
▁capture	-9972
▁cuddling	-9973
▁deciding	-9974
cra	-9975
▁Gia	-9976
▁begs	-9977
▁hoof	-9978
▁guided	-9979
▁Feather	-9980
▁tentacles	-9981
inct	-9982
▁Comp	-9983
▁Button	-9984
▁Nature	-9985
▁magically	-9986
friend	-9987
▁Shake	-9988
▁yawns	-9989
▁stinky	-9990
▁glistening	-9991
▁grump	-9992
▁Brother	-9993
imbo	-9994
lings	-9995
▁Hook	-9996
▁Stri	-9997
▁gruff	-9998
▁sleeve	-9999
▁climber	-10000
▁parrots	-10001
▁woodpecker	-10002
▁clothesline	-10003
▁Bibo	-10004
▁Lill	-10005
▁dizz	-10006
▁fluff	-10007
▁lilies	-10008
▁halfway	-10009
▁splitting	-10010
Show	-10011
▁Bern	-10012
▁Sean	-10013
▁crafts	-10014
▁sleepover	-10015
▁respecting	-10016
▁slurp	-10017
▁Cookies	-10018
▁Officer	-10019
▁steered	-10020
ongratulations	-10021
Mar	-10022
rays	-10023
thur	-10024
▁Pir	-10025
▁Sisi	-10026
▁Cream	-10027
▁depths	-10028
▁nudged	-10029
▁widely	-10030
▁dustpan	-10031
▁continuing	-10032
Free	-10033
Whoa	-10034
▁runny	-10035
▁amongst	-10036
surrender	-10037
▁tastiest	-10038
▁achievement	-10039
ami	-10040
▁En	-10041
▁Choo	-10042
▁jigg	-10043
rystal	-10044
▁shots	-10045
▁motors	-10046
▁Sitting	-10047
'!"	-10048
▁Sly	-10049
▁Mail	-10050
▁calf	-10051
▁bands	-10052
▁lonel	-10053
Everyone	-10054
▁circled	-10055
▁Ind	-10056
▁farms	-10057
▁stalk	-10058
▁Arthur	-10059
▁bleeds	-10060
▁gladly	-10061
▁trailer	-10062
▁Was	-10063
▁mur	-10064
▁bendy	-10065
▁theat	-10066
Anytime	-10067
▁hideout	-10068
▁bathrobes	-10069
▁Toy	-10070
▁Bessy	-10071
▁Prune	-10072
▁dodging	-10073
▁science	-10074
▁venture	-10075
▁frightening	-10076
▁Den	-10077
▁plo	-10078
▁roo	-10079
▁Dull	-10080
▁Rani	-10081
colate	-10082
▁Teach	-10083
▁warns	-10084
▁trunks	-10085
From	-10086
book	-10087
kest	-10088
oors	-10089
▁une	-10090
▁Jimbo	-10091
▁skate	-10092
▁floaty	-10093
▁Promise	-10094
▁indoors	-10095
▁pancake	-10096
▁ticking	-10097
▁Caroline	-10098
▁compared	-10099
Sit	-10100
cell	-10101
Poppy	-10102
▁Juice	-10103
▁blush	-10104
▁frisbee	-10105
▁snarled	-10106
▁entering	-10107
rop	-10108
boos	-10109
▁Chee	-10110
▁Down	-10111
▁till	-10112
▁Afric	-10113
▁daily	-10114
▁setup	-10115
▁strap	-10116
▁giants	-10117
▁avoided	-10118
▁spirits	-10119
▁introducing	-10120
orth	-10121
▁Rud	-10122
▁THE	-10123
▁leng	-10124
▁explode	-10125
▁solutions	-10126
Care	-10127
▁Lady	-10128
▁Mick	-10129
▁Faith	-10130
▁Years	-10131
▁unzip	-10132
▁dining	-10133
▁pace	-10134
▁tone	-10135
▁scree	-10136
uttered	-10137
▁limped	-10138
▁hammers	-10139
▁purring	-10140
▁wiggles	-10141
▁restoring	-10142
▁supplying	-10143
▁Thermometer	-10144
Ne	-10145
RA	-10146
gn	-10147
tled	-10148
uise	-10149
▁Layla	-10150
▁proved	-10151
▁Dancing	-10152
▁Giraffe	-10153
▁contained	-10154
▁preschool	-10155
▁suspicious	-10156
Lulu	-10157
▁Gen	-10158
▁Dora	-10159
▁islands	-10160
▁theatre	-10161
Jim	-10162
esy	-10163
Ducky	-10164
▁Half	-10165
▁purch	-10166
▁limits	-10167
▁wetter	-10168
▁wicked	-10169
▁leopards	-10170
nnie	-10171
▁inn	-10172
▁Chuck	-10173
▁access	-10174
▁owning	-10175
▁roller	-10176
▁hopscotch	-10177
Cra	-10178
aret	-10179
itam	-10180
▁howl	-10181
▁Trees	-10182
▁Taylor	-10183
▁flippers	-10184
gra	-10185
enses	-10186
▁jaws	-10187
▁lasted	-10188
▁thunderstorm	-10189
osp	-10190
Tell	-10191
aries	-10192
▁Alexa	-10193
▁nanny	-10194
▁slime	-10195
▁Mighty	-10196
▁Willie	-10197
▁auntie	-10198
ustrated	-10199
▁Stealing	-10200
▁gradually	-10201
▁Cact	-10202
▁innoc	-10203
▁obediently	-10204
sitter	-10205
▁Fanny	-10206
▁Small	-10207
▁poles	-10208
▁Twisty	-10209
▁bundle	-10210
▁rustle	-10211
che	-10212
dia	-10213
Four	-10214
▁Top	-10215
▁Wow	-10216
▁Hero	-10217
▁weed	-10218
▁Funny	-10219
▁curve	-10220
▁dries	-10221
▁scaly	-10222
▁Margaret	-10223
▁threatened	-10224
ann	-10225
azors	-10226
▁Bees	-10227
▁Worm	-10228
▁plus	-10229
▁rises	-10230
▁vitam	-10231
ocolate	-10232
▁Rumble	-10233
▁twirls	-10234
▁neighed	-10235
▁rooster	-10236
just	-10237
▁Cozy	-10238
▁blur	-10239
▁tilt	-10240
▁aband	-10241
▁calming	-10242
▁stained	-10243
▁villain	-10244
▁repairman	-10245
eller	-10246
▁ages	-10247
▁mend	-10248
▁grain	-10249
▁grunt	-10250
▁tucks	-10251
▁Gertie	-10252
▁birdie	-10253
▁panting	-10254
▁majestic	-10255
▁tingling	-10256
Push	-10257
aron	-10258
Rever	-10259
▁Seat	-10260
▁shame	-10261
▁smoky	-10262
▁urging	-10263
Tomorrow	-10264
▁Johnnie	-10265
▁recipes	-10266
▁Cleaning	-10267
▁Instantly	-10268
owers	-10269
▁Dusty	-10270
▁blend	-10271
▁Willow	-10272
▁chirps	-10273
▁hunger	-10274
▁escaping	-10275
▁exercising	-10276
▁Flash	-10277
Reverse	-10278
▁fourth	-10279
▁twitched	-10280
▁notebooks	-10281
▁challenged	-10282
As	-10283
More	-10284
▁Gor	-10285
acher	-10286
gging	-10287
▁Lydia	-10288
▁Cheese	-10289
▁Should	-10290
▁flowed	-10291
▁frames	-10292
▁Singing	-10293
▁pecking	-10294
▁missiles	-10295
▁smoother	-10296
▁stroller	-10297
▁poisonous	-10298
▁rectangle	-10299
▁blob	-10300
▁Greta	-10301
▁dodges	-10302
▁Frustrated	-10303
ality	-10304
ierce	-10305
udrey	-10306
Buzz	-10307
ylan	-10308
ossom	-10309
▁Tube	-10310
▁bled	-10311
▁trim	-10312
▁Alfie	-10313
▁Dream	-10314
▁leaped	-10315
▁possessions	-10316
▁Kang	-10317
▁Pearl	-10318
▁invol	-10319
cellent	-10320
▁Albert	-10321
▁kneels	-10322
▁command	-10323
▁flooded	-10324
▁handleb	-10325
▁lantern	-10326
▁lightly	-10327
▁notices	-10328
▁tiptoes	-10329
▁detective	-10330
onk	-10331
isher	-10332
▁loos	-10333
▁scut	-10334
▁Audrey	-10335
▁Kelsey	-10336
▁cheesy	-10337
▁crispy	-10338
▁smoothly	-10339
bur	-10340
ical	-10341
ilar	-10342
issy	-10343
▁Africa	-10344
▁juggle	-10345
▁million	-10346
bs	-10347
Wee	-10348
▁Long	-10349
▁Ostri	-10350
▁device	-10351
▁flavour	-10352
wh	-10353
▁Int	-10354
▁Susy	-10355
▁prof	-10356
ential	-10357
▁Guard	-10358
▁Kanga	-10359
▁plopped	-10360
▁records	-10361
▁protects	-10362
▁babysitter	-10363
True	-10364
reet	-10365
▁swat	-10366
▁chewy	-10367
▁route	-10368
▁dusted	-10369
▁toothp	-10370
▁strikes	-10371
▁instinct	-10372
▁pounding	-10373
▁brightened	-10374
▁flashlights	-10375
May	-10376
▁Kara	-10377
▁Melt	-10378
▁mitt	-10379
▁perse	-10380
▁stiff	-10381
Imagine	-10382
▁stares	-10383
▁mischief	-10384
▁removing	-10385
Ten	-10386
▁Rosy	-10387
▁oars	-10388
abella	-10389
▁Dylan	-10390
▁Honest	-10391
▁stomping	-10392
▁nightstand	-10393
Even	-10394
▁Gail	-10395
▁tend	-10396
icated	-10397
▁contented	-10398
Bo	-10399
icia	-10400
yield	-10401
▁Isla	-10402
▁Drink	-10403
▁Shell	-10404
▁snore	-10405
Careful	-10406
▁bruise	-10407
▁priest	-10408
▁turkeys	-10409
▁distract	-10410
▁reappear	-10411
vo	-10412
▁aid	-10413
▁cig	-10414
▁vol	-10415
▁Cass	-10416
▁Deaf	-10417
▁deck	-10418
▁undo	-10419
orious	-10420
▁braid	-10421
▁persu	-10422
▁squirt	-10423
▁thirty	-10424
▁refusing	-10425
▁seahorse	-10426
▁performers	-10427
hadow	-10428
▁atop	-10429
▁rais	-10430
iments	-10431
▁Angie	-10432
▁Flame	-10433
▁Jetty	-10434
▁wagons	-10435
▁quicker	-10436
▁eyeshadow	-10437
▁organised	-10438
▁Kathy	-10439
▁unload	-10440
▁Believe	-10441
▁charity	-10442
▁Isabella	-10443
▁disguise	-10444
▁raindrop	-10445
▁rightful	-10446
▁displaying	-10447
yd	-10448
▁unc	-10449
▁Doll	-10450
▁prison	-10451
▁shrimps	-10452
▁studies	-10453
▁arrested	-10454
▁tablecloth	-10455
umn	-10456
lock	-10457
▁Bean	-10458
▁viol	-10459
▁Brush	-10460
▁Hairy	-10461
▁Worry	-10462
▁loser	-10463
▁juiciest	-10464
▁slightly	-10465
▁occasions	-10466
wo	-10467
▁lur	-10468
abeth	-10469
arett	-10470
▁fifty	-10471
▁mound	-10472
▁length	-10473
▁lowers	-10474
▁ladybird	-10475
▁tripping	-10476
▁Surprised	-10477
▁scrunched	-10478
ige	-10479
Pass	-10480
oyal	-10481
▁Wal	-10482
ously	-10483
chanted	-10484
▁Alison	-10485
▁dialed	-10486
▁stormy	-10487
woo	-10488
▁Ce	-10489
Polly	-10490
▁hike	-10491
stupid	-10492
▁soggy	-10493
▁Bernie	-10494
▁launch	-10495
▁fiercely	-10496
▁birthdays	-10497
▁community	-10498
▁loneliness	-10499
exit	-10500
▁dozed	-10501
▁Charles	-10502
▁snowing	-10503
▁hopeless	-10504
▁knitting	-10505
Everything	-10506
▁information	-10507
rease	-10508
▁Brave	-10509
▁Doing	-10510
▁Shine	-10511
▁tiring	-10512
▁rumbled	-10513
▁cigarett	-10514
▁teaspoons	-10515
▁summ	-10516
▁forced	-10517
▁resour	-10518
▁roamed	-10519
ppa	-10520
atic	-10521
▁div	-10522
asper	-10523
▁Meow	-10524
rupted	-10525
▁boiled	-10526
▁boarded	-10527
▁trumpets	-10528
▁enchanted	-10529
▁untangled	-10530
▁foreshadowed	-10531
▁gle	-10532
▁Tiki	-10533
ornado	-10534
▁Hilda	-10535
▁Wilma	-10536
▁Bailey	-10537
▁cutest	-10538
▁anybody	-10539
▁honeycom	-10540
Drink	-10541
▁Fuzz	-10542
▁Mara	-10543
inting	-10544
▁fixes	-10545
▁Chippy	-10546
▁oceans	-10547
▁wrists	-10548
▁guarded	-10549
▁scrubbing	-10550
phew	-10551
poke	-10552
rina	-10553
▁Cube	-10554
▁Chomp	-10555
▁Angela	-10556
▁ducklings	-10557
ika	-10558
Poor	-10559
▁sim	-10560
▁Heel	-10561
▁Ellen	-10562
▁Jemma	-10563
▁Petey	-10564
▁drags	-10565
▁roofs	-10566
▁Shiver	-10567
▁events	-10568
▁nephew	-10569
▁combing	-10570
▁witches	-10571
▁Elizabeth	-10572
▁accepting	-10573
▁stretcher	-10574
BC	-10575
ior	-10576
Sque	-10577
anky	-10578
olph	-10579
▁Sid	-10580
cover	-10581
jamin	-10582
▁Steph	-10583
▁antenna	-10584
▁scolding	-10585
Te	-10586
belt	-10587
mosp	-10588
▁tul	-10589
andel	-10590
▁champ	-10591
▁erupt	-10592
▁lakes	-10593
▁ruled	-10594
▁atmosp	-10595
▁proceed	-10596
▁Kindness	-10597
▁pineapple	-10598
▁atmosphere	-10599
Sm	-10600
od	-10601
ada	-10602
▁Jun	-10603
▁Nia	-10604
flies	-10605
▁Dory	-10606
▁creepy	-10607
▁abandoned	-10608
gre	-10609
cies	-10610
talk	-10611
▁ABC	-10612
▁Oat	-10613
▁Str	-10614
▁ray	-10615
▁Sock	-10616
▁Toni	-10617
▁Furry	-10618
▁props	-10619
▁salads	-10620
▁pinches	-10621
▁designer	-10622
xie	-10623
nings	-10624
uliar	-10625
value	-10626
▁Sale	-10627
▁bangs	-10628
▁Goldie	-10629
grateful	-10630
▁Crystal	-10631
▁parking	-10632
▁Benjamin	-10633
▁peculiar	-10634
▁snuggles	-10635
SH	-10636
lean	-10637
oris	-10638
▁kill	-10639
Butter	-10640
▁misty	-10641
▁richer	-10642
▁dizziness	-10643
▁handlebars	-10644
fant	-10645
▁Sail	-10646
▁bait	-10647
▁gorge	-10648
▁winking	-10649
▁contents	-10650
Ble	-10651
car	-10652
boom	-10653
▁Salt	-10654
▁Marty	-10655
▁yards	-10656
▁Smokey	-10657
▁softness	-10658
▁emergencies	-10659
▁seatbelt	-10660
▁sneaking	-10661
▁terribly	-10662
▁volcanoes	-10663
Mind	-10664
▁Fit	-10665
ooked	-10666
▁Burt	-10667
▁begun	-10668
▁destr	-10669
▁guilt	-10670
▁jeans	-10671
▁strict	-10672
▁Flexible	-10673
▁grandchildren	-10674
▁fanc	-10675
▁plum	-10676
▁Loyal	-10677
▁Marcy	-10678
▁trusty	-10679
▁walkie	-10680
▁Rudolph	-10681
▁managing	-10682
▁exchanged	-10683
▁fishermen	-10684
ett	-10685
▁War	-10686
▁jogs	-10687
Rabbit	-10688
ashion	-10689
ressed	-10690
▁Three	-10691
▁Nearby	-10692
▁spoken	-10693
▁subject	-10694
▁clutched	-10695
▁gorgeous	-10696
▁presence	-10697
▁cul	-10698
▁liar	-10699
Doctor	-10700
▁Laure	-10701
▁Micro	-10702
▁wands	-10703
▁Nathan	-10704
▁riches	-10705
▁vitamins	-10706
Duck	-10707
eyed	-10708
▁Pol	-10709
opard	-10710
▁Mind	-10711
▁damp	-10712
Bessie	-10713
Twinkle	-10714
▁grandk	-10715
▁unlike	-10716
▁arrange	-10717
▁valuing	-10718
▁heaviest	-10719
▁foreshadowing	-10720
Andy	-10721
Blech	-10722
▁shaker	-10723
▁Passport	-10724
▁delaying	-10725
▁settling	-10726
▁mailboxes	-10727
laud	-10728
▁dia	-10729
▁Ding	-10730
▁Hipp	-10731
▁crust	-10732
▁speck	-10733
▁Fierce	-10734
▁reality	-10735
▁rhythms	-10736
fer	-10737
Five	-10738
Turn	-10739
▁Ask	-10740
▁Amen	-10741
▁Dash	-10742
▁Need	-10743
▁adop	-10744
▁sunb	-10745
▁energ	-10746
▁Pastel	-10747
▁blinks	-10748
▁ladders	-10749
▁useless	-10750
flow	-10751
oria	-10752
stack	-10753
▁Most	-10754
▁sizz	-10755
▁snatch	-10756
▁daddies	-10757
▁kindest	-10758
▁ripples	-10759
▁unstuck	-10760
▁requests	-10761
▁promising	-10762
▁releasing	-10763
udy	-10764
etty	-10765
▁clin	-10766
ession	-10767
ousand	-10768
▁handy	-10769
▁smash	-10770
▁Janice	-10771
▁Melody	-10772
▁Neither	-10773
▁appears	-10774
vie	-10775
▁Tap	-10776
▁Call	-10777
Beware	-10778
onight	-10779
▁Lemon	-10780
▁Manny	-10781
▁Melty	-10782
▁tales	-10783
▁tapes	-10784
▁explan	-10785
▁mashed	-10786
▁compare	-10787
▁performer	-10788
▁ungrateful	-10789
▁interrupted	-10790
Cow	-10791
Win	-10792
Right	-10793
▁Goose	-10794
▁Mason	-10795
▁sinks	-10796
▁Nellie	-10797
▁Spotty	-10798
▁clocks	-10799
▁fitting	-10800
▁praises	-10801
▁pudding	-10802
▁ruffled	-10803
▁meetings	-10804
ants	-10805
▁Abb	-10806
▁Lex	-10807
eline	-10808
▁lunged	-10809
▁tumbling	-10810
▁honeycomb	-10811
▁dong	-10812
▁oper	-10813
▁Onion	-10814
▁grasp	-10815
▁Infant	-10816
▁barrels	-10817
▁valleys	-10818
▁clothing	-10819
▁Jellyfish	-10820
▁resisting	-10821
beh	-10822
▁deeds	-10823
▁slams	-10824
Children	-10825
▁Ostrich	-10826
▁lawyers	-10827
▁totally	-10828
▁unlocks	-10829
▁lovingly	-10830
ya	-10831
awk	-10832
ridge	-10833
▁oink	-10834
believe	-10835
▁Monica	-10836
▁elbows	-10837
▁reader	-10838
▁hovered	-10839
▁pitcher	-10840
▁somehow	-10841
▁injuries	-10842
▁purchase	-10843
nda	-10844
Snap	-10845
▁Nat	-10846
▁Rag	-10847
elace	-10848
▁Claw	-10849
▁Sack	-10850
▁acrob	-10851
▁Richard	-10852
▁concert	-10853
▁storing	-10854
▁trudged	-10855
▁shoelace	-10856
▁proceeded	-10857
▁reassuring	-10858
▁surrounding	-10859
remely	-10860
▁yelps	-10861
▁skinny	-10862
▁outcome	-10863
▁Climbing	-10864
▁sickness	-10865
▁wrappers	-10866
Sc	-10867
cha	-10868
▁Oct	-10869
irework	-10870
▁Justin	-10871
▁crashes	-10872
▁instant	-10873
▁patting	-10874
▁licenses	-10875
▁attendant	-10876
▁hey	-10877
ousel	-10878
▁state	-10879
▁darted	-10880
▁flutes	-10881
▁razors	-10882
▁bounded	-10883
▁greater	-10884
▁nibbling	-10885
▁extremely	-10886
▁sweetness	-10887
olo	-10888
rain	-10889
▁ris	-10890
aroni	-10891
ivated	-10892
▁curls	-10893
▁Hanger	-10894
▁baller	-10895
▁clucked	-10896
▁striped	-10897
▁overflow	-10898
▁chattered	-10899
▁thoughtfully	-10900
▁caf	-10901
▁nin	-10902
▁bins	-10903
▁shuff	-10904
▁Carlos	-10905
▁prefer	-10906
▁announce	-10907
▁carousel	-10908
▁thousand	-10909
▁Dictionary	-10910
▁connection	-10911
nis	-10912
iara	-10913
▁Sit	-10914
▁var	-10915
Alice	-10916
▁Drop	-10917
▁toad	-10918
▁tippy	-10919
▁granny	-10920
▁prices	-10921
▁stripe	-10922
▁Tornado	-10923
▁raisins	-10924
▁seashells	-10925
?,"	-10926
▁py	-10927
reck	-10928
▁Ada	-10929
▁tink	-10930
▁Catch	-10931
▁Horse	-10932
▁solid	-10933
▁Pirate	-10934
▁itches	-10935
▁Squeeze	-10936
▁kayaking	-10937
▁servants	-10938
▁commotion	-10939
Wo	-10940
ram	-10941
▁gn	-10942
Baby	-10943
Pipp	-10944
▁Bull	-10945
▁doub	-10946
▁radi	-10947
▁Croco	-10948
▁dodge	-10949
▁stems	-10950
▁nestled	-10951
▁disgusted	-10952
▁explanation	-10953
King	-10954
filled	-10955
▁Jules	-10956
▁blessed	-10957
▁cracking	-10958
▁cucumber	-10959
cst	-10960
away	-10961
umph	-10962
▁Milk	-10963
hearted	-10964
▁Edward	-10965
▁eleven	-10966
▁medium	-10967
▁Halfway	-10968
▁passion	-10969
▁scarier	-10970
▁timidly	-10971
▁skeletons	-10972
▁streaming	-10973
EE	-10974
▁Ivy	-10975
▁Much	-10976
aitlyn	-10977
▁beeps	-10978
▁boast	-10979
▁whizz	-10980
▁Lauren	-10981
▁squirmed	-10982
Grab	-10983
rope	-10984
▁West	-10985
▁Work	-10986
▁sons	-10987
▁Bossy	-10988
▁elder	-10989
▁flakes	-10990
▁freshly	-10991
field	-10992
▁Flea	-10993
Choose	-10994
▁Becca	-10995
▁Louie	-10996
▁Mickey	-10997
▁boomed	-10998
▁sicker	-10999
▁speeds	-11000
▁wrinkly	-11001
▁instincts	-11002
▁practising	-11003
oos	-11004
With	-11005
▁Jade	-11006
▁ecst	-11007
▁Night	-11008
▁Pizza	-11009
▁training	-11010
▁grandkids	-11011
ils	-11012
two	-11013
Pick	-11014
▁Hunt	-11015
▁cerem	-11016
▁salsa	-11017
▁erased	-11018
▁springs	-11019
▁macaroni	-11020
cip	-11021
haps	-11022
than	-11023
fting	-11024
▁Wind	-11025
uccess	-11026
▁Shall	-11027
▁cacti	-11028
▁donut	-11029
▁liking	-11030
▁locking	-11031
▁dragging	-11032
▁wasteful	-11033
ok	-11034
wee	-11035
heese	-11036
▁Count	-11037
▁Diana	-11038
▁bould	-11039
▁Marcus	-11040
▁Wilbur	-11041
▁sevent	-11042
▁embrace	-11043
▁ballerina	-11044
▁complicated	-11045
Her	-11046
alia	-11047
made	-11048
▁obl	-11049
dream	-11050
tling	-11051
▁Must	-11052
▁envy	-11053
▁vacu	-11054
▁wasp	-11055
▁diver	-11056
▁lumpy	-11057
▁sorrow	-11058
isappear	-11059
▁collage	-11060
▁spreads	-11061
▁ceremony	-11062
▁ecstatic	-11063
▁quitting	-11064
▁obstacles	-11065
Sus	-11066
ker	-11067
Tina	-11068
jack	-11069
rimp	-11070
▁adv	-11071
▁Hand	-11072
▁Think	-11073
▁chann	-11074
▁urges	-11075
▁stunned	-11076
gets	-11077
▁Ped	-11078
▁awa	-11079
▁wee	-11080
▁flam	-11081
▁ogre	-11082
▁gloom	-11083
▁assist	-11084
▁snails	-11085
▁pendant	-11086
▁carefree	-11087
▁favorites	-11088
hh	-11089
Lost	-11090
▁dim	-11091
market	-11092
▁lobby	-11093
▁curves	-11094
▁fading	-11095
▁equally	-11096
▁screech	-11097
▁stations	-11098
▁cauliflowers	-11099
arla	-11100
▁Box	-11101
vious	-11102
solved	-11103
▁clung	-11104
▁saves	-11105
▁Dinner	-11106
▁Jellie	-11107
Whenever	-11108
▁musical	-11109
▁princip	-11110
▁Anything	-11111
▁shiniest	-11112
▁delightful	-11113
▁supermarket	-11114
don	-11115
Snowy	-11116
▁craz	-11117
▁Opera	-11118
▁Piper	-11119
▁Mister	-11120
▁cranky	-11121
▁tingle	-11122
▁cutters	-11123
▁weights	-11124
▁forwards	-11125
▁homeless	-11126
▁lunchbox	-11127
▁scooping	-11128
▁playfully	-11129
▁snuggling	-11130
▁Av	-11131
cted	-11132
sery	-11133
▁Rhy	-11134
ophies	-11135
▁Clown	-11136
▁frant	-11137
▁tickly	-11138
▁invention	-11139
▁recovered	-11140
iw	-11141
Fun	-11142
pill	-11143
▁Cal	-11144
▁Wor	-11145
inema	-11146
▁balc	-11147
▁grains	-11148
▁unsafe	-11149
▁princes	-11150
▁daydream	-11151
▁includes	-11152
▁innocent	-11153
▁porridge	-11154
▁preventing	-11155
ocks	-11156
▁voy	-11157
▁mops	-11158
▁Harri	-11159
▁calms	-11160
▁dandel	-11161
Squirrel	-11162
▁privacy	-11163
▁sleeves	-11164
▁soundly	-11165
▁captured	-11166
▁steaming	-11167
▁gardening	-11168
▁tightrope	-11169
▁toothpaste	-11170
▁mid	-11171
Match	-11172
ictory	-11173
umbles	-11174
▁cloak	-11175
▁moles	-11176
▁Shampoo	-11177
▁private	-11178
▁remains	-11179
▁triumph	-11180
▁galloped	-11181
▁trophies	-11182
▁sniffling	-11183
▁suitcases	-11184
▁destruction	-11185
▁independence	-11186
Caw	-11187
Whe	-11188
▁Bel	-11189
▁cha	-11190
balls	-11191
▁Joel	-11192
▁Lexi	-11193
▁Ethan	-11194
▁Guess	-11195
▁Hippo	-11196
▁Cookie	-11197
▁cinema	-11198
▁scrape	-11199
▁Biscuit	-11200
▁Kaitlyn	-11201
▁nursery	-11202
▁service	-11203
▁reaction	-11204
▁dishonest	-11205
Sir	-11206
itive	-11207
▁Poke	-11208
▁Wood	-11209
▁dolly	-11210
▁fully	-11211
▁gummy	-11212
▁ponyt	-11213
▁Bubble	-11214
▁loosen	-11215
▁rattle	-11216
▁Spanish	-11217
▁Slowpoke	-11218
▁allowance	-11219
▁anxiously	-11220
▁strolling	-11221
▁Erin	-11222
▁outsm	-11223
▁outing	-11224
▁Ashtray	-11225
▁culture	-11226
▁lurking	-11227
▁swirled	-11228
▁thinner	-11229
▁principal	-11230
mar	-11231
Cool	-11232
oint	-11233
ships	-11234
▁Hugo	-11235
▁tock	-11236
▁gliding	-11237
▁addition	-11238
▁discussion	-11239
▁supportive	-11240
!,"	-11241
urr	-11242
imba	-11243
love	-11244
ooke	-11245
wine	-11246
▁Cora	-11247
▁banks	-11248
▁doggie	-11249
▁sprung	-11250
▁Gorilla	-11251
▁balcony	-11252
▁nuzzles	-11253
▁cleanest	-11254
▁sweeping	-11255
▁earthquakes	-11256
uh	-11257
Mix	-11258
Toby	-11259
mail	-11260
▁New	-11261
▁pits	-11262
▁vast	-11263
Repeat	-11264
llowed	-11265
talkie	-11266
▁Brooke	-11267
▁report	-11268
▁steaks	-11269
▁begging	-11270
▁flamingo	-11271
▁mornings	-11272
▁abilities	-11273
AR	-11274
▁Ban	-11275
▁Bus	-11276
People	-11277
▁Doggo	-11278
▁goods	-11279
▁online	-11280
▁voyage	-11281
▁Chickie	-11282
▁Leopard	-11283
▁Stephen	-11284
▁catcher	-11285
▁champion	-11286
▁projects	-11287
▁unicorns	-11288
▁Intrigued	-11289
▁disobedient	-11290
irls	-11291
▁Hugs	-11292
▁Percy	-11293
▁brake	-11294
▁saddle	-11295
▁Popcorn	-11296
▁messing	-11297
▁adventurers	-11298
iko	-11299
Hide	-11300
▁ABCs	-11301
▁Gaby	-11302
▁Skull	-11303
▁Driver	-11304
▁cranes	-11305
▁photog	-11306
▁shaken	-11307
▁unfolded	-11308
▁numbering	-11309
▁popsicles	-11310
▁Anya	-11311
▁mums	-11312
▁Miles	-11313
▁Round	-11314
▁appet	-11315
▁choke	-11316
▁howled	-11317
▁replies	-11318
▁squeaks	-11319
▁uniting	-11320
▁Learning	-11321
▁swirling	-11322
Pop	-11323
eech	-11324
etti	-11325
ilst	-11326
▁Anty	-11327
▁budd	-11328
▁guid	-11329
coming	-11330
flower	-11331
▁Sister	-11332
▁deepest	-11333
▁partner	-11334
▁whining	-11335
▁guidance	-11336
▁godmother	-11337
inc	-11338
vey	-11339
▁Pain	-11340
▁pave	-11341
▁Peppa	-11342
▁Ringo	-11343
▁spied	-11344
▁stray	-11345
▁vases	-11346
▁Winnie	-11347
▁curved	-11348
▁desire	-11349
▁infect	-11350
▁studio	-11351
▁boulder	-11352
▁harmful	-11353
▁reddest	-11354
▁grounded	-11355
▁accessories	-11356
eras	-11357
iddy	-11358
▁Moe	-11359
▁Nap	-11360
▁Trev	-11361
▁Switch	-11362
▁imagin	-11363
▁jingle	-11364
▁Bethany	-11365
▁bruised	-11366
▁resumed	-11367
▁runners	-11368
▁pavement	-11369
▁strummed	-11370
▁shimmered	-11371
▁Dish	-11372
▁Food	-11373
▁Octo	-11374
▁rink	-11375
▁Simba	-11376
▁brats	-11377
▁consid	-11378
▁fairly	-11379
▁pounce	-11380
▁snorts	-11381
▁speech	-11382
▁screens	-11383
▁confetti	-11384
▁motioned	-11385
▁yielding	-11386
▁Gas	-11387
▁raw	-11388
▁Soup	-11389
▁Miche	-11390
▁skulls	-11391
▁snowed	-11392
▁buddies	-11393
▁scrunch	-11394
▁regularly	-11395
▁possession	-11396
moo	-11397
pie	-11398
Mmmm	-11399
▁bun	-11400
arked	-11401
▁Rina	-11402
▁gulp	-11403
▁Minty	-11404
▁North	-11405
▁Novel	-11406
▁Ruffy	-11407
▁halls	-11408
▁bossed	-11409
▁Melanie	-11410
▁Writing	-11411
▁cameras	-11412
▁sandals	-11413
▁Mustache	-11414
▁popsicle	-11415
▁switches	-11416
nes	-11417
▁Col	-11418
▁tac	-11419
Sammy	-11420
Yield	-11421
gency	-11422
upted	-11423
▁None	-11424
▁Swim	-11425
▁dism	-11426
▁plow	-11427
oxygen	-11428
▁firew	-11429
▁greed	-11430
▁sucked	-11431
▁erupted	-11432
att	-11433
atue	-11434
▁whisk	-11435
▁Maxine	-11436
▁spinach	-11437
▁targets	-11438
▁horrified	-11439
▁replacing	-11440
ooo	-11441
Young	-11442
▁Peek	-11443
master	-11444
▁Marco	-11445
▁Junior	-11446
▁Trevor	-11447
▁autumn	-11448
▁driven	-11449
▁gestures	-11450
▁selfishness	-11451
rex	-11452
▁Eli	-11453
▁Ter	-11454
▁France	-11455
▁Jasper	-11456
▁worlds	-11457
▁cabbage	-11458
▁entertain	-11459
▁Wednesdays	-11460
▁Hot	-11461
▁wit	-11462
ouble	-11463
▁Clar	-11464
▁fare	-11465
▁Print	-11466
▁Scott	-11467
▁fists	-11468
▁glide	-11469
▁glimp	-11470
▁carved	-11471
▁huffed	-11472
▁Harriet	-11473
▁potential	-11474
▁accidently	-11475
▁carelessly	-11476
ks	-11477
▁Sa	-11478
Star	-11479
▁acc	-11480
▁fewer	-11481
▁honor	-11482
▁freeing	-11483
▁grumble	-11484
▁product	-11485
▁Michelle	-11486
▁acrobats	-11487
▁biscuits	-11488
▁measures	-11489
▁warriors	-11490
▁scribbled	-11491
▁challenging	-11492
▁contentment	-11493
▁fashionable	-11494
Bow	-11495
Per	-11496
▁Sab	-11497
Clean	-11498
innam	-11499
▁Lime	-11500
▁Rhin	-11501
▁Rush	-11502
▁toot	-11503
▁paste	-11504
▁stump	-11505
innamon	-11506
riosity	-11507
▁Rhythm	-11508
▁Tomato	-11509
▁tagged	-11510
aterpill	-11511
nderneath	-11512
▁Alligator	-11513
hill	-11514
rupt	-11515
▁owe	-11516
Betty	-11517
▁views	-11518
isingly	-11519
▁Alicia	-11520
▁Cactus	-11521
▁pucker	-11522
fect	-11523
reak	-11524
▁pals	-11525
▁Pedro	-11526
▁equal	-11527
▁scrap	-11528
▁perked	-11529
▁Grandad	-11530
▁repairs	-11531
▁snipped	-11532
▁streams	-11533
▁feathered	-11534
Spe	-11535
Peter	-11536
▁Cate	-11537
▁Glass	-11538
▁Lacey	-11539
▁Wanda	-11540
▁Debbie	-11541
▁defend	-11542
▁quarre	-11543
▁Flowers	-11544
▁hungrier	-11545
▁wobbling	-11546
▁resources	-11547
▁importantly	-11548
Mon	-11549
roy	-11550
▁Cop	-11551
Susie	-11552
iverse	-11553
▁Bendy	-11554
▁Leafy	-11555
▁tilts	-11556
ushroom	-11557
▁Making	-11558
▁descri	-11559
▁goalie	-11560
▁History	-11561
▁hammering	-11562
▁inspected	-11563
▁journeyed	-11564
aya	-11565
Lion	-11566
▁CRA	-11567
▁Syl	-11568
hibit	-11569
▁Real	-11570
▁heed	-11571
▁Danger	-11572
▁Harold	-11573
▁cleare	-11574
▁ducked	-11575
▁scarfs	-11576
▁Imagine	-11577
▁exercised	-11578
▁peacefulness	-11579
emo	-11580
tie	-11581
▁ah	-11582
auce	-11583
▁Money	-11584
▁cases	-11585
▁chunk	-11586
▁forty	-11587
▁layer	-11588
▁pouts	-11589
▁serves	-11590
▁cinnamon	-11591
▁lumberjack	-11592
▁frantically	-11593
▁Surprisingly	-11594
Ant	-11595
ashy	-11596
oebe	-11597
anked	-11598
etime	-11599
▁Pill	-11600
▁scan	-11601
▁sunk	-11602
▁Donna	-11603
▁Alfred	-11604
▁thirst	-11605
▁Jackson	-11606
▁sounding	-11607
▁subjects	-11608
▁descended	-11609
▁nor	-11610
▁sul	-11611
▁Theo	-11612
▁Wine	-11613
▁poof	-11614
▁roam	-11615
▁Boris	-11616
▁Celly	-11617
▁Archie	-11618
▁blurry	-11619
▁copies	-11620
▁heater	-11621
▁Measure	-11622
▁sunsets	-11623
▁snatches	-11624
▁punishing	-11625
▁Oy	-11626
acul	-11627
iped	-11628
azing	-11629
igher	-11630
shoot	-11631
three	-11632
▁brag	-11633
▁tang	-11634
Mother	-11635
giving	-11636
▁benef	-11637
▁Phoebe	-11638
ireworks	-11639
▁antennae	-11640
▁flipping	-11641
▁hurrying	-11642
▁infection	-11643
Am	-11644
mind	-11645
tick	-11646
zzly	-11647
▁Scr	-11648
spass	-11649
▁Merry	-11650
▁Sheep	-11651
▁jeeps	-11652
▁mitts	-11653
venture	-11654
▁advant	-11655
▁cursed	-11656
▁skates	-11657
▁glimmer	-11658
▁paddles	-11659
▁spinner	-11660
▁Patience	-11661
▁grinning	-11662
▁grumbling	-11663
bug	-11664
run	-11665
▁oo	-11666
rant	-11667
▁Ari	-11668
▁Mud	-11669
▁carn	-11670
▁Asked	-11671
▁Emmie	-11672
▁Great	-11673
▁Youth	-11674
▁carve	-11675
applaud	-11676
▁Mousey	-11677
▁Trixie	-11678
▁jogger	-11679
▁stomps	-11680
▁pricked	-11681
▁sucking	-11682
cel	-11683
Stir	-11684
aleb	-11685
▁Mor	-11686
orant	-11687
▁Gear	-11688
▁Purr	-11689
ancing	-11690
ickest	-11691
▁freely	-11692
▁lately	-11693
▁chances	-11694
▁crooked	-11695
▁gaining	-11696
▁lifetime	-11697
▁pedalled	-11698
▁crackling	-11699
▁energized	-11700
▁captivated	-11701
POP	-11702
haw	-11703
Ding	-11704
eness	-11705
▁empt	-11706
▁wond	-11707
▁Lying	-11708
▁Flower	-11709
▁explos	-11710
▁strand	-11711
▁haystack	-11712
▁jealousy	-11713
Br	-11714
Jake	-11715
give	-11716
▁yay	-11717
▁Deer	-11718
▁clam	-11719
▁surfer	-11720
ssssssssssssssss	-11721
sl	-11722
Bra	-11723
ole	-11724
▁Aid	-11725
▁Rod	-11726
atted	-11727
▁wavy	-11728
▁Beary	-11729
▁House	-11730
▁polka	-11731
▁taxis	-11732
▁Lumber	-11733
▁Statue	-11734
▁drople	-11735
▁heated	-11736
▁wilted	-11737
▁blossom	-11738
▁railing	-11739
▁embraced	-11740
▁embarrassment	-11741
Shut	-11742
▁Eng	-11743
▁kiw	-11744
Sunny	-11745
opera	-11746
▁frag	-11747
olcano	-11748
▁Bring	-11749
▁Tabby	-11750
▁chaos	-11751
▁Pistol	-11752
▁Strong	-11753
▁constr	-11754
▁excuse	-11755
▁Buttons	-11756
▁stunning	-11757
▁advantage	-11758
▁crunching	-11759
▁tightened	-11760
▁vanishing	-11761
mon	-11762
upp	-11763
Wheee	-11764
unate	-11765
▁Bald	-11766
▁Nell	-11767
▁Owen	-11768
▁Bright	-11769
▁Hunter	-11770
▁Ribbit	-11771
▁Samuel	-11772
▁feared	-11773
▁joyous	-11774
▁trails	-11775
▁Heather	-11776
▁booming	-11777
▁placing	-11778
▁reflect	-11779
▁brighten	-11780
▁firewood	-11781
ald	-11782
▁Lo	-11783
beam	-11784
uggy	-11785
▁ted	-11786
akers	-11787
▁Mond	-11788
▁Sami	-11789
▁gobl	-11790
▁site	-11791
▁tran	-11792
Cheese	-11793
record	-11794
▁Caleb	-11795
▁Spray	-11796
▁basil	-11797
▁glist	-11798
▁ouchy	-11799
▁Gloria	-11800
▁coughs	-11801
▁inched	-11802
▁pickles	-11803
▁protest	-11804
▁carriage	-11805
▁clutching	-11806
▁fulfilled	-11807
▁scientists	-11808
new	-11809
woof	-11810
▁Mars	-11811
▁Save	-11812
▁belief	-11813
▁sealed	-11814
▁Jumping	-11815
▁Snowball	-11816
▁trapping	-11817
▁Curiosity	-11818
▁excellent	-11819
▁mattresses	-11820
Pl	-11821
',"	-11822
App	-11823
rit	-11824
Jazz	-11825
▁Fan	-11826
▁Tad	-11827
▁pew	-11828
Pippin	-11829
▁Party	-11830
▁clinic	-11831
▁channel	-11832
▁inspect	-11833
▁involved	-11834
▁glistened	-11835
Race	-11836
life	-11837
▁Ign	-11838
▁Rup	-11839
▁alb	-11840
Robot	-11841
ailed	-11842
▁rasp	-11843
▁sele	-11844
▁bills	-11845
▁reins	-11846
▁rarely	-11847
▁terror	-11848
▁flipper	-11849
▁painters	-11850
▁concentrated	-11851
Congratulations	-11852
now	-11853
Moon	-11854
▁fer	-11855
Throw	-11856
maker	-11857
pilot	-11858
▁Bugs	-11859
▁Five	-11860
▁rash	-11861
▁Cable	-11862
▁hobby	-11863
▁Rupert	-11864
▁bobbed	-11865
▁quiver	-11866
▁exhibit	-11867
▁remaining	-11868
▁victorious	-11869
▁overflowing	-11870
chers	-11871
inked	-11872
ption	-11873
▁orch	-11874
▁tack	-11875
▁unsc	-11876
umpkin	-11877
▁Huggy	-11878
▁react	-11879
▁Kaylee	-11880
▁Muscle	-11881
▁classes	-11882
▁mustard	-11883
▁tastier	-11884
▁combined	-11885
▁scuttled	-11886
▁sneakers	-11887
▁staircase	-11888
bi	-11889
Del	-11890
OOM	-11891
▁Mei	-11892
▁dazz	-11893
▁hind	-11894
ferent	-11895
niverse	-11896
▁Walter	-11897
▁clover	-11898
▁dismay	-11899
▁runway	-11900
▁shades	-11901
▁teddies	-11902
▁tending	-11903
▁sniffles	-11904
▁unloaded	-11905
▁surprisingly	-11906
EEP	-11907
who	-11908
iety	-11909
Spike	-11910
chest	-11911
▁Juan	-11912
▁Seth	-11913
▁fate	-11914
▁unpl	-11915
▁Peach	-11916
▁feeds	-11917
▁digger	-11918
▁effect	-11919
▁speedy	-11920
▁vacuum	-11921
▁ironing	-11922
▁refuses	-11923
▁spitting	-11924
▁sculptures	-11925
▁Grandmother	-11926
Sl	-11927
gs	-11928
.''	-11929
▁Fast	-11930
▁dials	-11931
▁fired	-11932
▁Monday	-11933
▁behold	-11934
ifferent	-11935
▁Trouble	-11936
▁quality	-11937
▁stylish	-11938
▁unlucky	-11939
▁breathes	-11940
▁silliest	-11941
wow	-11942
hide	-11943
ocado	-11944
▁Grow	-11945
▁pang	-11946
▁trad	-11947
▁Forky	-11948
▁Stick	-11949
▁outer	-11950
▁Shrimp	-11951
▁diaper	-11952
▁crumble	-11953
▁glimpse	-11954
▁shaving	-11955
▁carnival	-11956
▁hammered	-11957
▁protector	-11958
▁shoreline	-11959
▁background	-11960
pers	-11961
oodle	-11962
▁main	-11963
▁Fruit	-11964
▁Ginny	-11965
▁Hours	-11966
▁Lance	-11967
▁posts	-11968
▁bandaged	-11969
▁Caterpill	-11970
▁interests	-11971
▁conversations	-11972
En	-11973
open	-11974
▁Golf	-11975
▁Rude	-11976
▁Stacy	-11977
▁glues	-11978
▁Celery	-11979
▁kayaks	-11980
▁stalks	-11981
▁twitch	-11982
▁howling	-11983
▁insists	-11984
▁options	-11985
▁paramed	-11986
▁shuffled	-11987
▁springtime	-11988
asc	-11989
chy	-11990
ingu	-11991
rous	-11992
▁Doc	-11993
▁Eag	-11994
▁woo	-11995
▁chug	-11996
Mister	-11997
▁Radio	-11998
▁Juliet	-11999
▁bubbled	-12000
▁leaders	-12001
▁seashell	-12002
▁Butterfly	-12003
▁cucumbers	-12004
bec	-12005
cup	-12006
Love	-12007
Oink	-12008
ixie	-12009
ords	-12010
pass	-12011
▁Far	-12012
Emily	-12013
▁Happ	-12014
▁rejo	-12015
▁smoot	-12016
▁coiled	-12017
▁meaner	-12018
▁Hearing	-12019
▁Pickles	-12020
▁sipping	-12021
▁floaties	-12022
▁relation	-12023
▁surrendering	-12024
Yog	-12025
▁pry	-12026
Water	-12027
▁Beat	-12028
▁Agnes	-12029
▁album	-12030
▁cawed	-12031
▁packs	-12032
▁slaps	-12033
▁gobble	-12034
▁impact	-12035
▁magpie	-12036
▁pastor	-12037
▁Wiggles	-12038
▁bullies	-12039
▁carpets	-12040
▁creaked	-12041
▁demands	-12042
▁extingu	-12043
▁fetches	-12044
▁fifteen	-12045
▁leashes	-12046
▁sharpen	-12047
▁similar	-12048
▁approval	-12049
▁droplets	-12050
▁grownups	-12051
▁nightfall	-12052
gl	-12053
Din	-12054
via	-12055
zero	-12056
▁Raj	-12057
Looks	-12058
ender	-12059
▁Biff	-12060
▁Fuel	-12061
▁Scar	-12062
▁Pippy	-12063
▁dares	-12064
▁ignores	-12065
▁leaping	-12066
▁mirrors	-12067
▁rustled	-12068
▁Mushroom	-12069
▁stitched	-12070
▁baseballs	-12071
▁hurriedly	-12072
▁hardworking	-12073
▁imaginative	-12074
apes	-12075
azzy	-12076
mill	-12077
▁Him	-12078
▁Bumble	-12079
▁Dennis	-12080
▁Freeze	-12081
▁Having	-12082
▁hooked	-12083
▁syring	-12084
▁Balloon	-12085
▁jiggled	-12086
▁glinting	-12087
▁Stephanie	-12088
cr	-12089
▁dil	-12090
venge	-12091
▁jugs	-12092
▁loss	-12093
▁rugs	-12094
alling	-12095
▁Celia	-12096
▁cents	-12097
▁doubt	-12098
unities	-12099
▁uneasy	-12100
▁farewell	-12101
▁sheepish	-12102
▁meatballs	-12103
▁hesitantly	-12104
▁opportunities	-12105
sel	-12106
▁Oil	-12107
▁Paw	-12108
gling	-12109
▁burp	-12110
▁bust	-12111
handed	-12112
▁menus	-12113
▁moist	-12114
▁murky	-12115
▁tiara	-12116
▁buzzes	-12117
▁goblin	-12118
▁padlock	-12119
▁syringe	-12120
▁witness	-12121
▁toughest	-12122
▁wondrous	-12123
▁blessings	-12124
▁collections	-12125
Kn	-12126
sty	-12127
yer	-12128
lost	-12129
▁Aut	-12130
▁dut	-12131
Greet	-12132
▁Clap	-12133
▁Dawn	-12134
▁Nemo	-12135
▁Cubey	-12136
▁risen	-12137
▁sixty	-12138
▁whoos	-12139
▁Smiley	-12140
▁double	-12141
▁hating	-12142
▁losers	-12143
▁closest	-12144
▁forming	-12145
▁revenge	-12146
▁simplest	-12147
▁squatted	-12148
▁unfreeze	-12149
▁propeller	-12150
▁succeeding	-12151
▁complimented	-12152
OAR	-12153
Lola	-12154
Pizza	-12155
▁Barn	-12156
▁Cont	-12157
▁lens	-12158
▁plun	-12159
ointed	-12160
▁Jesus	-12161
▁eater	-12162
▁feeder	-12163
▁habits	-12164
▁starry	-12165
▁artists	-12166
▁endless	-12167
▁Standing	-12168
▁position	-12169
▁hopefully	-12170
Pr	-12171
?'.	-12172
New	-12173
Coco	-12174
eers	-12175
gain	-12176
jump	-12177
Ellie	-12178
▁Seek	-12179
▁untw	-12180
phones	-12181
▁Beepy	-12182
▁Jesse	-12183
▁Muffy	-12184
▁clums	-12185
▁ridden	-12186
▁walker	-12187
▁passage	-12188
▁cabinets	-12189
▁Chocolate	-12190
▁overnight	-12191
▁strengths	-12192
▁stumbling	-12193
rer	-12194
urf	-12195
Phew	-12196
toes	-12197
▁Aly	-12198
▁sips	-12199
▁dilig	-12200
▁chests	-12201
▁crackle	-12202
▁gleaming	-12203
▁forgetful	-12204
azy	-12205
happy	-12206
magic	-12207
▁Lara	-12208
▁Nosy	-12209
▁tech	-12210
▁spine	-12211
atience	-12212
▁Disapp	-12213
▁Flying	-12214
▁bobbing	-12215
▁creaking	-12216
▁securely	-12217
Park	-12218
Soup	-12219
loat	-12220
pair	-12221
imate	-12222
there	-12223
▁Karl	-12224
▁Philip	-12225
▁banner	-12226
▁barbec	-12227
▁yummier	-12228
▁Wherever	-12229
Par	-12230
▁Com	-12231
▁ups	-12232
▁zig	-12233
▁Abbi	-12234
▁Flex	-12235
▁High	-12236
▁Paper	-12237
▁pluck	-12238
▁swift	-12239
▁Mollie	-12240
▁afloat	-12241
▁unwell	-12242
▁flavours	-12243
▁trespass	-12244
▁struggles	-12245
mbur	-12246
ongo	-12247
▁Jem	-12248
▁Nod	-12249
crack	-12250
▁Beak	-12251
▁Cleo	-12252
▁Pray	-12253
▁China	-12254
▁Toast	-12255
Release	-12256
▁screec	-12257
▁assured	-12258
▁Beatrice	-12259
▁Feathers	-12260
▁ticklish	-12261
van	-12262
athe	-12263
erie	-12264
▁Ink	-12265
Dolly	-12266
reats	-12267
▁Indy	-12268
▁buds	-12269
▁Bobbi	-12270
▁dying	-12271
▁cupped	-12272
▁unison	-12273
▁Miranda	-12274
▁spelling	-12275
▁attacking	-12276
▁confusing	-12277
▁scribbles	-12278
▁concentrate	-12279
ANG	-12280
Over	-12281
Rest	-12282
▁smir	-12283
▁zone	-12284
▁Paige	-12285
▁Stone	-12286
▁leaks	-12287
edience	-12288
iscilla	-12289
▁ladies	-12290
▁packet	-12291
▁teases	-12292
▁Madeline	-12293
▁explosion	-12294
▁marveling	-12295
▁receiving	-12296
▁wriggling	-12297
Spin	-12298
isky	-12299
tles	-12300
Spicy	-12301
▁Mika	-12302
▁Move	-12303
▁Nico	-12304
▁Pole	-12305
▁Whip	-12306
Stupid	-12307
▁Petal	-12308
▁hambur	-12309
▁ponder	-12310
▁Octopus	-12311
▁clearer	-12312
▁mothers	-12313
▁warming	-12314
▁Priscilla	-12315
▁cleverness	-12316
▁contentedly	-12317
▁thoughtfulness	-12318
bel	-12319
▁cy	-12320
Mail	-12321
▁lav	-12322
▁unb	-12323
ivers	-12324
▁spir	-12325
Johnny	-12326
▁Rocks	-12327
▁adopt	-12328
▁Cassie	-12329
▁Cloudy	-12330
▁Reggie	-12331
coloured	-12332
▁grounds	-12333
Greetings	-12334
▁admitted	-12335
▁displays	-12336
▁sentence	-12337
▁unzipped	-12338
▁Gradually	-12339
Woo	-12340
asey	-12341
▁due	-12342
▁Mack	-12343
▁Marc	-12344
▁Snee	-12345
▁foss	-12346
ercise	-12347
inging	-12348
▁mules	-12349
▁roles	-12350
▁Lillie	-12351
▁Smiling	-12352
▁awaited	-12353
▁orchard	-12354
▁plumber	-12355
▁register	-12356
▁spotless	-12357
▁Thanksgiving	-12358
ns	-12359
!''	-12360
top	-12361
ettle	-12362
table	-12363
▁Addy	-12364
▁dash	-12365
▁dice	-12366
▁Aaron	-12367
▁Scale	-12368
▁Windy	-12369
▁soaps	-12370
▁cities	-12371
▁retrie	-12372
Po	-12373
whe	-12374
dled	-12375
ikki	-12376
about	-12377
▁herd	-12378
▁intr	-12379
Wisdom	-12380
athing	-12381
▁Cross	-12382
▁coast	-12383
▁gnome	-12384
▁betray	-12385
▁croaks	-12386
▁Annabel	-12387
▁wrecked	-12388
▁Isabelle	-12389
▁appetite	-12390
▁meanings	-12391
▁muttered	-12392
▁quickest	-12393
▁resolved	-12394
▁secretly	-12395
▁headphones	-12396
Pet	-12397
four	-12398
help	-12399
▁bon	-12400
▁Aren	-12401
▁Sour	-12402
▁flex	-12403
▁armor	-12404
▁batch	-12405
▁Turkey	-12406
▁luckier	-12407
▁nibbles	-12408
▁posters	-12409
▁violins	-12410
▁lavender	-12411
▁obstacle	-12412
▁ponytail	-12413
▁adventurer	-12414
▁Disappointed	-12415
Toy	-12416
zip	-12417
dles	-12418
ulty	-12419
▁Bes	-12420
▁Tam	-12421
▁pod	-12422
▁zap	-12423
▁Rest	-12424
▁halo	-12425
▁moan	-12426
▁pest	-12427
Froggy	-12428
bbling	-12429
icense	-12430
sticks	-12431
▁Misty	-12432
▁Story	-12433
Whoever	-12434
▁Rubber	-12435
▁Sylvia	-12436
▁dearly	-12437
▁mended	-12438
▁grazing	-12439
▁Thinking	-12440
▁keyboard	-12441
▁Rhinoceros	-12442
ori	-12443
seed	-12444
▁Barb	-12445
▁aims	-12446
▁cowg	-12447
itters	-12448
▁Kippy	-12449
▁Smile	-12450
▁Apples	-12451
▁neared	-12452
▁radios	-12453
▁stalls	-12454
▁whilst	-12455
▁Matches	-12456
▁anthill	-12457
▁barbecue	-12458
▁littlest	-12459
▁luxurious	-12460
Rose	-12461
▁Reg	-12462
▁Cody	-12463
▁Cory	-12464
▁East	-12465
▁Lacy	-12466
▁orig	-12467
▁rumm	-12468
▁sauc	-12469
▁Brand	-12470
▁bulls	-12471
▁perch	-12472
▁surge	-12473
▁trays	-12474
Believe	-12475
▁ballet	-12476
▁cocked	-12477
▁option	-12478
▁spatula	-12479
▁sunburn	-12480
▁Dinosaur	-12481
▁bedrooms	-12482
▁chimneys	-12483
▁collapse	-12484
▁homemade	-12485
▁sweating	-12486
Arr	-12487
hot	-12488
lli	-12489
▁hyd	-12490
▁Dark	-12491
▁Fine	-12492
▁Roly	-12493
▁cock	-12494
▁reel	-12495
▁Pilot	-12496
▁amuse	-12497
▁rhyme	-12498
▁Barber	-12499
▁Lastly	-12500
▁Sharky	-12501
▁greens	-12502
▁watery	-12503
▁Knowing	-12504
▁copying	-12505
▁critter	-12506
▁scoring	-12507
▁skating	-12508
▁vendors	-12509
shadowing	-12510
▁Original	-12511
▁stumbles	-12512
▁whooshing	-12513
AA	-12514
Son	-12515
tac	-12516
▁sup	-12517
ifted	-12518
▁Foot	-12519
Before	-12520
▁CRASH	-12521
▁splin	-12522
▁stead	-12523
▁begins	-12524
▁trades	-12525
▁Sabrina	-12526
▁Sweetie	-12527
▁clamber	-12528
▁parades	-12529
▁scrapes	-12530
▁traveler	-12531
▁insistent	-12532
▁chattering	-12533
▁Caterpillar	-12534
axi	-12535
hop	-12536
test	-12537
▁Cup	-12538
▁Net	-12539
▁Tag	-12540
▁laz	-12541
▁BEEP	-12542
▁Cand	-12543
▁Dove	-12544
▁cork	-12545
making	-12546
▁Chalk	-12547
▁strut	-12548
▁rinses	-12549
▁fulfill	-12550
▁sunbeam	-12551
▁birdseed	-12552
▁snarling	-12553
▁underest	-12554
▁whirring	-12555
▁childhood	-12556
▁cornfield	-12557
▁considered	-12558
▁protective	-12559
Inc	-12560
Pay	-12561
bag	-12562
bies	-12563
iged	-12564
Bring	-12565
▁Claws	-12566
▁Lions	-12567
▁Paint	-12568
▁blind	-12569
▁fifth	-12570
▁flush	-12571
▁puffy	-12572
▁direct	-12573
▁meanie	-12574
▁yanked	-12575
▁Crabbie	-12576
▁admires	-12577
▁squeaking	-12578
▁storybook	-12579
nut	-12580
izmo	-12581
Birds	-12582
▁Donny	-12583
▁Guppy	-12584
▁Throw	-12585
▁Friday	-12586
▁bullet	-12587
▁remark	-12588
▁volunt	-12589
▁yachts	-12590
▁Avocado	-12591
▁echoing	-12592
▁flopped	-12593
▁arriving	-12594
▁collects	-12595
▁journals	-12596
▁uncertain	-12597
▁cigarettes	-12598
olk	-12599
six	-12600
▁ko	-12601
▁Jog	-12602
▁arc	-12603
Grace	-12604
Lemon	-12605
aging	-12606
▁Hard	-12607
▁Tere	-12608
Pepper	-12609
▁conso	-12610
▁curse	-12611
▁dates	-12612
▁death	-12613
▁newly	-12614
▁postc	-12615
▁Barney	-12616
▁Connie	-12617
▁Gently	-12618
▁braids	-12619
▁donate	-12620
▁enters	-12621
▁Sparkles	-12622
▁fighters	-12623
▁greeting	-12624
▁sprinted	-12625
▁stroking	-12626
▁screeched	-12627
▁suggesting	-12628
fr	-12629
Gas	-12630
ata	-12631
anas	-12632
wing	-12633
▁Cee	-12634
ament	-12635
annah	-12636
raser	-12637
▁Four	-12638
▁Wild	-12639
▁gaps	-12640
▁tags	-12641
number	-12642
▁Woody	-12643
▁boost	-12644
▁grave	-12645
▁silky	-12646
▁grownup	-12647
▁hobbies	-12648
▁wizards	-12649
▁quarrelling	-12650
eze	-12651
▁Gri	-12652
▁som	-12653
▁Sari	-12654
▁rent	-12655
belief	-12656
▁Gizmo	-12657
▁Mixer	-12658
▁Neigh	-12659
▁Pasta	-12660
▁Stars	-12661
▁demon	-12662
▁Fridge	-12663
▁layers	-12664
▁prepar	-12665
▁wilder	-12666
▁Melinda	-12667
▁Pumpkin	-12668
▁benefit	-12669
▁funnier	-12670
▁obliged	-12671
aculously	-12672
▁betrayed	-12673
▁achieving	-12674
▁clipboard	-12675
▁Foreshadowing	-12676
ji	-12677
ows	-12678
▁ic	-12679
acky	-12680
tyle	-12681
▁cit	-12682
anted	-12683
emons	-12684
Nobody	-12685
whoosh	-12686
▁Aiden	-12687
▁Learn	-12688
osquito	-12689
▁MooMoo	-12690
ctopuses	-12691
▁Moments	-12692
▁anyways	-12693
▁cookout	-12694
▁fingert	-12695
▁playmate	-12696
▁Adventure	-12697
▁amusement	-12698
▁apartment	-12699
▁difficulty	-12700
AP	-12701
Six	-12702
Drop	-12703
wear	-12704
▁tut	-12705
▁Home	-12706
▁Hopp	-12707
Pretty	-12708
▁Diane	-12709
▁mango	-12710
▁swell	-12711
▁tiles	-12712
▁whirl	-12713
▁Anchor	-12714
▁Callie	-12715
▁smarts	-12716
▁wildly	-12717
iversary	-12718
▁existed	-12719
▁sighing	-12720
▁uncover	-12721
uliflower	-12722
▁clicking	-12723
▁persuade	-12724
▁villager	-12725
▁villains	-12726
▁photograp	-12727
▁regretful	-12728
▁Reluctantly	-12729
▁cooperative	-12730
Sal	-12731
tweet	-12732
▁cann	-12733
▁ruby	-12734
▁stab	-12735
minded	-12736
▁Peppy	-12737
▁beats	-12738
▁canes	-12739
▁crump	-12740
▁rakes	-12741
▁sunda	-12742
verance	-12743
▁Dreams	-12744
▁fondly	-12745
▁spoilt	-12746
▁Georgie	-12747
▁Surprise	-12748
▁rejoiced	-12749
▁Different	-12750
NO	-12751
▁jay	-12752
Mandy	-12753
nness	-12754
▁Beet	-12755
▁Buck	-12756
▁Craw	-12757
▁axes	-12758
▁kiwi	-12759
Enough	-12760
▁Blood	-12761
▁tangy	-12762
History	-12763
▁Tigger	-12764
▁Fireman	-12765
▁hairsty	-12766
▁scooted	-12767
▁shyness	-12768
▁tougher	-12769
▁unscrew	-12770
▁drifting	-12771
▁mastered	-12772
▁Spaghetti	-12773
▁gentleman	-12774
▁preferred	-12775
Cook	-12776
Exit	-12777
ersa	-12778
▁Hay	-12779
▁Pal	-12780
▁Elli	-12781
▁Fold	-12782
▁Kari	-12783
▁kern	-12784
▁Heart	-12785
behaved	-12786
brushes	-12787
▁fruity	-12788
▁kettle	-12789
▁mopped	-12790
▁ninety	-12791
▁squirm	-12792
▁superp	-12793
▁violet	-12794
▁carrier	-12795
▁lioness	-12796
▁needing	-12797
▁parting	-12798
▁seventy	-12799
▁threats	-12800
▁demonstr	-12801
▁rattling	-12802
▁thousands	-12803
▁perseverance	-12804
ga	-12805
mi	-12806
bear	-12807
▁Gab	-12808
▁gal	-12809
crumb	-12810
irley	-12811
▁Oaky	-12812
▁fizz	-12813
▁loaf	-12814
Change	-12815
iously	-12816
ricket	-12817
▁chant	-12818
▁swish	-12819
retched	-12820
▁Lizard	-12821
▁Repeat	-12822
▁adjust	-12823
▁eighty	-12824
▁sauces	-12825
▁tidier	-12826
▁Contest	-12827
▁Scarlet	-12828
▁blouses	-12829
▁despair	-12830
▁pouting	-12831
▁trainer	-12832
▁visible	-12833
▁suitable	-12834
▁disbelief	-12835
▁glimmered	-12836
▁announcement	-12837
Beh	-12838
baa	-12839
▁Na	-12840
Gigi	-12841
nine	-12842
▁kil	-12843
▁poo	-12844
Could	-12845
seven	-12846
splash	-12847
▁Ducks	-12848
▁citiz	-12849
ornness	-12850
▁hopper	-12851
▁litter	-12852
▁streak	-12853
▁wailed	-12854
▁waists	-12855
▁compost	-12856
▁handled	-12857
▁somersa	-12858
▁fanciest	-12859
▁breadcrumb	-12860
God	-12861
beat	-12862
pole	-12863
▁Mig	-12864
▁ens	-12865
Bravo	-12866
Lucky	-12867
Stand	-12868
▁inqu	-12869
Freddy	-12870
▁Sissy	-12871
▁chief	-12872
▁Brandy	-12873
▁Leaves	-12874
▁Shirley	-12875
▁Squeezy	-12876
▁surfers	-12877
▁Somewhere	-12878
▁combination	-12879
▁impatiently	-12880
▁recommending	-12881
Old	-12882
▁du	-12883
knob	-12884
ruck	-12885
▁Bon	-12886
▁bay	-12887
spell	-12888
▁Face	-12889
▁mini	-12890
▁pier	-12891
Monkey	-12892
▁Dance	-12893
▁outst	-12894
▁stash	-12895
▁trous	-12896
▁detail	-12897
▁igloos	-12898
▁overhe	-12899
▁Belinda	-12900
▁capable	-12901
▁coaster	-12902
▁jingled	-12903
▁blessing	-12904
▁faithful	-12905
▁juggling	-12906
▁mermaids	-12907
▁provides	-12908
▁waitress	-12909
university	-12910
▁Afterward	-12911
▁grumpiness	-12912
▁experiments	-12913
Bun	-12914
law	-12915
Both	-12916
Kiki	-12917
occo	-12918
▁Bud	-12919
▁Mal	-12920
▁Pri	-12921
chors	-12922
▁sobs	-12923
▁Dolls	-12924
▁Dolph	-12925
▁Thumb	-12926
▁Trudy	-12927
▁Trunk	-12928
▁areas	-12929
▁picky	-12930
Teacher	-12931
alities	-12932
entions	-12933
▁Lawyer	-12934
▁Prunes	-12935
▁Sheila	-12936
▁drummer	-12937
▁whirled	-12938
▁dazzling	-12939
▁doorknob	-12940
▁gleefully	-12941
▁reindeers	-12942
▁thankfully	-12943
▁outstretched	-12944
▁photographer	-12945
▁stubbornness	-12946
▁.	-12947
ima	-12948
Elly	-12949
lude	-12950
roll	-12951
▁Jed	-12952
Annie	-12953
eight	-12954
orget	-12955
▁moss	-12956
jected	-12957
▁Nikki	-12958
▁Style	-12959
▁Tutor	-12960
▁camps	-12961
▁dumps	-12962
Warning	-12963
grandma	-12964
▁BaaBaa	-12965
▁Isabel	-12966
▁tumble	-12967
▁closets	-12968
▁sibling	-12969
Butterfly	-12970
▁normally	-12971
▁trousers	-12972
▁Listening	-12973
▁sheepishly	-12974
▁anniversary	-12975
▁compliments	-12976
ST	-12977
Sky	-12978
rip	-12979
zer	-12980
Wind	-12981
Olive	-12982
Pinky	-12983
novel	-12984
▁Amaz	-12985
▁Cord	-12986
▁Nala	-12987
▁Seal	-12988
▁fres	-12989
▁hens	-12990
danger	-12991
▁Garry	-12992
▁Mitch	-12993
▁Relax	-12994
▁ruins	-12995
▁trace	-12996
▁Frisky	-12997
▁Poison	-12998
▁injury	-12999
▁longed	-13000
▁grunted	-13001
▁quarrels	-13002
▁slippers	-13003
▁persisted	-13004
▁recognised	-13005
▁remarkable	-13006
Ru	-13007
Fox	-13008
nor	-13009
yum	-13010
▁Dor	-13011
iggle	-13012
sized	-13013
▁garl	-13014
ertime	-13015
▁glory	-13016
▁punch	-13017
▁disres	-13018
▁tulips	-13019
▁Network	-13020
▁bullets	-13021
▁emptied	-13022
▁greener	-13023
▁mopping	-13024
▁rounded	-13025
▁cheetahs	-13026
▁critters	-13027
▁poisoned	-13028
▁sideways	-13029
▁squawking	-13030
grow	-13031
Green	-13032
Momma	-13033
asons	-13034
▁requ	-13035
▁blues	-13036
▁snows	-13037
▁Trying	-13038
▁policy	-13039
▁youths	-13040
▁insides	-13041
▁shivers	-13042
▁sensible	-13043
▁windmill	-13044
auliflower	-13045
orgettable	-13046
▁colouring	-13047
▁thrilling	-13048
▁recommendations	-13049
pon	-13050
▁ye	-13051
Math	-13052
▁Pan	-13053
▁mult	-13054
▁Pilly	-13055
▁Pingo	-13056
▁pawed	-13057
▁plugs	-13058
▁droopy	-13059
▁tighten	-13060
▁wriggle	-13061
▁drumming	-13062
▁diligently	-13063
Wr	-13064
rrrr	-13065
▁Blu	-13066
▁Cur	-13067
Dance	-13068
shake	-13069
umbly	-13070
▁Cole	-13071
▁mash	-13072
▁unra	-13073
▁Micky	-13074
▁Terri	-13075
▁bared	-13076
▁brief	-13077
▁ponds	-13078
▁Sharon	-13079
▁Trusty	-13080
▁rushes	-13081
▁safest	-13082
▁chugged	-13083
▁outdoor	-13084
▁directly	-13085
▁distress	-13086
▁assistant	-13087
▁attracted	-13088
▁dandelion	-13089
▁recordings	-13090
▁roundabout	-13091
▁breadcrumbs	-13092
▁unforgettable	-13093
Mo	-13094
lete	-13095
toot	-13096
▁Yay	-13097
▁gad	-13098
▁nug	-13099
▁sis	-13100
illie	-13101
▁foil	-13102
▁Crazy	-13103
▁Socks	-13104
▁eerie	-13105
▁Clover	-13106
▁Miller	-13107
▁sizzle	-13108
▁blended	-13109
▁diaries	-13110
▁suppose	-13111
▁Counting	-13112
▁Painting	-13113
▁coolness	-13114
▁fastened	-13115
▁scribble	-13116
▁sledding	-13117
▁clambered	-13118
▁octopuses	-13119
▁lighthouse	-13120
▁moderation	-13121
▁paramedics	-13122
▁suggestions	-13123
Hot	-13124
erek	-13125
▁neg	-13126
Pandy	-13127
▁Macy	-13128
alance	-13129
▁Bongo	-13130
▁ambit	-13131
▁cleve	-13132
▁plump	-13133
▁Pillow	-13134
▁draped	-13135
▁looped	-13136
▁Allowed	-13137
▁anchors	-13138
▁guiding	-13139
▁Fireworks	-13140
▁teammates	-13141
▁unplugged	-13142
▁meaningful	-13143
▁slithering	-13144
▁summertime	-13145
arr	-13146
eek	-13147
inn	-13148
Yoga	-13149
gedy	-13150
▁Rat	-13151
▁jig	-13152
▁Jada	-13153
▁Lula	-13154
ionate	-13155
▁Brady	-13156
▁Derek	-13157
▁Genie	-13158
ricanes	-13159
▁Months	-13160
▁Whippy	-13161
▁adored	-13162
▁hooted	-13163
▁mixers	-13164
▁prized	-13165
▁volume	-13166
Chocolate	-13167
▁survived	-13168
▁gardeners	-13169
▁mechanics	-13170
▁squealing	-13171
▁tiredness	-13172
NAP	-13173
Clap	-13174
arch	-13175
isha	-13176
▁Bab	-13177
Marry	-13178
erald	-13179
▁Dale	-13180
▁Luca	-13181
▁Pige	-13182
▁crad	-13183
▁lays	-13184
▁plea	-13185
▁snoo	-13186
Gotcha	-13187
Oxygen	-13188
otions	-13189
scapes	-13190
▁Casey	-13191
▁Freck	-13192
▁Pengu	-13193
▁Sauce	-13194
▁boing	-13195
▁buyer	-13196
▁drunk	-13197
▁spout	-13198
▁tulip	-13199
ergency	-13200
▁Eraser	-13201
▁washer	-13202
▁Dorothy	-13203
▁session	-13204
▁croaking	-13205
▁someplace	-13206
▁tornadoes	-13207
▁encourages	-13208
▁approaching	-13209
▁Congratulations	-13210
LA	-13211
Tre	-13212
omi	-13213
iffy	-13214
oses	-13215
rand	-13216
▁Arm	-13217
▁Log	-13218
▁Sel	-13219
Spray	-13220
ereal	-13221
owner	-13222
▁Bury	-13223
▁Dust	-13224
▁Glue	-13225
▁Tall	-13226
▁alas	-13227
▁alph	-13228
lessly	-13229
▁Meena	-13230
▁Trina	-13231
▁moose	-13232
fashion	-13233
▁Forest	-13234
▁Fright	-13235
▁eldest	-13236
▁bleated	-13237
▁pasture	-13238
▁peeling	-13239
▁shooter	-13240
▁cactuses	-13241
▁emotions	-13242
▁imagines	-13243
▁Especially	-13244
▁Frightened	-13245
▁cooperation	-13246
sun	-13247
Sing	-13248
▁Rec	-13249
▁Hide	-13250
▁wary	-13251
▁Kimmy	-13252
▁Lucie	-13253
▁Tracy	-13254
▁Train	-13255
▁dents	-13256
▁galax	-13257
▁swarm	-13258
osaurus	-13259
▁Connor	-13260
▁Dancer	-13261
▁Doughy	-13262
▁Snappy	-13263
▁splits	-13264
▁Scruffy	-13265
▁limping	-13266
▁campsite	-13267
▁dangling	-13268
▁searches	-13269
itz	-13270
Pete	-13271
abet	-13272
▁Ear	-13273
▁Gun	-13274
▁Ser	-13275
▁Draw	-13276
▁pred	-13277
angles	-13278
▁beams	-13279
▁mower	-13280
▁slows	-13281
Mittens	-13282
▁Tonight	-13283
▁barbers	-13284
▁console	-13285
▁feature	-13286
▁pathway	-13287
▁yogurts	-13288
▁eagerness	-13289
▁fingertips	-13290
▁landscapes	-13291
▁speechless	-13292
▁whimpering	-13293
At	-13294
ini	-13295
uiz	-13296
Mike	-13297
aley	-13298
alie	-13299
▁Pin	-13300
▁vig	-13301
ively	-13302
ottie	-13303
▁Cowy	-13304
▁imit	-13305
▁swer	-13306
orting	-13307
▁Rocco	-13308
▁Salad	-13309
▁crows	-13310
▁oohed	-13311
because	-13312
license	-13313
▁Basket	-13314
▁Blocks	-13315
▁Clucky	-13316
▁Crocky	-13317
▁Miguel	-13318
▁errand	-13319
▁fished	-13320
▁Jeffrey	-13321
▁flicked	-13322
▁fortune	-13323
▁grasped	-13324
▁reasons	-13325
▁Teaspoon	-13326
▁pleading	-13327
▁beekeeper	-13328
▁detectives	-13329
for	-13330
Pull	-13331
acon	-13332
zzle	-13333
ander	-13334
irror	-13335
usage	-13336
▁Also	-13337
▁prey	-13338
▁vain	-13339
▁Bears	-13340
▁Shiny	-13341
ophones	-13342
▁Bitter	-13343
▁lowest	-13344
▁opener	-13345
▁parach	-13346
▁obvious	-13347
▁richest	-13348
▁alphabet	-13349
▁menacing	-13350
▁Blueberry	-13351
▁helplessly	-13352
▁underestimate	-13353
CK	-13354
Ho	-13355
ule	-13356
Cats	-13357
pher	-13358
roar	-13359
rows	-13360
▁Cam	-13361
▁Lew	-13362
▁Mya	-13363
▁Syd	-13364
liest	-13365
▁Amie	-13366
▁Fake	-13367
▁Part	-13368
▁prec	-13369
▁wilt	-13370
Dinner	-13371
serted	-13372
▁Franc	-13373
▁Marry	-13374
▁Wanna	-13375
▁grade	-13376
▁koala	-13377
▁memor	-13378
▁torch	-13379
▁bakers	-13380
▁ravens	-13381
▁wisest	-13382
▁Anytime	-13383
▁smeared	-13384
▁prisoner	-13385
▁woodland	-13386
▁farmhouse	-13387
▁obedience	-13388
▁permitting	-13389
▁comfortably	-13390
Gl	-13391
Pa	-13392
sk	-13393
zzz	-13394
ROAR	-13395
agon	-13396
izer	-13397
▁Ten	-13398
▁Cray	-13399
▁Shop	-13400
▁gown	-13401
Speedy	-13402
▁Benji	-13403
▁Touch	-13404
▁potty	-13405
▁Needle	-13406
▁scraps	-13407
▁sundae	-13408
▁craziest	-13409
▁inserted	-13410
▁marrying	-13411
▁cigarette	-13412
▁wonderland	-13413
'!	-13414
Ted	-13415
Ruff	-13416
aila	-13417
aunt	-13418
down	-13419
catch	-13420
enter	-13421
idget	-13422
ooped	-13423
▁Grey	-13424
▁Lana	-13425
▁Town	-13426
▁numb	-13427
▁Curly	-13428
▁Lunch	-13429
▁latch	-13430
▁total	-13431
Tonight	-13432
▁badges	-13433
▁boldly	-13434
▁finder	-13435
▁glance	-13436
▁outrun	-13437
▁shoved	-13438
▁conquer	-13439
▁whizzed	-13440
▁believes	-13441
▁crumbled	-13442
▁handfuls	-13443
▁speckled	-13444
azel	-13445
hony	-13446
▁Sat	-13447
▁coz	-13448
▁jer	-13449
Lilly	-13450
stery	-13451
▁Game	-13452
▁Neck	-13453
▁Page	-13454
▁Going	-13455
▁Roary	-13456
▁cance	-13457
▁elves	-13458
Rainbow	-13459
rinkles	-13460
▁Choose	-13461
▁Mattie	-13462
▁heeded	-13463
▁pauses	-13464
▁cockpit	-13465
▁grizzly	-13466
▁trained	-13467
▁whimper	-13468
▁sprouted	-13469
▁stressed	-13470
▁appearing	-13471
▁sharpened	-13472
▁sprinkler	-13473
▁stitching	-13474
▁skateboard	-13475
▁somersault	-13476
▁measurements	-13477
Joey	-13478
Stri	-13479
Toot	-13480
bowl	-13481
▁Ber	-13482
▁mmm	-13483
▁ome	-13484
▁tad	-13485
etern	-13486
somet	-13487
▁Cece	-13488
▁Puzz	-13489
▁Elisa	-13490
▁Hazel	-13491
▁clang	-13492
▁uneven	-13493
▁Anthony	-13494
▁Besides	-13495
▁Cooking	-13496
▁boredom	-13497
▁chuckle	-13498
▁majesty	-13499
▁scatters	-13500
▁wildlife	-13501
▁longingly	-13502
La	-13503
Dogs	-13504
Life	-13505
Toto	-13506
aaah	-13507
▁Gum	-13508
▁Lea	-13509
▁imm	-13510
Knock	-13511
eggie	-13512
idden	-13513
upply	-13514
▁Sign	-13515
▁Crash	-13516
▁Georg	-13517
▁Louis	-13518
▁Maggy	-13519
▁Mario	-13520
▁avail	-13521
▁etern	-13522
▁tacos	-13523
▁Nicole	-13524
▁clicks	-13525
▁tackle	-13526
▁Mailman	-13527
▁Natalie	-13528
▁crafted	-13529
▁divided	-13530
▁flicker	-13531
▁flushed	-13532
ependable	-13533
▁bustling	-13534
▁shutting	-13535
▁smashing	-13536
▁tricking	-13537
▁upcoming	-13538
▁rainwater	-13539
Ar	-13540
Aha	-13541
Was	-13542
▁Ah	-13543
anya	-13544
aves	-13545
ench	-13546
toed	-13547
▁tit	-13548
Danny	-13549
Truck	-13550
essor	-13551
▁Dean	-13552
▁Yuck	-13553
▁rosy	-13554
▁rung	-13555
▁Lolly	-13556
▁brist	-13557
▁minty	-13558
▁Beetle	-13559
▁beaten	-13560
▁juggled	-13561
dangerous	-13562
▁citizens	-13563
▁crumpled	-13564
▁scariest	-13565
▁calendars	-13566
▁ringmaster	-13567
di	-13568
Ban	-13569
ham	-13570
see	-13571
affy	-13572
▁Sec	-13573
▁Bike	-13574
▁symp	-13575
▁virt	-13576
▁Laila	-13577
▁Oasis	-13578
▁alike	-13579
▁ramps	-13580
▁whips	-13581
artment	-13582
▁Julian	-13583
▁passer	-13584
▁storyt	-13585
▁behaves	-13586
▁snuggly	-13587
▁trimmed	-13588
▁Microphone	-13589
▁disrespect	-13590
Aww	-13591
gent	-13592
Shall	-13593
Shoot	-13594
▁asse	-13595
▁laps	-13596
▁micr	-13597
▁oval	-13598
▁Ghost	-13599
▁occur	-13600
▁client	-13601
▁jiggle	-13602
▁omelet	-13603
▁sawing	-13604
Fighting	-13605
▁Napping	-13606
▁tragedy	-13607
▁Freckles	-13608
▁cultures	-13609
▁splinter	-13610
▁steadily	-13611
▁ambulances	-13612
Gr	-13613
bbit	-13614
care	-13615
mary	-13616
ping	-13617
chant	-13618
erous	-13619
icity	-13620
obble	-13621
▁Hoop	-13622
▁Push	-13623
▁cham	-13624
▁Otter	-13625
▁farmy	-13626
▁Faster	-13627
▁Police	-13628
▁Sydney	-13629
▁produc	-13630
▁Reverse	-13631
▁mumbled	-13632
▁shoebox	-13633
▁spelled	-13634
▁frighten	-13635
▁incident	-13636
▁matchbox	-13637
▁villages	-13638
▁arranging	-13639
▁overheard	-13640
▁outsmarted	-13641
▁microphones	-13642
Brr	-13643
mit	-13644
blue	-13645
▁Pad	-13646
▁Saf	-13647
▁huh	-13648
Fetch	-13649
Jelly	-13650
ircus	-13651
udges	-13652
▁Rice	-13653
Almost	-13654
Strike	-13655
▁Carty	-13656
▁Jessy	-13657
▁Naomi	-13658
▁Pixie	-13659
▁Power	-13660
▁Slide	-13661
▁layed	-13662
▁repay	-13663
▁Nation	-13664
▁finest	-13665
▁pickle	-13666
▁Chicken	-13667
▁Fashion	-13668
▁Pauline	-13669
▁nuggets	-13670
▁variety	-13671
▁Mosquito	-13672
▁farmyard	-13673
▁pedalling	-13674
▁policemen	-13675
▁basketballs	-13676
▁disturbance	-13677
Jam	-13678
ems	-13679
uiet	-13680
▁Toe	-13681
March	-13682
▁Knot	-13683
▁Snip	-13684
▁eyeb	-13685
▁fain	-13686
asting	-13687
▁Piney	-13688
▁Snail	-13689
▁Steak	-13690
▁Yacht	-13691
▁lolly	-13692
▁attend	-13693
▁festiv	-13694
▁parcel	-13695
kerchief	-13696
▁Giggles	-13697
▁arrival	-13698
▁faucets	-13699
▁immense	-13700
▁punched	-13701
▁wetness	-13702
▁Happiness	-13703
▁underwear	-13704
▁recognizing	-13705
▁handkerchief	-13706
Pig	-13707
ela	-13708
hoo	-13709
essa	-13710
ilia	-13711
raph	-13712
vere	-13713
ippee	-13714
maybe	-13715
nique	-13716
spicy	-13717
▁Corn	-13718
▁Lazy	-13719
▁coax	-13720
▁joys	-13721
▁poll	-13722
▁Hooty	-13723
▁Steam	-13724
▁Sully	-13725
▁Tanya	-13726
▁curry	-13727
▁plums	-13728
▁Humble	-13729
▁Stacey	-13730
▁evenly	-13731
▁porcup	-13732
▁roasted	-13733
▁various	-13734
▁Children	-13735
▁Felicity	-13736
▁swallows	-13737
▁Sprinkles	-13738
▁profession	-13739
▁splattered	-13740
▁zigzagging	-13741
▁apologizing	-13742
ali	-13743
cuff	-13744
lesh	-13745
otor	-13746
▁Ham	-13747
▁bob	-13748
▁ooh	-13749
quack	-13750
ucted	-13751
▁Lyla	-13752
▁Said	-13753
▁brim	-13754
▁Phill	-13755
▁booms	-13756
▁clasp	-13757
▁flesh	-13758
▁sawed	-13759
pitched	-13760
▁Baking	-13761
▁madder	-13762
▁pumped	-13763
▁sensed	-13764
▁Ancient	-13765
▁peering	-13766
▁produce	-13767
disappear	-13768
▁Exercise	-13769
▁handcuff	-13770
▁replying	-13771
Paul	-13772
Peek	-13773
baby	-13774
ispy	-13775
ivid	-13776
▁rum	-13777
▁tur	-13778
antic	-13779
▁Plan	-13780
▁frol	-13781
Cheers	-13782
Number	-13783
ribbit	-13784
▁Bitty	-13785
▁Joyce	-13786
▁baaed	-13787
▁ditch	-13788
▁exist	-13789
▁haunt	-13790
▁Stuart	-13791
▁mooing	-13792
▁newest	-13793
▁rounds	-13794
▁territ	-13795
▁therap	-13796
▁tosses	-13797
▁Sausage	-13798
▁failure	-13799
▁sparked	-13800
▁bristles	-13801
▁fishbowl	-13802
▁recently	-13803
▁shoelaces	-13804
▁hurricanes	-13805
▁construction	-13806
Hoo	-13807
igo	-13808
lie	-13809
tre	-13810
Soph	-13811
ires	-13812
ishy	-13813
know	-13814
ller	-13815
James	-13816
Rocky	-13817
owled	-13818
▁Honk	-13819
▁Lego	-13820
▁SNAP	-13821
▁cack	-13822
▁hasn	-13823
▁pure	-13824
▁Itchy	-13825
▁Steel	-13826
▁posed	-13827
▁Amelie	-13828
▁Slippy	-13829
▁virtue	-13830
peration	-13831
▁Cricket	-13832
▁kernels	-13833
▁massive	-13834
▁toddled	-13835
▁Scarlett	-13836
▁engineer	-13837
▁smoothie	-13838
▁flickered	-13839
▁Basketball	-13840
▁boundaries	-13841
Rub	-13842
Geor	-13843
ushy	-13844
word	-13845
green	-13846
▁Roll	-13847
▁dart	-13848
▁Blake	-13849
▁Della	-13850
▁Fancy	-13851
▁Pitch	-13852
▁shove	-13853
▁waggy	-13854
ization	-13855
▁fellow	-13856
▁golfer	-13857
▁juices	-13858
▁sugary	-13859
▁sulked	-13860
▁tiptoe	-13861
▁Blackie	-13862
▁battles	-13863
▁coldest	-13864
▁tipping	-13865
▁cowgirls	-13866
▁pressure	-13867
▁strutted	-13868
▁waddling	-13869
▁encounter	-13870
▁gentlemen	-13871
▁seatbelts	-13872
▁billboards	-13873
▁replacement	-13874
Ta	-13875
zel	-13876
▁SP	-13877
Spid	-13878
apon	-13879
orky	-13880
umbo	-13881
▁dew	-13882
▁rev	-13883
agged	-13884
istic	-13885
▁Leon	-13886
▁vows	-13887
irteen	-13888
▁Chair	-13889
▁Clock	-13890
▁Luisa	-13891
▁Marla	-13892
▁Shawn	-13893
▁Tuffy	-13894
▁slope	-13895
▁Around	-13896
▁Knives	-13897
▁Riding	-13898
▁judged	-13899
▁piglet	-13900
▁English	-13901
▁harbour	-13902
▁Swimming	-13903
▁collector	-13904
▁dashboard	-13905
▁hummingbird	-13906
Hen	-13907
mes	-13908
ific	-13909
▁Tea	-13910
Cluck	-13911
Order	-13912
cling	-13913
ordan	-13914
▁Eddy	-13915
▁Plus	-13916
▁Swan	-13917
▁brow	-13918
▁tutu	-13919
▁Acorn	-13920
▁Carry	-13921
▁Rocko	-13922
▁cools	-13923
▁leafy	-13924
▁Within	-13925
▁neighs	-13926
▁buttery	-13927
▁itching	-13928
▁slowing	-13929
▁captains	-13930
▁evenings	-13931
▁swingset	-13932
▁whistler	-13933
▁fortunate	-13934
▁porcupine	-13935
▁smoothness	-13936
Pen	-13937
Honk	-13938
irus	-13939
slap	-13940
▁Grab	-13941
▁Lean	-13942
▁Mall	-13943
▁Oats	-13944
▁brat	-13945
▁phra	-13946
George	-13947
▁Woofy	-13948
▁hiked	-13949
▁limit	-13950
▁tourn	-13951
▁Banana	-13952
▁Pebble	-13953
▁Sharks	-13954
▁Smelly	-13955
▁camels	-13956
▁latest	-13957
▁nailed	-13958
▁supper	-13959
▁Ladybug	-13960
▁bedside	-13961
▁illness	-13962
▁untwist	-13963
▁chambers	-13964
▁smoothed	-13965
▁speakers	-13966
▁judgement	-13967
▁Miraculously	-13968
▁extinguisher	-13969
Tag	-13970
eee	-13971
Carl	-13972
acam	-13973
oray	-13974
uter	-13975
ylie	-13976
▁Mer	-13977
▁gig	-13978
▁gur	-13979
Shake	-13980
armed	-13981
▁Fair	-13982
▁Lili	-13983
▁Sold	-13984
achine	-13985
ealing	-13986
▁girly	-13987
▁maths	-13988
▁veils	-13989
acamole	-13990
ractice	-13991
▁Lotion	-13992
▁Oyster	-13993
▁Smooth	-13994
▁alarms	-13995
▁attent	-13996
▁beings	-13997
▁bumble	-13998
▁purses	-13999
▁Phillip	-14000
▁darkest	-14001
▁escapes	-14002
▁scanned	-14003
▁Spinning	-14004
▁avoiding	-14005
▁hesitate	-14006
▁squashed	-14007
▁tinkling	-14008
▁footballs	-14009
▁chessboard	-14010
gh	-14011
Ign	-14012
cum	-14013
Tuna	-14014
oops	-14015
Henry	-14016
Tilly	-14017
tract	-14018
▁Deep	-14019
▁Fear	-14020
▁chem	-14021
▁core	-14022
▁Dough	-14023
▁Swans	-14024
▁polit	-14025
▁manner	-14026
▁scenes	-14027
▁Success	-14028
▁applied	-14029
▁Bouncing	-14030
▁Whatever	-14031
▁coconuts	-14032
▁fearless	-14033
▁markings	-14034
▁guacamole	-14035
▁rainstorm	-14036
▁territory	-14037
▁intentions	-14038
▁hy	-14039
Doll	-14040
Long	-14041
▁Rep	-14042
arium	-14043
▁Book	-14044
▁Lynn	-14045
▁Tape	-14046
▁Elena	-14047
▁Gruff	-14048
▁Keith	-14049
▁Lewis	-14050
▁Study	-14051
▁award	-14052
▁treet	-14053
▁Carley	-14054
▁Franny	-14055
▁locket	-14056
▁proven	-14057
▁weakly	-14058
▁Diamond	-14059
▁Truckie	-14060
▁grilled	-14061
▁savored	-14062
▁shifted	-14063
▁spectac	-14064
Disappear	-14065
▁Skipping	-14066
▁calmness	-14067
▁flitting	-14068
▁furthest	-14069
▁scowling	-14070
▁everytime	-14071
▁reception	-14072
Lad	-14073
Prin	-14074
amps	-14075
▁Tob	-14076
Finny	-14077
ierre	-14078
▁Chad	-14079
▁Fall	-14080
▁crop	-14081
▁rese	-14082
eteria	-14083
▁ident	-14084
▁kilos	-14085
Bubbles	-14086
pensive	-14087
▁Beebee	-14088
▁Clouds	-14089
▁French	-14090
▁Parrot	-14091
▁Pierre	-14092
▁Screen	-14093
▁noodle	-14094
▁fancier	-14095
▁gadgets	-14096
▁seesaws	-14097
knowingly	-14098
nightmare	-14099
▁doghouse	-14100
▁rhinocer	-14101
▁interrupt	-14102
▁Dependable	-14103
▁Butterflies	-14104
▁spectacular	-14105
Liz	-14106
Pol	-14107
imid	-14108
leas	-14109
▁Bry	-14110
▁cav	-14111
Snake	-14112
▁Kiss	-14113
innied	-14114
▁Blaze	-14115
▁Wheat	-14116
▁Yield	-14117
▁docum	-14118
▁frees	-14119
▁Fisher	-14120
▁Marian	-14121
▁Trucko	-14122
▁cooing	-14123
▁jewell	-14124
▁spiral	-14125
▁ticked	-14126
Lemonade	-14127
▁intimid	-14128
▁keepers	-14129
Excellent	-14130
▁Daughter	-14131
▁features	-14132
▁predator	-14133
▁stamping	-14134
▁whinnied	-14135
▁cafeteria	-14136
▁mightiest	-14137
▁Cauliflower	-14138
▁disrespectful	-14139
?''	-14140
Rel	-14141
▁ir	-14142
Bees	-14143
Hmmm	-14144
Roll	-14145
Neigh	-14146
cloud	-14147
▁Horn	-14148
▁Wool	-14149
▁saws	-14150
Animal	-14151
Birdie	-14152
Spring	-14153
nknown	-14154
▁Plant	-14155
▁Worms	-14156
▁pinec	-14157
▁virus	-14158
isitive	-14159
release	-14160
▁Blacky	-14161
▁Street	-14162
▁ginger	-14163
▁strive	-14164
▁tailor	-14165
▁Honesty	-14166
▁Mailbox	-14167
▁Needles	-14168
▁earring	-14169
▁pounded	-14170
▁pyjamas	-14171
▁shortly	-14172
▁stormed	-14173
▁explodes	-14174
▁passerby	-14175
▁watchful	-14176
▁wrinkles	-14177
▁described	-14178
▁medicines	-14179
▁parachute	-14180
▁politeness	-14181
Ad	-14182
RR	-14183
?'"	-14184
Mrs	-14185
gery	-14186
long	-14187
rett	-14188
▁Mis	-14189
Binky	-14190
Harry	-14191
owder	-14192
wheel	-14193
▁Eggy	-14194
▁Skye	-14195
▁Team	-14196
▁pity	-14197
ourage	-14198
▁Cluck	-14199
▁Salty	-14200
Sweetie	-14201
▁Cereal	-14202
▁archer	-14203
▁ashore	-14204
▁cannon	-14205
▁talons	-14206
▁tingly	-14207
▁transp	-14208
Anything	-14209
▁Holding	-14210
▁Teacher	-14211
▁comment	-14212
▁fabrics	-14213
▁schools	-14214
▁wheeled	-14215
Dangerous	-14216
assionate	-14217
▁Clarissa	-14218
▁Whistler	-14219
▁ashtrays	-14220
▁pondered	-14221
▁stinging	-14222
▁hairstyle	-14223
▁qualities	-14224
▁volunteer	-14225
▁haircutter	-14226
▁daydreaming	-14227
▁inquisitive	-14228
▁relationships	-14229
Sk	-14230
▁pi	-14231
Ahhh	-14232
Milo	-14233
even	-14234
neel	-14235
▁Dis	-14236
Spark	-14237
arten	-14238
stone	-14239
▁Free	-14240
▁Supp	-14241
▁icic	-14242
▁publ	-14243
▁whee	-14244
inated	-14245
▁lasts	-14246
▁overc	-14247
▁sales	-14248
▁Helper	-14249
▁Teresa	-14250
▁aiming	-14251
▁builds	-14252
▁cheeky	-14253
▁mostly	-14254
▁slings	-14255
▁soothe	-14256
▁concern	-14257
▁marches	-14258
▁eternity	-14259
▁postcard	-14260
▁breakable	-14261
▁nighttime	-14262
▁sentences	-14263
▁strangely	-14264
▁chalkboard	-14265
▁professional	-14266
spe	-14267
▁"'	-14268
Swim	-14269
clap	-14270
hate	-14271
turn	-14272
▁Pay	-14273
▁Caut	-14274
▁Evan	-14275
▁Ship	-14276
▁dise	-14277
▁recy	-14278
▁Catie	-14279
▁Space	-14280
▁adver	-14281
▁reeds	-14282
▁shrie	-14283
▁snarl	-14284
▁title	-14285
Stretch	-14286
healthy	-14287
▁Jordan	-14288
▁Novels	-14289
▁Printy	-14290
▁Stupid	-14291
Elephant	-14292
▁appoint	-14293
Sweetheart	-14294
▁swordfish	-14295
▁brightness	-14296
▁fascination	-14297
▁reflections	-14298
▁threatening	-14299
▁trespassing	-14300
awr	-14301
kel	-14302
▁Pu	-14303
Wise	-14304
coot	-14305
they	-14306
▁aah	-14307
▁adj	-14308
▁bid	-14309
▁sam	-14310
▁ske	-14311
Girls	-14312
stage	-14313
uxury	-14314
▁Chug	-14315
▁Guns	-14316
▁Lori	-14317
▁boop	-14318
▁educ	-14319
▁owie	-14320
▁vans	-14321
Behave	-14322
enched	-14323
▁Jazzy	-14324
▁Porky	-14325
▁bolts	-14326
htaking	-14327
▁Chairy	-14328
▁Pencil	-14329
▁Squash	-14330
▁Stinky	-14331
▁makers	-14332
▁rhymes	-14333
atherine	-14334
▁Blossom	-14335
▁dislike	-14336
▁payment	-14337
▁ripping	-14338
▁Balloons	-14339
▁chugging	-14340
▁strongly	-14341
▁supports	-14342
▁thirteen	-14343
▁exception	-14344
▁heartbeat	-14345
▁priceless	-14346
▁complaints	-14347
▁personality	-14348
▁unknowingly	-14349
▁breathtaking	-14350
sea	-14351
BOOM	-14352
Read	-14353
Woah	-14354
▁Pia	-14355
▁Seb	-14356
▁Tug	-14357
▁abs	-14358
Books	-14359
Since	-14360
fight	-14361
ounds	-14362
▁nois	-14363
▁role	-14364
Shadow	-14365
▁Elise	-14366
▁Kylie	-14367
▁achoo	-14368
▁dread	-14369
▁mercy	-14370
▁weave	-14371
▁Higher	-14372
▁drains	-14373
▁engulf	-14374
▁forces	-14375
▁hermit	-14376
▁leaked	-14377
▁steamy	-14378
increase	-14379
▁Francis	-14380
▁Washing	-14381
▁butcher	-14382
▁dinners	-14383
▁slurped	-14384
▁Enormous	-14385
▁perspect	-14386
▁swimmers	-14387
▁unharmed	-14388
▁shrugging	-14389
▁sprinkling	-14390
▁transformation	-14391
Pip	-14392
wed	-14393
esky	-14394
omen	-14395
umsy	-14396
▁Fer	-14397
Smile	-14398
break	-14399
dough	-14400
▁Band	-14401
▁Goat	-14402
Yippee	-14403
▁Andre	-14404
▁Leila	-14405
▁await	-14406
▁pesky	-14407
▁Pigeon	-14408
▁Scared	-14409
▁coward	-14410
▁froggy	-14411
▁growth	-14412
▁neater	-14413
▁rulers	-14414
▁selves	-14415
rawberry	-14416
▁Praying	-14417
▁cooling	-14418
▁intense	-14419
▁obeying	-14420
▁yellows	-14421
▁adjusted	-14422
▁flooding	-14423
▁gestured	-14424
▁gigantic	-14425
▁whizzing	-14426
▁Goodnight	-14427
▁carpenter	-14428
▁realising	-14429
▁slingshot	-14430
▁Cautiously	-14431
▁convincing	-14432
▁tournament	-14433
▁supervision	-14434
Mag	-14435
ius	-14436
kie	-14437
Dave	-14438
▁Goo	-14439
▁maz	-14440
▁Mist	-14441
▁Talk	-14442
▁stam	-14443
Ladies	-14444
stream	-14445
▁Cacky	-14446
▁Sonia	-14447
▁splat	-14448
Restore	-14449
▁Grandd	-14450
▁hunted	-14451
▁intern	-14452
▁mateys	-14453
▁staffs	-14454
▁Bathing	-14455
▁fainted	-14456
▁toppled	-14457
▁blossoms	-14458
▁cleverest	-14459
▁professor	-14460
▁expressing	-14461
▁reflecting	-14462
oyd	-14463
oyo	-14464
Best	-14465
Left	-14466
eral	-14467
▁Air	-14468
▁bul	-14469
▁ess	-14470
▁oar	-14471
feree	-14472
hness	-14473
▁Chel	-14474
▁Easy	-14475
▁diet	-14476
▁fang	-14477
▁pros	-14478
vanish	-14479
▁Baker	-14480
▁drips	-14481
▁pools	-14482
▁pyram	-14483
▁rafts	-14484
ference	-14485
▁Easter	-14486
▁Elliot	-14487
▁cheery	-14488
▁peaked	-14489
▁planks	-14490
ignorant	-14491
▁Jogging	-14492
▁Peeking	-14493
▁grandad	-14494
▁merrily	-14495
▁referee	-14496
▁seaside	-14497
▁sharper	-14498
emergency	-14499
▁fourteen	-14500
▁glorious	-14501
▁outsmart	-14502
▁password	-14503
▁Amazingly	-14504
▁drumsticks	-14505
▁storyteller	-14506
▁rhinoceroses	-14507
Ra	-14508
ta	-14509
ua	-14510
War	-14511
Boat	-14512
STOP	-14513
▁Cor	-14514
▁Rot	-14515
▁fal	-14516
▁inh	-14517
orthy	-14518
power	-14519
▁Fern	-14520
▁pats	-14521
▁whom	-14522
Sophie	-14523
▁Alina	-14524
▁Haley	-14525
▁Soary	-14526
▁bloss	-14527
▁glint	-14528
▁mazes	-14529
▁pinned	-14530
▁reluct	-14531
▁snored	-14532
▁Carrots	-14533
▁longing	-14534
▁smudged	-14535
▁puckered	-14536
▁mentioning	-14537
Att	-14538
ene	-14539
yay	-14540
?!".	-14541
Finn	-14542
alls	-14543
gies	-14544
nter	-14545
▁Kid	-14546
▁aqu	-14547
▁rap	-14548
Plant	-14549
▁Flip	-14550
▁hula	-14551
▁Crack	-14552
▁smirk	-14553
▁snout	-14554
▁tenth	-14555
iration	-14556
▁Colors	-14557
▁Gerald	-14558
▁Snakes	-14559
▁hotdog	-14560
▁sliced	-14561
▁untidy	-14562
▁Bananas	-14563
▁Running	-14564
▁patched	-14565
▁potions	-14566
▁shepher	-14567
▁observes	-14568
▁hamburger	-14569
▁tradition	-14570
▁celebrations	-14571
▁demonstrated	-14572
Su	-14573
fty	-14574
iya	-14575
ple	-14576
rol	-14577
Chew	-14578
back	-14579
▁Arn	-14580
▁Hal	-14581
▁Han	-14582
▁Rae	-14583
Candy	-14584
affod	-14585
▁Ants	-14586
▁Bath	-14587
▁Chat	-14588
▁Coop	-14589
▁Lala	-14590
rolled	-14591
vation	-14592
▁Goldy	-14593
▁bales	-14594
▁fives	-14595
▁pests	-14596
▁rests	-14597
▁shuts	-14598
▁south	-14599
▁divide	-14600
▁floods	-14601
▁nuzzle	-14602
▁poorly	-14603
▁public	-14604
▁typing	-14605
▁Soldier	-14606
▁partied	-14607
▁scaredy	-14608
▁swished	-14609
▁Watching	-14610
▁eyebrows	-14611
▁internet	-14612
▁shepherd	-14613
▁Nightmare	-14614
▁fountains	-14615
▁twitching	-14616
▁pleasantly	-14617
Pat	-14618
win	-14619
Send	-14620
ilah	-14621
rive	-14622
stem	-14623
▁Lin	-14624
Aaaah	-14625
Hoppy	-14626
istle	-14627
uddle	-14628
▁Camp	-14629
▁Caty	-14630
▁Kaya	-14631
▁Kira	-14632
▁Maia	-14633
▁Wipe	-14634
▁Yoyo	-14635
▁wars	-14636
stance	-14637
worthy	-14638
▁Grape	-14639
▁Greed	-14640
▁Organ	-14641
▁Perry	-14642
▁Pupil	-14643
▁Turns	-14644
Squeaky	-14645
inished	-14646
keeping	-14647
▁Bubbly	-14648
▁glossy	-14649
▁jigsaw	-14650
▁lapped	-14651
▁smoked	-14652
▁bonfire	-14653
▁casting	-14654
▁crevice	-14655
▁errands	-14656
▁hydrant	-14657
▁rattled	-14658
▁seating	-14659
▁shimmer	-14660
sometimes	-14661
▁launched	-14662
▁Whistling	-14663
▁dreamland	-14664
▁containers	-14665
▁triumphant	-14666
▁appearances	-14667
▁accomplishments	-14668
tr	-14669
ING	-14670
imm	-14671
oil	-14672
ubs	-14673
urs	-14674
dely	-14675
▁Lil	-14676
▁Tid	-14677
Charl	-14678
Peace	-14679
atops	-14680
ockey	-14681
odies	-14682
onica	-14683
taker	-14684
▁Auto	-14685
▁Blow	-14686
▁Head	-14687
▁Safe	-14688
▁Sher	-14689
▁Slim	-14690
▁Test	-14691
▁reve	-14692
▁unne	-14693
▁Crawl	-14694
▁Frogs	-14695
▁Margo	-14696
▁Store	-14697
▁drool	-14698
▁fangs	-14699
▁fishy	-14700
▁glare	-14701
▁grind	-14702
Perfect	-14703
▁Duckie	-14704
▁Harvey	-14705
▁Jemima	-14706
▁backup	-14707
▁choppy	-14708
▁garlic	-14709
▁rudely	-14710
▁skated	-14711
▁tender	-14712
▁bundled	-14713
▁disease	-14714
▁flowery	-14715
▁heavens	-14716
▁soothed	-14717
▁stabbed	-14718
▁surgery	-14719
▁melodies	-14720
▁overcame	-14721
▁rummaged	-14722
▁Sunflower	-14723
▁operations	-14724
▁reassuringly	-14725
▁bi	-14726
Cake	-14727
nite	-14728
ormy	-14729
▁Bre	-14730
▁Gil	-14731
▁Tow	-14732
▁arf	-14733
▁spa	-14734
going	-14735
▁Best	-14736
▁Evie	-14737
▁Lead	-14738
▁gods	-14739
▁lure	-14740
▁olds	-14741
▁purs	-14742
▁tamb	-14743
▁tons	-14744
▁tugs	-14745
Poison	-14746
▁Bucky	-14747
▁Henri	-14748
▁Screw	-14749
▁fiery	-14750
▁molds	-14751
▁vigor	-14752
roccoli	-14753
▁Canada	-14754
▁Growly	-14755
▁Regret	-14756
▁stingy	-14757
egetable	-14758
▁Chelsea	-14759
▁Squishy	-14760
▁bossing	-14761
▁erasing	-14762
▁lasting	-14763
▁perhaps	-14764
▁returns	-14765
▁weaving	-14766
▁whirred	-14767
▁shrieked	-14768
▁continues	-14769
▁education	-14770
▁housework	-14771
▁retrieved	-14772
▁souvenirs	-14773
▁apologizes	-14774
dis	-14775
nas	-14776
gged	-14777
yuck	-14778
▁Nad	-14779
cking	-14780
dened	-14781
▁BANG	-14782
▁Lock	-14783
▁Room	-14784
▁Wear	-14785
▁cure	-14786
▁duty	-14787
▁oint	-14788
▁thor	-14789
Circus	-14790
▁Marsh	-14791
▁Piece	-14792
▁nudge	-14793
▁token	-14794
Squeeze	-14795
▁Clumsy	-14796
▁Kitten	-14797
▁Planet	-14798
▁Wilson	-14799
▁canary	-14800
▁daffod	-14801
▁bandana	-14802
▁justice	-14803
▁tambour	-14804
▁extended	-14805
▁figuring	-14806
▁therapist	-14807
▁dandelions	-14808
▁instructed	-14809
▁appointment	-14810
Fifi	-14811
Food	-14812
▁sac	-14813
▁sid	-14814
▁tus	-14815
Blast	-14816
umped	-14817
▁Jing	-14818
▁Norm	-14819
▁SPLA	-14820
▁yeah	-14821
Yellow	-14822
oolish	-14823
ounces	-14824
▁Cuppy	-14825
▁Knife	-14826
▁Scoot	-14827
▁fabul	-14828
ittered	-14829
▁Denise	-14830
▁advert	-14831
▁ensure	-14832
▁parlor	-14833
▁receip	-14834
▁woolly	-14835
▁blender	-14836
▁rancher	-14837
▁hungrily	-14838
▁polishes	-14839
▁subtract	-14840
▁Everytime	-14841
▁Fisherman	-14842
▁protested	-14843
▁unhealthy	-14844
▁zigzagged	-14845
▁satisfying	-14846
▁brilliantly	-14847
▁performances	-14848
ba	-14849
ja	-14850
▁Cy	-14851
▁aa	-14852
Pray	-14853
▁fry	-14854
Check	-14855
ented	-14856
iders	-14857
ricia	-14858
▁Fizz	-14859
▁Join	-14860
▁Prun	-14861
▁Rico	-14862
▁Yogi	-14863
▁cran	-14864
▁moos	-14865
▁nick	-14866
▁oily	-14867
usting	-14868
▁Purry	-14869
▁Strip	-14870
▁forms	-14871
▁gazes	-14872
▁inner	-14873
▁skept	-14874
▁unity	-14875
fragile	-14876
▁Browny	-14877
▁Lemons	-14878
▁Marvin	-14879
▁Stevie	-14880
▁Stormy	-14881
▁Stripe	-14882
▁Weapon	-14883
▁armour	-14884
▁choked	-14885
▁grades	-14886
▁Mallory	-14887
▁adopted	-14888
▁drained	-14889
▁fighter	-14890
▁lunches	-14891
▁rowboat	-14892
▁saucers	-14893
▁shopped	-14894
▁antennas	-14895
▁devoured	-14896
▁fabulous	-14897
[...]
