{
  "version": "1.0",
  "truncation": null,
  "padding": null,
  "added_tokens": [
    {
      "id": 0,
      "content": "[PAD]",
      "single_word": false,
      "lstrip": false,
      "rstrip": false,
      "normalized": false,
      "special": true
    },
    {
      "id": 1,
      "content": "[UNK]",
      "single_word": false,
      "lstrip": false,
      "rstrip": false,
      "normalized": false,
      "special": true
    },
    {
      "id": 2,
      "content": "[CLS]",
      "single_word": false,
      "lstrip": false,
      "rstrip": false,
      "normalized": false,
      "special": true
    },
    {
      "id": 3,
      "content": "[SEP]",
      "single_word": false,
      "lstrip": false,
      "rstrip": false,
      "normalized": false,
      "special": true
    },
    {
      "id": 4,
      "content": "[MASK]",
      "single_word": false,
      "lstrip": false,
      "rstrip": false,
      "normalized": false,
      "special": true
    },
    {
      "id": 5,
      "content": "\n",
      "single_word": false,
      "lstrip": false,
      "rstrip": false,
      "normalized": false,
      "special": true
    }
  ],
  "normalizer": null,
  "pre_tokenizer": null,
  "post_processor": null,
  "decoder": null,
  "model": {
    "type": "BPE",
    "dropout": null,
    "unk_token": null,
    "continuing_subword_prefix": null,
    "end_of_word_suffix": null,
    "fuse_unk": false,
    "byte_fallback": false,
    "vocab": {
      "[PAD]": 0,
      "[UNK]": 1,
      "[CLS]": 2,
      "[SEP]": 3,
      "[MASK]": 4,
      "\n": 5,
      " ": 6,
      "!": 7,
      "\"": 8,
      "#": 9,
      "$": 10,
      "%": 11,
      "'": 12,
      "(": 13,
      ")": 14,
      "*": 15,
      "+": 16,
      ",": 17,
      "-": 18,
      ".": 19,
      "/": 20,
      "0": 21,
      "1": 22,
      "2": 23,
      "3": 24,
      "4": 25,
      "5": 26,
      "6": 27,
      "7": 28,
      "8": 29,
      "9": 30,
      ":": 31,
      ";": 32,
      "=": 33,
      "?": 34,
      "@": 35,
      "A": 36,
      "B": 37,
      "C": 38,
      "D": 39,
      "E": 40,
      "F": 41,
      "G": 42,
      "H": 43,
      "I": 44,
      "J": 45,
      "K": 46,
      "L": 47,
      "M": 48,
      "N": 49,
      "O": 50,
      "P": 51,
      "Q": 52,
      "R": 53,
      "S": 54,
      "T": 55,
      "U": 56,
      "V": 57,
      "W": 58,
      "X": 59,
      "Y": 60,
      "Z": 61,
      "[": 62,
      "]": 63,
      "_": 64,
      "`": 65,
      "a": 66,
      "b": 67,
      "c": 68,
      "d": 69,
      "e": 70,
      "f": 71,
      "g": 72,
      "h": 73,
      "i": 74,
      "j": 75,
      "k": 76,
      "l": 77,
      "m": 78,
      "n": 79,
      "o": 80,
      "p": 81,
      "q": 82,
      "r": 83,
      "s": 84,
      "t": 85,
      "u": 86,
      "v": 87,
      "w": 88,
      "x": 89,
      "y": 90,
      "z": 91,
      "{": 92,
      "|": 93,
      "}": 94,
      "~": 95,
      "¡": 96,
      "¢": 97,
      "£": 98,
      "§": 99,
      "¨": 100,
      "©": 101,
      "ª": 102,
      "®": 103,
      "¯": 104,
      "°": 105,
      "´": 106,
      "·": 107,
      "º": 108,
      "¿": 109,
      "À": 110,
      "Á": 111,
      "Ã": 112,
      "È": 113,
      "É": 114,
      "Í": 115,
      "Ð": 116,
      "Ñ": 117,
      "Ó": 118,
      "Ø": 119,
      "Ú": 120,
      "Ü": 121,
      "à": 122,
      "á": 123,
      "â": 124,
      "ã": 125,
      "ä": 126,
      "æ": 127,
      "ç": 128,
      "è": 129,
      "é": 130,
      "ê": 131,
      "ì": 132,
      "í": 133,
      "î": 134,
      "ï": 135,
      "ñ": 136,
      "ò": 137,
      "ó": 138,
      "ô": 139,
      "ö": 140,
      "ø": 141,
      "ù": 142,
      "ú": 143,
      "û": 144,
      "ü": 145,
      "š": 146,
      "ž": 147,
      "—": 148,
      "€": 149,
      "ﬁ": 150,
      "e ": 151,
      ".\n": 152,
      "o ": 153,
      "a ": 154,
      "s ": 155,
      "en": 156,
      "er": 157,
      "es": 158,
      "ar": 159,
      ", ": 160,
      "qu": 161,
      "n ": 162,
      "or": 163,
      "?\n": 164,
      "os ": 165,
      "de ": 166,
      "o.\n": 167,
      "el": 168,
      "que ": 169,
      "al": 170,
      "an": 171,
      "es ": 172,
      "ad": 173,
      "co": 174,
      "as": 175,
      "- ": 176,
      "est": 177,
      "ci": 178,
      "y ": 179,
      "am": 180,
      "as ": 181,
      "a.\n": 182,
      "os": 183,
      "!\n": 184,
      "la ": 185,
      "ent": 186,
      "en ": 187,
      "..": 188,
      "ab": 189,
      "re": 190,
      "st": 191,
      "el ": 192,
      "un": 193,
      "in": 194,
      "on": 195,
      "di": 196,
      "lo ": 197,
      "do ": 198,
      "é ": 199,
      "em": 200,
      "ti": 201,
      "tr": 202,
      "no ": 203,
      "i ": 204,
      "o, ": 205,
      "or ": 206,
      "cu": 207,
      "ch": 208,
      "un ": 209,
      "te ": 210,
      "No ": 211,
      "e.\n": 212,
      "Qu": 213,
      "vi": 214,
      "ac": 215,
      "ar ": 216,
      "si": 217,
      "par": 218,
      "de": 219,
      "er ": 220,
      ". ": 221,
      "pr": 222,
      "su": 223,
      "per": 224,
      "me ": 225,
      "ol": 226,
      "á ": 227,
      "o?\n": 228,
      "ue": 229,
      "ir": 230,
      "una ": 231,
      "ien": 232,
      "gu": 233,
      "ier": 234,
      "a, ": 235,
      "om": 236,
      "ll": 237,
      "con": 238,
      "os.\n": 239,
      "od": 240,
      "an ": 241,
      "se ": 242,
      "at": 243,
      "ía ": 244,
      "mu": 245,
      "tu": 246,
      "¿Qu": 247,
      "ec": 248,
      "los ": 249,
      "Est": 250,
      "aci": 251,
      "com": 252,
      "go ": 253,
      "por ": 254,
      "con ": 255,
      "ic": 256,
      "al ": 257,
      "id": 258,
      "se": 259,
      "ás ": 260,
      "ten": 261,
      "as.\n": 262,
      "oy ": 263,
      "l ": 264,
      "im": 265,
      "...\n": 266,
      "... ": 267,
      "it": 268,
      "í ": 269,
      "para ": 270,
      "ón": 271,
      "a de ": 272,
      "a?\n": 273,
      "ant": 274,
      "es.\n": 275,
      "gr": 276,
      "o de ": 277,
      "ob": 278,
      "o que ": 279,
      "mi": 280,
      "Y ": 281,
      "mi ": 282,
      "amos ": 283,
      "o!\n": 284,
      "e, ": 285,
      "ver": 286,
      "hac": 287,
      "Es ": 288,
      "ando ": 289,
      "las ": 290,
      "ed": 291,
      "on ": 292,
      "ó ": 293,
      "aj": 294,
      "í.\n": 295,
      "oc": 296,
      "le ": 297,
      "ado ": 298,
      "ente ": 299,
      "emos ": 300,
      "ri": 301,
      "pue": 302,
      "et": 303,
      "¿Qué ": 304,
      "pu": 305,
      "des": 306,
      "hab": 307,
      "- ¿": 308,
      "ay": 309,
      "qué ": 310,
      "a!\n": 311,
      "aqu": 312,
      "su ": 313,
      "quier": 314,
      "fu": 315,
      "tu ": 316,
      "bi": 317,
      "ez": 318,
      "re ": 319,
      "hor": 320,
      "añ": 321,
      "está ": 322,
      "bien": 323,
      "ej": 324,
      "Per": 325,
      "li": 326,
      "ón ": 327,
      "del ": 328,
      "Es": 329,
      "uen": 330,
      "ap": 331,
      "sab": 332,
      "pas": 333,
      "Por ": 334,
      "Me ": 335,
      "tien": 336,
      "and": 337,
      "av": 338,
      "a la ": 339,
      "tod": 340,
      "os, ": 341,
      "ag": 342,
      "El ": 343,
      "qui": 344,
      "hi": 345,
      "por": 346,
      "otr": 347,
      "ot": 348,
      "le": 349,
      "í, ": 350,
      "lo que ": 351,
      "man": 352,
      "Te ": 353,
      "como ": 354,
      "Lo ": 355,
      "Di": 356,
      "era ": 357,
      "pi": 358,
      "si ": 359,
      "ta ": 360,
      "az": 361,
      "mo ": 362,
      "pe": 363,
      "to ": 364,
      "dad": 365,
      "nad": 366,
      "Pero ": 367,
      "lar": 368,
      "cre": 369,
      "cas": 370,
      "a m": 371,
      "ter": 372,
      "ex": 373,
      "pre": 374,
      "e?\n": 375,
      "pero ": 376,
      "ay ": 377,
      "ig": 378,
      "es, ": 379,
      "ur": 380,
      "fi": 381,
      "omb": 382,
      "ir ": 383,
      "car": 384,
      "a a ": 385,
      "cos": 386,
      "pl": 387,
      "lle": 388,
      "¿C": 389,
      "La ": 390,
      "sal": 391,
      "ert": 392,
      "estr": 393,
      "Yo ": 394,
      "en el ": 395,
      "Si": 396,
      "odo ": 397,
      "or.\n": 398,
      "án": 399,
      "es?\n": 400,
      "ar.\n": 401,
      "much": 402,
      "e que ": 403,
      "ser": 404,
      "ón.\n": 405,
      "vid": 406,
      "más ": 407,
      "us": 408,
      "deci": 409,
      "No, ": 410,
      "ado.\n": 411,
      "no": 412,
      "yo ": 413,
      "nos ": 414,
      "es que ": 415,
      "pod": 416,
      "end": 417,
      "eb": 418,
      "Gr": 419,
      "ist": 420,
      "ómo ": 421,
      "Buen": 422,
      "é?\n": 423,
      "muy ": 424,
      "ni": 425,
      "en la ": 426,
      "s.\n": 427,
      "00": 428,
      "én ": 429,
      "Sí, ": 430,
      "a que ": 431,
      "ú ": 432,
      "ólo ": 433,
      "all": 434,
      "cor": 435,
      "as, ": 436,
      "Si ": 437,
      "A ": 438,
      "alg": 439,
      "cam": 440,
      "emp": 441,
      "tam": 442,
      "a v": 443,
      "entr": 444,
      "h, ": 445,
      "bien.\n": 446,
      "idad": 447,
      "ust": 448,
      "tar": 449,
      "eces": 450,
      "Ten": 451,
      "al.\n": 452,
      "deb": 453,
      "án ": 454,
      "es de ": 455,
      "ud": 456,
      "- ¡": 457,
      "ut": 458,
      "aba ": 459,
      "esp": 460,
      "De ": 461,
      "ens": 462,
      "abaj": 463,
      "ha ": 464,
      "enci": 465,
      "esta ": 466,
      "Se ": 467,
      "En": 468,
      "gust": 469,
      "dij": 470,
      "iz": 471,
      "é.\n": 472,
      "decir": 473,
      "ell": 474,
      "En ": 475,
      "y.\n": 476,
      "ecesit": 477,
      "ser ": 478,
      "do.\n": 479,
      "llam": 480,
      "segu": 481,
      "her": 482,
      "o es ": 483,
      "uel": 484,
      "e!\n": 485,
      "todo ": 486,
      "cuer": 487,
      "hay ": 488,
      "Graci": 489,
      "y, ": 490,
      "de la ": 491,
      "Cu": 492,
      "unt": 493,
      "ech": 494,
      "os!\n": 495,
      "ías ": 496,
      "contr": 497,
      "ari": 498,
      "dej": 499,
      "uestr": 500,
      "én": 501,
      "algo ": 502,
      "Ya ": 503,
      "orm": 504,
      "ca ": 505,
      "lu": 506,
      "reg": 507,
      "cuando ": 508,
      "habl": 509,
      "pued": 510,
      "br": 511,
      "trabaj": 512,
      "pon": 513,
      "u ": 514,
      "Hol": 515,
      "alm": 516,
      "ente.\n": 517,
      "ocu": 518,
      "ahor": 519,
      "atr": 520,
      "homb": 521,
      "lo.\n": 522,
      "a y ": 523,
      "as?\n": 524,
      "err": 525,
      "ven": 526,
      "esc": 527,
      "tan ": 528,
      "eso ": 529,
      "Sí.\n": 530,
      "Está ": 531,
      "son": 532,
      "er.\n": 533,
      "verdad": 534,
      "fr": 535,
      "Par": 536,
      "dic": 537,
      "ton": 538,
      "puedo ": 539,
      "este ": 540,
      "os de ": 541,
      "es un ": 542,
      "fue ": 543,
      "hacer ": 544,
      "í?\n": 545,
      "eñ": 546,
      "uev": 547,
      "har": 548,
      "Tien": 549,
      "señ": 550,
      "pro": 551,
      "os?\n": 552,
      "o a ": 553,
      "Vam": 554,
      "min": 555,
      "¿Por ": 556,
      "ah": 557,
      "buen": 558,
      "ing": 559,
      "mej": 560,
      "sient": 561,
      "Mu": 562,
      "fav": 563,
      "tengo ": 564,
      "llev": 565,
      "ía.\n": 566,
      "que no ": 567,
      "cion": 568,
      "port": 569,
      "Un ": 570,
      "cl": 571,
      "ónde ": 572,
      "- No ": 573,
      "á.\n": 574,
      "tiemp": 575,
      "o...\n": 576,
      "...": 577,
      ", ¿": 578,
      "bl": 579,
      "son ": 580,
      "sob": 581,
      "ast": 582,
      "noch": 583,
      "mis": 584,
      "he ": 585,
      "nuestr": 586,
      "Pue": 587,
      "ya ": 588,
      "is": 589,
      "o y ": 590,
      "mal": 591,
      "estoy ": 592,
      "il": 593,
      "\".\n": 594,
      "arr": 595,
      "Er": 596,
      "tiene ": 597,
      "Bien": 598,
      "o... ": 599,
      "ez ": 600,
      "so": 601,
      "ación ": 602,
      "cul": 603,
      "as a ": 604,
      "ada ": 605,
      "ami": 606,
      "quer": 607,
      "ese ": 608,
      "poc": 609,
      "Sab": 610,
      "ido ": 611,
      "vist": 612,
      "pad": 613,
      "eg": 614,
      "art": 615,
      "o\n": 616,
      "vol": 617,
      "re.\n": 618,
      "Un": 619,
      "0 ": 620,
      "as de ": 621,
      "ún ": 622,
      "prob": 623,
      "Al": 624,
      "sus ": 625,
      "hu": 626,
      "oy a ": 627,
      "Bueno, ": 628,
      "ás": 629,
      "dr": 630,
      "ante ": 631,
      "Oh, ": 632,
      "aquí.\n": 633,
      "\"\n": 634,
      "Re": 635,
      "cab": 636,
      "esper": 637,
      "usted": 638,
      "Deb": 639,
      "Los ": 640,
      "-¿": 641,
      "sol": 642,
      "sí ": 643,
      "mat": 644,
      "dem": 645,
      "tú ": 646,
      "Cre": 647,
      "gui": 648,
      "lem": 649,
      "puede ": 650,
      "ach": 651,
      "me": 652,
      "dos ": 653,
      "Estoy ": 654,
      "ar a ": 655,
      "ru": 656,
      "empr": 657,
      "Tengo ": 658,
      "necesit": 659,
      "ul": 660,
      "sólo ": 661,
      "cin": 662,
      "Qué ": 663,
      "osotr": 664,
      "og": 665,
      "unca ": 666,
      "Ahor": 667,
      "esa ": 668,
      "No.\n": 669,
      "hacer": 670,
      " de ": 671,
      "qued": 672,
      "endo ": 673,
      "todos ": 674,
      "soy ": 675,
      "aré ": 676,
      "An": 677,
      "hij": 678,
      "estás ": 679,
      "mon": 680,
      "dis": 681,
      "to.\n": 682,
      "amos a ": 683,
      "ver ": 684,
      "parec": 685,
      "amig": 686,
      "mar": 687,
      "pres": 688,
      "¿Por qué ": 689,
      "is ": 690,
      "tir": 691,
      "a\n": 692,
      "ill": 693,
      "tiv": 694,
      "aquí ": 695,
      "es el ": 696,
      "aut": 697,
      "ó.\n": 698,
      "no.\n": 699,
      "Tr": 700,
      "sobre ": 701,
      "sent": 702,
      "él": 703,
      "¿Cómo ": 704,
      "da ": 705,
      "go.\n": 706,
      "int": 707,
      "Mir": 708,
      "an.\n": 709,
      "Sólo ": 710,
      "asta ": 711,
      "Eso ": 712,
      "empre ": 713,
      "ici": 714,
      "El": 715,
      "qué?\n": 716,
      "pel": 717,
      "Mi ": 718,
      "Sr": 719,
      "¿Qué?\n": 720,
      "iner": 721,
      "¿Y ": 722,
      "Com": 723,
      "cer": 724,
      "don": 725,
      "pens": 726,
      "tambi": 727,
      "fer": 728,
      "les ": 729,
      "e a ": 730,
      "ada.\n": 731,
      "sé ": 732,
      "Quier": 733,
      "fuer": 734,
      "Tú ": 735,
      "eres ": 736,
      "niñ": 737,
      "can": 738,
      "mos ": 739,
      "Que ": 740,
      "sin ": 741,
      "Le ": 742,
      "esto.\n": 743,
      "ayud": 744,
      "Esper": 745,
      "lleg": 746,
      "a... ": 747,
      "rob": 748,
      "rec": 749,
      "tom": 750,
      "hace ": 751,
      "nuev": 752,
      "o para ": 753,
      "gan": 754,
      ":\n": 755,
      "eso.\n": 756,
      "ella ": 757,
      "prim": 758,
      "ár": 759,
      "aste ": 760,
      "pos": 761,
      "or, ": 762,
      "Su": 763,
      "muj": 764,
      "ie ": 765,
      "ará ": 766,
      "has ": 767,
      "ib": 768,
      "res": 769,
      "podr": 770,
      "oj": 771,
      "cont": 772,
      "¿Qui": 773,
      "haci": 774,
      "cuch": 775,
      "ca": 776,
      "guien ": 777,
      "op": 778,
      "estaba ": 779,
      "nosotr": 780,
      "mejor ": 781,
      "graci": 782,
      "mí": 783,
      "segur": 784,
      "es una ": 785,
      "herman": 786,
      "és ": 787,
      "Así ": 788,
      "e de ": 789,
      "preg": 790,
      "a un ": 791,
      "estar ": 792,
      "no?\n": 793,
      "diner": 794,
      "ate ": 795,
      "chic": 796,
      "quiero ": 797,
      "fic": 798,
      "ando.\n": 799,
      "cal": 800,
      "en.\n": 801,
      "ento ": 802,
      "vuel": 803,
      "Estás ": 804,
      "ve": 805,
      "¿No ": 806,
      "esto ": 807,
      "\" ": 808,
      "a en ": 809,
      "aría ": 810,
      "tur": 811,
      "porque ": 812,
      "¡A": 813,
      "él ": 814,
      "ador": 815,
      "están ": 816,
      "Fu": 817,
      "ás.\n": 818,
      "ste ": 819,
      "Tu ": 820,
      "00:": 821,
      "a...\n": 822,
      "- ¿Qué ": 823,
      "Hay ": 824,
      "ori": 825,
      "problem": 826,
      "tonc": 827,
      "Entonc": 828,
      "arm": 829,
      "o, ¿": 830,
      "pap": 831,
      "-- ": 832,
      "Soy ": 833,
      "va a ": 834,
      "estu": 835,
      "ep": 836,
      "hech": 837,
      "mir": 838,
      "ido.\n": 839,
      "Tom": 840,
      "oci": 841,
      "Con": 842,
      "Gracias.\n": 843,
      "voy a ": 844,
      "Por": 845,
      "dir": 846,
      "aron ": 847,
      "asi": 848,
      "inter": 849,
      "nada.\n": 850,
      "mis ": 851,
      "ve ": 852,
      "Tod": 853,
      "a el ": 854,
      "puedes ": 855,
      "ame ": 856,
      "fici": 857,
      "mad": 858,
      "import": 859,
      "sé.\n": 860,
      "trat": 861,
      "cuerd": 862,
      "Creo que ": 863,
      "rib": 864,
      "oy": 865,
      "¿D": 866,
      "encontr": 867,
      "arl": 868,
      "Muy ": 869,
      "cant": 870,
      "mism": 871,
      "o en ": 872,
      "tú": 873,
      "der": 874,
      "No me ": 875,
      "tener ": 876,
      "form": 877,
      "tim": 878,
      "ni ": 879,
      "no es ": 880,
      "person": 881,
      "Dios ": 882,
      "avi": 883,
      "men": 884,
      "ug": 885,
      "abr": 886,
      "uc": 887,
      "gente ": 888,
      "abl": 889,
      "Cuando ": 890,
      "da.\n": 891,
      "pol": 892,
      "Ella ": 893,
      "col": 894,
      "ería ": 895,
      "bus": 896,
      "Nos ": 897,
      "acion": 898,
      "cómo ": 899,
      "ér": 900,
      "Pod": 901,
      "arte ": 902,
      "-\n": 903,
      "dí": 904,
      "ta.\n": 905,
      "hasta ": 906,
      "almente ": 907,
      "bien, ": 908,
      "acab": 909,
      "ar de ": 910,
      "ento.\n": 911,
      "ord": 912,
      "¿Quier": 913,
      "no lo ": 914,
      "compr": 915,
      "tant": 916,
      "co ": 917,
      "Ahora ": 918,
      "eso?\n": 919,
      "Fr": 920,
      "ía que ": 921,
      "oz": 922,
      "Des": 923,
      "arme ": 924,
      "no me ": 925,
      "alguien ": 926,
      "mer": 927,
      "tel": 928,
      "amente ": 929,
      "ak": 930,
      "Hola, ": 931,
      "ho": 932,
      "In": 933,
      "ante.\n": 934,
      "cosas ": 935,
      "oso.\n": 936,
      "mom": 937,
      "han ": 938,
      "¿Quién ": 939,
      "que": 940,
      "es la ": 941,
      "bar": 942,
      "mun": 943,
      "Es un ": 944,
      "No lo ": 945,
      "fin": 946,
      "¡M": 947,
      "No te ": 948,
      "ción ": 949,
      "Aqu": 950,
      "decir ": 951,
      "a los ": 952,
      "cambi": 953,
      "íamos ": 954,
      "lug": 955,
      "agu": 956,
      "ón, ": 957,
      "mucho ": 958,
      "tus ": 959,
      "en un ": 960,
      "conoc": 961,
      " y ": 962,
      "dig": 963,
      "gen": 964,
      "í!\n": 965,
      "hombre ": 966,
      "dónde ": 967,
      "vir": 968,
      "seri": 969,
      "baj": 970,
      "nic": 971,
      "as!\n": 972,
      "vez ": 973,
      "tenemos ": 974,
      ",\n": 975,
      "así ": 976,
      "muert": 977,
      "Necesit": 978,
      "Sr. ": 979,
      "ían ": 980,
      "a con ": 981,
      "medi": 982,
      "lo": 983,
      "Lo sient": 984,
      "Las ": 985,
      "fun": 986,
      "¿Cu": 987,
      "Clar": 988,
      "Una ": 989,
      "au": 990,
      "bien ": 991,
      "no, ": 992,
      "úl": 993,
      "añan": 994,
      "poco ": 995,
      "ai": 996,
      "hag": 997,
      "resp": 998,
      "odi": 999,
      "ación.\n": 1000,
      "val": 1001,
      "ente, ": 1002,
      "ne": 1003,
      "cr": 1004,
      "ti.\n": 1005,
      "verdad?\n": 1006,
      "Vamos, ": 1007,
      "ning": 1008,
      "sem": 1009,
      "nomb": 1010,
      "sido ": 1011,
      "vin": 1012,
      "nunca ": 1013,
      "gran ": 1014,
      "ocup": 1015,
      "amili": 1016,
      "- A": 1017,
      "ahora ": 1018,
      "amos.\n": 1019,
      "fec": 1020,
      "queñ": 1021,
      "os y ": 1022,
      "on.\n": 1023,
      "é que ": 1024,
      "tip": 1025,
      "Por fav": 1026,
      "quién ": 1027,
      "O ": 1028,
      "aremos ": 1029,
      "ir.\n": 1030,
      "iens": 1031,
      "famili": 1032,
      "culp": 1033,
      "a mi ": 1034,
      "Como ": 1035,
      "dur": 1036,
      "¡S": 1037,
      "idad ": 1038,
      "ar el ": 1039,
      "otro ": 1040,
      "pequeñ": 1041,
      "Ch": 1042,
      "unos ": 1043,
      "sig": 1044,
      "bu": 1045,
      "quieres ": 1046,
      "sac": 1047,
      "5 ": 1048,
      "a. ": 1049,
      "equi": 1050,
      "1 ": 1051,
      "eron ": 1052,
      "bien?\n": 1053,
      "Quiz": 1054,
      "entien": 1055,
      "mor": 1056,
      "¡V": 1057,
      "despu": 1058,
      "pregunt": 1059,
      "Quiero ": 1060,
      "bol": 1061,
      "Mar": 1062,
      "Car": 1063,
      "é, ": 1064,
      "no te ": 1065,
      "ados ": 1066,
      "uego ": 1067,
      "Esta ": 1068,
      "Todo ": 1069,
      "teng": 1070,
      "--\n": 1071,
      "tic": 1072,
      "Oy": 1073,
      "list": 1074,
      "conmi": 1075,
      "¿Te ": 1076,
      "por fav": 1077,
      "Para ": 1078,
      "tal": 1079,
      "éj": 1080,
      "Porque ": 1081,
      "Nad": 1082,
      "a del ": 1083,
      "siempre ": 1084,
      "ide": 1085,
      "ánd": 1086,
      "casa.\n": 1087,
      "ocur": 1088,
      "No es ": 1089,
      "vo ": 1090,
      "pen": 1091,
      "es!\n": 1092,
      "a para ": 1093,
      "um": 1094,
      "des ": 1095,
      "egu": 1096,
      "ar un ": 1097,
      "apar": 1098,
      "creo que ": 1099,
      "Bien, ": 1100,
      "¿Sab": 1101,
      "en que ": 1102,
      "ack": 1103,
      "termin": 1104,
      "Aquí ": 1105,
      "eci": 1106,
      "Ud": 1107,
      "a, ¿": 1108,
      "mos": 1109,
      "Señ": 1110,
      "Pu": 1111,
      "había ": 1112,
      "escuch": 1113,
      "sí.\n": 1114,
      "- Sí.\n": 1115,
      "con el ": 1116,
      "cuent": 1117,
      "Su ": 1118,
      "usted ": 1119,
      "agr": 1120,
      "ar la ": 1121,
      "por la ": 1122,
      "que me ": 1123,
      "cel": 1124,
      "ar?\n": 1125,
      "a de la ": 1126,
      "pag": 1127,
      "tra": 1128,
      "no se ": 1129,
      "Eso es ": 1130,
      "hiz": 1131,
      "Puedo ": 1132,
      "raz": 1133,
      "seg": 1134,
      "donde ": 1135,
      "tienes ": 1136,
      "s, ": 1137,
      "onc": 1138,
      "aquí?\n": 1139,
      "a una ": 1140,
      "por qué ": 1141,
      "Él ": 1142,
      "He ": 1143,
      "oni": 1144,
      "por el ": 1145,
      "preocup": 1146,
      "pal": 1147,
      "Hola.\n": 1148,
      "esto?\n": 1149,
      "Pr": 1150,
      "seman": 1151,
      "Si, ": 1152,
      "elo.\n": 1153,
      "hici": 1154,
      "junt": 1155,
      "ír": 1156,
      "yo.\n": 1157,
      "reci": 1158,
      "todas ": 1159,
      "Mi": 1160,
      "clar": 1161,
      "también ": 1162,
      "cur": 1163,
      "Nunca ": 1164,
      "af": 1165,
      "Cor": 1166,
      "tor": 1167,
      "él.\n": 1168,
      "chi": 1169,
      "Son ": 1170,
      "de que ": 1171,
      "encant": 1172,
      "otra ": 1173,
      "muer": 1174,
      "oh": 1175,
      "as y ": 1176,
      "pier": 1177,
      "camin": 1178,
      "¡No ": 1179,
      "busc": 1180,
      "l.\n": 1181,
      "Mal": 1182,
      "te": 1183,
      "años ": 1184,
      "padre ": 1185,
      "leg": 1186,
      "No!\n": 1187,
      "gran": 1188,
      "conti": 1189,
      "ion": 1190,
      "a tu ": 1191,
      "ble.\n": 1192,
      "de.\n": 1193,
      "lev": 1194,
      "- No, ": 1195,
      "haber ": 1196,
      "salv": 1197,
      "Es una ": 1198,
      "bier": 1199,
      "te.\n": 1200,
      "ment": 1201,
      "egur": 1202,
      "estas ": 1203,
      "estado ": 1204,
      "anc": 1205,
      "¿ ": 1206,
      "piens": 1207,
      "sin": 1208,
      "Tenemos ": 1209,
      "Con ": 1210,
      "vas a ": 1211,
      "lo de ": 1212,
      "Dis": 1213,
      "o de la ": 1214,
      "lad": 1215,
      "entonc": 1216,
      "ali": 1217,
      "nuestra ": 1218,
      "Jack": 1219,
      ": ": 1220,
      "iendo ": 1221,
      "vida.\n": 1222,
      "únic": 1223,
      "er, ": 1224,
      "ate.\n": 1225,
      "mp": 1226,
      "peci": 1227,
      "Greg": 1228,
      "en una ": 1229,
      "perr": 1230,
      "... y ": 1231,
      "vida ": 1232,
      "Tiene ": 1233,
      "- Sí, ": 1234,
      "Dr": 1235,
      "ón?\n": 1236,
      "también": 1237,
      "vez": 1238,
      "a su ": 1239,
      "endi": 1240,
      "tendr": 1241,
      "ar, ": 1242,
      "con la ": 1243,
      "quiere ": 1244,
      "viej": 1245,
      "2 ": 1246,
      "y!\n": 1247,
      "que te ": 1248,
      "visi": 1249,
      "Bien.\n": 1250,
      "estamos ": 1251,
      "Siempre ": 1252,
      "ard": 1253,
      "or de ": 1254,
      "sted": 1255,
      "ción.\n": 1256,
      "Usted": 1257,
      "hablar ": 1258,
      "o. ": 1259,
      "día ": 1260,
      "eng": 1261,
      "-¡": 1262,
      "¿De ": 1263,
      "adi": 1264,
      "hay": 1265,
      "¿Dónde ": 1266,
      "gres": 1267,
      "Entonces ": 1268,
      "tem": 1269,
      "anz": 1270,
      "an, ": 1271,
      "idad.\n": 1272,
      "solo ": 1273,
      "segun": 1274,
      "cabez": 1275,
      "rel": 1276,
      "que se ": 1277,
      "ank": 1278,
      "anci": 1279,
      "emos.\n": 1280,
      "podemos ": 1281,
      "Cómo ": 1282,
      "Fue ": 1283,
      "a vez": 1284,
      "an a ": 1285,
      "todo.\n": 1286,
      "unas ": 1287,
      "mañan": 1288,
      "demasi": 1289,
      "¿H": 1290,
      "ciert": 1291,
      "mo": 1292,
      "estab": 1293,
      "a vez ": 1294,
      "y?\n": 1295,
      "ado?\n": 1296,
      "pañ": 1297,
      "en, ": 1298,
      "Puedes ": 1299,
      "intent": 1300,
      "ahí ": 1301,
      "Oye, ": 1302,
      "perdi": 1303,
      "ás?\n": 1304,
      "pid": 1305,
      "ados.\n": 1306,
      "I ": 1307,
      "señor": 1308,
      "of": 1309,
      "antes de ": 1310,
      "del": 1311,
      "h ": 1312,
      "Esto ": 1313,
      "al de ": 1314,
      "tran": 1315,
      "pul": 1316,
      "ón de ": 1317,
      "óm": 1318,
      "No puedo ": 1319,
      "cap": 1320,
      "Este ": 1321,
      "iste ": 1322,
      "algo.\n": 1323,
      "minut": 1324,
      "Parec": 1325,
      "nadie ": 1326,
      "amor": 1327,
      "años.\n": 1328,
      "sec": 1329,
      "puest": 1330,
      "fel": 1331,
      "acuer": 1332,
      "se.\n": 1333,
      "era.\n": 1334,
      "nuestro ": 1335,
      "o con ": 1336,
      "o, pero ": 1337,
      "es y ": 1338,
      "¿Quieres ": 1339,
      "buen ": 1340,
      "4 ": 1341,
      "De": 1342,
      "He": 1343,
      "mam": 1344,
      "rá": 1345,
      "fí": 1346,
      "No hay ": 1347,
      "ome": 1348,
      "0-- ": 1349,
      "tenía ": 1350,
      "Esto es ": 1351,
      "fl": 1352,
      "ueg": 1353,
      "o del ": 1354,
      "viv": 1355,
      "- Es ": 1356,
      "coraz": 1357,
      "entras ": 1358,
      "edi": 1359,
      "vien": 1360,
      "muchach": 1361,
      "Ex": 1362,
      "tiempo.\n": 1363,
      "Podr": 1364,
      "ó a ": 1365,
      "vec": 1366,
      "podría ": 1367,
      "Todos ": 1368,
      "fier": 1369,
      "señor.\n": 1370,
      "Char": 1371,
      "dam": 1372,
      "ó?\n": 1373,
      "ierd": 1374,
      "dich": 1375,
      "for": 1376,
      "pasa?\n": 1377,
      "Déj": 1378,
      "beb": 1379,
      "pri": 1380,
      "Eres ": 1381,
      "du": 1382,
      "och": 1383,
      "entre ": 1384,
      "edad": 1385,
      "¿V": 1386,
      "dar": 1387,
      "fal": 1388,
      "está": 1389,
      "extr": 1390,
      "cuid": 1391,
      "te de ": 1392,
      "lí": 1393,
      "¿S": 1394,
      "No se ": 1395,
      "vent": 1396,
      "a es ": 1397,
      "dijo que ": 1398,
      "zz": 1399,
      "parece ": 1400,
      "especi": 1401,
      "¿Me ": 1402,
      "Hac": 1403,
      "después ": 1404,
      "Bob": 1405,
      "tal ": 1406,
      "sigu": 1407,
      "visto ": 1408,
      "alqui": 1409,
      "tres ": 1410,
      "Vamos.\n": 1411,
      "ef": 1412,
      "lam": 1413,
      "po": 1414,
      "al, ": 1415,
      "cost": 1416,
      "direc": 1417,
      "as que ": 1418,
      "re, ": 1419,
      "dorm": 1420,
      "loc": 1421,
      "re?\n": 1422,
      "Tengo que ": 1423,
      "es...\n": 1424,
      "Tienes ": 1425,
      "ir a ": 1426,
      "todo el ": 1427,
      "irm": 1428,
      "00 ": 1429,
      "e...\n": 1430,
      "trabajo.\n": 1431,
      "tí": 1432,
      "udad": 1433,
      "en los ": 1434,
      "ov": 1435,
      "ati": 1436,
      "h.\n": 1437,
      "dec": 1438,
      "maldi": 1439,
      "ia ": 1440,
      "deber": 1441,
      "quien ": 1442,
      "Cap": 1443,
      "hombr": 1444,
      "Ni ": 1445,
      "pin": 1446,
      "¿Estás ": 1447,
      "gat": 1448,
      "¿Que ": 1449,
      "plan": 1450,
      "debe ": 1451,
      "a las ": 1452,
      "arrib": 1453,
      "- S": 1454,
      "polic": 1455,
      "vay": 1456,
      "ál ": 1457,
      "en mi ": 1458,
      "go que ": 1459,
      "ero ": 1460,
      "met": 1461,
      "ella.\n": 1462,
      "propi": 1463,
      "acuerd": 1464,
      "dos.\n": 1465,
      "ado, ": 1466,
      "e\n": 1467,
      "mí.\n": 1468,
      "vamos a ": 1469,
      "estos ": 1470,
      "ambi": 1471,
      "Dej": 1472,
      "Vamos a ": 1473,
      "ás, ": 1474,
      "así.\n": 1475,
      "- No.\n": 1476,
      "últim": 1477,
      "¿A": 1478,
      "Le": 1479,
      "imos ": 1480,
      "desde ": 1481,
      "fuera ": 1482,
      "Vamos!\n": 1483,
      "remos ": 1484,
      "ock": 1485,
      "compl": 1486,
      "Much": 1487,
      "d ": 1488,
      "osa.\n": 1489,
      "dió": 1490,
      "ést": 1491,
      "Dios mí": 1492,
      "amb": 1493,
      "buena ": 1494,
      "ren": 1495,
      "real": 1496,
      "E ": 1497,
      "carg": 1498,
      "- ¿Qué?\n": 1499,
      "saber ": 1500,
      "bor": 1501,
      "jug": 1502,
      "cog": 1503,
      "mujer ": 1504,
      "i.\n": 1505,
      "hablar": 1506,
      "libr": 1507,
      "alguna ": 1508,
      "Hab": 1509,
      "nific": 1510,
      "ip": 1511,
      "arlo.\n": 1512,
      "Gracias, ": 1513,
      "esas ": 1514,
      "olvid": 1515,
      "agrad": 1516,
      "encu": 1517,
      "o la ": 1518,
      "en su ": 1519,
      "puert": 1520,
      "menos ": 1521,
      "equip": 1522,
      "funcion": 1523,
      "quiz": 1524,
      "ellos ": 1525,
      "ví": 1526,
      "pech": 1527,
      "expl": 1528,
      "pit": 1529,
      "Yo no ": 1530,
      "cad": 1531,
      "ones ": 1532,
      "pat": 1533,
      "con un ": 1534,
      "1:": 1535,
      "san": 1536,
      "Pap": 1537,
      "Está bien.\n": 1538,
      "0-- 00:": 1539,
      "el.\n": 1540,
      "igu": 1541,
      "xim": 1542,
      "conoci": 1543,
      "haciendo ": 1544,
      "ete ": 1545,
      "unto ": 1546,
      "sub": 1547,
      "verti": 1548,
      "a más ": 1549,
      "clas": 1550,
      "vivir": 1551,
      "Dij": 1552,
      "ó la ": 1553,
      "será ": 1554,
      "ánto ": 1555,
      "noche.\n": 1556,
      "hecho ": 1557,
      "rom": 1558,
      "Me gust": 1559,
      "cosas.\n": 1560,
      "Quizá ": 1561,
      "á, ": 1562,
      "ciudad": 1563,
      "mismo ": 1564,
      "Si.\n": 1565,
      "ow": 1566,
      "Voy a ": 1567,
      "uni": 1568,
      "e, ¿": 1569,
      "extrañ": 1570,
      "arse ": 1571,
      "ales ": 1572,
      "ado de ": 1573,
      "e y ": 1574,
      "tiempo ": 1575,
      "ind": 1576,
      "co, ": 1577,
      "as por ": 1578,
      "dinero.\n": 1579,
      "hon": 1580,
      "Así que ": 1581,
      "Usted ": 1582,
      "iñ": 1583,
      "más.\n": 1584,
      "quit": 1585,
      "anti": 1586,
      "Estamos ": 1587,
      "dentr": 1588,
      "e la ": 1589,
      "de los ": 1590,
      "ha": 1591,
      "hist": 1592,
      "ebr": 1593,
      "Don": 1594,
      "hic": 1595,
      "nada ": 1596,
      "Al ": 1597,
      "posi": 1598,
      "muchas ": 1599,
      "org": 1600,
      "siquier": 1601,
      "suc": 1602,
      ".\"\n": 1603,
      "So": 1604,
      "enfer": 1605,
      "regres": 1606,
      "habr": 1607,
      "h?\n": 1608,
      "neg": 1609,
      "compañ": 1610,
      "Muy bien.\n": 1611,
      "mundo ": 1612,
      "lugar ": 1613,
      "Lo que ": 1614,
      "esos ": 1615,
      "Val": 1616,
      "uno ": 1617,
      "sabes ": 1618,
      "gracias.\n": 1619,
      "ámon": 1620,
      "consegu": 1621,
      "dist": 1622,
      "emente ": 1623,
      "nombre ": 1624,
      "acer": 1625,
      "os... ": 1626,
      "omos ": 1627,
      "signific": 1628,
      "acuerdo.\n": 1629,
      "tos ": 1630,
      "Buenas ": 1631,
      "palabr": 1632,
      "nav": 1633,
      "aquí, ": 1634,
      "egr": 1635,
      "Mam": 1636,
      "ern": 1637,
      "esin": 1638,
      "ó el ": 1639,
      "Escuch": 1640,
      "también.\n": 1641,
      "Charli": 1642,
      "como un ": 1643,
      "erte.\n": 1644,
      "demasiado ": 1645,
      "er?\n": 1646,
      "verdad.\n": 1647,
      "noche ": 1648,
      "Bill": 1649,
      "es... ": 1650,
      "cuel": 1651,
      "es mi ": 1652,
      "prend": 1653,
      "ient": 1654,
      "sea ": 1655,
      "tas ": 1656,
      "novi": 1657,
      "den": 1658,
      "ando?\n": 1659,
      "nosotros ": 1660,
      "quería ": 1661,
      "geni": 1662,
      "a, pero ": 1663,
      "lib": 1664,
      "Bu": 1665,
      "os\n": 1666,
      "va ": 1667,
      "tici": 1668,
      "e el ": 1669,
      "arte.\n": 1670,
      "co.\n": 1671,
      "to, ": 1672,
      "pueden ": 1673,
      "mes": 1674,
      "vest": 1675,
      "algún ": 1676,
      "todos los ": 1677,
      "Lo siento.\n": 1678,
      "fon": 1679,
      "erte ": 1680,
      "Tu": 1681,
      "pron": 1682,
      "sufici": 1683,
      "bas": 1684,
      "quin": 1685,
      "ico.\n": 1686,
      "ar!\n": 1687,
      "arlo ": 1688,
      "ales.\n": 1689,
      "regal": 1690,
      "And": 1691,
      "Ese ": 1692,
      "rem": 1693,
      "tarde.\n": 1694,
      "able.\n": 1695,
      "bon": 1696,
      "sos": 1697,
      "3 ": 1698,
      "o el ": 1699,
      "ícu": 1700,
      "tienen ": 1701,
      "coch": 1702,
      "preci": 1703,
      "cort": 1704,
      "arás ": 1705,
      "ueb": 1706,
      "nosotros.\n": 1707,
      "moment": 1708,
      "tengo que ": 1709,
      "dici": 1710,
      "perd": 1711,
      "ahora.\n": 1712,
      "\"?\n": 1713,
      "Ar": 1714,
      "may": 1715,
      "oí": 1716,
      "Ud. ": 1717,
      "Gen": 1718,
      "uno de ": 1719,
      "difer": 1720,
      "No sé ": 1721,
      "present": 1722,
      "mismo.\n": 1723,
      "hemos ": 1724,
      "haces ": 1725,
      "ay.\n": 1726,
      "ál": 1727,
      "hombre.\n": 1728,
      "Entonces, ": 1729,
      "acu": 1730,
      "fá": 1731,
      "amente.\n": 1732,
      "pasa ": 1733,
      "e... ": 1734,
      "gi": 1735,
      "que la ": 1736,
      "sor": 1737,
      "bast": 1738,
      "no hay ": 1739,
      "consi": 1740,
      "cariñ": 1741,
      "empez": 1742,
      "voc": 1743,
      "z ": 1744,
      "histori": 1745,
      "realmente ": 1746,
      "siento ": 1747,
      "Ay, ": 1748,
      "traj": 1749,
      "ain": 1750,
      "En seri": 1751,
      "clon": 1752,
      "ect": 1753,
      "human": 1754,
      "hubier": 1755,
      "avía ": 1756,
      "oper": 1757,
      "toc": 1758,
      "esti": 1759,
      "la de ": 1760,
      "sex": 1761,
      "Dr. ": 1762,
      "punt": 1763,
      "unc": 1764,
      "Ok": 1765,
      "entes ": 1766,
      "Estaba ": 1767,
      "ma.\n": 1768,
      "salir ": 1769,
      "do?\n": 1770,
      "ju": 1771,
      "asesin": 1772,
      "é a ": 1773,
      "endr": 1774,
      "alquier ": 1775,
      "Pet": 1776,
      "cerr": 1777,
      "control": 1778,
      "co?\n": 1779,
      "ti ": 1780,
      "si no ": 1781,
      "luego ": 1782,
      "eri": 1783,
      "6 ": 1784,
      "Br": 1785,
      "encia.\n": 1786,
      "lo sab": 1787,
      "idi": 1788,
      "és": 1789,
      "ar una ": 1790,
      "de?\n": 1791,
      "ick": 1792,
      "arreg": 1793,
      "gar": 1794,
      "ón!\n": 1795,
      "cos.\n": 1796,
      "án.\n": 1797,
      "todo lo que ": 1798,
      "mod": 1799,
      "Necesito ": 1800,
      "feliz": 1801,
      "¡C": 1802,
      "fes": 1803,
      "má": 1804,
      "supon": 1805,
      "impor": 1806,
      "primera ": 1807,
      "madre ": 1808,
      "avill": 1809,
      "para el ": 1810,
      "dese": 1811,
      "¿Sabes ": 1812,
      "enseñ": 1813,
      "- Lo ": 1814,
      "inci": 1815,
      "rest": 1816,
      "ero.\n": 1817,
      "eras ": 1818,
      "os...\n": 1819,
      "a, y ": 1820,
      "AD": 1821,
      "Buenas noch": 1822,
      "¡H": 1823,
      "imag": 1824,
      "pes": 1825,
      "¡P": 1826,
      "cil ": 1827,
      "an?\n": 1828,
      "ado!\n": 1829,
      "-¿Qué ": 1830,
      "ores ": 1831,
      "¿Cre": 1832,
      "volver": 1833,
      "a por ": 1834,
      "az ": 1835,
      "respon": 1836,
      "- !\n": 1837,
      "grand": 1838,
      "Pero no ": 1839,
      "Por favor, ": 1840,
      "bañ": 1841,
      "mas ": 1842,
      "o, y ": 1843,
      "bat": 1844,
      "e un ": 1845,
      "erá ": 1846,
      "por favor.\n": 1847,
      "Izz": 1848,
      "sión ": 1849,
      "fot": 1850,
      "o por ": 1851,
      "difí": 1852,
      "Nadie ": 1853,
      "en las ": 1854,
      "toda la ": 1855,
      "N ": 1856,
      "antes.\n": 1857,
      "hacer.\n": 1858,
      "otra vez": 1859,
      "tamente ": 1860,
      "o no ": 1861,
      "espos": 1862,
      "ha sido ": 1863,
      "dó": 1864,
      "sabe ": 1865,
      "¡Vamos!\n": 1866,
      "anto ": 1867,
      "ij": 1868,
      "aquí!\n": 1869,
      "sueñ": 1870,
      "mit": 1871,
      "ar en ": 1872,
      "secre": 1873,
      "amigo.\n": 1874,
      "det": 1875,
      "llav": 1876,
      "eta.\n": 1877,
      "igr": 1878,
      "a al ": 1879,
      "está.\n": 1880,
      "comid": 1881,
      "Señor": 1882,
      "go, ": 1883,
      "- V": 1884,
      "gol": 1885,
      "erg": 1886,
      "idos ": 1887,
      "prueb": 1888,
      "Por qué ": 1889,
      "ierda.\n": 1890,
      "derech": 1891,
      "rat": 1892,
      "empre": 1893,
      "bonit": 1894,
      "¡D": 1895,
      "¿A ": 1896,
      "prot": 1897,
      "19": 1898,
      "cri": 1899,
      "dol": 1900,
      "Ah, ": 1901,
      "bo": 1902,
      "portun": 1903,
      "mol": 1904,
      "mí ": 1905,
      "vam": 1906,
      "dio ": 1907,
      "tenido ": 1908,
      "put": 1909,
      "la.\n": 1910,
      "un poco ": 1911,
      "pedir": 1912,
      "7 ": 1913,
      "al?\n": 1914,
      "ped": 1915,
      "que, ": 1916,
      "asust": 1917,
      "siquiera ": 1918,
      "perfec": 1919,
      "ardi": 1920,
      "cualquier ": 1921,
      "Mira ": 1922,
      "Hace ": 1923,
      "Pens": 1924,
      "to": 1925,
      "mucho.\n": 1926,
      "ación de ": 1927,
      "vel": 1928,
      "sic": 1929,
      "inx": 1930,
      "Sel": 1931,
      "ín": 1932,
      "a su": 1933,
      "Dios.\n": 1934,
      "aún ": 1935,
      "cir": 1936,
      "negr": 1937,
      "Pues ": 1938,
      "-No ": 1939,
      "ew": 1940,
      "oportun": 1941,
      "up": 1942,
      "er!\n": 1943,
      "que lo ": 1944,
      "entonces ": 1945,
      "just": 1946,
      "- H": 1947,
      "Perd": 1948,
      ": \"": 1949,
      "ad ": 1950,
      "hizo ": 1951,
      "ES": 1952,
      "Ell": 1953,
      "¿Es ": 1954,
      "tras": 1955,
      "destr": 1956,
      "ando de ": 1957,
      "lin": 1958,
      "es a ": 1959,
      "pero no ": 1960,
      "Podemos ": 1961,
      "lim": 1962,
      "eso es ": 1963,
      "endo?\n": 1964,
      "debería ": 1965,
      " B": 1966,
      "pido.\n": 1967,
      "exper": 1968,
      "dice que ": 1969,
      "Jinx": 1970,
      "no!\n": 1971,
      "tú.\n": 1972,
      "- C": 1973,
      "Qui": 1974,
      "volver ": 1975,
      "Segur": 1976,
      "enamor": 1977,
      "os que ": 1978,
      "endo.\n": 1979,
      "encuentr": 1980,
      "dólar": 1981,
      ", no ": 1982,
      "nadi": 1983,
      "Adió": 1984,
      "tuvi": 1985,
      "adak": 1986,
      "siempre": 1987,
      "casi ": 1988,
      "bueno.\n": 1989,
      "ador ": 1990,
      "acep": 1991,
      "Sin ": 1992,
      "eran ": 1993,
      "arán ": 1994,
      "me gust": 1995,
      "...?\n": 1996,
      "dispar": 1997,
      "cen": 1998,
      "cada ": 1999,
      "peligr": 2000,
      "h!\n": 2001,
      "las": 2002,
      "or?\n": 2003,
      "cil.\n": 2004,
      "vit": 2005,
      "tienes que ": 2006,
      "sería ": 2007,
      "mont": 2008,
      "bot": 2009,
      "áb": 2010,
      "go?\n": 2011,
      "enz": 2012,
      "ver.\n": 2013,
      "- ¿Cómo ": 2014,
      "8 ": 2015,
      "Ge": 2016,
      "ok": 2017,
      "caj": 2018,
      "rar": 2019,
      "antes ": 2020,
      "conmigo.\n": 2021,
      "me.\n": 2022,
      "inc": 2023,
      "obre ": 2024,
      "Mira, ": 2025,
      "ail": 2026,
      "alegr": 2027,
      "todas las ": 2028,
      "¿Lo ": 2029,
      "a se ": 2030,
      "cuart": 2031,
      "todos.\n": 2032,
      "ruc": 2033,
      "pec": 2034,
      "fin ": 2035,
      "tan": 2036,
      "oso ": 2037,
      "creí": 2038,
      "ningún ": 2039,
      "Sal": 2040,
      "- M": 2041,
      "estás?\n": 2042,
      "pudi": 2043,
      "durante ": 2044,
      "Sim": 2045,
      "o, no ": 2046,
      "haces?\n": 2047,
      "tanto ": 2048,
      "mejor.\n": 2049,
      "Ven ": 2050,
      "inform": 2051,
      "do de ": 2052,
      "Hey, ": 2053,
      "Joh": 2054,
      "aver": 2055,
      "eleg": 2056,
      "dije que ": 2057,
      "Da": 2058,
      "ER": 2059,
      "rit": 2060,
      "éis ": 2061,
      "problema.\n": 2062,
      "Pas": 2063,
      "hacerlo.\n": 2064,
      "sé, ": 2065,
      "ones.\n": 2066,
      "guien": 2067,
      "conoz": 2068,
      "Dios!\n": 2069,
      "cans": 2070,
      "envi": 2071,
      "escuel": 2072,
      "re!\n": 2073,
      "ar al ": 2074,
      "De acuerdo.\n": 2075,
      "á?\n": 2076,
      "pregun": 2077,
      "ierda!\n": 2078,
      "ía?\n": 2079,
      "ame.\n": 2080,
      "aban ": 2081,
      "a ver ": 2082,
      "se lo ": 2083,
      "hos": 2084,
      "voy ": 2085,
      "con los ": 2086,
      "- ¿Y ": 2087,
      "pist": 2088,
      "crees que ": 2089,
      "fuerz": 2090,
      "idiot": 2091,
      "mal ": 2092,
      "momento.\n": 2093,
      "10 ": 2094,
      "to?\n": 2095,
      "Debo ": 2096,
      "-Sí.\n": 2097,
      "¡No!\n": 2098,
      "Están ": 2099,
      "ario.\n": 2100,
      "¿Por qué?\n": 2101,
      "ativ": 2102,
      "en!\n": 2103,
      "ores.\n": 2104,
      "prom": 2105,
      "ado a ": 2106,
      "ahí.\n": 2107,
      "demoni": 2108,
      "necesito ": 2109,
      "Vay": 2110,
      "ást": 2111,
      "doc": 2112,
      "sí?\n": 2113,
      "- Me ": 2114,
      "interes": 2115,
      "día.\n": 2116,
      "o, el ": 2117,
      "piez": 2118,
      "Ol": 2119,
      "cep": 2120,
      "sí, ": 2121,
      "cil": 2122,
      "Dios, ": 2123,
      "Supon": 2124,
      "confi": 2125,
      "Sé ": 2126,
      "o que no ": 2127,
      "Es el ": 2128,
      "eron": 2129,
      "liz": 2130,
      "amigo ": 2131,
      "tú?\n": 2132,
      "negoci": 2133,
      "Jes": 2134,
      "Les ": 2135,
      "o\".\n": 2136,
      ", y ": 2137,
      "te lo ": 2138,
      "Tal ": 2139,
      "ór": 2140,
      "ir?\n": 2141,
      "Solo ": 2142,
      "Ah": 2143,
      "exac": 2144,
      "Alg": 2145,
      "ax": 2146,
      "Ia ": 2147,
      "so ": 2148,
      "tor ": 2149,
      "úmer": 2150,
      "alguien": 2151,
      "sim": 2152,
      "llen": 2153,
      "maravill": 2154,
      ". ¿": 2155,
      "estudi": 2156,
      "sospech": 2157,
      "Is": 2158,
      "aí": 2159,
      "aje ": 2160,
      "vuelv": 2161,
      "es lo que ": 2162,
      "- El ": 2163,
      "pró": 2164,
      "Si no ": 2165,
      "hubiera ": 2166,
      "do, ": 2167,
      "uego.\n": 2168,
      "fiest": 2169,
      "verdad ": 2170,
      "atur": 2171,
      "ión ": 2172,
      "refier": 2173,
      "camp": 2174,
      "arme.\n": 2175,
      "- Yo ": 2176,
      "Am": 2177,
      "cuatr": 2178,
      "¿Por qué no ": 2179,
      "ninguna ": 2180,
      "entend": 2181,
      "iba a ": 2182,
      "días.\n": 2183,
      "bé": 2184,
      "somos ": 2185,
      "orr": 2186,
      "está bien.\n": 2187,
      "algo?\n": 2188,
      "clus": 2189,
      "hel": 2190,
      "ador.\n": 2191,
      "ablem": 2192,
      "diab": 2193,
      "mujer": 2194,
      "Im": 2195,
      "andon": 2196,
      "que...\n": 2197,
      "imagin": 2198,
      "Vol": 2199,
      "ya.\n": 2200,
      "- Te ": 2201,
      "hacer?\n": 2202,
      "able ": 2203,
      "idad de ": 2204,
      "Bobb": 2205,
      "0.\n": 2206,
      "ev": 2207,
      "mied": 2208,
      "tiene que ": 2209,
      "Buenos ": 2210,
      "Claro que ": 2211,
      "Dónde ": 2212,
      "ica.\n": 2213,
      "le?\n": 2214,
      "debo ": 2215,
      "ida.\n": 2216,
      "pido ": 2217,
      "contigo.\n": 2218,
      "veces ": 2219,
      "# ": 2220,
      "ente?\n": 2221,
      "poder ": 2222,
      "drog": 2223,
      "mé": 2224,
      "- L": 2225,
      "lo har": 2226,
      "¿Qué te ": 2227,
      "Pam": 2228,
      "eso, ": 2229,
      "arle ": 2230,
      "rig": 2231,
      "dad ": 2232,
      "ina.\n": 2233,
      "ar que ": 2234,
      "hospit": 2235,
      "red": 2236,
      "con una ": 2237,
      "mill": 2238,
      "mi herman": 2239,
      "Deber": 2240,
      "importa ": 2241,
      "Sadak": 2242,
      "correc": 2243,
      "norm": 2244,
      "or!\n": 2245,
      "adas.\n": 2246,
      "un p": 2247,
      "Estu": 2248,
      "vis": 2249,
      "parte ": 2250,
      "mientras ": 2251,
      "trabajo ": 2252,
      "Disculp": 2253,
      "en a ": 2254,
      "adel": 2255,
      "ada de ": 2256,
      "y yo ": 2257,
      "No tengo ": 2258,
      "hermos": 2259,
      "Nuestr": 2260,
      "¿Puedo ": 2261,
      "sabes, ": 2262,
      "caf": 2263,
      "ou": 2264,
      "de, ": 2265,
      "fil": 2266,
      "aciones ": 2267,
      "mal.\n": 2268,
      "ías.\n": 2269,
      "os para ": 2270,
      "recuerd": 2271,
      "diverti": 2272,
      "¿qué ": 2273,
      "a M": 2274,
      "hago ": 2275,
      "casa ": 2276,
      "decir?\n": 2277,
      "jet": 2278,
      "aré.\n": 2279,
      "prepar": 2280,
      "nuestros ": 2281,
      "Ahora, ": 2282,
      "neces": 2283,
      "as para ": 2284,
      "enter": 2285,
      "rill": 2286,
      "complet": 2287,
      "ves ": 2288,
      "cerc": 2289,
      "vemos ": 2290,
      "¡B": 2291,
      "co!\n": 2292,
      "des?\n": 2293,
      "Claro.\n": 2294,
      "Gu": 2295,
      "lej": 2296,
      "not": 2297,
      "númer": 2298,
      "Entien": 2299,
      "dijist": 2300,
      "¿Crees que ": 2301,
      "01:": 2302,
      "Por su": 2303,
      "poco de ": 2304,
      "bajo ": 2305,
      "Ri": 2306,
      "descu": 2307,
      "as\n": 2308,
      "amor ": 2309,
      "as con ": 2310,
      "conver": 2311,
      "dijo ": 2312,
      "- Hola.\n": 2313,
      "di ": 2314,
      "ded": 2315,
      "guerr": 2316,
      "igg": 2317,
      "son.\n": 2318,
      "auto.\n": 2319,
      "centr": 2320,
      "ar y ": 2321,
      "ometi": 2322,
      "Ay": 2323,
      "de un ": 2324,
      "as en ": 2325,
      "llor": 2326,
      "le gust": 2327,
      "dul": 2328,
      "gram": 2329,
      "papá.\n": 2330,
      "muerto.\n": 2331,
      ":3": 2332,
      "¡O": 2333,
      "o está ": 2334,
      "stru": 2335,
      "ante, ": 2336,
      "Georg": 2337,
      "do": 2338,
      "ará.\n": 2339,
      "ándo ": 2340,
      "padr": 2341,
      "Kat": 2342,
      "- Y ": 2343,
      "ó un ": 2344,
      "como si ": 2345,
      "poco.\n": 2346,
      "consider": 2347,
      "9 ": 2348,
      "Ve": 2349,
      "..\n": 2350,
      "bomb": 2351,
      "vi ": 2352,
      "o se ": 2353,
      "sist": 2354,
      "Entr": 2355,
      "enferm": 2356,
      "les": 2357,
      "ía, ": 2358,
      "Ya lo ": 2359,
      "mañana.\n": 2360,
      "trans": 2361,
      "Podría ": 2362,
      "tener": 2363,
      "algo de ": 2364,
      "Rain": 2365,
      "rep": 2366,
      "unque ": 2367,
      "quiero.\n": 2368,
      "encia ": 2369,
      "detr": 2370,
      "Tom ": 2371,
      "Malen": 2372,
      "50 ": 2373,
      "Sé que ": 2374,
      "lot": 2375,
      "esté ": 2376,
      "podía ": 2377,
      "Alguien ": 2378,
      "Parece que ": 2379,
      "vamos.\n": 2380,
      "- D": 2381,
      "próxim": 2382,
      "ret": 2383,
      "Kip": 2384,
      "o:\n": 2385,
      "rió ": 2386,
      "poner ": 2387,
      "Frank": 2388,
      "sel": 2389,
      "era de ": 2390,
      "abog": 2391,
      "vivir ": 2392,
      "estú": 2393,
      "ino ": 2394,
      "versi": 2395,
      "rist": 2396,
      "Esa ": 2397,
      "¡Qué ": 2398,
      "notici": 2399,
      "Puede ": 2400,
      "tir ": 2401,
      "unci": 2402,
      "algunas ": 2403,
      "ió ": 2404,
      "ía de ": 2405,
      "explic": 2406,
      "algo que ": 2407,
      "alt": 2408,
      "David": 2409,
      "allá ": 2410,
      "Despu": 2411,
      "bes": 2412,
      "mel": 2413,
      "rop": 2414,
      "a no ": 2415,
      "nen": 2416,
      "as... ": 2417,
      "recuer": 2418,
      "debes ": 2419,
      "recib": 2420,
      "bur": 2421,
      "calm": 2422,
      "Eres un ": 2423,
      "resul": 2424,
      "pir": 2425,
      "cuerp": 2426,
      "iv": 2427,
      "boc": 2428,
      "á!\n": 2429,
      "super": 2430,
      "ries": 2431,
      "otros ": 2432,
      "razón.\n": 2433,
      "jam": 2434,
      "aba.\n": 2435,
      "Gracias por ": 2436,
      "equivoc": 2437,
      "EN": 2438,
      "hacia ": 2439,
      "nos.\n": 2440,
      "ofi": 2441,
      "es en ": 2442,
      "as...\n": 2443,
      "Es la ": 2444,
      "quieren ": 2445,
      "fui ": 2446,
      "horas.\n": 2447,
      "peg": 2448,
      "profes": 2449,
      "bell": 2450,
      "días ": 2451,
      "lo, ": 2452,
      "pesc": 2453,
      "¡T": 2454,
      "uno.\n": 2455,
      "Ha ": 2456,
      "La m": 2457,
      "d.\n": 2458,
      "nunc": 2459,
      "éfon": 2460,
      "ana.\n": 2461,
      "al que ": 2462,
      "cabeza.\n": 2463,
      "ruck": 2464,
      "Druck": 2465,
      "a\".\n": 2466,
      "call": 2467,
      "paci": 2468,
      "bil": 2469,
      "lar.\n": 2470,
      "Capit": 2471,
      "\"\"": 2472,
      "ombr": 2473,
      "Muy bien, ": 2474,
      "haya ": 2475,
      "DE ": 2476,
      "radi": 2477,
      "sé": 2478,
      ", pero ": 2479,
      "ar con ": 2480,
      "a, no ": 2481,
      "ate, ": 2482,
      "hasta que ": 2483,
      "Jo": 2484,
      "aur": 2485,
      "eh?\n": 2486,
      "tri": 2487,
      "suel": 2488,
      "ente de ": 2489,
      "Era ": 2490,
      "Espera.\n": 2491,
      "Hasta ": 2492,
      "cid": 2493,
      "emo": 2494,
      "princi": 2495,
      "obr": 2496,
      "teléfon": 2497,
      "otra vez.\n": 2498,
      "Tal vez ": 2499,
      "¡Y ": 2500,
      "eres un ": 2501,
      "an!\n": 2502,
      "aje.\n": 2503,
      "- ¿De ": 2504,
      "pedi": 2505,
      "10": 2506,
      "cá": 2507,
      "No, no, ": 2508,
      "discu": 2509,
      "No te preocup": 2510,
      "Man": 2511,
      "caraj": 2512,
      "En el ": 2513,
      "amient": 2514,
      "Lo siento, ": 2515,
      "ablemente ": 2516,
      "- O": 2517,
      "cump": 2518,
      "pant": 2519,
      "es tu ": 2520,
      "decir, ": 2521,
      "¿Dónde está ": 2522,
      "Prob": 2523,
      "mari": 2524,
      "elig": 2525,
      "¿Qué es ": 2526,
      "muy bien.\n": 2527,
      "Mor": 2528,
      "gel": 2529,
      "padre.\n": 2530,
      "Por favor.\n": 2531,
      "erta ": 2532,
      "un hombre ": 2533,
      "Me encant": 2534,
      "ley ": 2535,
      "más que ": 2536,
      "le.\n": 2537,
      "ícul": 2538,
      "anim": 2539,
      "escal": 2540,
      "estuvi": 2541,
      "Déjame ": 2542,
      "cluso ": 2543,
      "Sk": 2544,
      "dañ": 2545,
      "van a ": 2546,
      "en?\n": 2547,
      "de las ": 2548,
      "increí": 2549,
      "irá ": 2550,
      "ate!\n": 2551,
      "ustedes ": 2552,
      "Hank": 2553,
      "Sam": 2554,
      "jef": 2555,
      "alo.\n": 2556,
      "aste.\n": 2557,
      "pequeño ": 2558,
      "destru": 2559,
      "emocion": 2560,
      "Dic": 2561,
      "Jer": 2562,
      "ano.\n": 2563,
      "dió ": 2564,
      "part": 2565,
      "me llam": 2566,
      "quiero que ": 2567,
      "creo.\n": 2568,
      "¿Cuál ": 2569,
      "Ll": 2570,
      "ti, ": 2571,
      "para que ": 2572,
      "haciendo?\n": 2573,
      "Supongo que ": 2574,
      "gall": 2575,
      "erci": 2576,
      "hablar con ": 2577,
      "En serio?\n": 2578,
      "s!\n": 2579,
      "tierr": 2580,
      "se!\n": 2581,
      "como una ": 2582,
      "papá ": 2583,
      "Cali": 2584,
      "inn": 2585,
      "No quiero ": 2586,
      "hora de ": 2587,
      "Por eso ": 2588,
      "John": 2589,
      "ar su ": 2590,
      "familia.\n": 2591,
      "oficin": 2592,
      "es\n": 2593,
      "os en ": 2594,
      "Tran": 2595,
      "dulc": 2596,
      "20 ": 2597,
      "Ir": 2598,
      "ia.\n": 2599,
      "en de ": 2600,
      "ser un ": 2601,
      "así que ": 2602,
      "siempre.\n": 2603,
      "march": 2604,
      "Ap": 2605,
      "sí": 2606,
      "esta m": 2607,
      "ejor ": 2608,
      "importante ": 2609,
      "ás de ": 2610,
      "acuerdo?\n": 2611,
      "Izzy ": 2612,
      "év": 2613,
      "ong": 2614,
      "hice ": 2615,
      "ola ": 2616,
      "en tu ": 2617,
      "embar": 2618,
      "lig": 2619,
      "fuera.\n": 2620,
      "Quizás ": 2621,
      "y la ": 2622,
      "vivi": 2623,
      "viol": 2624,
      "bien!\n": 2625,
      "cosa.\n": 2626,
      "plaz": 2627,
      "seguir ": 2628,
      "venir ": 2629,
      "ya no ": 2630,
      "maldito ": 2631,
      "permi": 2632,
      "cinco ": 2633,
      "Veng": 2634,
      "hol": 2635,
      "o al ": 2636,
      "inu": 2637,
      "é de ": 2638,
      "pris": 2639,
      "primer ": 2640,
      "Nuev": 2641,
      "Ros": 2642,
      "és.\n": 2643,
      "an de ": 2644,
      "cerebr": 2645,
      "últi": 2646,
      "Mis ": 2647,
      "dest": 2648,
      "¡Vamos, ": 2649,
      "digo ": 2650,
      "eta ": 2651,
      "én?\n": 2652,
      "promet": 2653,
      "Fock": 2654,
      "Jak": 2655,
      "das ": 2656,
      "- Gracias.\n": 2657,
      "amos de ": 2658,
      "pis": 2659,
      "escap": 2660,
      "nuevo ": 2661,
      "Ray": 2662,
      "firm": 2663,
      "jur": 2664,
      "haber": 2665,
      "En la ": 2666,
      "volvi": 2667,
      "hagas ": 2668,
      "sangr": 2669,
      "Ab": 2670,
      "hamb": 2671,
      "inst": 2672,
      "Fel": 2673,
      "Rob": 2674,
      "acost": 2675,
      "mi hij": 2676,
      "ete.\n": 2677,
      "soci": 2678,
      "logr": 2679,
      "idea.\n": 2680,
      "ano ": 2681,
      "actu": 2682,
      "ado por ": 2683,
      "dad.\n": 2684,
      "urp": 2685,
      "corr": 2686,
      "land": 2687,
      "yn": 2688,
      "¿Está ": 2689,
      "contar": 2690,
      "tipo de ": 2691,
      "ciel": 2692,
      "ino.\n": 2693,
      "000 ": 2694,
      "S ": 2695,
      "garr": 2696,
      "ara ": 2697,
      "momento ": 2698,
      "aprend": 2699,
      "cru": 2700,
      "que el ": 2701,
      "es muy ": 2702,
      "y se ": 2703,
      "ando a ": 2704,
      "años, ": 2705,
      "escrib": 2706,
      "Está bien, ": 2707,
      "Recuerd": 2708,
      "veo ": 2709,
      "Llev": 2710,
      "ahora?\n": 2711,
      "Ellos ": 2712,
      "ma": 2713,
      "ont": 2714,
      "activ": 2715,
      "- ¿Cu": 2716,
      "osotros ": 2717,
      "arriba.\n": 2718,
      "Adiós.\n": 2719,
      "amente, ": 2720,
      "mil": 2721,
      "habit": 2722,
      "istr": 2723,
      "caball": 2724,
      "posib": 2725,
      "Aún ": 2726,
      "enn": 2727,
      "esto, ": 2728,
      "abandon": 2729,
      "Quer": 2730,
      "me lo ": 2731,
      "sep": 2732,
      "juntos.\n": 2733,
      "ella?\n": 2734,
      "Tienes que ": 2735,
      "Quiero que ": 2736,
      "Tambi": 2737,
      "Vámon": 2738,
      "al!\n": 2739,
      "abuel": 2740,
      "manej": 2741,
      "s?\n": 2742,
      "áj": 2743,
      "y el ": 2744,
      "guard": 2745,
      "ida ": 2746,
      "í que ": 2747,
      "puesto.\n": 2748,
      "jueg": 2749,
      "muchos ": 2750,
      "él?\n": 2751,
      "niños ": 2752,
      "importa.\n": 2753,
      "veng": 2754,
      "- No lo ": 2755,
      "mand": 2756,
      "ros": 2757,
      "vac": 2758,
      "ato.\n": 2759,
      "imbé": 2760,
      "yo no ": 2761,
      "¿Sí?\n": 2762,
      "Pensé que ": 2763,
      "y no ": 2764,
      "limpi": 2765,
      "Adam": 2766,
      "Llam": 2767,
      "No": 2768,
      "lado.\n": 2769,
      "ven ": 2770,
      "recor": 2771,
      "respir": 2772,
      "Tenemos que ": 2773,
      "eme ": 2774,
      "era un ": 2775,
      "Uds": 2776,
      "hombres ": 2777,
      "ced": 2778,
      "ort": 2779,
      "agarr": 2780,
      "sobre": 2781,
      "gener": 2782,
      "Buenas noches.\n": 2783,
      "molest": 2784,
      "¿La ": 2785,
      "a en la ": 2786,
      "querr": 2787,
      "grit": 2788,
      "puesto ": 2789,
      "Después ": 2790,
      "Har": 2791,
      "Más ": 2792,
      "Tigg": 2793,
      "rí": 2794,
      "t.\n": 2795,
      "en seri": 2796,
      "sion": 2797,
      "sur": 2798,
      "comer ": 2799,
      "ado en ": 2800,
      "pasó ": 2801,
      "auto ": 2802,
      "tranqui": 2803,
      "También ": 2804,
      "All": 2805,
      "sen": 2806,
      "esto es ": 2807,
      "vici": 2808,
      "condu": 2809,
      "ación, ": 2810,
      "gusta ": 2811,
      "....\n": 2812,
      "orden": 2813,
      "después de ": 2814,
      "ión.\n": 2815,
      "asegur": 2816,
      "ente!\n": 2817,
      "sil": 2818,
      "¿Qué pasa?\n": 2819,
      "Ann": 2820,
      "ate de ": 2821,
      "¿Cuánto ": 2822,
      "siti": 2823,
      "ado con ": 2824,
      "program": 2825,
      "Rand": 2826,
      "cha": 2827,
      "nuevo.\n": 2828,
      "opin": 2829,
      "AN": 2830,
      "Vi": 2831,
      "fas": 2832,
      "Éste ": 2833,
      "parti": 2834,
      "pueda ": 2835,
      "aste?\n": 2836,
      "mejor que ": 2837,
      "Uno ": 2838,
      "ire ": 2839,
      "está?\n": 2840,
      "Buen ": 2841,
      "TV": 2842,
      "lo?\n": 2843,
      "imient": 2844,
      "Acab": 2845,
      "bo ": 2846,
      "a G": 2847,
      "amp": 2848,
      "ierr": 2849,
      "las cosas ": 2850,
      "allí ": 2851,
      "espaci": 2852,
      "minutos.\n": 2853,
      "cumple": 2854,
      ":4": 2855,
      "salud": 2856,
      "poner": 2857,
      "frí": 2858,
      "madre.\n": 2859,
      "iré ": 2860,
      "amigos.\n": 2861,
      "mujeres ": 2862,
      "diré ": 2863,
      "rápid": 2864,
      "gal": 2865,
      "Estas ": 2866,
      "tend": 2867,
      "pasar ": 2868,
      "piern": 2869,
      "muev": 2870,
      "z.\n": 2871,
      "ica ": 2872,
      "Es muy ": 2873,
      "Anni": 2874,
      "Sra. ": 2875,
      "vend": 2876,
      "y...\n": 2877,
      "primer": 2878,
      "hoy.\n": 2879,
      "tico.\n": 2880,
      "mostr": 2881,
      "van ": 2882,
      "arse.\n": 2883,
      "entes.\n": 2884,
      "rein": 2885,
      "nada que ": 2886,
      "único que ": 2887,
      "rápido.\n": 2888,
      "At": 2889,
      "Ste": 2890,
      "fant": 2891,
      "iel": 2892,
      "jal": 2893,
      "mú": 2894,
      "mas": 2895,
      "estará ": 2896,
      "olog": 2897,
      "ectiv": 2898,
      "nuestras ": 2899,
      "elec": 2900,
      "creer ": 2901,
      "ías que ": 2902,
      "Hola?\n": 2903,
      "lugar.\n": 2904,
      "o\"": 2905,
      ", el ": 2906,
      "ann": 2907,
      "as la ": 2908,
      "ink": 2909,
      "ént": 2910,
      "pele": 2911,
      "mundo.\n": 2912,
      "claro.\n": 2913,
      "We": 2914,
      "bai": 2915,
      "- P": 2916,
      "- Oh, ": 2917,
      "clase de ": 2918,
      "Ke": 2919,
      "ban": 2920,
      "ific": 2921,
      "a en el ": 2922,
      "arnos ": 2923,
      "iment": 2924,
      "larg": 2925,
      "emphi": 2926,
      "dice ": 2927,
      "meti": 2928,
      "diablos ": 2929,
      "Cas": 2930,
      "EL": 2931,
      "nor": 2932,
      "def": 2933,
      "una vez ": 2934,
      "mie": 2935,
      "cervez": 2936,
      "quizá ": 2937,
      "Has ": 2938,
      "to de ": 2939,
      "o en el ": 2940,
      "una.\n": 2941,
      "tu herman": 2942,
      "braz": 2943,
      "Trat": 2944,
      "Nat": 2945,
      "sabemos ": 2946,
      "todavía ": 2947,
      "jodi": 2948,
      "tot": 2949,
      "ól": 2950,
      "ada?\n": 2951,
      "lo sient": 2952,
      "aquí": 2953,
      "hablar de ": 2954,
      "Algo ": 2955,
      "levant": 2956,
      "¿Has ": 2957,
      ":2": 2958,
      "Dame ": 2959,
      "Mis": 2960,
      "hom": 2961,
      "- De ": 2962,
      "carr": 2963,
      "luz ": 2964,
      "arla.\n": 2965,
      "policía.\n": 2966,
      "mens": 2967,
      "pú": 2968,
      "mient": 2969,
      "Eh, ": 2970,
      "Memphi": 2971,
      "ienci": 2972,
      "está en ": 2973,
      "ellos.\n": 2974,
      "ahora, ": 2975,
      "New": 2976,
      "Ot": 2977,
      "yl": 2978,
      "No lo sé.\n": 2979,
      "Jesú": 2980,
      "Hart": 2981,
      "aer": 2982,
      "hoy ": 2983,
      "orgu": 2984,
      "Trabaj": 2985,
      "Int": 2986,
      "ción de ": 2987,
      "Dios mío.\n": 2988,
      "Mamá ": 2989,
      "6,": 2990,
      "comun": 2991,
      "Y si ": 2992,
      "plemente ": 2993,
      "a vuel": 2994,
      "sé que ": 2995,
      "volver a ": 2996,
      "pantal": 2997,
      "Cad": 2998,
      "e al ": 2999,
      "aliz": 3000,
      "es por ": 3001,
      "as un ": 3002,
      "ado el ": 3003,
      "lo!\n": 3004,
      "dita ": 3005,
      "ay, ": 3006,
      "ando, ": 3007,
      "Yo soy ": 3008,
      "Todavía ": 3009,
      "¡Mal": 3010,
      "30 ": 3011,
      "to!\n": 3012,
      "- Un ": 3013,
      "ieron ": 3014,
      "quisi": 3015,
      "vez.\n": 3016,
      "bastante ": 3017,
      "Bus": 3018,
      "os del ": 3019,
      "oscur": 3020,
      "Quería ": 3021,
      "sujet": 3022,
      "se llam": 3023,
      "ley": 3024,
      "iste.\n": 3025,
      ", ¿no?\n": 3026,
      "Elo": 3027,
      "capit": 3028,
      "Dos ": 3029,
      "¿Pero ": 3030,
      "anoch": 3031,
      "entreg": 3032,
      "CI": 3033,
      "dos": 3034,
      "fe": 3035,
      "m.\n": 3036,
      "¡Es ": 3037,
      "aron.\n": 3038,
      "no tiene ": 3039,
      "cual ": 3040,
      "an los ": 3041,
      "Y yo ": 3042,
      "posici": 3043,
      "Ahí ": 3044,
      "No puedes ": 3045,
      "ico ": 3046,
      "hora.\n": 3047,
      "carn": 3048,
      "solu": 3049,
      "metr": 3050,
      "hiciste ": 3051,
      "sincr": 3052,
      "acerc": 3053,
      "oy.\n": 3054,
      "y me ": 3055,
      "casa de ": 3056,
      "cariño.\n": 3057,
      "lat": 3058,
      "¿El ": 3059,
      "¿Se ": 3060,
      "áll": 3061,
      "escon": 3062,
      "hacen ": 3063,
      "ris": 3064,
      "cosa ": 3065,
      "habría ": 3066,
      "-A": 3067,
      "ofici": 3068,
      "Perdon": 3069,
      "cierto.\n": 3070,
      ":0": 3071,
      ":5": 3072,
      "la": 3073,
      "accid": 3074,
      "permis": 3075,
      "pur": 3076,
      "pasado ": 3077,
      "Sub": 3078,
      "importante.\n": 3079,
      "?\"\n": 3080,
      "dob": 3081,
      "amor.\n": 3082,
      "despier": 3083,
      "- ¿Por qué ": 3084,
      "otras ": 3085,
      "crim": 3086,
      "última ": 3087,
      "-Sí, ": 3088,
      "Tendr": 3089,
      "rid": 3090,
      "roj": 3091,
      "vamos ": 3092,
      "ada, ": 3093,
      "osa ": 3094,
      "- ¿Te ": 3095,
      "llegu": 3096,
      "Greg.\n": 3097,
      "bellez": 3098,
      "is.\n": 3099,
      "do que ": 3100,
      "viste ": 3101,
      "caus": 3102,
      "¿De qué ": 3103,
      "Debes ": 3104,
      "Gar": 3105,
      "Hoy ": 3106,
      "a:\n": 3107,
      "ner": 3108,
      "a mí.\n": 3109,
      "mucha ": 3110,
      "curs": 3111,
      "edad ": 3112,
      "Sh": 3113,
      "así?\n": 3114,
      "en este ": 3115,
      "casa, ": 3116,
      "izquier": 3117,
      "hacerlo ": 3118,
      "presion": 3119,
      "tenemos que ": 3120,
      "EI ": 3121,
      "Voy ": 3122,
      "- ¿S": 3123,
      "Se acab": 3124,
      "orgull": 3125,
      "ta de ": 3126,
      "ósi": 3127,
      "- Hola, ": 3128,
      "por un ": 3129,
      "No, no ": 3130,
      "perdido ": 3131,
      "nadie.\n": 3132,
      "Nada.\n": 3133,
      "th": 3134,
      "¡L": 3135,
      "enc": 3136,
      "ando el ": 3137,
      "ley.\n": 3138,
      "2,": 3139,
      "- ¿Quién ": 3140,
      "el de ": 3141,
      "días, ": 3142,
      "que... ": 3143,
      "bols": 3144,
      "deberías ": 3145,
      "dentro de ": 3146,
      "Io ": 3147,
      "la gente ": 3148,
      "más de ": 3149,
      "algunos ": 3150,
      "podrías ": 3151,
      "sistem": 3152,
      "Jam": 3153,
      "Ver": 3154,
      "cli": 3155,
      "dos, ": 3156,
      "ff": 3157,
      "patr": 3158,
      "¡Esper": 3159,
      "ork": 3160,
      "ang": 3161,
      "cop": 3162,
      "asunt": 3163,
      "prendi": 3164,
      "mur": 3165,
      "nueva ": 3166,
      "personas ": 3167,
      "señorit": 3168,
      "suficiente ": 3169,
      "proteg": 3170,
      "aparec": 3171,
      "retir": 3172,
      "era una ": 3173,
      "salt": 3174,
      "o, ¿no?\n": 3175,
      "tele": 3176,
      "morir": 3177,
      "Murp": 3178,
      "o,\n": 3179,
      "sión.\n": 3180,
      "atenci": 3181,
      "Te lo ": 3182,
      "plac": 3183,
      "semana.\n": 3184,
      "mentir": 3185,
      "pilot": 3186,
      "escen": 3187,
      ":1": 3188,
      "Vamos ": 3189,
      "Ya v": 3190,
      "astr": 3191,
      "siendo ": 3192,
      "si te ": 3193,
      "Bueno.\n": 3194,
      "intelig": 3195,
      "entiendo.\n": 3196,
      "Tranqui": 3197,
      "sincrab": 3198,
      "¡R": 3199,
      "tenci": 3200,
      "Hay un ": 3201,
      "tener que ": 3202,
      "Jack.\n": 3203,
      "Greg ": 3204,
      "cuatro ": 3205,
      "Hij": 3206,
      "jer": 3207,
      "¿T": 3208,
      "arías ": 3209,
      "amos?\n": 3210,
      "ocupad": 3211,
      "atrás.\n": 3212,
      "Caraj": 3213,
      "apareci": 3214,
      "movi": 3215,
      "Em": 3216,
      "dom": 3217,
      "rab": 3218,
      "¡ ": 3219,
      "¿Puedes ": 3220,
      "cuánto ": 3221,
      "a, la ": 3222,
      "Dig": 3223,
      "¿Com": 3224,
      "sobre el ": 3225,
      "Mc": 3226,
      "Se": 3227,
      "bod": 3228,
      "dud": 3229,
      "cocin": 3230,
      "ar las ": 3231,
      "exam": 3232,
      "almente.\n": 3233,
      "engañ": 3234,
      "acept": 3235,
      "test": 3236,
      "es como ": 3237,
      "a mat": 3238,
      "Sigu": 3239,
      "ariñ": 3240,
      "Geni": 3241,
      "Jon": 3242,
      "matr": 3243,
      "ram": 3244,
      "rot": 3245,
      "yo, ": 3246,
      "ale ": 3247,
      "y y ": 3248,
      "habla ": 3249,
      "serv": 3250,
      "a vol": 3251,
      "fuera de ": 3252,
      "misma ": 3253,
      "sigue ": 3254,
      "Otr": 3255,
      "York": 3256,
      "i?\n": 3257,
      "erlo.\n": 3258,
      "de su ": 3259,
      "invit": 3260,
      "No le ": 3261,
      "simp": 3262,
      "plat": 3263,
      "esta noche.\n": 3264,
      "Bienven": 3265,
      "decir que ": 3266,
      "respet": 3267,
      "sucedi": 3268,
      "arla ": 3269,
      "es su ": 3270,
      "se ha ": 3271,
      "noche, ": 3272,
      "Ant": 3273,
      "mamá ": 3274,
      "ún": 3275,
      "erto ": 3276,
      "así, ": 3277,
      "- Ya ": 3278,
      "coron": 3279,
      "ladr": 3280,
      "Muchas ": 3281,
      "Skinn": 3282,
      "Cambi": 3283,
      "a.": 3284,
      "situ": 3285,
      "parte de ": 3286,
      "er a ": 3287,
      "prometi": 3288,
      "para la ": 3289,
      "ello.\n": 3290,
      "ás!\n": 3291,
      "realidad ": 3292,
      "miedo.\n": 3293,
      "each": 3294,
      "gár": 3295,
      "in ": 3296,
      "iente ": 3297,
      "ó, ": 3298,
      "o como ": 3299,
      "- Eso ": 3300,
      "ar a la ": 3301,
      "idos.\n": 3302,
      "a mí ": 3303,
      "allí.\n": 3304,
      "contac": 3305,
      "corazón ": 3306,
      "anos ": 3307,
      "tarde ": 3308,
      "tiene un ": 3309,
      "Lin": 3310,
      "nar": 3311,
      "titu": 3312,
      "Quí": 3313,
      "mi.\n": 3314,
      "hay que ": 3315,
      "haré ": 3316,
      "antigu": 3317,
      "Nueva ": 3318,
      "dor": 3319,
      "eti": 3320,
      "ina ": 3321,
      "No estoy ": 3322,
      "ar mi ": 3323,
      "si.\n": 3324,
      "orment": 3325,
      "fueron ": 3326,
      "significa ": 3327,
      "Mat": 3328,
      "Nosotros ": 3329,
      "bal": 3330,
      "arg": 3331,
      "und": 3332,
      "ins": 3333,
      "ación?\n": 3334,
      "trata de ": 3335,
      "pintur": 3336,
      "St": 3337,
      "duc": 3338,
      "¿\n": 3339,
      "- Estoy ": 3340,
      "ito.\n": 3341,
      "Col": 3342,
      "Será ": 3343,
      "cú": 3344,
      "ó de ": 3345,
      "ó al ": 3346,
      "gallet": 3347,
      "Bast": 3348,
      "ON": 3349,
      "¿Le ": 3350,
      "reun": 3351,
      "repar": 3352,
      "no puede ": 3353,
      "os, ¿": 3354,
      "pelícu": 3355,
      "Micha": 3356,
      "preguntar": 3357,
      "Kar": 3358,
      "pe ": 3359,
      "¡Me ": 3360,
      "fum": 3361,
      "Prim": 3362,
      "i!\n": 3363,
      "itu": 3364,
      "o-": 3365,
      "ood": 3366,
      "- La ": 3367,
      "ido?\n": 3368,
      "ir al ": 3369,
      "luch": 3370,
      "Sabes ": 3371,
      "Exac": 3372,
      "Andre": 3373,
      "Mejor ": 3374,
      "es son ": 3375,
      "para ti.\n": 3376,
      "tament": 3377,
      "ocurri": 3378,
      "borr": 3379,
      "posible.\n": 3380,
      "lado ": 3381,
      "paí": 3382,
      "vas ": 3383,
      "os son ": 3384,
      "es eso?\n": 3385,
      "perdon": 3386,
      "hijo de ": 3387,
      "Eso es lo que ": 3388,
      "Mientras ": 3389,
      "Sol": 3390,
      "a a la ": 3391,
      "alcan": 3392,
      "abas ": 3393,
      "no puedo ": 3394,
      "decirle ": 3395,
      "Cuid": 3396,
      ", ¿qué ": 3397,
      "viejo ": 3398,
      "ómo?\n": 3399,
      "cámar": 3400,
      "-No.\n": 3401,
      "itiv": 3402,
      "per ": 3403,
      "¿Para ": 3404,
      "encarg": 3405,
      "adr": 3406,
      "- Pero ": 3407,
      "cuanto ": 3408,
      "No sé.\n": 3409,
      "verg": 3410,
      "lech": 3411,
      "contrat": 3412,
      "Debería ": 3413,
      "Hay que ": 3414,
      "Señor, ": 3415,
      "supone que ": 3416,
      "demonios ": 3417,
      "5,": 3418,
      "y... ": 3419,
      "ench": 3420,
      "á que ": 3421,
      "guardi": 3422,
      "pase": 3423,
      "ni siquiera ": 3424,
      "aciones.\n": 3425,
      "quieres decir?\n": 3426,
      "golpe": 3427,
      "Luego ": 3428,
      "Piens": 3429,
      "¿Tienes ": 3430,
      "a lo que ": 3431,
      "enoj": 3432,
      "arlos ": 3433,
      "amo.\n": 3434,
      "ament": 3435,
      "rible.\n": 3436,
      "eter": 3437,
      "- ¿Por ": 3438,
      "bido ": 3439,
      "le!\n": 3440,
      "ocurr": 3441,
      "Ni siquiera ": 3442,
      "Dios mío!\n": 3443,
      "New ": 3444,
      "a,\n": 3445,
      "- Qué ": 3446,
      "y te ": 3447,
      "sir": 3448,
      "erte, ": 3449,
      "autos.\n": 3450,
      "tipo ": 3451,
      "grande.\n": 3452,
      "Ning": 3453,
      "lá": 3454,
      "sabes.\n": 3455,
      "servici": 3456,
      "darle ": 3457,
      "Adel": 3458,
      "Habl": 3459,
      "pareci": 3460,
      "irme ": 3461,
      "fue un ": 3462,
      "tomar ": 3463,
      "mío.\n": 3464,
      "Ac": 3465,
      "Cr": 3466,
      "Mer": 3467,
      "bail": 3468,
      "dal": 3469,
      "sabía que ": 3470,
      "otro.\n": 3471,
      "ista.\n": 3472,
      "allá.\n": 3473,
      "ven.\n": 3474,
      "dormir ": 3475,
      "gente.\n": 3476,
      "lav": 3477,
      "mierda.\n": 3478,
      "a como ": 3479,
      "- Se ": 3480,
      "seas ": 3481,
      "Es mi ": 3482,
      "AR": 3483,
      "Det": 3484,
      "¡Te ": 3485,
      "enaz": 3486,
      "aría.\n": 3487,
      "reded": 3488,
      "tamente.\n": 3489,
      "o... y ": 3490,
      "Uds. ": 3491,
      "Dem": 3492,
      "FB": 3493,
      "O\n": 3494,
      "clu": 3495,
      "íst": 3496,
      "tig": 3497,
      "te llam": 3498,
      "comenz": 3499,
      "nada de ": 3500,
      "señor ": 3501,
      "he visto ": 3502,
      "hecho, ": 3503,
      "tú, ": 3504,
      "difícil ": 3505,
      "Kath": 3506,
      "mí, ": 3507,
      "que?\n": 3508,
      "amos, ": 3509,
      "recu": 3510,
      "conse": 3511,
      "ata": 3512,
      "ado la ": 3513,
      "escrit": 3514,
      "estuvo ": 3515,
      "Lev": 3516,
      "universi": 3517,
      "genial.\n": 3518,
      "dent": 3519,
      "das.\n": 3520,
      "ado\n": 3521,
      "cuál ": 3522,
      "ación": 3523,
      "atrap": 3524,
      "viene ": 3525,
      "locur": 3526,
      "on?\n": 3527,
      "sigui": 3528,
      "pero...\n": 3529,
      "encim": 3530,
      "irme.\n": 3531,
      "televisi": 3532,
      "Cos": 3533,
      "Ted": 3534,
      "den ": 3535,
      "gas": 3536,
      "ta. ": 3537,
      "a está ": 3538,
      "cuar": 3539,
      "prod": 3540,
      "con tu ": 3541,
      "ident": 3542,
      "plant": 3543,
      "malo.\n": 3544,
      "tica.\n": 3545,
      "médic": 3546,
      "posible ": 3547,
      "12 ": 3548,
      "Gib": 3549,
      "Oli": 3550,
      "Pres": 3551,
      "i, ": 3552,
      "eré ": 3553,
      "- A ": 3554,
      "dirig": 3555,
      "... que ": 3556,
      "las llav": 3557,
      "lo que quier": 3558,
      "amigos ": 3559,
      "árbol": 3560,
      "pequeña ": 3561,
      "hicist": 3562,
      "maldita ": 3563,
      "Island": 3564,
      "cent": 3565,
      "paz": 3566,
      "tor.\n": 3567,
      "ar\n": 3568,
      "alreded": 3569,
      "decirte ": 3570,
      "tiempo para ": 3571,
      "Pues, ": 3572,
      "uego, ": 3573,
      "Joe": 3574,
      "-...": 3575,
      "date ": 3576,
      "as del ": 3577,
      "o de que ": 3578,
      "ó en ": 3579,
      "porque no ": 3580,
      "disfr": 3581,
      "puerta.\n": 3582,
      "eronim": 3583,
      "exactamente ": 3584,
      "¡Oh, ": 3585,
      "de tu ": 3586,
      "Qué": 3587,
      "ía a ": 3588,
      "pueb": 3589,
      "puta.\n": 3590,
      "Lo sé.\n": 3591,
      "a más.\n": 3592,
      "nombr": 3593,
      "Miss ": 3594,
      "5.\n": 3595,
      "Tob": 3596,
      "cer ": 3597,
      "fing": 3598,
      "gir": 3599,
      "sens": 3600,
      "alquier": 3601,
      "cit": 3602,
      "an la ": 3603,
      "ecn": 3604,
      "amos que ": 3605,
      "- ¿ ": 3606,
      "futur": 3607,
      "RePet": 3608,
      "necesita ": 3609,
      "Así es.\n": 3610,
      "lista.\n": 3611,
      "principi": 3612,
      "Hemos ": 3613,
      "lab": 3614,
      "alter": 3615,
      "amenaz": 3616,
      "as de la ": 3617,
      "entre": 3618,
      "tuv": 3619,
      "án?\n": 3620,
      "ciones ": 3621,
      "Debe ": 3622,
      "cierto?\n": 3623,
      "mamá.\n": 3624,
      "-¿Qué?\n": 3625,
      "Iren": 3626,
      "as al ": 3627,
      "til": 3628,
      "descans": 3629,
      "Tengo un ": 3630,
      "Sull": 3631,
      "estabas ": 3632,
      "Charlie ": 3633,
      "Deberías ": 3634,
      "A\n": 3635,
      "ére": 3636,
      "oriz": 3637,
      "abier": 3638,
      "ueñ": 3639,
      "las man": 3640,
      "desp": 3641,
      "dejar ": 3642,
      "arru": 3643,
      "Tra": 3644,
      "¿Y qué ": 3645,
      "relación ": 3646,
      "pronto ": 3647,
      "15 ": 3648,
      "Y, ": 3649,
      "¿Hola?\n": 3650,
      "inú": 3651,
      "No puede ": 3652,
      "seis ": 3653,
      "imoni": 3654,
      "ito ": 3655,
      "ó que ": 3656,
      "manera ": 3657,
      "nada, ": 3658,
      "hay un ": 3659,
      "y, ¿": 3660,
      "ocul": 3661,
      "hijo.\n": 3662,
      "Me gustaría ": 3663,
      "dita se": 3664,
      "bli": 3665,
      "mb": 3666,
      "incluso ": 3667,
      "lo del ": 3668,
      "tica ": 3669,
      "quieres?\n": 3670,
      "ahí?\n": 3671,
      "acus": 3672,
      "23": 3673,
      "Scor": 3674,
      "voz": 3675,
      "guap": 3676,
      "tuve ": 3677,
      "grup": 3678,
      "está pas": 3679,
      "iz ": 3680,
      "Una vez ": 3681,
      "ayuda.\n": 3682,
      "éro": 3683,
      "1,": 3684,
      "Cariñ": 3685,
      "Fre": 3686,
      "Rock": 3687,
      "band": 3688,
      "fue": 3689,
      "luego.\n": 3690,
      "¡El ": 3691,
      "¿Tú ": 3692,
      "éste ": 3693,
      "de acuerdo?\n": 3694,
      "- Bueno, ": 3695,
      "ar por ": 3696,
      "mul": 3697,
      "tengo.\n": 3698,
      "grav": 3699,
      "Siént": 3700,
      "Enten": 3701,
      "drag": 3702,
      "usted.\n": 3703,
      "soy un ": 3704,
      "sobre la ": 3705,
      "buscar": 3706,
      "Geronim": 3707,
      "Lu": 3708,
      "acompañ": 3709,
      "io.\n": 3710,
      "zap": 3711,
      "trag": 3712,
      "te gust": 3713,
      "crees?\n": 3714,
      "casa?\n": 3715,
      "Gran": 3716,
      "camion": 3717,
      "conmigo ": 3718,
      "Aunque ": 3719,
      "Oig": 3720,
      "da de ": 3721,
      "ik": 3722,
      "oír": 3723,
      "xi": 3724,
      "yo?\n": 3725,
      "ine ": 3726,
      "an que ": 3727,
      "bueno, ": 3728,
      "favor": 3729,
      "Debemos ": 3730,
      "pensab": 3731,
      "a, ¿no?\n": 3732,
      "razón ": 3733,
      "convers": 3734,
      "pan": 3735,
      "de mi ": 3736,
      "este.\n": 3737,
      "in.\n": 3738,
      "sill": 3739,
      "se, ": 3740,
      "puj": 3741,
      "- ¿Dónde ": 3742,
      "servir": 3743,
      "mujer.\n": 3744,
      "continu": 3745,
      "Tom.\n": 3746,
      "arlo?\n": 3747,
      "conmigo?\n": 3748,
      "Selm": 3749,
      "eI ": 3750,
      "pósi": 3751,
      "que nos ": 3752,
      "parte.\n": 3753,
      "mig": 3754,
      "debemos ": 3755,
      "Hola!\n": 3756,
      "dicho ": 3757,
      "líne": 3758,
      "arregl": 3759,
      " Beach": 3760,
      "Long": 3761,
      "Ren": 3762,
      "Sch": 3763,
      "ais ": 3764,
      "déj": 3765,
      "gil": 3766,
      "Ést": 3767,
      "no le ": 3768,
      "peri": 3769,
      "mani": 3770,
      "pizz": 3771,
      "brome": 3772,
      "pensando ": 3773,
      "descubr": 3774,
      "o--\n": 3775,
      "torment": 3776,
      "trai": 3777,
      "vic": 3778,
      "pared": 3779,
      "iendo.\n": 3780,
      "desde que ": 3781,
      "parece?\n": 3782,
      "agua.\n": 3783,
      "¿Estás bien?\n": 3784,
      "justo ": 3785,
      "result": 3786,
      "12": 3787,
      "4,": 3788,
      "Jef": 3789,
      "Pon": 3790,
      "héro": 3791,
      "m ": 3792,
      "arn": 3793,
      "a mor": 3794,
      "llamado ": 3795,
      "ecnolog": 3796,
      "-Es ": 3797,
      "-No, ": 3798,
      "7,": 3799,
      "ta!\n": 3800,
      "a esta ": 3801,
      "arti": 3802,
      "arries": 3803,
      "mil ": 3804,
      "sabes?\n": 3805,
      "agente ": 3806,
      "emple": 3807,
      "verdad, ": 3808,
      "Srta. ": 3809,
      "Espero que ": 3810,
      "nombre.\n": 3811,
      "entiend": 3812,
      "Había ": 3813,
      "Gol": 3814,
      "Lleg": 3815,
      "len": 3816,
      "sa ": 3817,
      "no sé ": 3818,
      "amos un ": 3819,
      "¿Qué pas": 3820,
      "Me alegr": 3821,
      "forma de ": 3822,
      "ándo": 3823,
      "Donn": 3824,
      "Vale, ": 3825,
      "nervi": 3826,
      "\"C": 3827,
      "\", ": 3828,
      "jo": 3829,
      "tas.\n": 3830,
      "Ése ": 3831,
      "o un ": 3832,
      "o a la ": 3833,
      "ena ": 3834,
      "enfr": 3835,
      "as son ": 3836,
      "entemente ": 3837,
      "siente ": 3838,
      "conduc": 3839,
      "sentir ": 3840,
      "digas ": 3841,
      "familia ": 3842,
      "Lind": 3843,
      "dado ": 3844,
      "sombr": 3845,
      "os de la ": 3846,
      "dido.\n": 3847,
      "lo hiz": 3848,
      "queremos ": 3849,
      "Soy un ": 3850,
      "ándol": 3851,
      "ciudad ": 3852,
      "vestig": 3853,
      "pedir ": 3854,
      "Selma.\n": 3855,
      "un par de ": 3856,
      "01:0": 3857,
      "8,": 3858,
      ". ¡": 3859,
      "verte ": 3860,
      "finitiv": 3861,
      "sorpres": 3862,
      "dólares.\n": 3863,
      "pudiera ": 3864,
      "OR": 3865,
      "¿En ": 3866,
      "e en ": 3867,
      "adic": 3868,
      "emos, ": 3869,
      "trav": 3870,
      "a, el ": 3871,
      "ado y ": 3872,
      "Pero, ": 3873,
      "contra ": 3874,
      "aria.\n": 3875,
      "French": 3876,
      "edad.\n": 3877,
      "punto de ": 3878,
      "Just": 3879,
      "adas ": 3880,
      "estaría ": 3881,
      "no está ": 3882,
      "una gran ": 3883,
      "an las ": 3884,
      "Estados ": 3885,
      "- ¿No ": 3886,
      "como el ": 3887,
      "salg": 3888,
      "seguro.\n": 3889,
      "¡Sí!\n": 3890,
      "semana ": 3891,
      "Habla ": 3892,
      "detrás de ": 3893,
      "lo siento.\n": 3894,
      "Long Beach": 3895,
      "Estados Un": 3896,
      "3,": 3897,
      "mente ": 3898,
      "nu": 3899,
      "estaré ": 3900,
      "con mi ": 3901,
      "00.\n": 3902,
      "autos ": 3903,
      "Sus ": 3904,
      "caballer": 3905,
      "May": 3906,
      "óp": 3907,
      "- Y": 3908,
      "eck": 3909,
      "o de los ": 3910,
      "Sí, pero ": 3911,
      "Cuidad": 3912,
      "películ": 3913,
      "niño ": 3914,
      "diciendo ": 3915,
      "cár": 3916,
      "eres?\n": 3917,
      "usar ": 3918,
      "ario ": 3919,
      "hará ": 3920,
      "jamás ": 3921,
      "Her": 3922,
      "be": 3923,
      "jod": 3924,
      "nud": 3925,
      "ído ": 3926,
      "ido, ": 3927,
      "verte.\n": 3928,
      "ura.\n": 3929,
      "es de la ": 3930,
      "espir": 3931,
      "pondr": 3932,
      "ustedes.\n": 3933,
      "Ella es ": 3934,
      "talent": 3935,
      "fácil.\n": 3936,
      "aun ": 3937,
      "proc": 3938,
      "ezc": 3939,
      "manera.\n": 3940,
      "abajo.\n": 3941,
      "dices?\n": 3942,
      "Recuer": 3943,
      "plane": 3944,
      "máquin": 3945,
      "Jerse": 3946,
      "Chi": 3947,
      "Doc": 3948,
      "Harr": 3949,
      "List": 3950,
      "vendr": 3951,
      "¡Ya ": 3952,
      "áis ": 3953,
      "quem": 3954,
      "y lo ": 3955,
      "sica ": 3956,
      "comb": 3957,
      "a de un ": 3958,
      "pude ": 3959,
      "ay!\n": 3960,
      "Pero si ": 3961,
      "Yo me ": 3962,
      ", ¿verdad?\n": 3963,
      "única ": 3964,
      "corazón.\n": 3965,
      "haces aquí?\n": 3966,
      "Intent": 3967,
      "Adem": 3968,
      "Haz ": 3969,
      "emos?\n": 3970,
      "tres.\n": 3971,
      "un poco de ": 3972,
      "¿Qué tal ": 3973,
      "- ¿Estás ": 3974,
      "todo, ": 3975,
      "cos, ": 3976,
      "ántos ": 3977,
      "brom": 3978,
      "estaban ": 3979,
      "Mír": 3980,
      "mo.\n": 3981,
      "mem": 3982,
      "tos.\n": 3983,
      "a casa.\n": 3984,
      "es para ": 3985,
      "ado que ": 3986,
      "as el ": 3987,
      "oso?\n": 3988,
      "sabía ": 3989,
      "lean": 3990,
      "algo, ": 3991,
      "parece que ": 3992,
      "niños.\n": 3993,
      "dinero ": 3994,
      "ándos": 3995,
      "conseguir ": 3996,
      "arreglar": 3997,
      "responsab": 3998,
      "arruin": 3999,
      "AL": 4000,
      "Bug": 4001,
      "Mad": 4002,
      "ago ": 4003,
      "je": 4004,
      "vas?\n": 4005,
      "ad.\n": 4006,
      "recog": 4007,
      "lo mejor ": 4008,
      "No podemos ": 4009,
      "ando la ": 4010,
      "nada!\n": 4011,
      "Tenía ": 4012,
      "frente ": 4013,
      "ciones.\n": 4014,
      "presid": 4015,
      "Fl": 4016,
      "IN": 4017,
      "¿P": 4018,
      "¿Recuerd": 4019,
      "e L": 4020,
      "enem": 4021,
      "en sus ": 4022,
      "ril": 4023,
      "agn": 4024,
      "herr": 4025,
      "seguro que ": 4026,
      "éramos ": 4027,
      "montañ": 4028,
      "Andrea G": 4029,
      "Ed": 4030,
      "Hor": 4031,
      "Haz": 4032,
      "huel": 4033,
      "ogr": 4034,
      "¿Un ": 4035,
      "ía!\n": 4036,
      "qué": 4037,
      "es con ": 4038,
      "acá.\n": 4039,
      "an el ": 4040,
      "se me ": 4041,
      "yo soy ": 4042,
      "llegar ": 4043,
      "ugh": 4044,
      "cuidado.\n": 4045,
      "propio ": 4046,
      "pedaz": 4047,
      "Ios ": 4048,
      "]\n": 4049,
      "jov": 4050,
      "vo.\n": 4051,
      "ífic": 4052,
      "es del ": 4053,
      "adentr": 4054,
      "investig": 4055,
      "entiendo ": 4056,
      "antes de que ": 4057,
      "veces.\n": 4058,
      "experienci": 4059,
      "duel": 4060,
      "dueñ": 4061,
      "evit": 4062,
      "ien ": 4063,
      "¡Lo ": 4064,
      "o te ": 4065,
      "eni": 4066,
      "amar": 4067,
      "oso, ": 4068,
      ".. ": 4069,
      "a de los ": 4070,
      "fuerte.\n": 4071,
      "bici": 4072,
      "peor ": 4073,
      "cara.\n": 4074,
      "soñ": 4075,
      "contest": 4076,
      "o, ¿verdad?\n": 4077,
      "aguant": 4078,
      "suced": 4079,
      "cruz": 4080,
      "FBI": 4081,
      "ben": 4082,
      "dar ": 4083,
      "fam": 4084,
      "ger": 4085,
      "menci": 4086,
      "o,": 4087,
      "¿Hay ": 4088,
      "viaj": 4089,
      "oll": 4090,
      "decir.\n": 4091,
      "puede ser ": 4092,
      "ar a los ": 4093,
      "a... y ": 4094,
      "Mark": 4095,
      "tenga ": 4096,
      "ventan": 4097,
      "Sí ": 4098,
      "da, ": 4099,
      "ie.\n": 4100,
      "o\" ": 4101,
      "es tan ": 4102,
      "asunto ": 4103,
      "cib": 4104,
      "invi": 4105,
      "é la ": 4106,
      "muestr": 4107,
      "Yo lo ": 4108,
      "umbr": 4109,
      "único ": 4110,
      "Dijo que ": 4111,
      "pronto.\n": 4112,
      "fácil ": 4113,
      "., ": 4114,
      "Elean": 4115,
      "bel": 4116,
      "cay": 4117,
      "cóm": 4118,
      "los.\n": 4119,
      "qué, ": 4120,
      "que los ": 4121,
      "ostr": 4122,
      "ti?\n": 4123,
      "no son ": 4124,
      "de!\n": 4125,
      "an y ": 4126,
      "con su ": 4127,
      "puesto que ": 4128,
      "Nueva York": 4129,
      "a \"": 4130,
      "energ": 4131,
      "era?\n": 4132,
      "- T": 4133,
      "- Que ": 4134,
      "inmedi": 4135,
      "che ": 4136,
      "exist": 4137,
      "Grand": 4138,
      "pong": 4139,
      "profun": 4140,
      "problemas.\n": 4141,
      "Nos vemos ": 4142,
      "Todo el ": 4143,
      "por favor, ": 4144,
      "alguien.\n": 4145,
      "Randall": 4146,
      "públ": 4147,
      "Scordi": 4148,
      "cúl": 4149,
      "f.\n": 4150,
      "o no?\n": 4151,
      "infier": 4152,
      "ote.\n": 4153,
      "a a los ": 4154,
      "tengo un ": 4155,
      "blanc": 4156,
      "ojos ": 4157,
      "quizás ": 4158,
      "historia.\n": 4159,
      "Dí": 4160,
      "hog": 4161,
      "sh": 4162,
      "t ": 4163,
      "muri": 4164,
      "año ": 4165,
      "Buena su": 4166,
      "frac": 4167,
      "conducir": 4168,
      "- ¿Por qué?\n": 4169,
      "14": 4170,
      "Ne": 4171,
      "are ": 4172,
      "empiez": 4173,
      "quiere que ": 4174,
      "saldr": 4175,
      "policía ": 4176,
      "pregunta ": 4177,
      "Por supuesto.\n": 4178,
      "último ": 4179,
      "junto ": 4180,
      "resc": 4181,
      "zon": 4182,
      "- Es un ": 4183,
      "estacion": 4184,
      "en esta ": 4185,
      "empuj": 4186,
      "ita.\n": 4187,
      "pidi": 4188,
      "idad, ": 4189,
      "gusto ": 4190,
      "hay una ": 4191,
      "Sabes, ": 4192,
      "Maldi": 4193,
      "grandi": 4194,
      "borrach": 4195,
      "1.\n": 4196,
      "Cada ": 4197,
      "Ev": 4198,
      "juego ": 4199,
      "o\"\n": 4200,
      "sáb": 4201,
      "a C": 4202,
      "amento ": 4203,
      "irás ": 4204,
      "al del ": 4205,
      "separ": 4206,
      "era el ": 4207,
      "ir a la ": 4208,
      "salió ": 4209,
      "vida, ": 4210,
      "De acuerd": 4211,
      "pensé que ": 4212,
      "¡Mierda!\n": 4213,
      "hablar.\n": 4214,
      "resto de ": 4215,
      "Raymon": 4216,
      "- Si ": 4217,
      "No está ": 4218,
      "Qué?\n": 4219,
      "iría ": 4220,
      "Y el ": 4221,
      "bill": 4222,
      "Dile ": 4223,
      "cosa?\n": 4224,
      "én.\n": 4225,
      "soy.\n": 4226,
      "Mira.\n": 4227,
      "chica ": 4228,
      "00:4": 4229,
      "arme?\n": 4230,
      "entiendes?\n": 4231,
      "idea de ": 4232,
      "cuenta.\n": 4233,
      "camino.\n": 4234,
      "perro.\n": 4235,
      "Escucha, ": 4236,
      "Nunc": 4237,
      "eso!\n": 4238,
      "el?\n": 4239,
      "er la ": 4240,
      "ierda ": 4241,
      "desper": 4242,
      "Se lo ": 4243,
      "dije ": 4244,
      "adora ": 4245,
      "abrir ": 4246,
      "¿Quieres que ": 4247,
      "eron que ": 4248,
      "muerte ": 4249,
      "Greg, ": 4250,
      "cuarto ": 4251,
      "daré ": 4252,
      "e:\n": 4253,
      "hot": 4254,
      "o una ": 4255,
      "es lo ": 4256,
      "coleg": 4257,
      "- Si.\n": 4258,
      "cuidad": 4259,
      "ar los ": 4260,
      "si me ": 4261,
      "a men": 4262,
      "icit": 4263,
      "vuelta ": 4264,
      "Fui ": 4265,
      "Parece ": 4266,
      "equipo.\n": 4267,
      "fin del ": 4268,
      "Buenos días, ": 4269,
      "Merced": 4270,
      "Baj": 4271,
      "ecu": 4272,
      "mierd": 4273,
      "natur": 4274,
      "ác": 4275,
      "o algo ": 4276,
      "sul": 4277,
      "atac": 4278,
      "por su": 4279,
      "podríamos ": 4280,
      "polí": 4281,
      "agua ": 4282,
      "muerte.\n": 4283,
      "¿Cuándo ": 4284,
      "feliz ": 4285,
      "adelante.\n": 4286,
      "Bo": 4287,
      "¡Cor": 4288,
      "- Bien.\n": 4289,
      "no nos ": 4290,
      "mano.\n": 4291,
      "A la ": 4292,
      "visto a ": 4293,
      "Crees que ": 4294,
      "hecho.\n": 4295,
      "nave ": 4296,
      "asesinat": 4297,
      "Luc": 4298,
      "Ru": 4299,
      "Vic": 4300,
      "ísi": 4301,
      "ir!\n": 4302,
      "ser.\n": 4303,
      "- ¡No!\n": 4304,
      "éndos": 4305,
      "venido ": 4306,
      "ojos.\n": 4307,
      "habrá ": 4308,
      "Buenas noches, ": 4309,
      "estúpid": 4310,
      "Fred": 4311,
      "caz": 4312,
      "ich": 4313,
      "ileg": 4314,
      "modo ": 4315,
      "¡J": 4316,
      "el, ": 4317,
      "ame, ": 4318,
      "ía en ": 4319,
      "puerta ": 4320,
      "habil": 4321,
      "hacer el ": 4322,
      "tiempo, ": 4323,
      "problema?\n": 4324,
      "Claro, ": 4325,
      "libert": 4326,
      "Olví": 4327,
      "No te preocupes.\n": 4328,
      "Sig": 4329,
      "Tal": 4330,
      "sk": 4331,
      "ones de ": 4332,
      "No soy ": 4333,
      "almente, ": 4334,
      "Tienen ": 4335,
      "mejor": 4336,
      "buscando ": 4337,
      "zapat": 4338,
      "Pen": 4339,
      "cat": 4340,
      "ías?\n": 4341,
      "a esa ": 4342,
      "es más ": 4343,
      "cient": 4344,
      "reuni": 4345,
      "till": 4346,
      "de...\n": 4347,
      "suci": 4348,
      "mist": 4349,
      "puedo.\n": 4350,
      "ete!\n": 4351,
      "fij": 4352,
      "error.\n": 4353,
      "sentido ": 4354,
      "lastim": 4355,
      "Bri": 4356,
      "pint": 4357,
      "yec": 4358,
      "éc": 4359,
      "óg": 4360,
      "ador de ": 4361,
      "lo hac": 4362,
      "mud": 4363,
      "Me siento ": 4364,
      "dad?\n": 4365,
      "Encontr": 4366,
      "monstru": 4367,
      "interi": 4368,
      "Discúl": 4369,
      "segundo ": 4370,
      "priv": 4371,
      "restaur": 4372,
      "EL ": 4373,
      "Ter": 4374,
      "aw": 4375,
      "b ": 4376,
      "dat": 4377,
      "é el ": 4378,
      "se la ": 4379,
      "tuvo ": 4380,
      "comien": 4381,
      "deben ": 4382,
      "blan": 4383,
      "Señor ": 4384,
      "dirección ": 4385,
      "miedo ": 4386,
      "Muchas gracias.\n": 4387,
      "0,": 4388,
      "Lle": 4389,
      "Pol": 4390,
      "aprendi": 4391,
      "psi": 4392,
      "ray": 4393,
      "revis": 4394,
      "eme.\n": 4395,
      "se está ": 4396,
      "con él.\n": 4397,
      "vert": 4398,
      "¿Qué haces?\n": 4399,
      "hora ": 4400,
      "ánt": 4401,
      "llamo ": 4402,
      "necesitamos ": 4403,
      "sentimient": 4404,
      "pregunta.\n": 4405,
      "Vale.\n": 4406,
      "OS": 4407,
      "tall": 4408,
      "entendi": 4409,
      "rez": 4410,
      "suerte.\n": 4411,
      "ó una ": 4412,
      "ó su ": 4413,
      "rich": 4414,
      "¿Quién?\n": 4415,
      "cali": 4416,
      "lugar": 4417,
      "nombre es ": 4418,
      "silenci": 4419,
      "alcanz": 4420,
      "Sí": 4421,
      "lan": 4422,
      "mos.\n": 4423,
      "ox": 4424,
      "vari": 4425,
      "vigil": 4426,
      "perten": 4427,
      "on de ": 4428,
      "- ¿C": 4429,
      "cree que ": 4430,
      "espí": 4431,
      "hasta el ": 4432,
      "Chic": 4433,
      "divertido.\n": 4434,
      "Probablemente ": 4435,
      "Calitr": 4436,
      "Johnn": 4437,
      "7.\n": 4438,
      "9,": 4439,
      "Be": 4440,
      "Oh ": 4441,
      "Somos ": 4442,
      "do!\n": 4443,
      "vuestr": 4444,
      "¿verdad?\n": 4445,
      "¿O ": 4446,
      "report": 4447,
      "viern": 4448,
      "irse ": 4449,
      "está el ": 4450,
      "ando!\n": 4451,
      "Dime ": 4452,
      "Sient": 4453,
      "gusto.\n": 4454,
      "Realmente ": 4455,
      "día, ": 4456,
      "Desde ": 4457,
      "tendrás ": 4458,
      "ancia.\n": 4459,
      "vamos, ": 4460,
      "cuarto.\n": 4461,
      "simplemente ": 4462,
      "-Te ": 4463,
      "Du": 4464,
      "Mari": 4465,
      "a'": 4466,
      "bamos ": 4467,
      "efec": 4468,
      "so.\n": 4469,
      "é!\n": 4470,
      "on, ": 4471,
      "cho": 4472,
      "sufr": 4473,
      "se te ": 4474,
      "past": 4475,
      "eppin": 4476,
      "Necesitamos ": 4477,
      "sino ": 4478,
      "Charlie.\n": 4479,
      "uno de los ": 4480,
      "increíble.\n": 4481,
      "maestr": 4482,
      "Raymond ": 4483,
      "-Lo ": 4484,
      "Nada ": 4485,
      "Ser": 4486,
      "Va a ": 4487,
      "Will": 4488,
      "augh": 4489,
      "us ": 4490,
      "inten": 4491,
      "culo ": 4492,
      "cuadr": 4493,
      "cualquier": 4494,
      "un buen ": 4495,
      "er de ": 4496,
      "me encant": 4497,
      "Perfec": 4498,
      "sabe que ": 4499,
      "¿Con ": 4500,
      "a que te ": 4501,
      "ante de ": 4502,
      "oy?\n": 4503,
      "contigo ": 4504,
      "tal vez ": 4505,
      "suce": 4506,
      "cúch": 4507,
      "40 ": 4508,
      "40-- 00:": 4509,
      "Hu": 4510,
      "Vete ": 4511,
      "dé": 4512,
      "he": 4513,
      "¡Se ": 4514,
      "ág": 4515,
      "anil": 4516,
      "lo sé.\n": 4517,
      "culo.\n": 4518,
      "se trat": 4519,
      "se?\n": 4520,
      "tenías ": 4521,
      "Escúch": 4522,
      "sabr": 4523,
      "fiesta ": 4524,
      "¿Con": 4525,
      "decidi": 4526,
      "Eso no ": 4527,
      "content": 4528,
      "hermano ": 4529,
      "00:3": 4530,
      "Contr": 4531,
      "conocer": 4532,
      "especial.\n": 4533,
      "Rich": 4534,
      "mencion": 4535,
      "13": 4536,
      "Nov": 4537,
      "darte ": 4538,
      "ses": 4539,
      "ús": 4540,
      "ados, ": 4541,
      "parej": 4542,
      "misi": 4543,
      "Es sólo ": 4544,
      "excel": 4545,
      "La gente ": 4546,
      "ha pas": 4547,
      "son?\n": 4548,
      "os de los ": 4549,
      "arte, ": 4550,
      "Cont": 4551,
      "Porque no ": 4552,
      "Todas ": 4553,
      "mañana ": 4554,
      "acuerdo ": 4555,
      "Robert": 4556,
      "Rach": 4557,
      "aunque ": 4558,
      "lanz": 4559,
      "mierda!\n": 4560,
      "só": 4561,
      "o en la ": 4562,
      "ara.\n": 4563,
      "que es ": 4564,
      "alist": 4565,
      "estan ": 4566,
      "comerci": 4567,
      "las de ": 4568,
      "apag": 4569,
      "án, ": 4570,
      "hablando ": 4571,
      "persona.\n": 4572,
      "Podrías ": 4573,
      "deberíamos ": 4574,
      "ciudad.\n": 4575,
      "hice.\n": 4576,
      "juici": 4577,
      "feliz.\n": 4578,
      "jalá ": 4579,
      "totalmente ": 4580,
      "consej": 4581,
      "2.\n": 4582,
      "Ber": 4583,
      "Bar": 4584,
      "Ib": 4585,
      "Vuel": 4586,
      "a-": 4587,
      "fech": 4588,
      "mí?\n": 4589,
      "podi": 4590,
      "coj": 4591,
      "viendo ": 4592,
      "vive ": 4593,
      "declar": 4594,
      "conven": 4595,
      "ender": 4596,
      "espal": 4597,
      "encia de ": 4598,
      "- No me ": 4599,
      "Sabes que ": 4600,
      "aste el ": 4601,
      "normal.\n": 4602,
      "teléfono.\n": 4603,
      "Can": 4604,
      "Emp": 4605,
      "m, ": 4606,
      "e por ": 4607,
      "desgraci": 4608,
      "su hij": 4609,
      "mucho que ": 4610,
      "Si te ": 4611,
      "a ven": 4612,
      "o a mi ": 4613,
      "padre?\n": 4614,
      "Ok, ": 4615,
      "defens": 4616,
      "matrimoni": 4617,
      "recuper": 4618,
      "Bai": 4619,
      "üenz": 4620,
      "a lo ": 4621,
      "estés ": 4622,
      "perder": 4623,
      "teni": 4624,
      "Me lo ": 4625,
      "lo que te ": 4626,
      "creci": 4627,
      "Buena ": 4628,
      "A veces ": 4629,
      "cuando se ": 4630,
      "Tengo una ": 4631,
      "disculp": 4632,
      "él, ": 4633,
      "chicas ": 4634,
      "Soy el ": 4635,
      "tratando de ": 4636,
      "¿ Y ": 4637,
      "Genial.\n": 4638,
      "más, ": 4639,
      "pic": 4640,
      "- Tú ": 4641,
      "y T": 4642,
      "aba de ": 4643,
      "real.\n": 4644,
      "o, te ": 4645,
      "cubier": 4646,
      "condi": 4647,
      "compar": 4648,
      "buenas ": 4649,
      "mejores ": 4650,
      "matar": 4651,
      "necesitas ": 4652,
      "adora.\n": 4653,
      "aron a ": 4654,
      "desde el ": 4655,
      "sorprend": 4656,
      "Seguro que ": 4657,
      "New Jerse": 4658,
      ".?\n": 4659,
      "ais": 4660,
      "a\" ": 4661,
      "o: \"": 4662,
      "eres.\n": 4663,
      "alej": 4664,
      "si, ": 4665,
      "Gracias a ": 4666,
      "hablando de ": 4667,
      "hacer una ": 4668,
      "¿Quién": 4669,
      "ord ": 4670,
      "complic": 4671,
      "Casi ": 4672,
      "Agu": 4673,
      "Sería ": 4674,
      "ro": 4675,
      "é en ": 4676,
      "No la ": 4677,
      "olvi": 4678,
      "comput": 4679,
      "fuert": 4680,
      "idad?\n": 4681,
      "he estado ": 4682,
      "estás haciendo?\n": 4683,
      "contigo?\n": 4684,
      "máxim": 4685,
      "fin de ": 4686,
      "aero": 4687,
      "- ¿Sí?\n": 4688,
      "No?\n": 4689,
      "Vaugh": 4690,
      "brill": 4691,
      "fac": 4692,
      "tempr": 4693,
      "tori": 4694,
      "ash": 4695,
      "un gran ": 4696,
      "sea.\n": 4697,
      "ante?\n": 4698,
      "eder": 4699,
      "a vec": 4700,
      "Hay una ": 4701,
      "Christ": 4702,
      "a vez que ": 4703,
      "dicho que ": 4704,
      "oído ": 4705,
      "No sé qué ": 4706,
      "Quién ": 4707,
      "arriesg": 4708,
      "través ": 4709,
      "80-- 00:": 4710,
      "más?\n": 4711,
      "n.\n": 4712,
      "- En ": 4713,
      "a de que ": 4714,
      "mi vida.\n": 4715,
      "lo que me ": 4716,
      "yo me ": 4717,
      "llamada ": 4718,
      "éndo": 4719,
      "mala ": 4720,
      "probablemente ": 4721,
      "grande ": 4722,
      "flor": 4723,
      "agradec": 4724,
      "Bull": 4725,
      "fiesta.\n": 4726,
      "Claro que sí.\n": 4727,
      "Después de ": 4728,
      "60-- 00:": 4729,
      ";\n": 4730,
      "Bon": 4731,
      "Mant": 4732,
      "darme ": 4733,
      "ía...\n": 4734,
      "a muy ": 4735,
      "er el ": 4736,
      "secu": 4737,
      "mi padre ": 4738,
      "caso ": 4739,
      "Yo también ": 4740,
      "algun": 4741,
      "eso no ": 4742,
      "Drucker ": 4743,
      "Mon": 4744,
      "más": 4745,
      "¿por qué ": 4746,
      "¿Alg": 4747,
      "esa m": 4748,
      "aremos.\n": 4749,
      "inoc": 4750,
      "ater": 4751,
      "ónde?\n": 4752,
      "Y no ": 4753,
      "amos el ": 4754,
      "ensay": 4755,
      "atrapar": 4756,
      "franc": 4757,
      "fue la ": 4758,
      "usted?\n": 4759,
      "ar a un ": 4760,
      "¿Cómo estás?\n": 4761,
      "niño.\n": 4762,
      "calle ": 4763,
      "umb": 4764,
      "muchachos.\n": 4765,
      "caden": 4766,
      "álmat": 4767,
      "escuela.\n": 4768,
      "Drucker.\n": 4769,
      "sangre ": 4770,
      "Vien": 4771,
      "có": 4772,
      "fall": 4773,
      "haz": 4774,
      "huev": 4775,
      "o.": 4776,
      "ras": 4777,
      "de Island": 4778,
      "divi": 4779,
      "re de ": 4780,
      "no...\n": 4781,
      "vista.\n": 4782,
      "¿No te ": 4783,
      "00:2": 4784,
      "alguien que ": 4785,
      "hode Island": 4786,
      "vivo.\n": 4787,
      "AS": 4788,
      "mierda ": 4789,
      "¿En serio?\n": 4790,
      "cielo.\n": 4791,
      "unidad ": 4792,
      "embr": 4793,
      "oblig": 4794,
      "amos la ": 4795,
      "et ": 4796,
      "manera de ": 4797,
      "tiene una ": 4798,
      "Regres": 4799,
      "resist": 4800,
      "Fuer": 4801,
      "merec": 4802,
      "enfermer": 4803,
      "Raines.\n": 4804,
      "David ": 4805,
      "ópter": 4806,
      "Flor": 4807,
      "100 ": 4808,
      "Ven": 4809,
      "afec": 4810,
      "jud": 4811,
      "- Si, ": 4812,
      "aba a ": 4813,
      "o, la ": 4814,
      "o, señor.\n": 4815,
      "confes": 4816,
      "sabes que ": 4817,
      "luc": 4818,
      "tonter": 4819,
      "bueno ": 4820,
      "tiempo que ": 4821,
      "eres la ": 4822,
      "avis": 4823,
      "acaba de ": 4824,
      "Todo lo que ": 4825,
      "romp": 4826,
      "¿Como ": 4827,
      "15": 4828,
      "Cl": 4829,
      "apro": 4830,
      "afuera.\n": 4831,
      "co a ": 4832,
      "gor": 4833,
      "sa": 4834,
      "eras.\n": 4835,
      "No creo que ": 4836,
      "Qued": 4837,
      "dedic": 4838,
      "tari": 4839,
      "ser el ": 4840,
      "Tiene que ": 4841,
      "Sabía que ": 4842,
      "a con el ": 4843,
      "diferente.\n": 4844,
      "EST": 4845,
      "Glo": 4846,
      "IC": 4847,
      "Mart": 4848,
      "afi": 4849,
      "¿cómo ": 4850,
      "áre": 4851,
      "ana ": 4852,
      "- Por ": 4853,
      "oso!\n": 4854,
      "emerg": 4855,
      "ar para ": 4856,
      "por ti.\n": 4857,
      "Y tú ": 4858,
      "edr": 4859,
      "cos?\n": 4860,
      "dinero?\n": 4861,
      "¡Agár": 4862,
      "mira ": 4863,
      "fort": 4864,
      "extraño.\n": 4865,
      "control.\n": 4866,
      "lo sabes.\n": 4867,
      "montón de ": 4868,
      "ropa ": 4869,
      "Eloi": 4870,
      "__": 4871,
      "ó!\n": 4872,
      "y luego ": 4873,
      "abur": 4874,
      "indi": 4875,
      "e, no ": 4876,
      "pusi": 4877,
      "bió ": 4878,
      "horas ": 4879,
      "a que la ": 4880,
      "noche?\n": 4881,
      "chico ": 4882,
      "chicos ": 4883,
      "estuve ": 4884,
      "ucest": 4885,
      "medicin": 4886,
      "segundo.\n": 4887,
      "Esto no ": 4888,
      "completamente ": 4889,
      "Venga, ": 4890,
      "espíri": 4891,
      "Gloucest": 4892,
      "Je": 4893,
      "Ju": 4894,
      "Oh.\n": 4895,
      "wink": 4896,
      "¿Est": 4897,
      "íd": 4898,
      "e una ": 4899,
      "que le ": 4900,
      "- \"": 4901,
      "me dijo que ": 4902,
      "o de su ": 4903,
      "avent": 4904,
      "A mí ": 4905,
      "ahí, ": 4906,
      "ing.\n": 4907,
      "clav": 4908,
      "ise.\n": 4909,
      "esperando ": 4910,
      "Necesitas ": 4911,
      "Bobby.\n": 4912,
      "produc": 4913,
      " del ": 4914,
      ":00 ": 4915,
      "Mañan": 4916,
      "Rhode Island": 4917,
      "Tex": 4918,
      "enf": 4919,
      "- Está ": 4920,
      "cieg": 4921,
      "y le ": 4922,
      "é una ": 4923,
      "cuant": 4924,
      "tuy": 4925,
      "ita ": 4926,
      "o que me ": 4927,
      "- ¿A": 4928,
      "apl": 4929,
      "Gracie L": 4930,
      "ton.\n": 4931,
      "ido de ": 4932,
      "¿Sabes?\n": 4933,
      "11 ": 4934,
      "Pier": 4935,
      "dan ": 4936,
      "roc": 4937,
      "ta, ": 4938,
      "¿Eres ": 4939,
      "ende ": 4940,
      "encar": 4941,
      "aras ": 4942,
      "aliment": 4943,
      "- Car": 4944,
      "ace ": 4945,
      "concurs": 4946,
      "grab": 4947,
      "aqui.\n": 4948,
      "agi": 4949,
      "ago.\n": 4950,
      "00-- ": 4951,
      "a que no ": 4952,
      "mucho tiempo.\n": 4953,
      "ículo.\n": 4954,
      "primera vez ": 4955,
      "difícil.\n": 4956,
      "Buenos días.\n": 4957,
      "Nuestro ": 4958,
      "fin del plaz": 4959,
      " a ": 4960,
      "3.\n": 4961,
      "Cab": 4962,
      "Don.\n": 4963,
      "Mo": 4964,
      "naci": 4965,
      "tech": 4966,
      "tecnolog": 4967,
      "¿Ya ": 4968,
      "era la ": 4969,
      "quej": 4970,
      "esto!\n": 4971,
      "emb": 4972,
      "No tienes ": 4973,
      "ar sus ": 4974,
      "icópter": 4975,
      "le de ": 4976,
      "ado para ": 4977,
      "quise ": 4978,
      "Sil": 4979,
      "ser una ": 4980,
      "oyam": 4981,
      "contig": 4982,
      "motiv": 4983,
      "propia ": 4984,
      "sang": 4985,
      "pesad": 4986,
      "grandes ": 4987,
      "Sadako ": 4988,
      "Estuvo ": 4989,
      "ENT": 4990,
      "Sigue ": 4991,
      "dentist": 4992,
      "Peppin": 4993,
      "eo.\n": 4994,
      "estaremos ": 4995,
      "diste ": 4996,
      "digo que ": 4997,
      "sup": 4998,
      "me ha ": 4999,
      "puesta ": 5000,
      "creer": 5001,
      "caso.\n": 5002,
      "plan ": 5003,
      "as, pero ": 5004,
      "cama.\n": 5005,
      "propósi": 5006,
      "- No te ": 5007,
      "querido ": 5008,
      "entonces, ": 5009,
      "tempor": 5010,
      "dijiste que ": 5011,
      "chocol": 5012,
      "Bullwink": 5013,
      "Agente ": 5014,
      "Hag": 5015,
      "Li": 5016,
      "anill": 5017,
      "o, ho": 5018,
      "me dej": 5019,
      "tenía que ": 5020,
      "a de las ": 5021,
      "antes que ": 5022,
      "fuiste ": 5023,
      "Te voy a ": 5024,
      "ocupar": 5025,
      "escri": 5026,
      "tú y ": 5027,
      "Eso fue ": 5028,
      "idiota.\n": 5029,
      "ortun": 5030,
      "película ": 5031,
      "Cin": 5032,
      "jue": 5033,
      "¡Al": 5034,
      "absol": 5035,
      "vimos ": 5036,
      "ar tu ": 5037,
      "murió ": 5038,
      "veré ": 5039,
      "ter.\n": 5040,
      "plic": 5041,
      "salir.\n": 5042,
      "vida?\n": 5043,
      "herid": 5044,
      "Era un ": 5045,
      "icidi": 5046,
      "aste la ": 5047,
      "¡Aqu": 5048,
      "fantas": 5049,
      "!\"\n": 5050,
      "Dim": 5051,
      "Zha": 5052,
      "hal": 5053,
      "ric": 5054,
      "tap": 5055,
      "¿Tu ": 5056,
      "¿Entonces ": 5057,
      "ados de ": 5058,
      "regr": 5059,
      "me la ": 5060,
      "emos de ": 5061,
      "espect": 5062,
      "tengo una ": 5063,
      "sola ": 5064,
      "hum": 5065,
      "oria.\n": 5066,
      "afortun": 5067,
      "dicho.\n": 5068,
      "falta ": 5069,
      "tío ": 5070,
      "ADN": 5071,
      "cepto ": 5072,
      "Vin": 5073,
      "dame ": 5074,
      "gl": 5075,
      "senci": 5076,
      "e para ": 5077,
      "enr": 5078,
      "es:\n": 5079,
      "lo y ": 5080,
      "cuándo ": 5081,
      "chist": 5082,
      "ir, ": 5083,
      "por una ": 5084,
      "desay": 5085,
      "desapareci": 5086,
      "Pero, ¿": 5087,
      "sabi": 5088,
      "fran": 5089,
      "malet": 5090,
      "aré de ": 5091,
      "han sido ": 5092,
      "Correc": 5093,
      "ard ": 5094,
      "correcto.\n": 5095,
      "George ": 5096,
      "\"\".\n": 5097,
      "Gri": 5098,
      "mant": 5099,
      "mot": 5100,
      "ta?\n": 5101,
      "¡La ": 5102,
      "és, ": 5103,
      "- Sólo ": 5104,
      "entes, ": 5105,
      "onde ": 5106,
      "acá ": 5107,
      "me un ": 5108,
      "constru": 5109,
      "¿Qué le ": 5110,
      "Sis": 5111,
      "arrest": 5112,
      "gracioso.\n": 5113,
      "00:5": 5114,
      "arma.\n": 5115,
      "Mary ": 5116,
      "Deja de ": 5117,
      "¿A qué ": 5118,
      "oportunidad de ": 5119,
      "conozco.\n": 5120,
      "helicópter": 5121,
      "recuerdo ": 5122,
      "mensaj": 5123,
      "Sobre ": 5124,
      "ble ": 5125,
      "jar": 5126,
      "vot": 5127,
      "yo...\n": 5128,
      "íb": 5129,
      "que yo ": 5130,
      "cierto ": 5131,
      "osos ": 5132,
      "refer": 5133,
      "me siento ": 5134,
      "se qued": 5135,
      "ria ": 5136,
      "ta y ": 5137,
      "to al ": 5138,
      "dicen que ": 5139,
      "lleva ": 5140,
      "Mi padre ": 5141,
      "¿No es ": 5142,
      "tanto.\n": 5143,
      "sacer": 5144,
      "anza.\n": 5145,
      "carajo.\n": 5146,
      "Vámonos.\n": 5147,
      "Adelante.\n": 5148,
      "enfrent": 5149,
      "Co": 5150,
      "Hici": 5151,
      "OS ": 5152,
      "e: \"": 5153,
      "eric": 5154,
      "eres el ": 5155,
      "aran ": 5156,
      "qué.\n": 5157,
      "as. ": 5158,
      "asist": 5159,
      "- Está bien.\n": 5160,
      "- Claro.\n": 5161,
      "as no ": 5162,
      "onz": 5163,
      "dieron ": 5164,
      "lo más ": 5165,
      "perman": 5166,
      "hacía ": 5167,
      "ayl": 5168,
      "como la ": 5169,
      "entren": 5170,
      "dices ": 5171,
      "- No es ": 5172,
      "espera.\n": 5173,
      "ver a ": 5174,
      "por favor?\n": 5175,
      "estábamos ": 5176,
      "posibil": 5177,
      "salir de ": 5178,
      "destin": 5179,
      "orgullos": 5180,
      "absolut": 5181,
      "Adi": 5182,
      "Amer": 5183,
      "Ho": 5184,
      "Preg": 5185,
      "es B": 5186,
      "ad de ": 5187,
      "diabl": 5188,
      "impresion": 5189,
      "¿Qué diablos ": 5190,
      "camar": 5191,
      "dijo.\n": 5192,
      "todo lo ": 5193,
      "clim": 5194,
      "estás haciendo ": 5195,
      "razón, ": 5196,
      "inclu": 5197,
      "tendremos ": 5198,
      "electr": 5199,
      "vergüenz": 5200,
      "favorit": 5201,
      "\"D": 5202,
      "evid": 5203,
      "ilu": 5204,
      "pár": 5205,
      "cigar": 5206,
      "ame!\n": 5207,
      "vin ": 5208,
      "permit": 5209,
      "iri": 5210,
      "const": 5211,
      "año.\n": 5212,
      "casa y ": 5213,
      "aria ": 5214,
      "cuando te ": 5215,
      "pensar en ": 5216,
      "ársel": 5217,
      "seguro?\n": 5218,
      "chicas.\n": 5219,
      "ocho ": 5220,
      "dormir.\n": 5221,
      "loco.\n": 5222,
      "hombres.\n": 5223,
      "identific": 5224,
      "dita sea!\n": 5225,
      "Cuidado!\n": 5226,
      "Aer": 5227,
      "LA ": 5228,
      "OM": 5229,
      "Ur": 5230,
      "barr": 5231,
      "eal": 5232,
      "gob": 5233,
      "lec": 5234,
      "pun": 5235,
      "par de ": 5236,
      "tre": 5237,
      "¿Entien": 5238,
      "esquin": 5239,
      "que.\n": 5240,
      "ales, ": 5241,
      "me de ": 5242,
      "desnud": 5243,
      "pastel": 5244,
      "Pero el ": 5245,
      "registr": 5246,
      "pone ": 5247,
      "fue el ": 5248,
      "ble, ": 5249,
      "Pueden ": 5250,
      "solo.\n": 5251,
      "tú no ": 5252,
      "Trá": 5253,
      "llegar a ": 5254,
      "acabo de ": 5255,
      "He estado ": 5256,
      "a vez, ": 5257,
      "rápido ": 5258,
      "oportunidad.\n": 5259,
      "averigu": 5260,
      "músic": 5261,
      "centav": 5262,
      "cárcel": 5263,
      "For": 5264,
      "Thom": 5265,
      "ya!\n": 5266,
      "éx": 5267,
      "quen": 5268,
      "ost": 5269,
      "No voy a ": 5270,
      "partici": 5271,
      "se le ": 5272,
      "o de un ": 5273,
      "emos a ": 5274,
      "os, pero ": 5275,
      "si lo ": 5276,
      "Gran ": 5277,
      "tonto ": 5278,
      "marc": 5279,
      "presión ": 5280,
      "¿Cómo te ": 5281,
      "Toma.\n": 5282,
      "arlos.\n": 5283,
      "Franci": 5284,
      "¡Veng": 5285,
      "tal?\n": 5286,
      "hicimos ": 5287,
      "minuto.\n": 5288,
      "felic": 5289,
      "alguna vez ": 5290,
      "difícil": 5291,
      "ástico.\n": 5292,
      "esta mañan": 5293,
      "Carajo.\n": 5294,
      "' ": 5295,
      "Pe": 5296,
      "Tú": 5297,
      "lent": 5298,
      "ísim": 5299,
      "ani": 5300,
      "go de ": 5301,
      "puta ": 5302,
      "- ¿A ": 5303,
      "Especi": 5304,
      "Te dije que ": 5305,
      "ántas ": 5306,
      "tampoco ": 5307,
      "sola.\n": 5308,
      "¿Quién es?\n": 5309,
      "- Adió": 5310,
      "morir.\n": 5311,
      "edifici": 5312,
      "bonito.\n": 5313,
      "café.\n": 5314,
      "padres ": 5315,
      "Dam": 5316,
      "OK": 5317,
      "Or": 5318,
      "Sí!\n": 5319,
      "Vi ": 5320,
      "aére": 5321,
      "ctim": 5322,
      "a tus ": 5323,
      "ada!\n": 5324,
      "en ese ": 5325,
      "ine": 5326,
      "inf": 5327,
      "accion": 5328,
      "una buena ": 5329,
      "imi": 5330,
      "itch": 5331,
      "miento ": 5332,
      "ado un ": 5333,
      "ahí!\n": 5334,
      "asta la ": 5335,
      "Quiere ": 5336,
      "rible ": 5337,
      "comprom": 5338,
      "¿ Qué ": 5339,
      "Fue un ": 5340,
      "conocido ": 5341,
      "puta!\n": 5342,
      "en serio.\n": 5343,
      "traicion": 5344,
      " está ": 5345,
      "b.\n": 5346,
      "cert": 5347,
      "melo.\n": 5348,
      "¡Está ": 5349,
      "¿Podemos ": 5350,
      "erv": 5351,
      "- Muy bien.\n": 5352,
      "rev": 5353,
      "rech": 5354,
      "ina, ": 5355,
      "te la ": 5356,
      "depar": 5357,
      "acion ": 5358,
      "¿Qué hac": 5359,
      "terr": 5360,
      "hubi": 5361,
      "¿Y si ": 5362,
      "hacia el ": 5363,
      "tener una ": 5364,
      "Por favor!\n": 5365,
      "ocurre?\n": 5366,
      "Aquí está ": 5367,
      "teatr": 5368,
      "viejo.\n": 5369,
      "traser": 5370,
      "hospital.\n": 5371,
      "Nuestra ": 5372,
      "Dice que ": 5373,
      "permitir": 5374,
      "¡Espera!\n": 5375,
      "situación ": 5376,
      "pueblo ": 5377,
      "misteri": 5378,
      "0, ": 5379,
      "Bien ": 5380,
      "Ciel": 5381,
      "Star": 5382,
      "aire ": 5383,
      "gem": 5384,
      "mic": 5385,
      "sa.\n": 5386,
      "vor": 5387,
      "¡W": 5388,
      "¡Dios mío!\n": 5389,
      "¿Eso ": 5390,
      "te y ": 5391,
      "No nos ": 5392,
      "prest": 5393,
      "se acab": 5394,
      "por su ": 5395,
      "al y ": 5396,
      "ón\n": 5397,
      "quieres que ": 5398,
      "toda ": 5399,
      "azul": 5400,
      "¿Cómo?\n": 5401,
      "De hecho, ": 5402,
      "dejaré ": 5403,
      "trabajo?\n": 5404,
      "fresc": 5405,
      "sientes ": 5406,
      "cabr": 5407,
      "¡Ay, ": 5408,
      "adores ": 5409,
      "arme de ": 5410,
      "cosas que ": 5411,
      "captur": 5412,
      "Hey!\n": 5413,
      "explot": 5414,
      "liber": 5415,
      "coche.\n": 5416,
      "ADN ": 5417,
      "número ": 5418,
      "Mamá Gran": 5419,
      "fracas": 5420,
      "AS ": 5421,
      "Eli": 5422,
      "Rom": 5423,
      "gent": 5424,
      "luego, ": 5425,
      "venci": 5426,
      "yendo ": 5427,
      "cum": 5428,
      "una de ": 5429,
      "al fin": 5430,
      "ida, ": 5431,
      "imin": 5432,
      "años de ": 5433,
      "pasó?\n": 5434,
      "pidió ": 5435,
      "No, no.\n": 5436,
      "es de los ": 5437,
      "espej": 5438,
      "querías ": 5439,
      "Unidad ": 5440,
      "problema ": 5441,
      "menos.\n": 5442,
      "tanta ": 5443,
      "¿Quién es ": 5444,
      "Lo siento ": 5445,
      "forni": 5446,
      "diferenci": 5447,
      "sexu": 5448,
      "para el fin del plaz": 5449,
      "baño.\n": 5450,
      "ábamos ": 5451,
      "tripul": 5452,
      "Dicen que ": 5453,
      "Jake.\n": 5454,
      "-Me ": 5455,
      "Os ": 5456,
      "fri": 5457,
      "igo ": 5458,
      "me?\n": 5459,
      "va?\n": 5460,
      "os a ": 5461,
      "copi": 5462,
      "no la ": 5463,
      "er un ": 5464,
      "ezco ": 5465,
      "quién?\n": 5466,
      "escapar": 5467,
      "tengo!\n": 5468,
      "segunda ": 5469,
      "positiv": 5470,
      "compañer": 5471,
      "mayor ": 5472,
      "detall": 5473,
      "últimos ": 5474,
      "prometo.\n": 5475,
      "imbécil": 5476,
      "lengu": 5477,
      "pertenec": 5478,
      "18": 5479,
      "Cáll": 5480,
      "Han ": 5481,
      "Navi": 5482,
      "a,": 5483,
      "sant": 5484,
      "t, ": 5485,
      "¡Un ": 5486,
      "oro.\n": 5487,
      "esta.\n": 5488,
      "os... y ": 5489,
      "te am": 5490,
      "No tiene ": 5491,
      "igles": 5492,
      "Yo estoy ": 5493,
      "trabajando ": 5494,
      "trabajar.\n": 5495,
      "hacer un ": 5496,
      "Tienes un ": 5497,
      "buenos ": 5498,
      "matar a ": 5499,
      "aquí y ": 5500,
      "gracias, ": 5501,
      "seguridad.\n": 5502,
      "vale?\n": 5503,
      "Quiero decir, ": 5504,
      "perro ": 5505,
      "debe ser ": 5506,
      "Donde ": 5507,
      "cerca.\n": 5508,
      "dijiste?\n": 5509,
      "calma.\n": 5510,
      "nunca.\n": 5511,
      "Cher": 5512,
      "Ojalá ": 5513,
      "Toyam": 5514,
      "by ": 5515,
      "voy.\n": 5516,
      "¡Mir": 5517,
      "s y ": 5518,
      "asc": 5519,
      "lo dej": 5520,
      "che": 5521,
      "deñ": 5522,
      "irán ": 5523,
      "riz": 5524,
      "pudo ": 5525,
      "ez.\n": 5526,
      "debaj": 5527,
      "dicen ": 5528,
      "quedarme ": 5529,
      "todos mod": 5530,
      "Nos v": 5531,
      "Nada más ": 5532,
      "¿Sabe ": 5533,
      "ard.\n": 5534,
      "Ustedes ": 5535,
      "muchacho.\n": 5536,
      "naveg": 5537,
      "comida ": 5538,
      "Jinx.\n": 5539,
      "doctor ": 5540,
      "marido ": 5541,
      "TV.\n": 5542,
      "Jones": 5543,
      "xili": 5544,
      "Max": 5545,
      "Y?\n": 5546,
      "dar un ": 5547,
      "hall": 5548,
      "ha vuel": 5549,
      "kis": 5550,
      "las.\n": 5551,
      "¡E": 5552,
      "all ": 5553,
      "o, que ": 5554,
      "irte ": 5555,
      "ante!\n": 5556,
      "observ": 5557,
      "Y la ": 5558,
      "et.\n": 5559,
      "prefer": 5560,
      "a a tu ": 5561,
      "que no te ": 5562,
      "Que te ": 5563,
      "aste a ": 5564,
      "estar en ": 5565,
      "polici": 5566,
      "sacri": 5567,
      "pendi": 5568,
      "Déjal": 5569,
      "decír": 5570,
      "víctim": 5571,
      "Papá, ": 5572,
      "estuviera ": 5573,
      "nariz": 5574,
      "Gold": 5575,
      "11:": 5576,
      "banc": 5577,
      "uti": 5578,
      "oría ": 5579,
      "admir": 5580,
      "- Le ": 5581,
      "con ese ": 5582,
      "sea, ": 5583,
      "ete, ": 5584,
      "pasó.\n": 5585,
      "Si me ": 5586,
      "éntam": 5587,
      "hacerte ": 5588,
      "aquí para ": 5589,
      "Espera un ": 5590,
      "pregunto ": 5591,
      "chico.\n": 5592,
      "vuelto ": 5593,
      "oyes?\n": 5594,
      "persona ": 5595,
      "a con la ": 5596,
      "duer": 5597,
      "igual.\n": 5598,
      "necesari": 5599,
      "No te preocupes, ": 5600,
      "Kevin ": 5601,
      "Eloise.\n": 5602,
      "Bugs": 5603,
      "joven ": 5604,
      "11": 5605,
      "20-- 00:": 5606,
      "Gal.\n": 5607,
      "Van ": 5608,
      "ible.\n": 5609,
      "¿no?\n": 5610,
      "tramp": 5611,
      "atori": 5612,
      "para mí.\n": 5613,
      "grati": 5614,
      "las cosas.\n": 5615,
      "saber": 5616,
      "pasa.\n": 5617,
      "mano ": 5618,
      "nada?\n": 5619,
      "a mí, ": 5620,
      "Ya no ": 5621,
      "a y la ": 5622,
      "ilot": 5623,
      "vete ": 5624,
      "¿Te gust": 5625,
      "adivin": 5626,
      "román": 5627,
      "momento, ": 5628,
      "Quisi": 5629,
      "lesbi": 5630,
      "FBI.\n": 5631,
      "aeropuert": 5632,
      "-Gracias.\n": 5633,
      "Ob": 5634,
      "RE": 5635,
      "doy ": 5636,
      "pob": 5637,
      "vas": 5638,
      "yn ": 5639,
      "era, ": 5640,
      "esa.\n": 5641,
      "co...\n": 5642,
      "un po": 5643,
      "pero... ": 5644,
      "por qué?\n": 5645,
      "bienven": 5646,
      "Esfing": 5647,
      "podamos ": 5648,
      "Tienes una ": 5649,
      "demás ": 5650,
      "semanas.\n": 5651,
      "minutos ": 5652,
      "Me gusta ": 5653,
      "dentro.\n": 5654,
      "cariño, ": 5655,
      "perfecto.\n": 5656,
      "Imag": 5657,
      "jefe.\n": 5658,
      "inmediat": 5659,
      "Polic": 5660,
      "'c": 5661,
      "-El ": 5662,
      "derr": 5663,
      "fre": 5664,
      "o...": 5665,
      "¡Mi ": 5666,
      "¡Des": 5667,
      "óbat": 5668,
      "elimin": 5669,
      "adem": 5670,
      "habías ": 5671,
      "Esp": 5672,
      "tienes?\n": 5673,
      "Si!\n": 5674,
      "espier": 5675,
      "dije.\n": 5676,
      "atrav": 5677,
      "quedar ": 5678,
      "Quieres ": 5679,
      "vuelve ": 5680,
      "barco ": 5681,
      "mund": 5682,
      "ningsi": 5683,
      "a, ¿verdad?\n": 5684,
      "señora.\n": 5685,
      "sueño.\n": 5686,
      "Perdón": 5687,
      "Hank ": 5688,
      "-La ": 5689,
      "E.": 5690,
      "e. ": 5691,
      "jó": 5692,
      "la!\n": 5693,
      "quien": 5694,
      "as se ": 5695,
      "empl": 5696,
      "cuesti": 5697,
      "un día ": 5698,
      "acti": 5699,
      "sus": 5700,
      "tuyo.\n": 5701,
      "con nosotr": 5702,
      "fugi": 5703,
      "tienes un ": 5704,
      "muy bien ": 5705,
      "niv": 5706,
      "error ": 5707,
      "amigo?\n": 5708,
      "virti": 5709,
      "- Ay, ": 5710,
      "demasiado.\n": 5711,
      "prision": 5712,
      "¿Vas a ": 5713,
      "Tus ": 5714,
      " S": 5715,
      " Gib": 5716,
      ".000 ": 5717,
      "EN ": 5718,
      "Suen": 5719,
      "Tim": 5720,
      "e a la ": 5721,
      "organ": 5722,
      "una mujer ": 5723,
      "- ¿En serio?\n": 5724,
      "fue.\n": 5725,
      "eza ": 5726,
      "ejerci": 5727,
      "saben ": 5728,
      "crec": 5729,
      "es, pero ": 5730,
      "serás ": 5731,
      "decirme ": 5732,
      "clon.\n": 5733,
      "soport": 5734,
      "Uno, ": 5735,
      "queda ": 5736,
      "hijo ": 5737,
      "pelo.\n": 5738,
      "ártel": 5739,
      "Incluso ": 5740,
      "Todos los ": 5741,
      "renunci": 5742,
      "Tuv": 5743,
      "Dr. We": 5744,
      "profesion": 5745,
      "hambre.\n": 5746,
      "eal'c": 5747,
      "Ad": 5748,
      "Gre": 5749,
      "Igu": 5750,
      "Kr": 5751,
      "Mierda.\n": 5752,
      "Oh": 5753,
      "pend": 5754,
      "te, ": 5755,
      "údam": 5756,
      "a es una ": 5757,
      "americ": 5758,
      "os\".\n": 5759,
      "diez ": 5760,
      "tub": 5761,
      "veras?\n": 5762,
      "ó con ": 5763,
      "a mir": 5764,
      "estrell": 5765,
      "án!\n": 5766,
      "Ya me ": 5767,
      "sobr": 5768,
      "Debbi": 5769,
      "Tres ": 5770,
      "Eso es.\n": 5771,
      "robo de ": 5772,
      "00:0": 5773,
      "hicieron ": 5774,
      "adió": 5775,
      "lament": 5776,
      "suficiente.\n": 5777,
      "remot": 5778,
      "mi hermano.\n": 5779,
      "noticias.\n": 5780,
      "pantalones ": 5781,
      "disfrut": 5782,
      "artist": 5783,
      "enemig": 5784,
      "\"El ": 5785,
      "Dur": 5786,
      "Dick": 5787,
      "Pho": 5788,
      "Sac": 5789,
      "mar ": 5790,
      "r.\n": 5791,
      "rog": 5792,
      "¡Hola!\n": 5793,
      "a B": 5794,
      "ar...\n": 5795,
      "ordeñ": 5796,
      "es esto?\n": 5797,
      "cola ": 5798,
      "asi ": 5799,
      "suerte ": 5800,
      "converti": 5801,
      "por lo que ": 5802,
      "por eso ": 5803,
      "tenías que ": 5804,
      "amos al ": 5805,
      "lisi": 5806,
      "paso ": 5807,
      "lo que yo ": 5808,
      "dado.\n": 5809,
      "nada más ": 5810,
      "idades ": 5811,
      "dejar de ": 5812,
      "fren": 5813,
      "haré.\n": 5814,
      "ocidad ": 5815,
      "Conoc": 5816,
      "muerto ": 5817,
      "encuentras ": 5818,
      "De acuerdo, ": 5819,
      "Freddi": 5820,
      "Cam": 5821,
      "Larr": 5822,
      "Us": 5823,
      "Yo, ": 5824,
      "a.\"\n": 5825,
      "ces": 5826,
      "hur": 5827,
      "ral": 5828,
      "selo.\n": 5829,
      "uj": 5830,
      "va.\n": 5831,
      "ése ": 5832,
      "ío.\n": 5833,
      "de una ": 5834,
      "alf": 5835,
      "- Creo que ": 5836,
      "- ¿Que ": 5837,
      "as en el ": 5838,
      "guar": 5839,
      "comer.\n": 5840,
      "pasar.\n": 5841,
      "tiendo ": 5842,
      "poder": 5843,
      "habla.\n": 5844,
      "buena.\n": 5845,
      "estoy bien.\n": 5846,
      "demostr": 5847,
      "pelot": 5848,
      "primero.\n": 5849,
      "papel": 5850,
      "intern": 5851,
      "decep": 5852,
      "convertir": 5853,
      "guerra.\n": 5854,
      "Kip ": 5855,
      "hiciste?\n": 5856,
      "comienz": 5857,
      "2-": 5858,
      "Abr": 5859,
      "Cier": 5860,
      "Sant": 5861,
      "Vas a ": 5862,
      "ey ": 5863,
      "kil": 5864,
      "mente.\n": 5865,
      "ve a ": 5866,
      "Án": 5867,
      "ense ": 5868,
      "archi": 5869,
      "- Los ": 5870,
      "- Gracias, ": 5871,
      "el Sr. ": 5872,
      "dial.\n": 5873,
      "biste ": 5874,
      "hablas?\n": 5875,
      "venen": 5876,
      "llevar": 5877,
      "pensar ": 5878,
      "papel ": 5879,
      "Tenemos un ": 5880,
      "tendrá ": 5881,
      "meses.\n": 5882,
      "pistol": 5883,
      "Olvid": 5884,
      "Ha sido ": 5885,
      "Acabo de ": 5886,
      "Natal": 5887,
      "accidente.\n": 5888,
      "compromis": 5889,
      "Sent": 5890,
      "ego ": 5891,
      "hit": 5892,
      "juego.\n": 5893,
      "mm": 5894,
      "pobre ": 5895,
      "wood": 5896,
      "ello ": 5897,
      "aná": 5898,
      "y tú ": 5899,
      "triste.\n": 5900,
      "No pued": 5901,
      "por los ": 5902,
      "para siempre.\n": 5903,
      "Y me ": 5904,
      "habían ": 5905,
      "ay?\n": 5906,
      "eza.\n": 5907,
      "idades.\n": 5908,
      "ahorr": 5909,
      "eso fue ": 5910,
      "amiento ": 5911,
      "esperanz": 5912,
      "podrá ": 5913,
      "buj": 5914,
      "todas part": 5915,
      "puls": 5916,
      "o, pero no ": 5917,
      "equipo ": 5918,
      "meses ": 5919,
      "Entonces, ¿": 5920,
      "pasa nada.\n": 5921,
      "secreto.\n": 5922,
      "Feliz ": 5923,
      "cumpleaños.\n": 5924,
      "anoche.\n": 5925,
      "¡Aquí ": 5926,
      "cumpl": 5927,
      "Denn": 5928,
      "Habr": 5929,
      "Sar": 5930,
      "a--\n": 5931,
      "vech": 5932,
      "époc": 5933,
      "arnos.\n": 5934,
      ".... ": 5935,
      "lo es.\n": 5936,
      "confun": 5937,
      "conden": 5938,
      "horas, ": 5939,
      "Gracias ": 5940,
      "éndol": 5941,
      "Parí": 5942,
      "favor.\n": 5943,
      "Recib": 5944,
      "vecin": 5945,
      "juntos ": 5946,
      "después de la ": 5947,
      "saber que ": 5948,
      "detectiv": 5949,
      "Adiós, ": 5950,
      "mujeres.\n": 5951,
      "creer que ": 5952,
      "quisiera ": 5953,
      "Detectiv": 5954,
      "Además, ": 5955,
      "Control": 5956,
      "jóven": 5957,
      "Natalie ": 5958,
      "\"M": 5959,
      "Jan": 5960,
      "e... y ": 5961,
      "o\"?\n": 5962,
      "uci": 5963,
      "vo": 5964,
      "¡No, ": 5965,
      "¿Tiene ": 5966,
      "a ti.\n": 5967,
      "arí": 5968,
      "cobr": 5969,
      "or del ": 5970,
      "suelo.\n": 5971,
      "Estaré ": 5972,
      "al de la ": 5973,
      "Y ahora ": 5974,
      "horrible.\n": 5975,
      "apreci": 5976,
      "Digo, ": 5977,
      "largo ": 5978,
      "prefier": 5979,
      "ing ": 5980,
      "llevará ": 5981,
      "son los ": 5982,
      "hija ": 5983,
      "¿Por qué no?\n": 5984,
      "ador?\n": 5985,
      "listo.\n": 5986,
      "secund": 5987,
      "Buff": 5988,
      "respond": 5989,
      "Mira esto.\n": 5990,
      "información ": 5991,
      "cept": 5992,
      "Ayou": 5993,
      "Garret": 5994,
      "bicicl": 5995,
      "\"B": 5996,
      ".A": 5997,
      "500 ": 5998,
      "Henr": 5999
    },
    "merges": [
      "e  ",
      ". \n",
      "o  ",
      "a  ",
      "s  ",
      "e n",
      "e r",
      "e s",
      "a r",
      ",  ",
      "q u",
      "n  ",
      "o r",
      "? \n",
      "o s ",
      "d e ",
      "o .\n",
      "e l",
      "qu e ",
      "a l",
      "a n",
      "e s ",
      "a d",
      "c o",
      "a s",
      "-  ",
      "es t",
      "c i",
      "y  ",
      "a m",
      "a s ",
      "a .\n",
      "o s",
      "! \n",
      "l a ",
      "en t",
      "en  ",
      ". .",
      "a b",
      "r e",
      "s t",
      "el  ",
      "u n",
      "i n",
      "o n",
      "d i",
      "l o ",
      "d o ",
      "é  ",
      "e m",
      "t i",
      "t r",
      "n o ",
      "i  ",
      "o , ",
      "or  ",
      "c u",
      "c h",
      "u n ",
      "t e ",
      "N o ",
      "e .\n",
      "Q u",
      "v i",
      "a c",
      "ar  ",
      "s i",
      "p ar",
      "d e",
      "er  ",
      ".  ",
      "p r",
      "s u",
      "p er",
      "m e ",
      "o l",
      "á  ",
      "o ?\n",
      "u e",
      "i r",
      "un a ",
      "i en",
      "g u",
      "i er",
      "a , ",
      "o m",
      "l l",
      "co n",
      "os .\n",
      "o d",
      "a n ",
      "s e ",
      "a t",
      "í a ",
      "m u",
      "t u",
      "¿ Qu",
      "e c",
      "l os ",
      "E st",
      "a ci",
      "co m",
      "g o ",
      "p or ",
      "co n ",
      "i c",
      "al  ",
      "i d",
      "s e",
      "á s ",
      "t en",
      "as .\n",
      "o y ",
      "l  ",
      "i m",
      ".. .\n",
      ".. . ",
      "i t",
      "í  ",
      "par a ",
      "ó n",
      "a  de ",
      "a ?\n",
      "an t",
      "es .\n",
      "g r",
      "o  de ",
      "o b",
      "o  que ",
      "m i",
      "Y  ",
      "m i ",
      "am os ",
      "o !\n",
      "e , ",
      "v er",
      "h ac",
      "E s ",
      "an do ",
      "l as ",
      "e d",
      "o n ",
      "ó  ",
      "a j",
      "í .\n",
      "o c",
      "l e ",
      "ad o ",
      "ent e ",
      "em os ",
      "r i",
      "p ue",
      "e t",
      "¿Qu é ",
      "p u",
      "d es",
      "h ab",
      "-  ¿",
      "a y",
      "qu é ",
      "a !\n",
      "a qu",
      "su  ",
      "qu ier",
      "f u",
      "tu  ",
      "b i",
      "e z",
      "r e ",
      "h or",
      "a ñ",
      "est á ",
      "b ien",
      "e j",
      "P er",
      "l i",
      "ó n ",
      "d el ",
      "E s",
      "u en",
      "a p",
      "s ab",
      "p as",
      "P or ",
      "M e ",
      "ti en",
      "an d",
      "a v",
      "a  la ",
      "t od",
      "os , ",
      "a g",
      "E l ",
      "qu i",
      "h i",
      "p or",
      "o tr",
      "o t",
      "l e",
      "í , ",
      "lo  que ",
      "m an",
      "T e ",
      "com o ",
      "L o ",
      "D i",
      "er a ",
      "p i",
      "s i ",
      "t a ",
      "a z",
      "m o ",
      "p e",
      "t o ",
      "d ad",
      "n ad",
      "Per o ",
      "l ar",
      "c re",
      "c as",
      "a  m",
      "t er",
      "e x",
      "p re",
      "e ?\n",
      "per o ",
      "a y ",
      "i g",
      "es , ",
      "u r",
      "f i",
      "om b",
      "ir  ",
      "c ar",
      "a  a ",
      "co s",
      "p l",
      "ll e",
      "¿ C",
      "L a ",
      "s al",
      "er t",
      "est r",
      "Y o ",
      "en  el ",
      "S i",
      "o do ",
      "or .\n",
      "á n",
      "es ?\n",
      "ar .\n",
      "mu ch",
      "e  que ",
      "s er",
      "ón .\n",
      "vi d",
      "m ás ",
      "u s",
      "de ci",
      "N o, ",
      "ad o.\n",
      "n o",
      "y o ",
      "n os ",
      "es  que ",
      "p od",
      "en d",
      "e b",
      "G r",
      "i st",
      "ó mo ",
      "B uen",
      "é ?\n",
      "mu y ",
      "n i",
      "en  la ",
      "s .\n",
      "0 0",
      "é n ",
      "S í, ",
      "a  que ",
      "ú  ",
      "ó lo ",
      "al l",
      "c or",
      "as , ",
      "S i ",
      "A  ",
      "al g",
      "c am",
      "em p",
      "t am",
      "a  v",
      "ent r",
      "h , ",
      "bien .\n",
      "id ad",
      "u st",
      "t ar",
      "ec es",
      "T en",
      "al .\n",
      "de b",
      "á n ",
      "es  de ",
      "u d",
      "-  ¡",
      "u t",
      "ab a ",
      "es p",
      "D e ",
      "en s",
      "ab aj",
      "h a ",
      "en ci",
      "est a ",
      "S e ",
      "E n",
      "gu st",
      "di j",
      "i z",
      "é .\n",
      "deci r",
      "el l",
      "E n ",
      "y .\n",
      "eces it",
      "s er ",
      "d o.\n",
      "ll am",
      "se gu",
      "h er",
      "o  es ",
      "u el",
      "e !\n",
      "t odo ",
      "cu er",
      "h ay ",
      "Gr aci",
      "y , ",
      "de  la ",
      "C u",
      "un t",
      "e ch",
      "os !\n",
      "í as ",
      "con tr",
      "ar i",
      "de j",
      "u estr",
      "é n",
      "al go ",
      "Y a ",
      "or m",
      "c a ",
      "l u",
      "re g",
      "cu ando ",
      "hab l",
      "pue d",
      "b r",
      "tr abaj",
      "p on",
      "u  ",
      "H ol",
      "al m",
      "ent e.\n",
      "o cu",
      "a hor",
      "a tr",
      "h omb",
      "l o.\n",
      "a  y ",
      "as ?\n",
      "er r",
      "v en",
      "es c",
      "t an ",
      "es o ",
      "S í.\n",
      "Est á ",
      "s on",
      "er .\n",
      "ver dad",
      "f r",
      "P ar",
      "di c",
      "t on",
      "pue do ",
      "est e ",
      "os  de ",
      "es  un ",
      "fu e ",
      "hac er ",
      "í ?\n",
      "e ñ",
      "ue v",
      "h ar",
      "T ien",
      "se ñ",
      "pr o",
      "os ?\n",
      "o  a ",
      "V am",
      "m in",
      "¿ Por ",
      "a h",
      "b uen",
      "in g",
      "m ej",
      "si ent",
      "M u",
      "f av",
      "ten go ",
      "lle v",
      "í a.\n",
      "que  no ",
      "ci on",
      "por t",
      "U n ",
      "c l",
      "ón de ",
      "-  No ",
      "á .\n",
      "ti emp",
      "o ...\n",
      ".. .",
      ",  ¿",
      "b l",
      "s on ",
      "s ob",
      "as t",
      "no ch",
      "mi s",
      "h e ",
      "n uestr",
      "P ue",
      "y a ",
      "i s",
      "o  y ",
      "m al",
      "est oy ",
      "i l",
      "\" .\n",
      "ar r",
      "E r",
      "tien e ",
      "B ien",
      "o ... ",
      "ez  ",
      "s o",
      "aci ón ",
      "cu l",
      "as  a ",
      "ad a ",
      "am i",
      "qu er",
      "es e ",
      "p oc",
      "S ab",
      "i do ",
      "vi st",
      "p ad",
      "e g",
      "ar t",
      "o \n",
      "v ol",
      "re .\n",
      "U n",
      "0  ",
      "as  de ",
      "ú n ",
      "pr ob",
      "A l",
      "su s ",
      "h u",
      "oy  a ",
      "Buen o, ",
      "á s",
      "d r",
      "an te ",
      "O h, ",
      "aqu í.\n",
      "\" \n",
      "R e",
      "c ab",
      "es per",
      "ust ed",
      "D eb",
      "L os ",
      "- ¿",
      "s ol",
      "s í ",
      "m at",
      "d em",
      "t ú ",
      "C re",
      "gu i",
      "l em",
      "pue de ",
      "a ch",
      "m e",
      "d os ",
      "Est oy ",
      "ar  a ",
      "r u",
      "em pr",
      "Ten go ",
      "n ecesit",
      "u l",
      "s ólo ",
      "ci n",
      "Qu é ",
      "os otr",
      "o g",
      "un ca ",
      "A hor",
      "es a ",
      "N o.\n",
      "hac er",
      "  de ",
      "qu ed",
      "en do ",
      "tod os ",
      "s oy ",
      "ar é ",
      "A n",
      "hi j",
      "est ás ",
      "m on",
      "di s",
      "t o.\n",
      "amos  a ",
      "v er ",
      "par ec",
      "am ig",
      "m ar",
      "pr es",
      "¿Por  qué ",
      "i s ",
      "ti r",
      "a \n",
      "i ll",
      "ti v",
      "aqu í ",
      "es  el ",
      "a ut",
      "ó .\n",
      "n o.\n",
      "T r",
      "sob re ",
      "s ent",
      "é l",
      "¿C ómo ",
      "d a ",
      "g o.\n",
      "in t",
      "M ir",
      "an .\n",
      "S ólo ",
      "as ta ",
      "Es o ",
      "empr e ",
      "i ci",
      "E l",
      "qu é?\n",
      "p el",
      "M i ",
      "S r",
      "¿Qu é?\n",
      "in er",
      "¿ Y ",
      "C om",
      "c er",
      "d on",
      "p ens",
      "tam bi",
      "f er",
      "l es ",
      "e  a ",
      "ad a.\n",
      "s é ",
      "Qu ier",
      "fu er",
      "T ú ",
      "er es ",
      "ni ñ",
      "c an",
      "m os ",
      "Qu e ",
      "si n ",
      "L e ",
      "est o.\n",
      "ay ud",
      "Es per",
      "lle g",
      "a ... ",
      "r ob",
      "re c",
      "t om",
      "hac e ",
      "n uev",
      "o  para ",
      "g an",
      ": \n",
      "es o.\n",
      "el la ",
      "pr im",
      "á r",
      "as te ",
      "p os",
      "or , ",
      "S u",
      "mu j",
      "i e ",
      "ar á ",
      "h as ",
      "i b",
      "r es",
      "pod r",
      "o j",
      "con t",
      "¿Qu i",
      "h aci",
      "cu ch",
      "c a",
      "gui en ",
      "o p",
      "est aba ",
      "n osotr",
      "mej or ",
      "gr aci",
      "m í",
      "segu r",
      "es  una ",
      "her man",
      "é s ",
      "A sí ",
      "e  de ",
      "pre g",
      "a  un ",
      "est ar ",
      "n o?\n",
      "d iner",
      "a te ",
      "ch ic",
      "quier o ",
      "f ic",
      "and o.\n",
      "c al",
      "en .\n",
      "ent o ",
      "v uel",
      "Est ás ",
      "v e",
      "¿ No ",
      "est o ",
      "\"  ",
      "a  en ",
      "ar ía ",
      "tu r",
      "por que ",
      "¡ A",
      "é l ",
      "ad or",
      "est án ",
      "F u",
      "á s.\n",
      "st e ",
      "T u ",
      "00 :",
      "a ...\n",
      "-  ¿Qué ",
      "H ay ",
      "or i",
      "prob lem",
      "ton c",
      "En tonc",
      "ar m",
      "o,  ¿",
      "p ap",
      "- - ",
      "S oy ",
      "v a a ",
      "est u",
      "e p",
      "h ech",
      "m ir",
      "id o.\n",
      "T om",
      "o ci",
      "C on",
      "Graci as.\n",
      "v oy a ",
      "P or",
      "di r",
      "ar on ",
      "as i",
      "in ter",
      "nad a.\n",
      "mi s ",
      "v e ",
      "T od",
      "a  el ",
      "pued es ",
      "am e ",
      "fi ci",
      "m ad",
      "im port",
      "s é.\n",
      "tr at",
      "cuer d",
      "Cre o que ",
      "ri b",
      "o y",
      "¿ D",
      "en contr",
      "ar l",
      "Mu y ",
      "c ant",
      "mis m",
      "o  en ",
      "t ú",
      "d er",
      "No  me ",
      "ten er ",
      "f orm",
      "ti m",
      "n i ",
      "no  es ",
      "per son",
      "Di os ",
      "a vi",
      "m en",
      "u g",
      "ab r",
      "u c",
      "g ente ",
      "ab l",
      "Cu ando ",
      "d a.\n",
      "p ol",
      "El la ",
      "co l",
      "er ía ",
      "b us",
      "N os ",
      "aci on",
      "c ómo ",
      "é r",
      "P od",
      "ar te ",
      "- \n",
      "d í",
      "t a.\n",
      "h asta ",
      "alm ente ",
      "bien , ",
      "ac ab",
      "ar  de ",
      "ent o.\n",
      "or d",
      "¿Qu ier",
      "no  lo ",
      "com pr",
      "t ant",
      "c o ",
      "Ahor a ",
      "es o?\n",
      "F r",
      "ía  que ",
      "o z",
      "D es",
      "ar me ",
      "no  me ",
      "al guien ",
      "m er",
      "t el",
      "am ente ",
      "a k",
      "Hol a, ",
      "h o",
      "I n",
      "ant e.\n",
      "cos as ",
      "os o.\n",
      "m om",
      "h an ",
      "¿Qui én ",
      "qu e",
      "es  la ",
      "b ar",
      "m un",
      "Es  un ",
      "No  lo ",
      "f in",
      "¡ M",
      "No  te ",
      "ci ón ",
      "A qu",
      "decir  ",
      "a  los ",
      "cam bi",
      "í amos ",
      "lu g",
      "a gu",
      "ón , ",
      "much o ",
      "tu s ",
      "en  un ",
      "con oc",
      "  y ",
      "di g",
      "g en",
      "í !\n",
      "homb re ",
      "d ónde ",
      "vi r",
      "ser i",
      "b aj",
      "n ic",
      "as !\n",
      "v ez ",
      "ten emos ",
      ", \n",
      "as í ",
      "mu ert",
      "N ecesit",
      "Sr . ",
      "í an ",
      "a  con ",
      "me di",
      "l o",
      "Lo  sient",
      "L as ",
      "f un",
      "¿C u",
      "C lar",
      "Un a ",
      "a u",
      "bi en ",
      "n o, ",
      "ú l",
      "añ an",
      "poc o ",
      "a i",
      "h ag",
      "r esp",
      "o di",
      "aci ón.\n",
      "v al",
      "ent e, ",
      "n e",
      "c r",
      "ti .\n",
      "verdad ?\n",
      "Vam os, ",
      "n ing",
      "s em",
      "n omb",
      "si do ",
      "v in",
      "n unca ",
      "gr an ",
      "ocu p",
      "ami li",
      "-  A",
      "ahor a ",
      "am os.\n",
      "f ec",
      "qu eñ",
      "os  y ",
      "on .\n",
      "é  que ",
      "ti p",
      "Por  fav",
      "qui én ",
      "O  ",
      "ar emos ",
      "ir .\n",
      "ien s",
      "f amili",
      "cul p",
      "a  mi ",
      "Com o ",
      "d ur",
      "¡ S",
      "idad  ",
      "ar  el ",
      "otr o ",
      "pe queñ",
      "C h",
      "un os ",
      "si g",
      "b u",
      "quier es ",
      "s ac",
      "5  ",
      "a . ",
      "e qui",
      "1  ",
      "er on ",
      "bien ?\n",
      "Qu iz",
      "ent ien",
      "m or",
      "¡ V",
      "des pu",
      "preg unt",
      "Quier o ",
      "b ol",
      "M ar",
      "C ar",
      "é , ",
      "no  te ",
      "ad os ",
      "ue go ",
      "Est a ",
      "T odo ",
      "ten g",
      "- -\n",
      "ti c",
      "O y",
      "li st",
      "con mi",
      "¿ Te ",
      "por  fav",
      "Par a ",
      "t al",
      "é j",
      "Por que ",
      "N ad",
      "a  del ",
      "si empre ",
      "i de",
      "án d",
      "cas a.\n",
      "ocu r",
      "No  es ",
      "v o ",
      "p en",
      "es !\n",
      "a  para ",
      "u m",
      "d es ",
      "e gu",
      "ar  un ",
      "a par",
      "cre o que ",
      "Bien , ",
      "¿ Sab",
      "en  que ",
      "ac k",
      "ter min",
      "Aqu í ",
      "e ci",
      "U d",
      "a,  ¿",
      "m os",
      "S eñ",
      "P u",
      "hab ía ",
      "es cuch",
      "s í.\n",
      "-  Sí.\n",
      "con  el ",
      "cu ent",
      "S u ",
      "usted  ",
      "a gr",
      "ar  la ",
      "por  la ",
      "que  me ",
      "c el",
      "ar ?\n",
      "a de  la ",
      "p ag",
      "tr a",
      "no  se ",
      "Es o es ",
      "hi z",
      "Pue do ",
      "r az",
      "se g",
      "don de ",
      "tien es ",
      "s , ",
      "on c",
      "aqu í?\n",
      "a  una ",
      "por  qué ",
      "É l ",
      "H e ",
      "on i",
      "por  el ",
      "pre ocup",
      "p al",
      "Hol a.\n",
      "est o?\n",
      "P r",
      "sem an",
      "Si , ",
      "el o.\n",
      "hi ci",
      "j unt",
      "í r",
      "y o.\n",
      "re ci",
      "tod as ",
      "M i",
      "c lar",
      "tambi én ",
      "cu r",
      "N unca ",
      "a f",
      "C or",
      "t or",
      "él .\n",
      "ch i",
      "S on ",
      "de  que ",
      "en cant",
      "otr a ",
      "mu er",
      "o h",
      "as  y ",
      "p ier",
      "cam in",
      "¡ No ",
      "bus c",
      "l .\n",
      "M al",
      "t e",
      "añ os ",
      "pad re ",
      "le g",
      "N o!\n",
      "gr an",
      "con ti",
      "i on",
      "a  tu ",
      "bl e.\n",
      "d e.\n",
      "le v",
      "-  No, ",
      "hab er ",
      "sal v",
      "Es  una ",
      "b ier",
      "t e.\n",
      "m ent",
      "egu r",
      "est as ",
      "est ado ",
      "an c",
      "¿  ",
      "p iens",
      "s in",
      "Ten emos ",
      "C on ",
      "v as a ",
      "lo  de ",
      "Di s",
      "o de  la ",
      "l ad",
      "ent onc",
      "al i",
      "nuestr a ",
      "J ack",
      ":  ",
      "ien do ",
      "vid a.\n",
      "ú nic",
      "er , ",
      "at e.\n",
      "m p",
      "pe ci",
      "G reg",
      "en  una ",
      "per r",
      "...  y ",
      "vid a ",
      "Tien e ",
      "-  Sí, ",
      "D r",
      "ón ?\n",
      "tambi én",
      "v ez",
      "a  su ",
      "en di",
      "ten dr",
      "ar , ",
      "con  la ",
      "quier e ",
      "vi ej",
      "2  ",
      "y !\n",
      "que  te ",
      "vi si",
      "Bien .\n",
      "est amos ",
      "Si empre ",
      "ar d",
      "or  de ",
      "st ed",
      "ci ón.\n",
      "U sted",
      "habl ar ",
      "o . ",
      "d ía ",
      "en g",
      "- ¡",
      "¿ De ",
      "ad i",
      "h ay",
      "¿D ónde ",
      "gr es",
      "Entonc es ",
      "t em",
      "an z",
      "an , ",
      "idad .\n",
      "so lo ",
      "seg un",
      "cab ez",
      "r el",
      "que  se ",
      "an k",
      "an ci",
      "em os.\n",
      "pod emos ",
      "C ómo ",
      "Fu e ",
      "a v ez",
      "an  a ",
      "tod o.\n",
      "un as ",
      "m añan",
      "dem asi",
      "¿ H",
      "ci ert",
      "m o",
      "est ab",
      "a v ez ",
      "y ?\n",
      "ad o?\n",
      "p añ",
      "en , ",
      "Pue des ",
      "int ent",
      "ah í ",
      "Oy e, ",
      "per di",
      "ás ?\n",
      "p id",
      "ad os.\n",
      "I  ",
      "señ or",
      "o f",
      "ant es de ",
      "d el",
      "h  ",
      "Est o ",
      "al  de ",
      "tr an",
      "pu l",
      "ón  de ",
      "ó m",
      "No  puedo ",
      "c ap",
      "Est e ",
      "ist e ",
      "alg o.\n",
      "min ut",
      "Par ec",
      "nad ie ",
      "am or",
      "añ os.\n",
      "s ec",
      "pu est",
      "f el",
      "a cuer",
      "s e.\n",
      "er a.\n",
      "nuestr o ",
      "o  con ",
      "o,  pero ",
      "es  y ",
      "¿Quier es ",
      "bu en ",
      "4  ",
      "D e",
      "H e",
      "m am",
      "r á",
      "f í",
      "No  hay ",
      "om e",
      "0 -- ",
      "ten ía ",
      "Est o es ",
      "f l",
      "ue g",
      "o  del ",
      "vi v",
      "-  Es ",
      "cor az",
      "entr as ",
      "e di",
      "vi en",
      "much ach",
      "E x",
      "tiemp o.\n",
      "Pod r",
      "ó  a ",
      "v ec",
      "podr ía ",
      "Tod os ",
      "f ier",
      "señ or.\n",
      "C har",
      "d am",
      "ó ?\n",
      "ier d",
      "di ch",
      "f or",
      "pas a?\n",
      "D éj",
      "b eb",
      "pr i",
      "Er es ",
      "d u",
      "o ch",
      "ent re ",
      "ed ad",
      "¿ V",
      "d ar",
      "f al",
      "est á",
      "ex tr",
      "cu id",
      "te  de ",
      "l í",
      "¿ S",
      "No  se ",
      "v ent",
      "a  es ",
      "dij o que ",
      "z z",
      "parec e ",
      "es peci",
      "¿ Me ",
      "H ac",
      "despu és ",
      "B ob",
      "t al ",
      "si gu",
      "vist o ",
      "al qui",
      "tr es ",
      "Vam os.\n",
      "e f",
      "l am",
      "p o",
      "al , ",
      "co st",
      "di rec",
      "as  que ",
      "re , ",
      "d orm",
      "l oc",
      "re ?\n",
      "Tengo  que ",
      "es ...\n",
      "Tien es ",
      "ir  a ",
      "todo  el ",
      "ir m",
      "00  ",
      "e ...\n",
      "trabaj o.\n",
      "t í",
      "u dad",
      "en  los ",
      "o v",
      "a ti",
      "h .\n",
      "de c",
      "mal di",
      "i a ",
      "deb er",
      "qui en ",
      "C ap",
      "homb r",
      "N i ",
      "p in",
      "¿ Estás ",
      "g at",
      "¿Qu e ",
      "pl an",
      "deb e ",
      "a  las ",
      "ar rib",
      "-  S",
      "pol ic",
      "v ay",
      "á l ",
      "en  mi ",
      "go  que ",
      "er o ",
      "m et",
      "ell a.\n",
      "pro pi",
      "a cuerd",
      "d os.\n",
      "ad o, ",
      "e \n",
      "m í.\n",
      "v amos a ",
      "est os ",
      "am bi",
      "D ej",
      "V amos a ",
      "ás , ",
      "as í.\n",
      "-  No.\n",
      "úl tim",
      "¿ A",
      "L e",
      "im os ",
      "des de ",
      "fu era ",
      "Vam os!\n",
      "re mos ",
      "oc k",
      "com pl",
      "Mu ch",
      "d  ",
      "os a.\n",
      "di ó",
      "é st",
      "Dios  mí",
      "am b",
      "buen a ",
      "r en",
      "re al",
      "E  ",
      "car g",
      "-  ¿Qué?\n",
      "sab er ",
      "b or",
      "j ug",
      "co g",
      "muj er ",
      "i .\n",
      "hab lar",
      "li br",
      "alg una ",
      "H ab",
      "ni fic",
      "i p",
      "ar lo.\n",
      "Graci as, ",
      "es as ",
      "ol vid",
      "agr ad",
      "en cu",
      "o  la ",
      "en  su ",
      "pu ert",
      "men os ",
      "equi p",
      "fun cion",
      "qui z",
      "el los ",
      "v í",
      "pe ch",
      "ex pl",
      "p it",
      "Yo  no ",
      "c ad",
      "on es ",
      "p at",
      "con  un ",
      "1 :",
      "s an",
      "P ap",
      "Está  bien.\n",
      "0--  00:",
      "el .\n",
      "i gu",
      "x im",
      "con oci",
      "haci endo ",
      "e te ",
      "un to ",
      "su b",
      "ver ti",
      "a m ás ",
      "cl as",
      "vi vir",
      "Di j",
      "ó  la ",
      "ser á ",
      "án to ",
      "noch e.\n",
      "hech o ",
      "r om",
      "Me  gust",
      "cos as.\n",
      "Quiz á ",
      "á , ",
      "ci udad",
      "mis mo ",
      "Si .\n",
      "o w",
      "V oy a ",
      "un i",
      "e,  ¿",
      "extr añ",
      "ar se ",
      "al es ",
      "ad o de ",
      "e  y ",
      "tiemp o ",
      "in d",
      "co , ",
      "as  por ",
      "diner o.\n",
      "h on",
      "Así  que ",
      "Usted  ",
      "i ñ",
      "m ás.\n",
      "qu it",
      "an ti",
      "Est amos ",
      "d entr",
      "e  la ",
      "de  los ",
      "h a",
      "hi st",
      "eb r",
      "D on",
      "h ic",
      "nad a ",
      "A l ",
      "pos i",
      "much as ",
      "or g",
      "si quier",
      "su c",
      ". \"\n",
      "S o",
      "en fer",
      "re gres",
      "hab r",
      "h ?\n",
      "n eg",
      "com pañ",
      "Muy  bien.\n",
      "mun do ",
      "lug ar ",
      "L o que ",
      "es os ",
      "V al",
      "un o ",
      "sab es ",
      "graci as.\n",
      "á mon",
      "con segu",
      "di st",
      "em ente ",
      "nomb re ",
      "ac er",
      "os ... ",
      "om os ",
      "sig nific",
      "acuer do.\n",
      "t os ",
      "Buen as ",
      "pal abr",
      "n av",
      "aqu í, ",
      "e gr",
      "M am",
      "er n",
      "es in",
      "ó  el ",
      "Es cuch",
      "también .\n",
      "Char li",
      "como  un ",
      "ert e.\n",
      "demasi ado ",
      "er ?\n",
      "verdad .\n",
      "noch e ",
      "B ill",
      "es ... ",
      "cu el",
      "es  mi ",
      "pr end",
      "i ent",
      "se a ",
      "t as ",
      "no vi",
      "d en",
      "and o?\n",
      "nosotr os ",
      "quer ía ",
      "gen i",
      "a,  pero ",
      "li b",
      "B u",
      "os \n",
      "v a ",
      "ti ci",
      "e  el ",
      "art e.\n",
      "c o.\n",
      "t o, ",
      "pued en ",
      "m es",
      "v est",
      "alg ún ",
      "todos  los ",
      "Lo sient o.\n",
      "f on",
      "er te ",
      "T u",
      "pr on",
      "su fici",
      "b as",
      "qu in",
      "ic o.\n",
      "ar !\n",
      "ar lo ",
      "al es.\n",
      "reg al",
      "An d",
      "E se ",
      "re m",
      "tar de.\n",
      "abl e.\n",
      "b on",
      "s os",
      "3  ",
      "o  el ",
      "í cu",
      "tien en ",
      "co ch",
      "pre ci",
      "cor t",
      "ar ás ",
      "ue b",
      "nosotr os.\n",
      "mom ent",
      "tengo  que ",
      "di ci",
      "per d",
      "ahor a.\n",
      "\" ?\n",
      "A r",
      "m ay",
      "o í",
      "Ud . ",
      "G en",
      "un o de ",
      "di fer",
      "No  sé ",
      "pres ent",
      "mism o.\n",
      "h emos ",
      "hac es ",
      "ay .\n",
      "á l",
      "homb re.\n",
      "Entonc es, ",
      "a cu",
      "f á",
      "am ente.\n",
      "pas a ",
      "e ... ",
      "g i",
      "que  la ",
      "s or",
      "b ast",
      "no  hay ",
      "con si",
      "car iñ",
      "emp ez",
      "v oc",
      "z  ",
      "hist ori",
      "re almente ",
      "sient o ",
      "A y, ",
      "tr aj",
      "a in",
      "En  seri",
      "cl on",
      "ec t",
      "hu man",
      "hu bier",
      "av ía ",
      "o per",
      "t oc",
      "est i",
      "la  de ",
      "se x",
      "Dr . ",
      "p unt",
      "un c",
      "O k",
      "ent es ",
      "Est aba ",
      "m a.\n",
      "sal ir ",
      "d o?\n",
      "j u",
      "as esin",
      "é  a ",
      "end r",
      "alqui er ",
      "P et",
      "c err",
      "contr ol",
      "co ?\n",
      "ti  ",
      "si  no ",
      "l uego ",
      "er i",
      "6  ",
      "B r",
      "enci a.\n",
      "lo  sab",
      "i di",
      "é s",
      "ar  una ",
      "de ?\n",
      "ic k",
      "ar reg",
      "g ar",
      "ón !\n",
      "cos .\n",
      "án .\n",
      "todo  lo que ",
      "m od",
      "Necesit o ",
      "fel iz",
      "¡ C",
      "f es",
      "m á",
      "su pon",
      "im por",
      "prim era ",
      "mad re ",
      "avi ll",
      "para  el ",
      "des e",
      "¿Sab es ",
      "en señ",
      "-  Lo ",
      "in ci",
      "r est",
      "er o.\n",
      "er as ",
      "os ...\n",
      "a,  y ",
      "A D",
      "Buenas  noch",
      "¡ H",
      "im ag",
      "p es",
      "¡ P",
      "ci l ",
      "an ?\n",
      "ad o!\n",
      "- ¿Qué ",
      "or es ",
      "¿C re",
      "vol ver",
      "a  por ",
      "az  ",
      "resp on",
      "-  !\n",
      "gr and",
      "Pero  no ",
      "Por fav or, ",
      "b añ",
      "m as ",
      "o,  y ",
      "b at",
      "e  un ",
      "er á ",
      "por fav or.\n",
      "I zz",
      "si ón ",
      "f ot",
      "o  por ",
      "di fí",
      "Nad ie ",
      "en  las ",
      "tod a la ",
      "N  ",
      "ant es.\n",
      "hac er.\n",
      "otr a vez",
      "tam ente ",
      "o  no ",
      "esp os",
      "ha  sido ",
      "d ó",
      "sab e ",
      "¡ Vamos!\n",
      "ant o ",
      "i j",
      "aqu í!\n",
      "su eñ",
      "m it",
      "ar  en ",
      "sec re",
      "amig o.\n",
      "de t",
      "ll av",
      "et a.\n",
      "i gr",
      "a  al ",
      "est á.\n",
      "com id",
      "Señ or",
      "g o, ",
      "-  V",
      "g ol",
      "er g",
      "id os ",
      "pr ueb",
      "Por  qué ",
      "ier da.\n",
      "der ech",
      "r at",
      "em pre",
      "bon it",
      "¡ D",
      "¿ A ",
      "pr ot",
      "1 9",
      "c ri",
      "d ol",
      "A h, ",
      "b o",
      "port un",
      "m ol",
      "m í ",
      "v am",
      "di o ",
      "ten ido ",
      "pu t",
      "l a.\n",
      "un  poco ",
      "pe dir",
      "7  ",
      "al ?\n",
      "p ed",
      "qu e, ",
      "as ust",
      "siquier a ",
      "per fec",
      "ar di",
      "cu alquier ",
      "Mir a ",
      "Hac e ",
      "P ens",
      "t o",
      "much o.\n",
      "ación  de ",
      "v el",
      "si c",
      "in x",
      "S el",
      "í n",
      "a  su",
      "Di os.\n",
      "a ún ",
      "ci r",
      "ne gr",
      "Pu es ",
      "- No ",
      "e w",
      "o portun",
      "u p",
      "er !\n",
      "que  lo ",
      "entonc es ",
      "j ust",
      "-  H",
      "Per d",
      ":  \"",
      "ad  ",
      "hiz o ",
      "E S",
      "E ll",
      "¿ Es ",
      "tr as",
      "d estr",
      "ando  de ",
      "l in",
      "es  a ",
      "pero  no ",
      "Pod emos ",
      "l im",
      "es o es ",
      "end o?\n",
      "deb ería ",
      "  B",
      "p ido.\n",
      "ex per",
      "dic e que ",
      "J inx",
      "n o!\n",
      "tú .\n",
      "-  C",
      "Qu i",
      "vol ver ",
      "S egur",
      "en amor",
      "os  que ",
      "end o.\n",
      "encu entr",
      "dó lar",
      ",  no ",
      "nad i",
      "A dió",
      "tu vi",
      "ad ak",
      "si empre",
      "cas i ",
      "buen o.\n",
      "ad or ",
      "ac ep",
      "Si n ",
      "er an ",
      "ar án ",
      "me  gust",
      "... ?\n",
      "dis par",
      "c en",
      "c ada ",
      "pel igr",
      "h !\n",
      "l as",
      "or ?\n",
      "ci l.\n",
      "vi t",
      "tien es que ",
      "ser ía ",
      "mon t",
      "b ot",
      "á b",
      "g o?\n",
      "en z",
      "ver .\n",
      "- ¿ Cómo ",
      "8  ",
      "G e",
      "o k",
      "c aj",
      "r ar",
      "ant es ",
      "conmi go.\n",
      "m e.\n",
      "in c",
      "ob re ",
      "Mir a, ",
      "a il",
      "al egr",
      "todas  las ",
      "¿ Lo ",
      "a  se ",
      "cu art",
      "tod os.\n",
      "ru c",
      "p ec",
      "fi n ",
      "t an",
      "os o ",
      "cre í",
      "ning ún ",
      "S al",
      "-  M",
      "est ás?\n",
      "pu di",
      "dur ante ",
      "S im",
      "o,  no ",
      "hac es?\n",
      "tant o ",
      "mej or.\n",
      "V en ",
      "in form",
      "do  de ",
      "He y, ",
      "J oh",
      "a ver",
      "el eg",
      "dij e que ",
      "D a",
      "E R",
      "r it",
      "é is ",
      "problem a.\n",
      "P as",
      "hacer lo.\n",
      "s é, ",
      "on es.\n",
      "gu ien",
      "con oz",
      "Di os!\n",
      "can s",
      "en vi",
      "es cuel",
      "re !\n",
      "ar  al ",
      "De  acuerdo.\n",
      "á ?\n",
      "preg un",
      "ierd a!\n",
      "í a?\n",
      "am e.\n",
      "ab an ",
      "a v er ",
      "se  lo ",
      "h os",
      "v oy ",
      "con  los ",
      "- ¿ Y ",
      "pi st",
      "cre es que ",
      "fuer z",
      "idi ot",
      "m al ",
      "mom ento.\n",
      "1 0 ",
      "t o?\n",
      "Deb o ",
      "- Sí.\n",
      "¡ No!\n",
      "Est án ",
      "ari o.\n",
      "¿Por  qué?\n",
      "a tiv",
      "en !\n",
      "or es.\n",
      "pr om",
      "ado  a ",
      "ah í.\n",
      "dem oni",
      "necesit o ",
      "V ay",
      "á st",
      "d oc",
      "s í?\n",
      "-  Me ",
      "inter es",
      "d ía.\n",
      "o,  el ",
      "pi ez",
      "O l",
      "c ep",
      "s í, ",
      "ci l",
      "Di os, ",
      "Su pon",
      "con fi",
      "S é ",
      "o que  no ",
      "Es  el ",
      "er on",
      "li z",
      "ami go ",
      "tú ?\n",
      "neg oci",
      "J es",
      "L es ",
      "o \".\n",
      ",  y ",
      "te  lo ",
      "T al ",
      "ó r",
      "ir ?\n",
      "So lo ",
      "A h",
      "ex ac",
      "Al g",
      "a x",
      "I a ",
      "s o ",
      "t or ",
      "ú mer",
      "al guien",
      "si m",
      "ll en",
      "mar avill",
      ".  ¿",
      "estu di",
      "sos pech",
      "I s",
      "a í",
      "aj e ",
      "vuel v",
      "es  lo que ",
      "-  El ",
      "pr ó",
      "Si  no ",
      "hubier a ",
      "d o, ",
      "ue go.\n",
      "fi est",
      "verdad  ",
      "at ur",
      "i ón ",
      "re fier",
      "cam p",
      "arm e.\n",
      "-  Yo ",
      "A m",
      "cu atr",
      "¿Por qué  no ",
      "ning una ",
      "ent end",
      "ib a a ",
      "dí as.\n",
      "b é",
      "s omos ",
      "or r",
      "está  bien.\n",
      "alg o?\n",
      "cl us",
      "h el",
      "ad or.\n",
      "ab lem",
      "di ab",
      "muj er",
      "I m",
      "and on",
      "que ...\n",
      "imag in",
      "V ol",
      "y a.\n",
      "-  Te ",
      "hacer ?\n",
      "ab le ",
      "idad  de ",
      "Bob b",
      "0 .\n",
      "e v",
      "mi ed",
      "tien e que ",
      "Buen os ",
      "Clar o que ",
      "D ónde ",
      "ic a.\n",
      "le ?\n",
      "deb o ",
      "id a.\n",
      "pi do ",
      "conti go.\n",
      "vec es ",
      "#  ",
      "ent e?\n",
      "pod er ",
      "dr og",
      "m é",
      "-  L",
      "lo  har",
      "¿Qué  te ",
      "P am",
      "es o, ",
      "ar le ",
      "ri g",
      "dad  ",
      "in a.\n",
      "ar  que ",
      "hos pit",
      "re d",
      "con  una ",
      "mi ll",
      "mi  herman",
      "Deb er",
      "impor ta ",
      "S adak",
      "cor rec",
      "n orm",
      "or !\n",
      "ad as.\n",
      "un  p",
      "Est u",
      "vi s",
      "par te ",
      "mi entras ",
      "trabaj o ",
      "Dis culp",
      "en  a ",
      "ad el",
      "ad a de ",
      "y  yo ",
      "No  tengo ",
      "her mos",
      "N uestr",
      "¿ Puedo ",
      "sab es, ",
      "ca f",
      "o u",
      "de , ",
      "fi l",
      "acion es ",
      "m al.\n",
      "í as.\n",
      "os  para ",
      "re cuerd",
      "di verti",
      "¿ qué ",
      "a  M",
      "ha go ",
      "cas a ",
      "decir ?\n",
      "j et",
      "ar é.\n",
      "pre par",
      "nuestr os ",
      "Ahor a, ",
      "n eces",
      "as  para ",
      "ent er",
      "ri ll",
      "compl et",
      "v es ",
      "cer c",
      "v emos ",
      "¡ B",
      "co !\n",
      "des ?\n",
      "Clar o.\n",
      "G u",
      "l ej",
      "n ot",
      "n úmer",
      "En tien",
      "dij ist",
      "¿Cre es que ",
      "0 1:",
      "Por  su",
      "poc o de ",
      "baj o ",
      "R i",
      "des cu",
      "as \n",
      "am or ",
      "as  con ",
      "con ver",
      "dij o ",
      "-  Hola.\n",
      "di  ",
      "de d",
      "gu err",
      "ig g",
      "son .\n",
      "aut o.\n",
      "c entr",
      "ar  y ",
      "ome ti",
      "A y",
      "de  un ",
      "as  en ",
      "ll or",
      "le  gust",
      "d ul",
      "gr am",
      "pap á.\n",
      "muert o.\n",
      ": 3",
      "¡ O",
      "o  está ",
      "st ru",
      "ant e, ",
      "Ge org",
      "d o",
      "ar á.\n",
      "án do ",
      "pad r",
      "K at",
      "-  Y ",
      "ó  un ",
      "como  si ",
      "poc o.\n",
      "consi der",
      "9  ",
      "V e",
      ". .\n",
      "b omb",
      "v i ",
      "o  se ",
      "si st",
      "En tr",
      "enfer m",
      "l es",
      "í a, ",
      "Ya  lo ",
      "mañan a.\n",
      "tran s",
      "Podr ía ",
      "ten er",
      "algo  de ",
      "R ain",
      "re p",
      "un que ",
      "quier o.\n",
      "enci a ",
      "de tr",
      "Tom  ",
      "Mal en",
      "5 0 ",
      "S é que ",
      "l ot",
      "est é ",
      "pod ía ",
      "Al guien ",
      "Parec e que ",
      "v amos.\n",
      "-  D",
      "pró xim",
      "re t",
      "K ip",
      "o :\n",
      "ri ó ",
      "pon er ",
      "Fr ank",
      "s el",
      "er a de ",
      "ab og",
      "vivir  ",
      "est ú",
      "in o ",
      "ver si",
      "ri st",
      "Es a ",
      "¡ Qué ",
      "no tici",
      "Pue de ",
      "tir  ",
      "un ci",
      "alg unas ",
      "i ó ",
      "ía  de ",
      "expl ic",
      "algo  que ",
      "al t",
      "Da vid",
      "all á ",
      "Des pu",
      "b es",
      "m el",
      "r op",
      "a  no ",
      "n en",
      "as ... ",
      "re cuer",
      "deb es ",
      "reci b",
      "b ur",
      "c alm",
      "Er es un ",
      "res ul",
      "p ir",
      "cuer p",
      "i v",
      "b oc",
      "á !\n",
      "su per",
      "ri es",
      "otr os ",
      "raz ón.\n",
      "j am",
      "ab a.\n",
      "Graci as por ",
      "equi voc",
      "E N",
      "haci a ",
      "n os.\n",
      "o fi",
      "es  en ",
      "as ...\n",
      "Es  la ",
      "quier en ",
      "fu i ",
      "hor as.\n",
      "pe g",
      "pro fes",
      "b ell",
      "d ías ",
      "l o, ",
      "p esc",
      "¡ T",
      "un o.\n",
      "H a ",
      "L a m",
      "d .\n",
      "n unc",
      "é fon",
      "an a.\n",
      "al  que ",
      "cabez a.\n",
      "ruc k",
      "D ruck",
      "a \".\n",
      "c all",
      "p aci",
      "bi l",
      "lar .\n",
      "Cap it",
      "\" \"",
      "omb r",
      "Muy  bien, ",
      "hay a ",
      "D E ",
      "r adi",
      "s é",
      ",  pero ",
      "ar  con ",
      "a,  no ",
      "at e, ",
      "hasta  que ",
      "J o",
      "a ur",
      "e h?\n",
      "tr i",
      "su el",
      "ente  de ",
      "Er a ",
      "Esper a.\n",
      "H asta ",
      "ci d",
      "em o",
      "pr inci",
      "ob r",
      "tel éfon",
      "otra vez .\n",
      "Tal  vez ",
      "¡ Y ",
      "er es un ",
      "an !\n",
      "aj e.\n",
      "- ¿ De ",
      "pe di",
      "1 0",
      "c á",
      "No,  no, ",
      "dis cu",
      "No te  preocup",
      "M an",
      "car aj",
      "En  el ",
      "ami ent",
      "Lo sient o, ",
      "ablem ente ",
      "-  O",
      "cu mp",
      "p ant",
      "es  tu ",
      "decir , ",
      "¿Dónde  está ",
      "P rob",
      "m ari",
      "el ig",
      "¿Qué  es ",
      "muy  bien.\n",
      "M or",
      "g el",
      "pad re.\n",
      "Por fav or.\n",
      "er ta ",
      "un  hombre ",
      "Me  encant",
      "le y ",
      "más  que ",
      "l e.\n",
      "í cul",
      "an im",
      "esc al",
      "estu vi",
      "Déj ame ",
      "clus o ",
      "S k",
      "d añ",
      "v an a ",
      "en ?\n",
      "de  las ",
      "in creí",
      "ir á ",
      "at e!\n",
      "usted es ",
      "H ank",
      "S am",
      "j ef",
      "al o.\n",
      "ast e.\n",
      "pequeñ o ",
      "destr u",
      "emo cion",
      "D ic",
      "J er",
      "an o.\n",
      "di ó ",
      "par t",
      "me  llam",
      "quier o que ",
      "cre o.\n",
      "¿Cu ál ",
      "L l",
      "ti , ",
      "para  que ",
      "haci endo?\n",
      "Supon go que ",
      "g all",
      "er ci",
      "hablar  con ",
      "En seri o?\n",
      "s !\n",
      "ti err",
      "se !\n",
      "como  una ",
      "pap á ",
      "C ali",
      "in n",
      "No  quiero ",
      "hor a de ",
      "Por  eso ",
      "Joh n",
      "ar  su ",
      "famili a.\n",
      "ofi cin",
      "es \n",
      "os  en ",
      "Tr an",
      "dul c",
      "2 0 ",
      "I r",
      "i a.\n",
      "en  de ",
      "ser  un ",
      "así  que ",
      "siempre .\n",
      "mar ch",
      "A p",
      "s í",
      "est a m",
      "ej or ",
      "import ante ",
      "ás  de ",
      "acuerd o?\n",
      "Izz y ",
      "é v",
      "on g",
      "hic e ",
      "o la ",
      "en  tu ",
      "em bar",
      "li g",
      "fuer a.\n",
      "Quiz ás ",
      "y  la ",
      "vi vi",
      "vi ol",
      "bien !\n",
      "cos a.\n",
      "pl az",
      "segu ir ",
      "ven ir ",
      "ya  no ",
      "maldi to ",
      "per mi",
      "cin co ",
      "V eng",
      "h ol",
      "o  al ",
      "in u",
      "é  de ",
      "pr is",
      "prim er ",
      "N uev",
      "R os",
      "é s.\n",
      "an  de ",
      "cer ebr",
      "úl ti",
      "M is ",
      "d est",
      "¡ Vamos, ",
      "di go ",
      "et a ",
      "én ?\n",
      "prom et",
      "F ock",
      "J ak",
      "d as ",
      "-  Gracias.\n",
      "amos  de ",
      "pi s",
      "esc ap",
      "nuev o ",
      "R ay",
      "f irm",
      "j ur",
      "hab er",
      "En  la ",
      "vol vi",
      "hag as ",
      "san gr",
      "A b",
      "h amb",
      "in st",
      "F el",
      "R ob",
      "a cost",
      "mi  hij",
      "et e.\n",
      "so ci",
      "lo gr",
      "ide a.\n",
      "an o ",
      "ac tu",
      "ado  por ",
      "dad .\n",
      "ur p",
      "cor r",
      "l and",
      "y n",
      "¿ Está ",
      "con tar",
      "tip o de ",
      "ci el",
      "in o.\n",
      "00 0 ",
      "S  ",
      "g arr",
      "ar a ",
      "mom ento ",
      "a prend",
      "c ru",
      "que  el ",
      "es  muy ",
      "y  se ",
      "ando  a ",
      "añ os, ",
      "esc rib",
      "Está  bien, ",
      "Re cuerd",
      "ve o ",
      "L lev",
      "ahor a?\n",
      "Ell os ",
      "m a",
      "on t",
      "ac tiv",
      "- ¿ Cu",
      "osotr os ",
      "arrib a.\n",
      "Adió s.\n",
      "am ente, ",
      "mi l",
      "hab it",
      "ist r",
      "cab all",
      "pos ib",
      "A ún ",
      "en n",
      "est o, ",
      "ab andon",
      "Qu er",
      "me  lo ",
      "se p",
      "junt os.\n",
      "ell a?\n",
      "Tien es que ",
      "Quier o que ",
      "T ambi",
      "V ámon",
      "al !\n",
      "ab uel",
      "man ej",
      "s ?\n",
      "á j",
      "y  el ",
      "gu ard",
      "id a ",
      "í  que ",
      "pu esto.\n",
      "j ueg",
      "much os ",
      "él ?\n",
      "niñ os ",
      "import a.\n",
      "ven g",
      "- No  lo ",
      "m and",
      "r os",
      "v ac",
      "at o.\n",
      "im bé",
      "yo  no ",
      "¿S í?\n",
      "Pens é que ",
      "y  no ",
      "lim pi",
      "A dam",
      "L lam",
      "N o",
      "l ado.\n",
      "v en ",
      "re cor",
      "resp ir",
      "Tenemos  que ",
      "em e ",
      "era  un ",
      "Ud s",
      "hombr es ",
      "c ed",
      "or t",
      "ag arr",
      "sob re",
      "gen er",
      "Buenas noch es.\n",
      "mol est",
      "¿ La ",
      "a  en la ",
      "qu err",
      "gr it",
      "pu esto ",
      "Despu és ",
      "H ar",
      "M ás ",
      "T igg",
      "r í",
      "t .\n",
      "en  seri",
      "si on",
      "su r",
      "com er ",
      "ado  en ",
      "pas ó ",
      "au to ",
      "tran qui",
      "Tambi én ",
      "A ll",
      "s en",
      "est o es ",
      "vi ci",
      "con du",
      "aci ón, ",
      "gust a ",
      "... .\n",
      "ord en",
      "después  de ",
      "i ón.\n",
      "as egur",
      "ent e!\n",
      "si l",
      "¿Qué  pasa?\n",
      "An n",
      "ate  de ",
      "¿Cu ánto ",
      "si ti",
      "ado  con ",
      "pro gram",
      "R and",
      "ch a",
      "nuev o.\n",
      "op in",
      "A N",
      "V i",
      "f as",
      "É ste ",
      "par ti",
      "pued a ",
      "ast e?\n",
      "mejor  que ",
      "U no ",
      "ir e ",
      "está ?\n",
      "Bu en ",
      "T V",
      "l o?\n",
      "im ient",
      "A cab",
      "b o ",
      "a  G",
      "am p",
      "ier r",
      "las  cosas ",
      "all í ",
      "esp aci",
      "minut os.\n",
      "cump le",
      ": 4",
      "sal ud",
      "pon er",
      "fr í",
      "mad re.\n",
      "ir é ",
      "amig os.\n",
      "muj eres ",
      "dir é ",
      "rá pid",
      "g al",
      "Est as ",
      "ten d",
      "pas ar ",
      "pier n",
      "m uev",
      "z .\n",
      "ic a ",
      "Es  muy ",
      "An ni",
      "Sr a. ",
      "v end",
      "y ...\n",
      "prim er",
      "ho y.\n",
      "tic o.\n",
      "mos tr",
      "v an ",
      "ar se.\n",
      "ent es.\n",
      "re in",
      "nad a que ",
      "únic o que ",
      "rá pido.\n",
      "A t",
      "S te",
      "f ant",
      "i el",
      "j al",
      "m ú",
      "m as",
      "est ará ",
      "ol og",
      "ec tiv",
      "nuestr as ",
      "el ec",
      "cre er ",
      "ías  que ",
      "Hol a?\n",
      "lug ar.\n",
      "o \"",
      ",  el ",
      "an n",
      "as  la ",
      "in k",
      "én t",
      "pel e",
      "mun do.\n",
      "clar o.\n",
      "W e",
      "b ai",
      "-  P",
      "-  Oh, ",
      "clas e de ",
      "K e",
      "b an",
      "i fic",
      "a  en el ",
      "ar nos ",
      "im ent",
      "lar g",
      "emp hi",
      "dic e ",
      "me ti",
      "diab los ",
      "C as",
      "E L",
      "n or",
      "de f",
      "una  vez ",
      "mi e",
      "cer vez",
      "quiz á ",
      "H as ",
      "t o de ",
      "o  en el ",
      "un a.\n",
      "tu  herman",
      "br az",
      "Tr at",
      "N at",
      "sab emos ",
      "tod avía ",
      "j odi",
      "t ot",
      "ó l",
      "ad a?\n",
      "lo  sient",
      "aqu í",
      "habl ar de ",
      "Al go ",
      "lev ant",
      "¿H as ",
      ": 2",
      "D ame ",
      "M is",
      "h om",
      "-  De ",
      "car r",
      "lu z ",
      "arl a.\n",
      "polic ía.\n",
      "m ens",
      "p ú",
      "mi ent",
      "E h, ",
      "M emphi",
      "ien ci",
      "está  en ",
      "ell os.\n",
      "ahor a, ",
      "N ew",
      "O t",
      "y l",
      "No lo  sé.\n",
      "Jes ú",
      "H art",
      "a er",
      "h oy ",
      "or gu",
      "Tr abaj",
      "In t",
      "ción  de ",
      "Dios mí o.\n",
      "Mam á ",
      "6 ,",
      "com un",
      "Y  si ",
      "pl emente ",
      "a v uel",
      "sé  que ",
      "volver  a ",
      "pant al",
      "C ad",
      "e  al ",
      "al iz",
      "es  por ",
      "as  un ",
      "ado  el ",
      "l o!\n",
      "di ta ",
      "ay , ",
      "and o, ",
      "Yo  soy ",
      "Tod avía ",
      "¡M al",
      "3 0 ",
      "t o!\n",
      "-  Un ",
      "ier on ",
      "qui si",
      "vez .\n",
      "bast ante ",
      "B us",
      "os  del ",
      "os cur",
      "Qu ería ",
      "su jet",
      "se  llam",
      "le y",
      "ist e.\n",
      ", ¿ no?\n",
      "El o",
      "cap it",
      "D os ",
      "¿ Pero ",
      "an och",
      "ent reg",
      "C I",
      "d os",
      "f e",
      "m .\n",
      "¡ Es ",
      "ar on.\n",
      "no  tiene ",
      "cu al ",
      "an  los ",
      "Y  yo ",
      "pos ici",
      "Ah í ",
      "No  puedes ",
      "ic o ",
      "hor a.\n",
      "car n",
      "sol u",
      "me tr",
      "hici ste ",
      "sin cr",
      "acer c",
      "o y.\n",
      "y  me ",
      "cas a de ",
      "cariñ o.\n",
      "l at",
      "¿ El ",
      "¿ Se ",
      "á ll",
      "es con",
      "hac en ",
      "ri s",
      "cos a ",
      "habr ía ",
      "- A",
      "o fici",
      "Per don",
      "ciert o.\n",
      ": 0",
      ": 5",
      "l a",
      "ac cid",
      "per mis",
      "pu r",
      "pas ado ",
      "Su b",
      "import ante.\n",
      "? \"\n",
      "d ob",
      "am or.\n",
      "des pier",
      "- ¿ Por qué ",
      "otr as ",
      "cr im",
      "últim a ",
      "- Sí, ",
      "T endr",
      "r id",
      "r oj",
      "v amos ",
      "ad a, ",
      "os a ",
      "- ¿ Te ",
      "lle gu",
      "Greg .\n",
      "bell ez",
      "i s.\n",
      "do  que ",
      "vist e ",
      "ca us",
      "¿De  qué ",
      "Deb es ",
      "G ar",
      "H oy ",
      "a :\n",
      "n er",
      "a m í.\n",
      "much a ",
      "cur s",
      "edad  ",
      "S h",
      "as í?\n",
      "en  este ",
      "cas a, ",
      "iz quier",
      "hacer lo ",
      "pres ion",
      "tenemos  que ",
      "E I ",
      "V oy ",
      "- ¿ S",
      "Se  acab",
      "orgu ll",
      "t a de ",
      "ó si",
      "-  Hola, ",
      "por  un ",
      "No,  no ",
      "perdi do ",
      "nadi e.\n",
      "N ada.\n",
      "t h",
      "¡ L",
      "en c",
      "ando  el ",
      "le y.\n",
      "2 ,",
      "-  ¿Quién ",
      "el  de ",
      "dí as, ",
      "que ... ",
      "bol s",
      "deber ías ",
      "dentr o de ",
      "I o ",
      "la  gente ",
      "más  de ",
      "alg unos ",
      "podr ías ",
      "sist em",
      "J am",
      "V er",
      "c li",
      "d os, ",
      "f f",
      "p atr",
      "¡ Esper",
      "or k",
      "an g",
      "co p",
      "as unt",
      "pr endi",
      "mu r",
      "nuev a ",
      "person as ",
      "señor it",
      "sufici ente ",
      "prot eg",
      "a parec",
      "re tir",
      "era  una ",
      "sal t",
      "o, ¿ no?\n",
      "tel e",
      "mor ir",
      "M urp",
      "o ,\n",
      "si ón.\n",
      "at enci",
      "Te  lo ",
      "pl ac",
      "seman a.\n",
      "ment ir",
      "pi lot",
      "esc en",
      ": 1",
      "V amos ",
      "Y a v",
      "as tr",
      "si endo ",
      "si  te ",
      "Buen o.\n",
      "int elig",
      "entien do.\n",
      "Tran qui",
      "sincr ab",
      "¡ R",
      "ten ci",
      "Hay  un ",
      "tener  que ",
      "Jack .\n",
      "Greg  ",
      "cuatr o ",
      "H ij",
      "j er",
      "¿ T",
      "ar ías ",
      "am os?\n",
      "ocu pad",
      "atr ás.\n",
      "Car aj",
      "apar eci",
      "mo vi",
      "E m",
      "d om",
      "r ab",
      "¡  ",
      "¿ Puedes ",
      "cu ánto ",
      "a,  la ",
      "Di g",
      "¿C om",
      "sobre  el ",
      "M c",
      "S e",
      "b od",
      "d ud",
      "co cin",
      "ar  las ",
      "ex am",
      "alm ente.\n",
      "eng añ",
      "acep t",
      "t est",
      "es  como ",
      "a m at",
      "Si gu",
      "ari ñ",
      "Gen i",
      "J on",
      "m atr",
      "r am",
      "r ot",
      "y o, ",
      "al e ",
      "y  y ",
      "hab la ",
      "ser v",
      "a v ol",
      "fuer a de ",
      "mism a ",
      "sigu e ",
      "O tr",
      "Y ork",
      "i ?\n",
      "er lo.\n",
      "de  su ",
      "in vit",
      "No  le ",
      "si mp",
      "pl at",
      "esta  noche.\n",
      "Bien ven",
      "decir  que ",
      "resp et",
      "suc edi",
      "ar la ",
      "es  su ",
      "se  ha ",
      "noch e, ",
      "An t",
      "mam á ",
      "ú n",
      "er to ",
      "as í, ",
      "-  Ya ",
      "cor on",
      "lad r",
      "Much as ",
      "Sk inn",
      "C ambi",
      "a .",
      "si tu",
      "par te de ",
      "er  a ",
      "pr ometi",
      "para  la ",
      "ell o.\n",
      "ás !\n",
      "real idad ",
      "mied o.\n",
      "e ach",
      "g ár",
      "i n ",
      "i ente ",
      "ó , ",
      "o  como ",
      "-  Eso ",
      "ar  a la ",
      "id os.\n",
      "a m í ",
      "all í.\n",
      "cont ac",
      "coraz ón ",
      "an os ",
      "tar de ",
      "tiene  un ",
      "L in",
      "n ar",
      "ti tu",
      "Qu í",
      "mi .\n",
      "hay  que ",
      "har é ",
      "anti gu",
      "Nuev a ",
      "d or",
      "e ti",
      "in a ",
      "No  estoy ",
      "ar  mi ",
      "si .\n",
      "orm ent",
      "fuer on ",
      "signific a ",
      "M at",
      "N osotros ",
      "b al",
      "ar g",
      "un d",
      "in s",
      "aci ón?\n",
      "trat a de ",
      "pin tur",
      "S t",
      "d uc",
      "¿ \n",
      "-  Estoy ",
      "it o.\n",
      "C ol",
      "S erá ",
      "c ú",
      "ó  de ",
      "ó  al ",
      "gall et",
      "B ast",
      "O N",
      "¿ Le ",
      "re un",
      "re par",
      "no  puede ",
      "os,  ¿",
      "pel ícu",
      "Mi cha",
      "pregun tar",
      "K ar",
      "p e ",
      "¡ Me ",
      "fu m",
      "Pr im",
      "i !\n",
      "i tu",
      "o -",
      "o od",
      "-  La ",
      "id o?\n",
      "ir  al ",
      "lu ch",
      "Sab es ",
      "Ex ac",
      "And re",
      "M ejor ",
      "es  son ",
      "para  ti.\n",
      "tam ent",
      "ocur ri",
      "bor r",
      "posi ble.\n",
      "l ado ",
      "p aí",
      "v as ",
      "os  son ",
      "es  eso?\n",
      "per don",
      "hij o de ",
      "Eso es  lo que ",
      "Mi entras ",
      "S ol",
      "a  a la ",
      "al can",
      "ab as ",
      "no  puedo ",
      "decir le ",
      "Cu id",
      ", ¿ qué ",
      "viej o ",
      "óm o?\n",
      "cá mar",
      "- No.\n",
      "i tiv",
      "p er ",
      "¿ Para ",
      "en carg",
      "ad r",
      "-  Pero ",
      "cu anto ",
      "No  sé.\n",
      "ver g",
      "le ch",
      "contr at",
      "Deb ería ",
      "Hay  que ",
      "Señ or, ",
      "supon e que ",
      "demoni os ",
      "5 ,",
      "y ... ",
      "en ch",
      "á  que ",
      "gu ardi",
      "pas e",
      "ni  siquiera ",
      "acion es.\n",
      "quieres  decir?\n",
      "gol pe",
      "L uego ",
      "P iens",
      "¿ Tienes ",
      "a  lo que ",
      "en oj",
      "ar los ",
      "am o.\n",
      "am ent",
      "ri ble.\n",
      "et er",
      "- ¿ Por ",
      "bi do ",
      "le !\n",
      "ocur r",
      "Ni  siquiera ",
      "Dios mí o!\n",
      "New  ",
      "a ,\n",
      "-  Qué ",
      "y  te ",
      "si r",
      "ert e, ",
      "aut os.\n",
      "tip o ",
      "grand e.\n",
      "N ing",
      "l á",
      "sab es.\n",
      "ser vici",
      "dar le ",
      "A del",
      "H abl",
      "par eci",
      "ir me ",
      "fue  un ",
      "tom ar ",
      "mí o.\n",
      "A c",
      "C r",
      "M er",
      "b ail",
      "d al",
      "sab ía que ",
      "otr o.\n",
      "ist a.\n",
      "all á.\n",
      "ven .\n",
      "dorm ir ",
      "g ente.\n",
      "l av",
      "m ierda.\n",
      "a  como ",
      "-  Se ",
      "se as ",
      "Es  mi ",
      "A R",
      "D et",
      "¡ Te ",
      "en az",
      "ar ía.\n",
      "re ded",
      "tam ente.\n",
      "o...  y ",
      "Uds . ",
      "D em",
      "F B",
      "O \n",
      "c lu",
      "í st",
      "ti g",
      "te  llam",
      "com enz",
      "nad a de ",
      "señ or ",
      "he  visto ",
      "hech o, ",
      "tú , ",
      "difí cil ",
      "Kat h",
      "m í, ",
      "qu e?\n",
      "am os, ",
      "re cu",
      "con se",
      "at a",
      "ado  la ",
      "esc rit",
      "estu vo ",
      "Le v",
      "uni versi",
      "geni al.\n",
      "d ent",
      "d as.\n",
      "ad o\n",
      "cu ál ",
      "aci ón",
      "atr ap",
      "vien e ",
      "l ocur",
      "on ?\n",
      "si gui",
      "per o...\n",
      "enci m",
      "irm e.\n",
      "tele visi",
      "C os",
      "T ed",
      "d en ",
      "g as",
      "t a. ",
      "a  está ",
      "cu ar",
      "pr od",
      "con  tu ",
      "id ent",
      "pl ant",
      "mal o.\n",
      "tic a.\n",
      "mé dic",
      "posib le ",
      "1 2 ",
      "G ib",
      "O li",
      "P res",
      "i , ",
      "er é ",
      "-  A ",
      "di rig",
      "...  que ",
      "las  llav",
      "lo que  quier",
      "amig os ",
      "ár bol",
      "pequeñ a ",
      "hici st",
      "maldi ta ",
      "Is land",
      "c ent",
      "p az",
      "t or.\n",
      "ar \n",
      "al reded",
      "decir te ",
      "tiemp o para ",
      "Pu es, ",
      "ueg o, ",
      "Jo e",
      "- ...",
      "d ate ",
      "as  del ",
      "o de  que ",
      "ó  en ",
      "por que no ",
      "dis fr",
      "puert a.\n",
      "eron im",
      "exac tamente ",
      "¡ Oh, ",
      "de  tu ",
      "Qu é",
      "ía  a ",
      "pue b",
      "pu ta.\n",
      "Lo  sé.\n",
      "a m ás.\n",
      "nomb r",
      "Mis s ",
      "5 .\n",
      "T ob",
      "c er ",
      "f ing",
      "g ir",
      "s ens",
      "al quier",
      "ci t",
      "an  la ",
      "ec n",
      "amos  que ",
      "- ¿  ",
      "fu tur",
      "Re Pet",
      "necesit a ",
      "Así  es.\n",
      "list a.\n",
      "princi pi",
      "H emos ",
      "l ab",
      "al ter",
      "am enaz",
      "as  de la ",
      "ent re",
      "tu v",
      "án ?\n",
      "cion es ",
      "Deb e ",
      "ciert o?\n",
      "mam á.\n",
      "- ¿Qué?\n",
      "I ren",
      "as  al ",
      "ti l",
      "des cans",
      "Tengo  un ",
      "Su ll",
      "estab as ",
      "Charli e ",
      "Deber ías ",
      "A \n",
      "é re",
      "or iz",
      "ab ier",
      "ue ñ",
      "las  man",
      "des p",
      "dej ar ",
      "arr u",
      "Tr a",
      "¿Y  qué ",
      "rel ación ",
      "pron to ",
      "1 5 ",
      "Y , ",
      "¿ Hola?\n",
      "in ú",
      "No  puede ",
      "se is ",
      "im oni",
      "it o ",
      "ó  que ",
      "man era ",
      "nad a, ",
      "hay  un ",
      "y,  ¿",
      "ocu l",
      "hij o.\n",
      "Me gust aría ",
      "dita  se",
      "b li",
      "m b",
      "in cluso ",
      "lo  del ",
      "ti ca ",
      "quier es?\n",
      "ah í?\n",
      "acu s",
      "2 3",
      "S cor",
      "v oz",
      "gu ap",
      "tu ve ",
      "gr up",
      "está  pas",
      "iz  ",
      "Un a vez ",
      "ayud a.\n",
      "ér o",
      "1 ,",
      "C ariñ",
      "F re",
      "R ock",
      "b and",
      "f ue",
      "l uego.\n",
      "¡ El ",
      "¿ Tú ",
      "é ste ",
      "de  acuerdo?\n",
      "-  Bueno, ",
      "ar  por ",
      "mu l",
      "ten go.\n",
      "gr av",
      "Si ént",
      "En ten",
      "dr ag",
      "usted .\n",
      "soy  un ",
      "sobre  la ",
      "bus car",
      "G eronim",
      "L u",
      "a compañ",
      "i o.\n",
      "z ap",
      "tr ag",
      "te  gust",
      "cre es?\n",
      "cas a?\n",
      "Gr an",
      "cam ion",
      "conmi go ",
      "A unque ",
      "O ig",
      "d a de ",
      "i k",
      "o ír",
      "x i",
      "y o?\n",
      "in e ",
      "an  que ",
      "buen o, ",
      "fav or",
      "Deb emos ",
      "pen sab",
      "a, ¿ no?\n",
      "raz ón ",
      "conver s",
      "p an",
      "de  mi ",
      "est e.\n",
      "in .\n",
      "si ll",
      "se , ",
      "pu j",
      "- ¿ Dónde ",
      "ser vir",
      "muj er.\n",
      "cont inu",
      "Tom .\n",
      "arl o?\n",
      "conmi go?\n",
      "Sel m",
      "e I ",
      "p ósi",
      "que  nos ",
      "par te.\n",
      "mi g",
      "deb emos ",
      "Hol a!\n",
      "dich o ",
      "lí ne",
      "arreg l",
      " B each",
      "L ong",
      "R en",
      "S ch",
      "a is ",
      "d éj",
      "g il",
      "É st",
      "no  le ",
      "per i",
      "man i",
      "pi zz",
      "br ome",
      "pens ando ",
      "descu br",
      "o --\n",
      "t orment",
      "tr ai",
      "vi c",
      "par ed",
      "ien do.\n",
      "des de que ",
      "parec e?\n",
      "agu a.\n",
      "¿Estás  bien?\n",
      "just o ",
      "resul t",
      "1 2",
      "4 ,",
      "J ef",
      "P on",
      "h éro",
      "m  ",
      "ar n",
      "a m or",
      "llam ado ",
      "ecn olog",
      "- Es ",
      "- No, ",
      "7 ,",
      "t a!\n",
      "a  esta ",
      "ar ti",
      "ar ries",
      "mi l ",
      "sab es?\n",
      "ag ente ",
      "emp le",
      "verdad , ",
      "Sr ta. ",
      "Esper o que ",
      "nomb re.\n",
      "entien d",
      "Hab ía ",
      "G ol",
      "L leg",
      "l en",
      "s a ",
      "no  sé ",
      "amos  un ",
      "¿Qué  pas",
      "Me  alegr",
      "form a de ",
      "ánd o",
      "Don n",
      "Val e, ",
      "ner vi",
      "\" C",
      "\" , ",
      "j o",
      "t as.\n",
      "É se ",
      "o  un ",
      "o  a la ",
      "en a ",
      "en fr",
      "as  son ",
      "ent emente ",
      "si ente ",
      "con duc",
      "sent ir ",
      "dig as ",
      "famili a ",
      "L ind",
      "d ado ",
      "s ombr",
      "os  de la ",
      "di do.\n",
      "lo  hiz",
      "quer emos ",
      "Soy  un ",
      "ánd ol",
      "ciudad  ",
      "vest ig",
      "pedir  ",
      "Sel ma.\n",
      "un p ar de ",
      "01: 0",
      "8 ,",
      ".  ¡",
      "ver te ",
      "fin itiv",
      "sor pres",
      "dólar es.\n",
      "pudi era ",
      "O R",
      "¿ En ",
      "e  en ",
      "ad ic",
      "em os, ",
      "tr av",
      "a,  el ",
      "ado  y ",
      "Per o, ",
      "contr a ",
      "ari a.\n",
      "Fr ench",
      "edad .\n",
      "punt o de ",
      "J ust",
      "ad as ",
      "est aría ",
      "no  está ",
      "una  gran ",
      "an  las ",
      "Est ados ",
      "- ¿ No ",
      "como  el ",
      "sal g",
      "segur o.\n",
      "¡S í!\n",
      "seman a ",
      "Hab la ",
      "detr ás de ",
      "lo sient o.\n",
      "Long  Beach",
      "Estados  Un",
      "3 ,",
      "m ente ",
      "n u",
      "est aré ",
      "con  mi ",
      "00 .\n",
      "aut os ",
      "Su s ",
      "caball er",
      "M ay",
      "ó p",
      "-  Y",
      "ec k",
      "o de  los ",
      "Sí,  pero ",
      "Cu idad",
      "pel ícul",
      "niñ o ",
      "dici endo ",
      "c ár",
      "er es?\n",
      "us ar ",
      "ari o ",
      "har á ",
      "jam ás ",
      "H er",
      "b e",
      "j od",
      "n ud",
      "í do ",
      "id o, ",
      "ver te.\n",
      "ur a.\n",
      "es de  la ",
      "esp ir",
      "pon dr",
      "usted es.\n",
      "Ella  es ",
      "tal ent",
      "fá cil.\n",
      "a un ",
      "pr oc",
      "ez c",
      "man era.\n",
      "abaj o.\n",
      "dic es?\n",
      "Re cuer",
      "plan e",
      "má quin",
      "Jer se",
      "C hi",
      "D oc",
      "H arr",
      "L ist",
      "v endr",
      "¡ Ya ",
      "á is ",
      "qu em",
      "y  lo ",
      "si ca ",
      "com b",
      "a de  un ",
      "pu de ",
      "ay !\n",
      "Pero  si ",
      "Yo  me ",
      ", ¿ verdad?\n",
      "únic a ",
      "coraz ón.\n",
      "haces  aquí?\n",
      "Int ent",
      "A dem",
      "H az ",
      "em os?\n",
      "tr es.\n",
      "un  poco de ",
      "¿Qué  tal ",
      "- ¿ Estás ",
      "tod o, ",
      "cos , ",
      "án tos ",
      "br om",
      "estab an ",
      "M ír",
      "m o.\n",
      "m em",
      "t os.\n",
      "a  casa.\n",
      "es  para ",
      "ad o que ",
      "as  el ",
      "os o?\n",
      "sab ía ",
      "le an",
      "alg o, ",
      "parec e que ",
      "niñ os.\n",
      "diner o ",
      "ánd os",
      "consegu ir ",
      "arreg lar",
      "respon sab",
      "arru in",
      "A L",
      "B ug",
      "M ad",
      "a go ",
      "j e",
      "v as?\n",
      "ad .\n",
      "re cog",
      "lo  mejor ",
      "No  podemos ",
      "ando  la ",
      "nad a!\n",
      "Ten ía ",
      "fr ente ",
      "cion es.\n",
      "pres id",
      "F l",
      "I N",
      "¿ P",
      "¿ Recuerd",
      "e  L",
      "en em",
      "en  sus ",
      "ri l",
      "ag n",
      "her r",
      "segur o que ",
      "ér amos ",
      "mont añ",
      "Andre a G",
      "E d",
      "H or",
      "H az",
      "h uel",
      "o gr",
      "¿ Un ",
      "í a!\n",
      "qu é",
      "es  con ",
      "ac á.\n",
      "an  el ",
      "se  me ",
      "yo  soy ",
      "lleg ar ",
      "ug h",
      "cuid ado.\n",
      "propi o ",
      "ped az",
      "I os ",
      "] \n",
      "j ov",
      "v o.\n",
      "í fic",
      "es  del ",
      "ad entr",
      "in vestig",
      "entien do ",
      "antes de  que ",
      "vec es.\n",
      "exper ienci",
      "d uel",
      "d ueñ",
      "e vit",
      "i en ",
      "¡ Lo ",
      "o  te ",
      "en i",
      "am ar",
      "os o, ",
      "..  ",
      "a de  los ",
      "fu erte.\n",
      "bi ci",
      "pe or ",
      "car a.\n",
      "so ñ",
      "cont est",
      "o, ¿ verdad?\n",
      "agu ant",
      "suc ed",
      "cru z",
      "FB I",
      "b en",
      "d ar ",
      "f am",
      "g er",
      "m enci",
      "o ,",
      "¿ Hay ",
      "vi aj",
      "ol l",
      "decir .\n",
      "puede  ser ",
      "ar a  los ",
      "a...  y ",
      "Mar k",
      "teng a ",
      "vent an",
      "S í ",
      "d a, ",
      "i e.\n",
      "o \" ",
      "es  tan ",
      "as unto ",
      "ci b",
      "in vi",
      "é  la ",
      "mu estr",
      "Yo  lo ",
      "um br",
      "únic o ",
      "Dij o que ",
      "pron to.\n",
      "fá cil ",
      ". , ",
      "E lean",
      "b el",
      "c ay",
      "c óm",
      "l os.\n",
      "qu é, ",
      "que  los ",
      "os tr",
      "ti ?\n",
      "no  son ",
      "de !\n",
      "an  y ",
      "con  su ",
      "puest o que ",
      "Nueva  York",
      "a  \"",
      "en erg",
      "er a?\n",
      "-  T",
      "-  Que ",
      "in medi",
      "ch e ",
      "ex ist",
      "Gr and",
      "pon g",
      "pro fun",
      "problem as.\n",
      "Nos  vemos ",
      "Todo  el ",
      "por fav or, ",
      "alguien .\n",
      "Rand all",
      "pú bl",
      "Scor di",
      "c úl",
      "f .\n",
      "o  no?\n",
      "in fier",
      "ot e.\n",
      "a a  los ",
      "tengo  un ",
      "bl anc",
      "oj os ",
      "quiz ás ",
      "histori a.\n",
      "D í",
      "h og",
      "s h",
      "t  ",
      "mu ri",
      "añ o ",
      "Buen a su",
      "fr ac",
      "condu cir",
      "- ¿Por  qué?\n",
      "1 4",
      "N e",
      "ar e ",
      "em piez",
      "quier e que ",
      "sal dr",
      "polic ía ",
      "pregun ta ",
      "Por su puesto.\n",
      "últi mo ",
      "j unto ",
      "r esc",
      "z on",
      "-  Es un ",
      "est acion",
      "en  esta ",
      "em puj",
      "it a.\n",
      "pi di",
      "idad , ",
      "gust o ",
      "hay  una ",
      "Sab es, ",
      "Mal di",
      "gran di",
      "borr ach",
      "1 .\n",
      "C ada ",
      "E v",
      "j uego ",
      "o \"\n",
      "s áb",
      "a  C",
      "am ento ",
      "ir ás ",
      "al  del ",
      "se par",
      "era  el ",
      "ir  a la ",
      "sal ió ",
      "vid a, ",
      "De  acuerd",
      "pens é que ",
      "¡M ierda!\n",
      "hablar .\n",
      "rest o de ",
      "Ray mon",
      "-  Si ",
      "No  está ",
      "Qu é?\n",
      "ir ía ",
      "Y  el ",
      "bi ll",
      "Di le ",
      "cos a?\n",
      "én .\n",
      "so y.\n",
      "Mir a.\n",
      "chic a ",
      "00: 4",
      "arm e?\n",
      "entien des?\n",
      "ide a de ",
      "cuent a.\n",
      "camin o.\n",
      "perr o.\n",
      "Escuch a, ",
      "N unc",
      "es o!\n",
      "el ?\n",
      "er  la ",
      "ier da ",
      "des per",
      "Se  lo ",
      "dij e ",
      "ador a ",
      "abr ir ",
      "¿Quier es que ",
      "eron  que ",
      "muer te ",
      "Greg , ",
      "cuar to ",
      "d aré ",
      "e :\n",
      "h ot",
      "o  una ",
      "es  lo ",
      "co leg",
      "-  Si.\n",
      "cu idad",
      "ar  los ",
      "si  me ",
      "a m en",
      "ici t",
      "vuel ta ",
      "Fu i ",
      "Parec e ",
      "equip o.\n",
      "fin  del ",
      "Buenos  días, ",
      "Mer ced",
      "B aj",
      "e cu",
      "m ierd",
      "n atur",
      "á c",
      "o  algo ",
      "su l",
      "at ac",
      "por  su",
      "podr íamos ",
      "pol í",
      "agu a ",
      "muert e.\n",
      "¿Cu ándo ",
      "feliz  ",
      "adel ante.\n",
      "B o",
      "¡ Cor",
      "-  Bien.\n",
      "no  nos ",
      "man o.\n",
      "A  la ",
      "vist o a ",
      "Cre es que ",
      "hech o.\n",
      "nav e ",
      "asesin at",
      "L uc",
      "R u",
      "V ic",
      "í si",
      "ir !\n",
      "ser .\n",
      "- ¡ No!\n",
      "én dos",
      "ven ido ",
      "oj os.\n",
      "habr á ",
      "Buenas noch es, ",
      "estú pid",
      "F red",
      "c az",
      "i ch",
      "i leg",
      "m odo ",
      "¡ J",
      "el , ",
      "am e, ",
      "ía  en ",
      "pu erta ",
      "hab il",
      "hacer  el ",
      "tiemp o, ",
      "problem a?\n",
      "Clar o, ",
      "lib ert",
      "Ol ví",
      "No te preocup es.\n",
      "S ig",
      "T al",
      "s k",
      "on es de ",
      "No  soy ",
      "alm ente, ",
      "Tien en ",
      "mej or",
      "busc ando ",
      "zap at",
      "P en",
      "c at",
      "í as?\n",
      "a  esa ",
      "es  más ",
      "ci ent",
      "re uni",
      "ti ll",
      "de ...\n",
      "su ci",
      "mi st",
      "pue do.\n",
      "et e!\n",
      "fi j",
      "err or.\n",
      "sent ido ",
      "las tim",
      "B ri",
      "p int",
      "y ec",
      "é c",
      "ó g",
      "ad or de ",
      "lo  hac",
      "mu d",
      "Me  siento ",
      "dad ?\n",
      "En contr",
      "mon stru",
      "inter i",
      "Dis cúl",
      "segun do ",
      "pri v",
      "rest aur",
      "EL  ",
      "T er",
      "a w",
      "b  ",
      "d at",
      "é  el ",
      "se  la ",
      "tu vo ",
      "com ien",
      "deb en ",
      "bl an",
      "Señ or ",
      "direc ción ",
      "mie do ",
      "Muchas  gracias.\n",
      "0 ,",
      "L le",
      "P ol",
      "a prendi",
      "p si",
      "r ay",
      "re vis",
      "em e.\n",
      "se  está ",
      "con  él.\n",
      "ver t",
      "¿Qué  haces?\n",
      "hor a ",
      "án t",
      "llam o ",
      "necesit amos ",
      "sent imient",
      "pregunt a.\n",
      "Val e.\n",
      "O S",
      "t all",
      "ent endi",
      "re z",
      "su erte.\n",
      "ó  una ",
      "ó  su ",
      "ri ch",
      "¿Qui én?\n",
      "cal i",
      "lug ar",
      "nombre  es ",
      "sil enci",
      "alcan z",
      "S í",
      "l an",
      "m os.\n",
      "o x",
      "v ari",
      "vi gil",
      "per ten",
      "on  de ",
      "- ¿ C",
      "cre e que ",
      "esp í",
      "hasta  el ",
      "Ch ic",
      "diverti do.\n",
      "Prob ablemente ",
      "Cali tr",
      "John n",
      "7 .\n",
      "9 ,",
      "B e",
      "O h ",
      "S omos ",
      "d o!\n",
      "v uestr",
      "¿ verdad?\n",
      "¿ O ",
      "re port",
      "vi ern",
      "ir se ",
      "está  el ",
      "and o!\n",
      "Di me ",
      "Si ent",
      "gust o.\n",
      "Re almente ",
      "dí a, ",
      "Des de ",
      "tendr ás ",
      "anci a.\n",
      "vam os, ",
      "cuart o.\n",
      "sim plemente ",
      "- Te ",
      "D u",
      "M ari",
      "a '",
      "b amos ",
      "e fec",
      "s o.\n",
      "é !\n",
      "on , ",
      "ch o",
      "su fr",
      "se  te ",
      "pas t",
      "ep pin",
      "Necesit amos ",
      "sin o ",
      "Charli e.\n",
      "uno de  los ",
      "increí ble.\n",
      "ma estr",
      "Raymon d ",
      "- Lo ",
      "N ada ",
      "S er",
      "V a a ",
      "W ill",
      "a ugh",
      "u s ",
      "in ten",
      "cu lo ",
      "cu adr",
      "cu alquier",
      "un  buen ",
      "er  de ",
      "me  encant",
      "Per fec",
      "sab e que ",
      "¿C on ",
      "a que  te ",
      "ante  de ",
      "oy ?\n",
      "conti go ",
      "tal  vez ",
      "suc e",
      "cú ch",
      "4 0 ",
      "4 0-- 00:",
      "H u",
      "V ete ",
      "d é",
      "h e",
      "¡ Se ",
      "á g",
      "an il",
      "lo  sé.\n",
      "cu lo.\n",
      "se  trat",
      "se ?\n",
      "ten ías ",
      "Es cúch",
      "sab r",
      "fi esta ",
      "¿C on",
      "deci di",
      "Eso  no ",
      "cont ent",
      "herman o ",
      "00: 3",
      "Con tr",
      "conoc er",
      "especi al.\n",
      "Ri ch",
      "menci on",
      "1 3",
      "N ov",
      "d arte ",
      "s es",
      "ú s",
      "ad os, ",
      "par ej",
      "mi si",
      "Es  sólo ",
      "ex cel",
      "La  gente ",
      "ha  pas",
      "son ?\n",
      "os de  los ",
      "art e, ",
      "Con t",
      "Por que no ",
      "Tod as ",
      "mañan a ",
      "acuer do ",
      "Rob ert",
      "R ach",
      "a unque ",
      "l anz",
      "m ierda!\n",
      "s ó",
      "o  en la ",
      "ar a.\n",
      "que  es ",
      "al ist",
      "est an ",
      "com erci",
      "las  de ",
      "ap ag",
      "án , ",
      "habl ando ",
      "person a.\n",
      "Podr ías ",
      "deber íamos ",
      "ciudad .\n",
      "hic e.\n",
      "ju ici",
      "feliz .\n",
      "jal á ",
      "tot almente ",
      "conse j",
      "2 .\n",
      "B er",
      "B ar",
      "I b",
      "V uel",
      "a -",
      "f ech",
      "m í?\n",
      "p odi",
      "co j",
      "vi endo ",
      "vi ve ",
      "de clar",
      "con ven",
      "end er",
      "esp al",
      "enci a de ",
      "- No  me ",
      "Sab es que ",
      "aste  el ",
      "norm al.\n",
      "teléfon o.\n",
      "C an",
      "E mp",
      "m , ",
      "e  por ",
      "des graci",
      "su  hij",
      "much o que ",
      "Si  te ",
      "a v en",
      "o a  mi ",
      "pad re?\n",
      "Ok , ",
      "def ens",
      "matr imoni",
      "recu per",
      "B ai",
      "ü enz",
      "a  lo ",
      "est és ",
      "per der",
      "ten i",
      "Me  lo ",
      "lo que  te ",
      "cre ci",
      "Buen a ",
      "A  veces ",
      "cuando  se ",
      "Tengo  una ",
      "dis culp",
      "él , ",
[...]
