{
  "version": "1.0",
  "truncation": null,
  "padding": null,
  "added_tokens": [
    {
      "id": 0,
      "content": "[PAD]",
      "single_word": false,
      "lstrip": false,
      "rstrip": false,
      "normalized": false,
      "special": true
    },
    {
      "id": 1,
      "content": "[UNK]",
      "single_word": false,
      "lstrip": false,
      "rstrip": false,
      "normalized": false,
      "special": true
    },
    {
      "id": 2,
      "content": "[CLS]",
      "single_word": false,
      "lstrip": false,
      "rstrip": false,
      "normalized": false,
      "special": true
    },
    {
      "id": 3,
      "content": "[SEP]",
      "single_word": false,
      "lstrip": false,
      "rstrip": false,
      "normalized": false,
      "special": true
    },
    {
      "id": 4,
      "content": "[MASK]",
      "single_word": false,
      "lstrip": false,
      "rstrip": false,
      "normalized": false,
      "special": true
    },
    {
      "id": 5,
      "content": "\n",
      "single_word": false,
      "lstrip": false,
      "rstrip": false,
      "normalized": false,
      "special": true
    }
  ],
  "normalizer": null,
  "pre_tokenizer": {
    "type": "Whitespace"
  },
  "post_processor": null,
  "decoder": null,
  "model": {
    "type": "BPE",
    "dropout": null,
    "unk_token": null,
    "continuing_subword_prefix": null,
    "end_of_word_suffix": null,
    "fuse_unk": false,
    "byte_fallback": false,
    "vocab": {
      "[PAD]": 0,
      "[UNK]": 1,
      "[CLS]": 2,
      "[SEP]": 3,
      "[MASK]": 4,
      "\n": 5,
      "!": 6,
      "\"": 7,
      "#": 8,
      "$": 9,
      "%": 10,
      "&": 11,
      "'": 12,
      "(": 13,
      ")": 14,
      "*": 15,
      ",": 16,
      "-": 17,
      ".": 18,
      "/": 19,
      "0": 20,
      "1": 21,
      "2": 22,
      "3": 23,
      "4": 24,
      "5": 25,
      "6": 26,
      "7": 27,
      "8": 28,
      "9": 29,
      ":": 30,
      ";": 31,
      "<": 32,
      "=": 33,
      ">": 34,
      "?": 35,
      "@": 36,
      "A": 37,
      "B": 38,
      "C": 39,
      "D": 40,
      "E": 41,
      "F": 42,
      "G": 43,
      "H": 44,
      "I": 45,
      "J": 46,
      "K": 47,
      "L": 48,
      "M": 49,
      "N": 50,
      "O": 51,
      "P": 52,
      "Q": 53,
      "R": 54,
      "S": 55,
      "T": 56,
      "U": 57,
      "V": 58,
      "W": 59,
      "X": 60,
      "Y": 61,
      "Z": 62,
      "[": 63,
      "]": 64,
      "_": 65,
      "a": 66,
      "b": 67,
      "c": 68,
      "d": 69,
      "e": 70,
      "f": 71,
      "g": 72,
      "h": 73,
      "i": 74,
      "j": 75,
      "k": 76,
      "l": 77,
      "m": 78,
      "n": 79,
      "o": 80,
      "p": 81,
      "q": 82,
      "r": 83,
      "s": 84,
      "t": 85,
      "u": 86,
      "v": 87,
      "w": 88,
      "x": 89,
      "y": 90,
      "z": 91,
      "{": 92,
      "}": 93,
      "¡": 94,
      "ª": 95,
      "«": 96,
      "°": 97,
      "·": 98,
      "º": 99,
      "»": 100,
      "¿": 101,
      "Á": 102,
      "Æ": 103,
      "É": 104,
      "Í": 105,
      "Ñ": 106,
      "Ó": 107,
      "Ú": 108,
      "á": 109,
      "â": 110,
      "æ": 111,
      "ç": 112,
      "è": 113,
      "é": 114,
      "ë": 115,
      "í": 116,
      "î": 117,
      "ñ": 118,
      "ó": 119,
      "ô": 120,
      "ö": 121,
      "ú": 122,
      "ü": 123,
      "œ": 124,
      "ǝ": 125,
      "Α": 126,
      "Β": 127,
      "Γ": 128,
      "Δ": 129,
      "Ε": 130,
      "Ζ": 131,
      "Η": 132,
      "Θ": 133,
      "Ι": 134,
      "Κ": 135,
      "Λ": 136,
      "Μ": 137,
      "Ν": 138,
      "Ξ": 139,
      "Ο": 140,
      "Π": 141,
      "Ρ": 142,
      "Σ": 143,
      "Τ": 144,
      "Υ": 145,
      "Φ": 146,
      "Χ": 147,
      "α": 148,
      "β": 149,
      "γ": 150,
      "δ": 151,
      "ε": 152,
      "ζ": 153,
      "η": 154,
      "θ": 155,
      "ι": 156,
      "κ": 157,
      "λ": 158,
      "μ": 159,
      "ν": 160,
      "ξ": 161,
      "ο": 162,
      "π": 163,
      "ρ": 164,
      "ς": 165,
      "σ": 166,
      "τ": 167,
      "υ": 168,
      "φ": 169,
      "χ": 170,
      "ψ": 171,
      "ω": 172,
      "ϊ": 173,
      "ἀ": 174,
      "Ἀ": 175,
      "Ἁ": 176,
      "Ἄ": 177,
      "Ἅ": 178,
      "Ἐ": 179,
      "Ἑ": 180,
      "Ἔ": 181,
      "Ἕ": 182,
      "ἠ": 183,
      "ἡ": 184,
      "Ἠ": 185,
      "Ἡ": 186,
      "Ἥ": 187,
      "Ἦ": 188,
      "ἰ": 189,
      "ἱ": 190,
      "ἴ": 191,
      "ἵ": 192,
      "ἶ": 193,
      "Ἰ": 194,
      "Ἱ": 195,
      "Ἴ": 196,
      "Ἵ": 197,
      "Ἶ": 198,
      "ὄ": 199,
      "Ὀ": 200,
      "Ὄ": 201,
      "ὐ": 202,
      "ὔ": 203,
      "ὖ": 204,
      "Ὑ": 205,
      "Ὕ": 206,
      "Ὠ": 207,
      "Ὤ": 208,
      "Ὦ": 209,
      "Ὧ": 210,
      "ά": 211,
      "έ": 212,
      "ή": 213,
      "ί": 214,
      "ὸ": 215,
      "ό": 216,
      "ύ": 217,
      "ώ": 218,
      "ᾶ": 219,
      "ῃ": 220,
      "ῄ": 221,
      "ῆ": 222,
      "ΐ": 223,
      "ῖ": 224,
      "ΰ": 225,
      "ῤ": 226,
      "ῥ": 227,
      "ῦ": 228,
      "Ῥ": 229,
      "ῶ": 230,
      "—": 231,
      "’": 232,
      "“": 233,
      "”": 234,
      "•": 235,
      "™": 236,
      "→": 237,
      "﻿": 238,
      "de": 239,
      "en": 240,
      "os": 241,
      "es": 242,
      "la": 243,
      "er": 244,
      "qu": 245,
      "an": 246,
      "ar": 247,
      "on": 248,
      "as": 249,
      "que": 250,
      "or": 251,
      "do": 252,
      "al": 253,
      "el": 254,
      "ci": 255,
      "te": 256,
      "un": 257,
      "re": 258,
      "in": 259,
      "ab": 260,
      "se": 261,
      "to": 262,
      "di": 263,
      "tr": 264,
      "ta": 265,
      "da": 266,
      "le": 267,
      "con": 268,
      "ti": 269,
      "co": 270,
      "los": 271,
      "su": 272,
      "no": 273,
      "mi": 274,
      "..": 275,
      "lo": 276,
      "cu": 277,
      "ía": 278,
      "me": 279,
      "ri": 280,
      "ra": 281,
      "mo": 282,
      "ca": 283,
      "por": 284,
      "ch": 285,
      "las": 286,
      "--": 287,
      "si": 288,
      "vi": 289,
      "ro": 290,
      "par": 291,
      "ma": 292,
      "pu": 293,
      "ón": 294,
      "mu": 295,
      "mp": 296,
      "men": 297,
      "ha": 298,
      "gu": 299,
      "des": 300,
      "tu": 301,
      "dos": 302,
      "li": 303,
      "aba": 304,
      "mb": 305,
      "so": 306,
      "del": 307,
      "una": 308,
      "est": 309,
      "era": 310,
      "...": 311,
      "ten": 312,
      "ero": 313,
      "ando": 314,
      "ás": 315,
      "pa": 316,
      "go": 317,
      "pi": 318,
      "qui": 319,
      "jo": 320,
      "tra": 321,
      "res": 322,
      "ent": 323,
      "ce": 324,
      "us": 325,
      "ve": 326,
      "man": 327,
      "para": 328,
      "ver": 329,
      "tan": 330,
      "hab": 331,
      "po": 332,
      "he": 333,
      "como": 334,
      "vo": 335,
      "mos": 336,
      "más": 337,
      "pe": 338,
      "cia": 339,
      "fu": 340,
      "na": 341,
      "fi": 342,
      "bi": 343,
      "hi": 344,
      "za": 345,
      "dad": 346,
      "lla": 347,
      "per": 348,
      "tro": 349,
      "ter": 350,
      "ac": 351,
      "ni": 352,
      "ec": 353,
      "les": 354,
      "ga": 355,
      "ba": 356,
      "mente": 357,
      "cas": 358,
      "car": 359,
      "pro": 360,
      "ora": 361,
      "án": 362,
      "aque": 363,
      "is": 364,
      "ción": 365,
      "das": 366,
      "tar": 367,
      "sus": 368,
      "ran": 369,
      "ex": 370,
      "va": 371,
      "cho": 372,
      "yo": 373,
      "endo": 374,
      "mar": 375,
      "ven": 376,
      "mis": 377,
      "cos": 378,
      "sin": 379,
      "du": 380,
      "ho": 381,
      "cer": 382,
      "tos": 383,
      "tes": 384,
      "lan": 385,
      "ras": 386,
      "ya": 387,
      "ser": 388,
      "lu": 389,
      "ces": 390,
      "sa": 391,
      "gi": 392,
      "én": 393,
      "tor": 394,
      "emp": 395,
      "és": 396,
      "ente": 397,
      "Es": 398,
      "pas": 399,
      "ted": 400,
      "of": 401,
      "aban": 402,
      "ia": 403,
      "ir": 404,
      "esta": 405,
      "mas": 406,
      "tal": 407,
      "tas": 408,
      "cor": 409,
      "lle": 410,
      "ña": 411,
      "the": 412,
      "ros": 413,
      "ru": 414,
      "ja": 415,
      "ing": 416,
      "qué": 417,
      "pre": 418,
      "sal": 419,
      "ad": 420,
      "pon": 421,
      "gran": 422,
      "all": 423,
      "En": 424,
      "eron": 425,
      "son": 426,
      "lar": 427,
      "No": 428,
      "ían": 429,
      "pero": 430,
      "hu": 431,
      "io": 432,
      "bre": 433,
      "min": 434,
      "can": 435,
      "ones": 436,
      "bu": 437,
      "dijo": 438,
      "muy": 439,
      "nu": 440,
      "ene": 441,
      "for": 442,
      "her": 443,
      "esto": 444,
      "dis": 445,
      "porque": 446,
      "don": 447,
      "aquel": 448,
      "cab": 449,
      "jos": 450,
      "dar": 451,
      "usted": 452,
      "cuando": 453,
      "ella": 454,
      "elo": 455,
      "pr": 456,
      "gra": 457,
      "había": 458,
      "den": 459,
      "mor": 460,
      "der": 461,
      "cal": 462,
      "».": 463,
      "otr": 464,
      "homb": 465,
      "gar": 466,
      "gun": 467,
      "él": 468,
      "cha": 469,
      "be": 470,
      "ento": 471,
      "bo": 472,
      "ios": 473,
      "cen": 474,
      "todo": 475,
      "ll": 476,
      "II": 477,
      "nos": 478,
      "dor": 479,
      "comp": 480,
      "ido": 481,
      "pen": 482,
      "Qu": 483,
      "has": 484,
      "cre": 485,
      "zo": 486,
      "sab": 487,
      "lab": 488,
      "ño": 489,
      "vol": 490,
      "señ": 491,
      "El": 492,
      "cual": 493,
      "día": 494,
      "bien": 495,
      "pri": 496,
      "mon": 497,
      "ina": 498,
      "este": 499,
      "pres": 500,
      "Pero": 501,
      "La": 502,
      "tó": 503,
      "cio": 504,
      "fa": 505,
      "ne": 506,
      "medi": 507,
      "entre": 508,
      "sí": 509,
      "mí": 510,
      "pos": 511,
      "rar": 512,
      "mer": 513,
      "cla": 514,
      "pues": 515,
      "deci": 516,
      "it": 517,
      "ob": 518,
      "ino": 519,
      "pue": 520,
      "tion": 521,
      "In": 522,
      "así": 523,
      "ese": 524,
      "ida": 525,
      "erra": 526,
      "je": 527,
      "ves": 528,
      "mal": 529,
      "cri": 530,
      "lor": 531,
      "van": 532,
      "mbi": 533,
      "có": 534,
      "ego": 535,
      "pués": 536,
      "ber": 537,
      "entr": 538,
      "casa": 539,
      "dió": 540,
      "encia": 541,
      "dose": 542,
      "_f": 543,
      "var": 544,
      "todos": 545,
      "De": 546,
      "Por": 547,
      "eza": 548,
      "dios": 549,
      "hora": 550,
      "fin": 551,
      "pare": 552,
      "otros": 553,
      "_m": 554,
      "donde": 555,
      "_f_": 556,
      "hay": 557,
      "otra": 558,
      "sobre": 559,
      "hasta": 560,
      "ría": 561,
      "vu": 562,
      "ol": 563,
      "Re": 564,
      "estaba": 565,
      "ble": 566,
      "and": 567,
      "otro": 568,
      "che": 569,
      "Gu": 570,
      "está": 571,
      "uno": 572,
      "cin": 573,
      "_m_": 574,
      "mismo": 575,
      "jer": 576,
      "ano": 577,
      "quí": 578,
      "Ma": 579,
      "Se": 580,
      "idad": 581,
      "cía": 582,
      "ún": 583,
      "Si": 584,
      "erte": 585,
      "aun": 586,
      "mun": 587,
      "tri": 588,
      "bar": 589,
      "ele": 590,
      "ado": 591,
      "palab": 592,
      "eli": 593,
      "ías": 594,
      "sen": 595,
      "able": 596,
      "fer": 597,
      "agu": 598,
      "tien": 599,
      "buen": 600,
      "mano": 601,
      "miento": 602,
      "tado": 603,
      "aquella": 604,
      "Dios": 605,
      ".»": 606,
      "gan": 607,
      "quier": 608,
      "jar": 609,
      "ciones": 610,
      "tiemp": 611,
      "Cu": 612,
      "ton": 613,
      "entes": 614,
      "dre": 615,
      "val": 616,
      "tambi": 617,
      "gui": 618,
      "mej": 619,
      "tur": 620,
      "hacer": 621,
      "decir": 622,
      "erto": 623,
      "tre": 624,
      "pla": 625,
      "vis": 626,
      "hijo": 627,
      "ez": 628,
      "gen": 629,
      "mucho": 630,
      "quien": 631,
      "«¡": 632,
      "cios": 633,
      "ante": 634,
      "ojos": 635,
      "toda": 636,
      "tierra": 637,
      "llo": 638,
      "esp": 639,
      "xi": 640,
      "ju": 641,
      "ctor": 642,
      "ed": 643,
      "eran": 644,
      "nada": 645,
      "much": 646,
      "tir": 647,
      "antes": 648,
      "ándo": 649,
      "ren": 650,
      "cono": 651,
      "tenía": 652,
      "fec": 653,
      "anto": 654,
      "aquí": 655,
      "gos": 656,
      "tiempo": 657,
      "sac": 658,
      "zón": 659,
      "vida": 660,
      "Yo": 661,
      "tí": 662,
      "chi": 663,
      "Me": 664,
      "imp": 665,
      "mujer": 666,
      "añ": 667,
      "taba": 668,
      "después": 669,
      "quer": 670,
      "hombre": 671,
      "eso": 672,
      "poco": 673,
      "Al": 674,
      "tuna": 675,
      "mir": 676,
      "ana": 677,
      "br": 678,
      "):": 679,
      "esa": 680,
      "erta": 681,
      "segu": 682,
      "tú": 683,
      "cion": 684,
      "fun": 685,
      "t_": 686,
      "tiene": 687,
      "ár": 688,
      "aron": 689,
      "estas": 690,
      "cosa": 691,
      "tanto": 692,
      "ale": 693,
      "For": 694,
      "mbre": 695,
      "algun": 696,
      "Pu": 697,
      "tin": 698,
      "cosas": 699,
      "Pro": 700,
      "nues": 701,
      "modo": 702,
      "sino": 703,
      "allí": 704,
      "parec": 705,
      "_t_": 706,
      "ami": 707,
      "ales": 708,
      "bas": 709,
      "cur": 710,
      "hombres": 711,
      "ín": 712,
      "hacia": 713,
      "ellos": 714,
      "cabeza": 715,
      "Fortuna": 716,
      "cuer": 717,
      "mundo": 718,
      "parte": 719,
      "vos": 720,
      "fué": 721,
      "Fortunata": 722,
      "gre": 723,
      "ge": 724,
      "ándose": 725,
      "his": 726,
      "uc": 727,
      "empre": 728,
      "ahora": 729,
      "palabras": 730,
      "cias": 731,
      "han": 732,
      "fe": 733,
      "gas": 734,
      "ide": 735,
      "enta": 736,
      "vuel": 737,
      "ay": 738,
      "may": 739,
      "aunque": 740,
      "Qué": 741,
      "wor": 742,
      "bra": 743,
      "cora": 744,
      "todas": 745,
      "noche": 746,
      "gri": 747,
      "ciendo": 748,
      "cada": 749,
      "--¡": 750,
      "manos": 751,
      "dese": 752,
      "mó": 753,
      "dr": 754,
      "Con": 755,
      "san": 756,
      "tras": 757,
      "también": 758,
      "atro": 759,
      "fal": 760,
      "mba": 761,
      "il": 762,
      "vez": 763,
      "oso": 764,
      "ér": 765,
      "mili": 766,
      "siempre": 767,
      "entos": 768,
      "ita": 769,
      "jun": 770,
      "Lu": 771,
      "bri": 772,
      "ur": 773,
      "doña": 774,
      "cido": 775,
      "pli": 776,
      "vas": 777,
      "lado": 778,
      "tres": 779,
      "Te": 780,
      "vió": 781,
      "ada": 782,
      "hor": 783,
      "nue": 784,
      "Des": 785,
      "estos": 786,
      "medio": 787,
      "udad": 788,
      "tura": 789,
      "Co": 790,
      "jec": 791,
      "wit": 792,
      "contr": 793,
      "ani": 794,
      ".--": 795,
      "otras": 796,
      "Ja": 797,
      "osa": 798,
      "cul": 799,
      "desde": 800,
      "señora": 801,
      "ech": 802,
      "gus": 803,
      "ísi": 804,
      "--.": 805,
      "ris": 806,
      "berg": 807,
      "ció": 808,
      "tenberg": 809,
      "au": 810,
      "An": 811,
      "Pues": 812,
      "ins": 813,
      "lante": 814,
      "ban": 815,
      "Hé": 816,
      "pes": 817,
      "tran": 818,
      "señor": 819,
      "ject": 820,
      "To": 821,
      "tener": 822,
      "contra": 823,
      "sos": 824,
      "tía": 825,
      "estu": 826,
      "alma": 827,
      "ji": 828,
      "zar": 829,
      "rey": 830,
      "alg": 831,
      "person": 832,
      "Mi": 833,
      "eros": 834,
      "dido": 835,
      "caus": 836,
      "Per": 837,
      "Mar": 838,
      "th": 839,
      "dej": 840,
      "cel": 841,
      "menos": 842,
      "dia": 843,
      "éndo": 844,
      "Héctor": 845,
      "mero": 846,
      "mento": 847,
      "dó": 848,
      "propi": 849,
      "pron": 850,
      "Gutenberg": 851,
      "Project": 852,
      "ario": 853,
      "mayor": 854,
      "corazón": 855,
      "!...": 856,
      "Los": 857,
      "pun": 858,
      "work": 859,
      "Ju": 860,
      "comba": 861,
      "daba": 862,
      "algo": 863,
      "--¿": 864,
      "zos": 865,
      "hon": 866,
      "hal": 867,
      "ión": 868,
      "inci": 869,
      "reci": 870,
      "Cuando": 871,
      "with": 872,
      "mejor": 873,
      "dan": 874,
      "----": 875,
      "demás": 876,
      "Rey": 877,
      "vir": 878,
      "Jacin": 879,
      "Aqui": 880,
      "len": 881,
      "Di": 882,
      "Lo": 883,
      "Par": 884,
      "San": 885,
      "tales": 886,
      "Aquiles": 887,
      "haber": 888,
      "im": 889,
      "jas": 890,
      "levan": 891,
      "arse": 892,
      "hace": 893,
      "fue": 894,
      "ig": 895,
      "só": 896,
      "zas": 897,
      "oro": 898,
      "at": 899,
      "ning": 900,
      "dir": 901,
      "temp": 902,
      "hizo": 903,
      "fuer": 904,
      "Ci": 905,
      "inter": 906,
      "úpi": 907,
      "10": 908,
      "15": 909,
      "acer": 910,
      "vía": 911,
      "misma": 912,
      "estar": 913,
      "eno": 914,
      ").": 915,
      "camin": 916,
      "hubi": 917,
      "padre": 918,
      "Maxi": 919,
      "llos": 920,
      "dicho": 921,
      "puede": 922,
      "gua": 923,
      "grande": 924,
      "din": 925,
      "veces": 926,
      "ío": 927,
      "Ca": 928,
      "tad": 929,
      "ali": 930,
      "cómo": 931,
      "Ya": 932,
      "ellas": 933,
      "ciudad": 934,
      "dado": 935,
      "lin": 936,
      "not": 937,
      "puso": 938,
      "fuera": 939,
      "sé": 940,
      "mira": 941,
      "hecho": 942,
      "fr": 943,
      "sol": 944,
      "Júpi": 945,
      "Júpiter": 946,
      "Jacinta": 947,
      "ír": 948,
      "gó": 949,
      "teuc": 950,
      "tió": 951,
      "cara": 952,
      "Su": 953,
      "iendo": 954,
      "mil": 955,
      "tante": 956,
      "parece": 957,
      "tud": 958,
      "20": 959,
      "div": 960,
      "III": 961,
      "=:": 962,
      "pregun": 963,
      "sent": 964,
      "dias": 965,
      "respon": 966,
      "cado": 967,
      "eces": 968,
      "ena": 969,
      "traba": 970,
      "ian": 971,
      "reg": 972,
      "sea": 973,
      "sig": 974,
      "allá": 975,
      "Así": 976,
      "ase": 977,
      "ment": 978,
      "verdad": 979,
      "tido": 980,
      "hermos": 981,
      "fri": 982,
      "Oh": 983,
      "XV": 984,
      "tamente": 985,
      "llev": 986,
      "cuanto": 987,
      "enton": 988,
      "XI": 989,
      "emb": 990,
      "lá": 991,
      "emos": 992,
      "gente": 993,
      "!,": 994,
      "Hi": 995,
      "joven": 996,
      "agua": 997,
      "ly": 998,
      "pal": 999,
      "delante": 1000,
      "oy": 1001,
      "entras": 1002,
      "Espa": 1003,
      "ió": 1004,
      "rado": 1005,
      "voz": 1006,
      "mina": 1007,
      "luego": 1008,
      "Lupe": 1009,
      "mpo": 1010,
      "mes": 1011,
      "cogi": 1012,
      "visi": 1013,
      "anti": 1014,
      "ello": 1015,
      "calle": 1016,
      "iz": 1017,
      "bus": 1018,
      "consi": 1019,
      "rió": 1020,
      "éndose": 1021,
      "lib": 1022,
      "tando": 1023,
      "muchos": 1024,
      "Le": 1025,
      "pin": 1026,
      "mag": 1027,
      "unos": 1028,
      "indi": 1029,
      "har": 1030,
      "muerte": 1031,
      "aqueos": 1032,
      "you": 1033,
      "iba": 1034,
      "?...": 1035,
      "arro": 1036,
      "hija": 1037,
      "entonces": 1038,
      "Po": 1039,
      "dá": 1040,
      "decía": 1041,
      "naves": 1042,
      "pens": 1043,
      "tis": 1044,
      "pies": 1045,
      "princi": 1046,
      "teucros": 1047,
      "amor": 1048,
      "dón": 1049,
      "gh": 1050,
      "--,": 1051,
      "Enton": 1052,
      "Entonces": 1053,
      "visto": 1054,
      "tru": 1055,
      "bajo": 1056,
      "25": 1057,
      "gue": 1058,
      "Li": 1059,
      "ído": 1060,
      "esti": 1061,
      "sido": 1062,
      "Indios": 1063,
      "ill": 1064,
      "parecía": 1065,
      "volver": 1066,
      "neces": 1067,
      "ses": 1068,
      "guar": 1069,
      "ró": 1070,
      "gado": 1071,
      "muchas": 1072,
      "col": 1073,
      "com": 1074,
      "llama": 1075,
      "compañ": 1076,
      "Después": 1077,
      "pronto": 1078,
      "plan": 1079,
      "ñas": 1080,
      "años": 1081,
      "tus": 1082,
      "puesto": 1083,
      "poner": 1084,
      "eras": 1085,
      "tron": 1086,
      "tio": 1087,
      "fir": 1088,
      "lti": 1089,
      "escri": 1090,
      "puerta": 1091,
      "Que": 1092,
      "tural": 1093,
      "posi": 1094,
      "fo": 1095,
      "ell": 1096,
      "tros": 1097,
      "ias": 1098,
      "dera": 1099,
      "iste": 1100,
      "días": 1101,
      "ut": 1102,
      "«¿": 1103,
      "escu": 1104,
      "sólo": 1105,
      "pan": 1106,
      "come": 1107,
      "30": 1108,
      "grandes": 1109,
      "pren": 1110,
      "Cris": 1111,
      "ior": 1112,
      "lanza": 1113,
      "cial": 1114,
      "Pa": 1115,
      "unca": 1116,
      "tuvo": 1117,
      "ty": 1118,
      "dio": 1119,
      "char": 1120,
      "mañ": 1121,
      "CA": 1122,
      "hablar": 1123,
      "ul": 1124,
      "asi": 1125,
      "tengo": 1126,
      "pie": 1127,
      "figu": 1128,
      "chas": 1129,
      "cuerpo": 1130,
      "18": 1131,
      "rá": 1132,
      "preci": 1133,
      "ito": 1134,
      "tica": 1135,
      "enten": 1136,
      "Juan": 1137,
      "cuar": 1138,
      "Indias": 1139,
      "dere": 1140,
      "laba": 1141,
      "tada": 1142,
      "forma": 1143,
      "Ru": 1144,
      "Ar": 1145,
      "bli": 1146,
      "madre": 1147,
      "cru": 1148,
      "any": 1149,
      "tico": 1150,
      "llegar": 1151,
      "dando": 1152,
      "vin": 1153,
      "chos": 1154,
      "iente": 1155,
      "ló": 1156,
      "dades": 1157,
      "muerto": 1158,
      "Sol": 1159,
      "tribu": 1160,
      "mucha": 1161,
      "hacía": 1162,
      "manera": 1163,
      "Como": 1164,
      "dero": 1165,
      "dice": 1166,
      "alguna": 1167,
      "causa": 1168,
      "encontr": 1169,
      "podía": 1170,
      "expres": 1171,
      "rec": 1172,
      "cabal": 1173,
      "mana": 1174,
      "saber": 1175,
      "Señ": 1176,
      "tienen": 1177,
      "by": 1178,
      "mé": 1179,
      "cau": 1180,
      "Ido": 1181,
      "ai": 1182,
      "ños": 1183,
      "diver": 1184,
      "primer": 1185,
      "ke": 1186,
      "buena": 1187,
      "mía": 1188,
      "luz": 1189,
      "Las": 1190,
      "llas": 1191,
      "sigui": 1192,
      "cerca": 1193,
      "llevar": 1194,
      "ador": 1195,
      "eo": 1196,
      "...».": 1197,
      "áni": 1198,
      "cont": 1199,
      "pec": 1200,
      "digo": 1201,
      "cons": 1202,
      "parti": 1203,
      "ándole": 1204,
      "nunca": 1205,
      "tm": 1206,
      "idea": 1207,
      "mañana": 1208,
      "espa": 1209,
      "excla": 1210,
      "ES": 1211,
      "dé": 1212,
      "inc": 1213,
      "gro": 1214,
      "estó": 1215,
      "TO": 1216,
      "vieron": 1217,
      "éste": 1218,
      "aún": 1219,
      "suelo": 1220,
      "cuatro": 1221,
      "hat": 1222,
      "yó": 1223,
      "ger": 1224,
      "this": 1225,
      "unas": 1226,
      "extra": 1227,
      "et": 1228,
      "natural": 1229,
      "gracia": 1230,
      "Vi": 1231,
      "eles": 1232,
      "má": 1233,
      "pó": 1234,
      "ona": 1235,
      "blan": 1236,
      "entra": 1237,
      "espos": 1238,
      "inf": 1239,
      "ritu": 1240,
      "partes": 1241,
      "14": 1242,
      "pobre": 1243,
      "dul": 1244,
      "nosotros": 1245,
      "algunos": 1246,
      "af": 1247,
      "apar": 1248,
      "marido": 1249,
      "Ti": 1250,
      "sión": 1251,
      "via": 1252,
      "pensa": 1253,
      "quiere": 1254,
      "camino": 1255,
      "junto": 1256,
      "dentro": 1257,
      "Porque": 1258,
      "amb": 1259,
      "raz": 1260,
      "ere": 1261,
      "cuenta": 1262,
      "cep": 1263,
      "rifi": 1264,
      "volvió": 1265,
      "Va": 1266,
      "die": 1267,
      "edad": 1268,
      "diri": 1269,
      "solo": 1270,
      "jó": 1271,
      "diciendo": 1272,
      "pul": 1273,
      "mani": 1274,
      "Qui": 1275,
      "ete": 1276,
      "igu": 1277,
      "nombre": 1278,
      "17": 1279,
      "jus": 1280,
      "comer": 1281,
      "bir": 1282,
      "sabe": 1283,
      "segun": 1284,
      "mientras": 1285,
      "taban": 1286,
      "pied": 1287,
      "caso": 1288,
      "empez": 1289,
      "pasar": 1290,
      "famili": 1291,
      "media": 1292,
      "),": 1293,
      "aso": 1294,
      "fuego": 1295,
      "palabra": 1296,
      "lando": 1297,
      "sue": 1298,
      "lidad": 1299,
      "soy": 1300,
      "estaban": 1301,
      "dores": 1302,
      "Ni": 1303,
      "bro": 1304,
      "dejar": 1305,
      "semej": 1306,
      "ores": 1307,
      "hoy": 1308,
      "dioses": 1309,
      "fle": 1310,
      "descu": 1311,
      "lí": 1312,
      "ciencia": 1313,
      "vista": 1314,
      "Sa": 1315,
      "ben": 1316,
      "anos": 1317,
      "lig": 1318,
      "quiera": 1319,
      "amigo": 1320,
      "19": 1321,
      "Cas": 1322,
      "glor": 1323,
      "tina": 1324,
      "ór": 1325,
      "one": 1326,
      "cierto": 1327,
      "están": 1328,
      "fuerza": 1329,
      "ertas": 1330,
      "tomar": 1331,
      "esper": 1332,
      "llaman": 1333,
      "nuevo": 1334,
      "mientos": 1335,
      "habían": 1336,
      "salir": 1337,
      "pecho": 1338,
      "aquellos": 1339,
      "últi": 1340,
      "riendo": 1341,
      "desa": 1342,
      "espí": 1343,
      "fueron": 1344,
      "aquellas": 1345,
      "Perú": 1346,
      "viene": 1347,
      "quiero": 1348,
      "DE": 1349,
      "pele": 1350,
      "mera": 1351,
      "comi": 1352,
      "sola": 1353,
      "algunas": 1354,
      "12": 1355,
      "aqué": 1356,
      "ther": 1357,
      "16": 1358,
      "toria": 1359,
      "pueb": 1360,
      "Pe": 1361,
      "clo": 1362,
      "vor": 1363,
      "enga": 1364,
      "diendo": 1365,
      "bron": 1366,
      "ví": 1367,
      "elec": 1368,
      "cir": 1369,
      "voy": 1370,
      "eres": 1371,
      "avi": 1372,
      "rada": 1373,
      "lugar": 1374,
      "iller": 1375,
      "ea": 1376,
      "enci": 1377,
      "hijos": 1378,
      "tambien": 1379,
      "13": 1380,
      "aña": 1381,
      "té": 1382,
      "somb": 1383,
      "Guiller": 1384,
      "ght": 1385,
      "maba": 1386,
      "nuestro": 1387,
      "LA": 1388,
      "arri": 1389,
      "nadie": 1390,
      "acab": 1391,
      "ic": 1392,
      "yos": 1393,
      "espe": 1394,
      "estro": 1395,
      "momento": 1396,
      "viendo": 1397,
      "Rub": 1398,
      "LO": 1399,
      "arma": 1400,
      "conse": 1401,
      "suerte": 1402,
      "migo": 1403,
      "efec": 1404,
      "nar": 1405,
      "boca": 1406,
      "Guillermina": 1407,
      "ue": 1408,
      "mío": 1409,
      "España": 1410,
      "cielo": 1411,
      "....": 1412,
      "primero": 1413,
      "nuestra": 1414,
      "!--": 1415,
      "tón": 1416,
      "vio": 1417,
      "Era": 1418,
      "bes": 1419,
      "dec": 1420,
      "habia": 1421,
      "monio": 1422,
      "combate": 1423,
      "Ay": 1424,
      "abi": 1425,
      "dida": 1426,
      "verda": 1427,
      "casi": 1428,
      "Rubín": 1429,
      "Do": 1430,
      "Sí": 1431,
      "sor": 1432,
      "sas": 1433,
      "err": 1434,
      "tiva": 1435,
      "persona": 1436,
      "aten": 1437,
      "dieron": 1438,
      "difer": 1439,
      "estoy": 1440,
      "bor": 1441,
      "pel": 1442,
      "vino": 1443,
      "sobr": 1444,
      "llor": 1445,
      "sacrifi": 1446,
      "mando": 1447,
      "hici": 1448,
      "aleg": 1449,
      "frente": 1450,
      "dí": 1451,
      "obser": 1452,
      "esen": 1453,
      "cil": 1454,
      "produ": 1455,
      "Cru": 1456,
      "lus": 1457,
      "Mas": 1458,
      "conver": 1459,
      "tarde": 1460,
      "EN": 1461,
      "ος": 1462,
      "dura": 1463,
      "hermano": 1464,
      "az": 1465,
      "ej": 1466,
      "erno": 1467,
      "Santa": 1468,
      "RI": 1469,
      "ables": 1470,
      "cuales": 1471,
      "sangre": 1472,
      "aire": 1473,
      "?--": 1474,
      "año": 1475,
      "mirar": 1476,
      "lleva": 1477,
      "tienda": 1478,
      "gor": 1479,
      "i_": 1480,
      "ocur": 1481,
      "that": 1482,
      "abri": 1483,
      "ropa": 1484,
      "carro": 1485,
      "anza": 1486,
      "present": 1487,
      "Maximili": 1488,
      "fro": 1489,
      "Maximiliano": 1490,
      "atra": 1491,
      "ísimo": 1492,
      "dría": 1493,
      "fá": 1494,
      "orden": 1495,
      "Cielo": 1496,
      "sion": 1497,
      "rue": 1498,
      "quería": 1499,
      "til": 1500,
      "rible": 1501,
      "quién": 1502,
      "nave": 1503,
      "entrar": 1504,
      "bles": 1505,
      "ís": 1506,
      "conven": 1507,
      "impor": 1508,
      "pá": 1509,
      "pú": 1510,
      "caballos": 1511,
      "Cruz": 1512,
      "XX": 1513,
      "dig": 1514,
      "permi": 1515,
      "duda": 1516,
      "Esto": 1517,
      "tienes": 1518,
      "oh": 1519,
      "tions": 1520,
      "Patro": 1521,
      "cé": 1522,
      "tivo": 1523,
      "fuerte": 1524,
      "punto": 1525,
      "Para": 1526,
      "ál": 1527,
      "tados": 1528,
      "rios": 1529,
      "=.": 1530,
      "poder": 1531,
      "hubiera": 1532,
      "deli": 1533,
      "triste": 1534,
      "algún": 1535,
      "Hab": 1536,
      "py": 1537,
      "sur": 1538,
      "primera": 1539,
      "gusto": 1540,
      "ple": 1541,
      "trás": 1542,
      "exclamó": 1543,
      "zó": 1544,
      "dolor": 1545,
      "unda": 1546,
      "int": 1547,
      "espíritu": 1548,
      "Patroclo": 1549,
      "fes": 1550,
      "are": 1551,
      "alto": 1552,
      "mado": 1553,
      "profun": 1554,
      "Esta": 1555,
      "éndole": 1556,
      "(=": 1557,
      "?».": 1558,
      "ados": 1559,
      "encu": 1560,
      "ticia": 1561,
      "super": 1562,
      "paso": 1563,
      "será": 1564,
      "salió": 1565,
      "ánimo": 1566,
      "Mé": 1567,
      "tá": 1568,
      "comen": 1569,
      "tración": 1570,
      "troy": 1571,
      "familia": 1572,
      "Ah": 1573,
      "esos": 1574,
      "...!": 1575,
      "23": 1576,
      "trans": 1577,
      "Aga": 1578,
      "alo": 1579,
      "culo": 1580,
      "romp": 1581,
      "out": 1582,
      "rio": 1583,
      "hacen": 1584,
      "Bar": 1585,
      "amigos": 1586,
      "ori": 1587,
      "penas": 1588,
      "obs": 1589,
      "erva": 1590,
      "confi": 1591,
      "gol": 1592,
      "polo": 1593,
      "ER": 1594,
      "caba": 1595,
      "fen": 1596,
      "alcan": 1597,
      "adri": 1598,
      "gún": 1599,
      "arre": 1600,
      "dije": 1601,
      "mala": 1602,
      "tanta": 1603,
      "taron": 1604,
      "pareció": 1605,
      "igual": 1606,
      "arriba": 1607,
      "bon": 1608,
      "bía": 1609,
      "ería": 1610,
      "pala": 1611,
      "drá": 1612,
      "eta": 1613,
      "use": 1614,
      "comun": 1615,
      "viera": 1616,
      "haciendo": 1617,
      "Or": 1618,
      "estr": 1619,
      "rela": 1620,
      "falta": 1621,
      "ísima": 1622,
      "NO": 1623,
      "sta": 1624,
      "zco": 1625,
      "esas": 1626,
      "estra": 1627,
      "conten": 1628,
      "movi": 1629,
      "Min": 1630,
      "menón": 1631,
      "works": 1632,
      "Señor": 1633,
      "Agamenón": 1634,
      "ap": 1635,
      "fres": 1636,
      "arte": 1637,
      "cito": 1638,
      "color": 1639,
      "distribu": 1640,
      "ocu": 1641,
      "ph": 1642,
      "ertos": 1643,
      "copy": 1644,
      "ofre": 1645,
      "acu": 1646,
      "bal": 1647,
      "cida": 1648,
      "rante": 1649,
      "sti": 1650,
      "ordin": 1651,
      "difi": 1652,
      "Hijo": 1653,
      "fru": 1654,
      "ura": 1655,
      "cien": 1656,
      "ley": 1657,
      "diez": 1658,
      "venir": 1659,
      "plata": 1660,
      "brazos": 1661,
      "debe": 1662,
      "quin": 1663,
      "inten": 1664,
      "zado": 1665,
      "seguida": 1666,
      "Mu": 1667,
      "pueblo": 1668,
      "from": 1669,
      "Del": 1670,
      "cr": 1671,
      "volun": 1672,
      "agre": 1673,
      "uda": 1674,
      "sitio": 1675,
      "jado": 1676,
      "eligi": 1677,
      "valor": 1678,
      "cuarto": 1679,
      "flor": 1680,
      "gaba": 1681,
      "ye": 1682,
      "compren": 1683,
      "tranqui": 1684,
      "Ten": 1685,
      "deros": 1686,
      "damente": 1687,
      "rostro": 1688,
      "jico": 1689,
      "esca": 1690,
      "esposa": 1691,
      "Sab": 1692,
      "Cap": 1693,
      "ien": 1694,
      "pudo": 1695,
      "quisi": 1696,
      "corre": 1697,
      "corri": 1698,
      "pesar": 1699,
      "ms": 1700,
      "tier": 1701,
      "Méjico": 1702,
      "_i_": 1703,
      "lejos": 1704,
      "mur": 1705,
      "mentos": 1706,
      "batal": 1707,
      "deseo": 1708,
      "TU": 1709,
      "nor": 1710,
      "sis": 1711,
      "puedo": 1712,
      "Madri": 1713,
      "ah": 1714,
      "cción": 1715,
      "maban": 1716,
      "enfer": 1717,
      "contin": 1718,
      "senti": 1719,
      "lengua": 1720,
      "ninguna": 1721,
      "dónde": 1722,
      "=--": 1723,
      "cimiento": 1724,
      "uni": 1725,
      "puesta": 1726,
      "pob": 1727,
      "personas": 1728,
      "AS": 1729,
      "tima": 1730,
      "vie": 1731,
      "abajo": 1732,
      "entró": 1733,
      "fecta": 1734,
      "Is": 1735,
      "mostr": 1736,
      "hubo": 1737,
      "obra": 1738,
      "Ilus": 1739,
      "ade": 1740,
      "atre": 1741,
      "razón": 1742,
      "mujeres": 1743,
      "Fe": 1744,
      "ess": 1745,
      "anci": 1746,
      "tigo": 1747,
      "rato": 1748,
      "haya": 1749,
      "divino": 1750,
      "dirigi": 1751,
      "cí": 1752,
      "canos": 1753,
      "eliz": 1754,
      "AN": 1755,
      "Aya": 1756,
      "LI": 1757,
      "ece": 1758,
      "fica": 1759,
      "pasa": 1760,
      "Pepe": 1761,
      "gru": 1762,
      "ting": 1763,
      "éro": 1764,
      "matar": 1765,
      "pasado": 1766,
      "Eu": 1767,
      "yendo": 1768,
      "Meji": 1769,
      "ambos": 1770,
      "Ayax": 1771,
      "mesa": 1772,
      "cuya": 1773,
      "bió": 1774,
      "tronic": 1775,
      "electronic": 1776,
      "Madrid": 1777,
      "Ala": 1778,
      "Ahora": 1779,
      "Cor": 1780,
      "Mene": 1781,
      "Ta": 1782,
      "encar": 1783,
      "lao": 1784,
      "eri": 1785,
      "cump": 1786,
      "capi": 1787,
      "maravi": 1788,
      "males": 1789,
      "22": 1790,
      "amente": 1791,
      "agra": 1792,
      "paz": 1793,
      "tarse": 1794,
      "historia": 1795,
      "héro": 1796,
      "vó": 1797,
      "ara": 1798,
      "cura": 1799,
      "raba": 1800,
      "tenido": 1801,
      "etc": 1802,
      "contemp": 1803,
      "peque": 1804,
      "estado": 1805,
      "parecer": 1806,
      "dinero": 1807,
      "Ilustración": 1808,
      "Cre": 1809,
      "Pría": 1810,
      "tísi": 1811,
      "dejó": 1812,
      "Príamo": 1813,
      "éis": 1814,
      "dicen": 1815,
      "lio": 1816,
      "tancia": 1817,
      "comple": 1818,
      "seguir": 1819,
      "cere": 1820,
      "sabía": 1821,
      "velo": 1822,
      "cadá": 1823,
      "guerra": 1824,
      "acos": 1825,
      "bronce": 1826,
      "cadáver": 1827,
      "?»": 1828,
      "daban": 1829,
      "dían": 1830,
      "cuida": 1831,
      "guas": 1832,
      "ecer": 1833,
      "palacio": 1834,
      "gros": 1835,
      "vent": 1836,
      "almente": 1837,
      "según": 1838,
      "tive": 1839,
      "mbres": 1840,
      "jamás": 1841,
      ");": 1842,
      "úni": 1843,
      "haci": 1844,
      "efecto": 1845,
      "!»": 1846,
      "Fu": 1847,
      "edo": 1848,
      "fon": 1849,
      "ok": 1850,
      "oír": 1851,
      "sir": 1852,
      "distin": 1853,
      "posible": 1854,
      "Tro": 1855,
      "ep": 1856,
      "gü": 1857,
      "gén": 1858,
      "armas": 1859,
      "cari": 1860,
      "cinco": 1861,
      "The": 1862,
      "clu": 1863,
      "obe": 1864,
      "sar": 1865,
      "llan": 1866,
      "favor": 1867,
      "plicó": 1868,
      "razon": 1869,
      "33": 1870,
      "Tú": 1871,
      "estre": 1872,
      "llamar": 1873,
      "He": 1874,
      "fre": 1875,
      "gal": 1876,
      "lada": 1877,
      "quedar": 1878,
      "diera": 1879,
      "corr": 1880,
      "ideas": 1881,
      "Mor": 1882,
      "condu": 1883,
      "habló": 1884,
      "creo": 1885,
      "gando": 1886,
      "envi": 1887,
      "Alah": 1888,
      "24": 1889,
      "cón": 1890,
      "defen": 1891,
      "aria": 1892,
      "magn": 1893,
      "pensar": 1894,
      "Cristina": 1895,
      "gloria": 1896,
      "Jos": 1897,
      "Ver": 1898,
      "viento": 1899,
      "tenían": 1900,
      "respe": 1901,
      "llen": 1902,
      "propio": 1903,
      "piedra": 1904,
      "=,": 1905,
      "Bu": 1906,
      "tación": 1907,
      "fuese": 1908,
      "instante": 1909,
      "27": 1910,
      "28": 1911,
      "lon": 1912,
      "ablo": 1913,
      "zada": 1914,
      "sería": 1915,
      "llegó": 1916,
      "largo": 1917,
      "debajo": 1918,
      "turas": 1919,
      "tencia": 1920,
      "ésta": 1921,
      "todavía": 1922,
      "illas": 1923,
      "Doña": 1924,
      "Aque": 1925,
      "ck": 1926,
      "dora": 1927,
      "ocul": 1928,
      "yas": 1929,
      "und": 1930,
      "ridad": 1931,
      "ester": 1932,
      "habría": 1933,
      "Este": 1934,
      "idades": 1935,
      "Sr": 1936,
      "escal": 1937,
      "dillo": 1938,
      "satis": 1939,
      "ingen": 1940,
      "caball": 1941,
      "agree": 1942,
      "lina": 1943,
      "uri": 1944,
      "mus": 1945,
      "pio": 1946,
      "pró": 1947,
      "mpoco": 1948,
      "principal": 1949,
      "PÍ": 1950,
      "quedó": 1951,
      "cierta": 1952,
      "chu": 1953,
      "dente": 1954,
      "conocer": 1955,
      "signi": 1956,
      "semejante": 1957,
      "Fo": 1958,
      "risa": 1959,
      "habi": 1960,
      "servi": 1961,
      "salu": 1962,
      "Españo": 1963,
      "Minerva": 1964,
      "26": 1965,
      "Apolo": 1966,
      "cando": 1967,
      "ieron": 1968,
      "imag": 1969,
      "rique": 1970,
      "laban": 1971,
      "Un": 1972,
      "miedo": 1973,
      "mater": 1974,
      "niño": 1975,
      "here": 1976,
      "XIV": 1977,
      "Mejicanos": 1978,
      "Có": 1979,
      "ama": 1980,
      "ts": 1981,
      "camp": 1982,
      "siendo": 1983,
      "prote": 1984,
      "dona": 1985,
      "figura": 1986,
      "Una": 1987,
      "regi": 1988,
      "lises": 1989,
      "continu": 1990,
      "34": 1991,
      "Pi": 1992,
      "eb": 1993,
      "equi": 1994,
      "ary": 1995,
      "cina": 1996,
      "memor": 1997,
      "corcel": 1998,
      "aquello": 1999,
      ".'": 2000,
      "29": 2001,
      "OR": 2002,
      "amar": 2003,
      "lación": 2004,
      "camente": 2005,
      "perman": 2006,
      "mirando": 2007,
      "Marte": 2008,
      "respondió": 2009,
      "CAPÍ": 2010,
      "TULO": 2011,
      "CAPÍTULO": 2012,
      "Ulises": 2013,
      "ace": 2014,
      "dri": 2015,
      "preciso": 2016,
      "dulce": 2017,
      "empezó": 2018,
      "Barbar": 2019,
      "ove": 2020,
      "ron": 2021,
      "alidad": 2022,
      "rode": 2023,
      "pol": 2024,
      "dencia": 2025,
      "nuestros": 2026,
      "estuvo": 2027,
      "contestó": 2028,
      "sueño": 2029,
      ".\"": 2030,
      "Dio": 2031,
      "am": 2032,
      "whi": 2033,
      "dito": 2034,
      "colo": 2035,
      "cular": 2036,
      "exten": 2037,
      "Mauri": 2038,
      "árbo": 2039,
      "nueva": 2040,
      "lágri": 2041,
      "ion": 2042,
      "pien": 2043,
      "manda": 2044,
      "prove": 2045,
      "base": 2046,
      "trabajo": 2047,
      "undation": 2048,
      "eas": 2049,
      "iban": 2050,
      "zca": 2051,
      "conmigo": 2052,
      "medes": 2053,
      "bueno": 2054,
      "gener": 2055,
      "Menelao": 2056,
      "Foundation": 2057,
      "Cómo": 2058,
      "Mauricia": 2059,
      "All": 2060,
      "Ros": 2061,
      "diente": 2062,
      "guerr": 2063,
      "termin": 2064,
      "bur": 2065,
      "ata": 2066,
      "osos": 2067,
      "tiendo": 2068,
      "cuyo": 2069,
      "pusi": 2070,
      "exis": 2071,
      "pasó": 2072,
      "negro": 2073,
      "Vaya": 2074,
      "Barbarita": 2075,
      "Hay": 2076,
      "egos": 2077,
      "other": 2078,
      "argi": 2079,
      "ponía": 2080,
      "dres": 2081,
      "id": 2082,
      "cuan": 2083,
      "ches": 2084,
      "veía": 2085,
      "acá": 2086,
      "chico": 2087,
      "Teuc": 2088,
      "Perfecta": 2089,
      "batalla": 2090,
      "Ro": 2091,
      "VI": 2092,
      "apenas": 2093,
      "fran": 2094,
      "ima": 2095,
      "ciente": 2096,
      "silen": 2097,
      "limp": 2098,
      "gada": 2099,
      "santa": 2100,
      "voluntad": 2101,
      "Teucro": 2102,
      "far": 2103,
      "nas": 2104,
      "opin": 2105,
      "titu": 2106,
      "loco": 2107,
      "excel": 2108,
      "aven": 2109,
      "gel": 2110,
      "wn": 2111,
      "conser": 2112,
      "alegría": 2113,
      "pene": 2114,
      "ine": 2115,
      "mue": 2116,
      "mante": 2117,
      "hemos": 2118,
      "quieres": 2119,
      "espal": 2120,
      "preguntó": 2121,
      "corceles": 2122,
      "vel": 2123,
      "ahí": 2124,
      "Na": 2125,
      "up": 2126,
      "sub": 2127,
      "cados": 2128,
      "estás": 2129,
      "peri": 2130,
      "divina": 2131,
      "embar": 2132,
      "lágrimas": 2133,
      "apre": 2134,
      "bos": 2135,
      "Todo": 2136,
      "pecto": 2137,
      "anciano": 2138,
      "DA": 2139,
      "ding": 2140,
      "há": 2141,
      "escla": 2142,
      "right": 2143,
      "cayó": 2144,
      "forme": 2145,
      "40": 2146,
      "tán": 2147,
      "veo": 2148,
      "tío": 2149,
      "cogió": 2150,
      "José": 2151,
      "um": 2152,
      "campo": 2153,
      "pone": 2154,
      "echar": 2155,
      "XVI": 2156,
      "manif": 2157,
      ",--": 2158,
      "TE": 2159,
      "azo": 2160,
      "gía": 2161,
      "titud": 2162,
      "simp": 2163,
      "siete": 2164,
      "salva": 2165,
      "pose": 2166,
      "último": 2167,
      "sobrino": 2168,
      "héroe": 2169,
      "afir": 2170,
      "río": 2171,
      "refer": 2172,
      "calor": 2173,
      "vuelta": 2174,
      "brazo": 2175,
      "encima": 2176,
      "replicó": 2177,
      "despe": 2178,
      "pier": 2179,
      "carne": 2180,
      "creer": 2181,
      "sabes": 2182,
      "sacar": 2183,
      "ningún": 2184,
      "entender": 2185,
      "Juno": 2186,
      "Ven": 2187,
      "agi": 2188,
      "religi": 2189,
      "alta": 2190,
      "reco": 2191,
      "óni": 2192,
      "tua": 2193,
      "éstos": 2194,
      "hermosa": 2195,
      "pensamiento": 2196,
      "cumpli": 2197,
      "IS": 2198,
      "Res": 2199,
      "caer": 2200,
      "torno": 2201,
      "eter": 2202,
      "fra": 2203,
      "arran": 2204,
      "onse": 2205,
      "dientes": 2206,
      "veri": 2207,
      "proce": 2208,
      "rase": 2209,
      "pasos": 2210,
      "grave": 2211,
      "olvi": 2212,
      "sentía": 2213,
      "Troya": 2214,
      "AL": 2215,
      "_ad": 2216,
      "debía": 2217,
      "inmen": 2218,
      "descen": 2219,
      "despues": 2220,
      "sintió": 2221,
      "cabo": 2222,
      "morir": 2223,
      "Luego": 2224,
      "thing": 2225,
      "Bo": 2226,
      "tera": 2227,
      "inas": 2228,
      "secre": 2229,
      "dico": 2230,
      "desgracia": 2231,
      "hier": 2232,
      "quierdo": 2233,
      "aquél": 2234,
      "argivos": 2235,
      "11": 2236,
      "AR": 2237,
      "adelante": 2238,
      "ofi": 2239,
      "ror": 2240,
      "ác": 2241,
      "cie": 2242,
      "inos": 2243,
      "rico": 2244,
      "habla": 2245,
      "diosa": 2246,
      "troyanos": 2247,
      "fac": 2248,
      "oído": 2249,
      "reti": 2250,
      "sua": 2251,
      "suyo": 2252,
      "cación": 2253,
      "quiz": 2254,
      "sala": 2255,
      "sación": 2256,
      "Diomedes": 2257,
      "fé": 2258,
      "idos": 2259,
      "plu": 2260,
      "ste": 2261,
      "aldo": 2262,
      "seis": 2263,
      "tenian": 2264,
      "vein": 2265,
      "terrible": 2266,
      "órden": 2267,
      "dena": 2268,
      "entro": 2269,
      "anas": 2270,
      "tria": 2271,
      "vivir": 2272,
      "quiso": 2273,
      "minis": 2274,
      "cuerdo": 2275,
      "Ciudad": 2276,
      "dij": 2277,
      "tadas": 2278,
      "consu": 2279,
      "contar": 2280,
      "tantos": 2281,
      "baj": 2282,
      "costu": 2283,
      "durante": 2284,
      "cano": 2285,
      "gracias": 2286,
      "alguno": 2287,
      "naturaleza": 2288,
      "públi": 2289,
      "imagen": 2290,
      "=----": 2291,
      "Aquí": 2292,
      "enseñ": 2293,
      "suce": 2294,
      "rido": 2295,
      "resis": 2296,
      "bajos": 2297,
      "hermana": 2298,
      "we": 2299,
      "dición": 2300,
      "cae": 2301,
      "mortales": 2302,
      "amiga": 2303,
      "Españoles": 2304,
      "Bien": 2305,
      "IN": 2306,
      "Pablo": 2307,
      "pros": 2308,
      "tampoco": 2309,
      "pira": 2310,
      "correr": 2311,
      "which": 2312,
      "Eso": 2313,
      "RE": 2314,
      "conciencia": 2315,
      "ria": 2316,
      "sober": 2317,
      "ciosa": 2318,
      "querido": 2319,
      "virtud": 2320,
      "hicieron": 2321,
      "tierras": 2322,
      "50": 2323,
      "Atr": 2324,
      "cá": 2325,
      "cír": 2326,
      "fí": 2327,
      "zando": 2328,
      "suces": 2329,
      "sole": 2330,
      "vesti": 2331,
      "ándome": 2332,
      "vuelve": 2333,
      "atraves": 2334,
      "Atrida": 2335,
      "apo": 2336,
      "elos": 2337,
      "tito": 2338,
      "cama": 2339,
      "adver": 2340,
      "laron": 2341,
      "nego": 2342,
      "dána": 2343,
      "firme": 2344,
      "RO": 2345,
      "cían": 2346,
      "efri": 2347,
      "ientes": 2348,
      "jes": 2349,
      "ré": 2350,
      "enza": 2351,
      "cuán": 2352,
      "acor": 2353,
      "cualquier": 2354,
      "impe": 2355,
      "mirada": 2356,
      "Moreno": 2357,
      "detrás": 2358,
      "encen": 2359,
      "seña": 2360,
      "guos": 2361,
      "entas": 2362,
      "poca": 2363,
      "ful": 2364,
      "ecía": 2365,
      "jui": 2366,
      "ándola": 2367,
      "memoria": 2368,
      "?,": 2369,
      "unci": 2370,
      "conclu": 2371,
      "traer": 2372,
      "echó": 2373,
      "combatir": 2374,
      "_adv": 2375,
      "zaba": 2376,
      "ose": 2377,
      "lados": 2378,
      "labi": 2379,
      "almas": 2380,
      "temb": 2381,
      "terms": 2382,
      "expli": 2383,
      "llegado": 2384,
      "ilus": 2385,
      "golpe": 2386,
      "Fi": 2387,
      "uelo": 2388,
      "puertas": 2389,
      "have": 2390,
      "esté": 2391,
      "perfec": 2392,
      "tería": 2393,
      "iado": 2394,
      "larga": 2395,
      "obli": 2396,
      "siguiente": 2397,
      "Vamos": 2398,
      "XIII": 2399,
      "ges": 2400,
      "gon": 2401,
      "género": 2402,
      "dez": 2403,
      "conce": 2404,
      "IV": 2405,
      "deja": 2406,
      "despi": 2407,
      "lesia": 2408,
      "bamos": 2409,
      "honor": 2410,
      "levantó": 2411,
      "llevaba": 2412,
      "ejér": 2413,
      "cuidado": 2414,
      "amen": 2415,
      "ilu": 2416,
      "tuno": 2417,
      "andar": 2418,
      "mada": 2419,
      "podría": 2420,
      "ish": 2421,
      "clara": 2422,
      "aguas": 2423,
      "cioso": 2424,
      "bastante": 2425,
      "ala": 2426,
      "suje": 2427,
      "vivo": 2428,
      "liber": 2429,
      "suspi": 2430,
      "venido": 2431,
      "sagra": 2432,
      "tiempos": 2433,
      "Mira": 2434,
      "asomb": 2435,
      "Allí": 2436,
      "dánaos": 2437,
      "MO": 2438,
      "Pla": 2439,
      "So": 2440,
      "ure": 2441,
      "ww": 2442,
      "solu": 2443,
      "manas": 2444,
      "tantas": 2445,
      "nio": 2446,
      "abandon": 2447,
      "vuelto": 2448,
      "contrario": 2449,
      "pósi": 2450,
      "35": 2451,
      "Mo": 2452,
      "bene": 2453,
      "refi": 2454,
      "invi": 2455,
      "rida": 2456,
      "verdadera": 2457,
      "Tambi": 2458,
      "39": 2459,
      "od": 2460,
      "tero": 2461,
      "osi": 2462,
      "arras": 2463,
      "arreg": 2464,
      "extre": 2465,
      "valiente": 2466,
      "impres": 2467,
      "diversas": 2468,
      "descubri": 2469,
      "38": 2470,
      "bel": 2471,
      "ey": 2472,
      "echa": 2473,
      "idas": 2474,
      "llu": 2475,
      "pelo": 2476,
      "ης": 2477,
      "habita": 2478,
      "bido": 2479,
      "llega": 2480,
      "admir": 2481,
      "monte": 2482,
      "apa": 2483,
      "amos": 2484,
      "ape": 2485,
      "demas": 2486,
      "remedio": 2487,
      "tain": 2488,
      "habian": 2489,
      "emple": 2490,
      "Estu": 2491,
      "pena": 2492,
      "ínci": 2493,
      "propia": 2494,
      "principio": 2495,
      "encontrar": 2496,
      "afli": 2497,
      "Nue": 2498,
      "rí": 2499,
      "tino": 2500,
      "nie": 2501,
      "autor": 2502,
      "buscar": 2503,
      "dra": 2504,
      "asun": 2505,
      "temor": 2506,
      "suel": 2507,
      "vado": 2508,
      "irri": 2509,
      "adre": 2510,
      "negra": 2511,
      "claro": 2512,
      "querer": 2513,
      "particular": 2514,
      "añadió": 2515,
      "conversación": 2516,
      "eño": 2517,
      "vés": 2518,
      "osas": 2519,
      "disi": 2520,
      "vien": 2521,
      "viese": 2522,
      "rodi": 2523,
      "enter": 2524,
      "pase": 2525,
      "sale": 2526,
      "form": 2527,
      "movimiento": 2528,
      "silencio": 2529,
      "Aun": 2530,
      "Uni": 2531,
      "acome": 2532,
      "dable": 2533,
      "em": 2534,
      "mora": 2535,
      "tia": 2536,
      "--;": 2537,
      "lia": 2538,
      "provi": 2539,
      "darle": 2540,
      "libro": 2541,
      "cruel": 2542,
      "fácil": 2543,
      "Au": 2544,
      "Don": 2545,
      "nú": 2546,
      "encias": 2547,
      "cieron": 2548,
      "remos": 2549,
      "confes": 2550,
      "curios": 2551,
      "café": 2552,
      "victor": 2553,
      "lis": 2554,
      "tantes": 2555,
      "ismo": 2556,
      "pasaba": 2557,
      "humana": 2558,
      "enemi": 2559,
      "pueden": 2560,
      "cria": 2561,
      "animales": 2562,
      "Mientras": 2563,
      "punta": 2564,
      "Nada": 2565,
      "NTO": 2566,
      "Sin": 2567,
      "tt": 2568,
      "rep": 2569,
      "dita": 2570,
      "loca": 2571,
      "tenga": 2572,
      "piñ": 2573,
      "vamos": 2574,
      "éstor": 2575,
      "Orbajos": 2576,
      "agreement": 2577,
      "60": 2578,
      "cun": 2579,
      "fla": 2580,
      "cis": 2581,
      "incre": 2582,
      "mata": 2583,
      "entera": 2584,
      "mandó": 2585,
      "moso": 2586,
      "horas": 2587,
      "escudo": 2588,
      "Cristo": 2589,
      "justicia": 2590,
      "**": 2591,
      "69": 2592,
      "Ball": 2593,
      "CO": 2594,
      "Car": 2595,
      "Fran": 2596,
      "evi": 2597,
      "fan": 2598,
      "ness": 2599,
      "way": 2600,
      "zu": 2601,
      "tivos": 2602,
      "meter": 2603,
      "fiesta": 2604,
      "niña": 2605,
      "ally": 2606,
      "María": 2607,
      "Idolo": 2608,
      "Orbajosa": 2609,
      "47": 2610,
      "cidos": 2611,
      "cidad": 2612,
      "tifi": 2613,
      "cubi": 2614,
      "vientos": 2615,
      "resul": 2616,
      "vergü": 2617,
      "fati": 2618,
      "sentir": 2619,
      "miraba": 2620,
      "curso": 2621,
      "Desde": 2622,
      "llevó": 2623,
      "derecha": 2624,
      "pelea": 2625,
      "verdadero": 2626,
      "atención": 2627,
      "Iz": 2628,
      "_A": 2629,
      "ds": 2630,
      "oí": 2631,
      "law": 2632,
      "viol": 2633,
      "poderos": 2634,
      "dispara": 2635,
      "ezas": 2636,
      "halla": 2637,
      "Ballester": 2638,
      "37": 2639,
      "SE": 2640,
      "plo": 2641,
      "mol": 2642,
      "mamá": 2643,
      "uste": 2644,
      "presente": 2645,
      "diré": 2646,
      "segundo": 2647,
      "flores": 2648,
      "ejército": 2649,
      "Vir": 2650,
      "afec": 2651,
      "hall": 2652,
      "tándose": 2653,
      "rica": 2654,
      "viva": 2655,
      "tuvieron": 2656,
      "quie": 2657,
      "isto": 2658,
      "exa": 2659,
      "vueltas": 2660,
      "Martí": 2661,
      "piedras": 2662,
      "llorar": 2663,
      "fondo": 2664,
      "efrit": 2665,
      "labios": 2666,
      "Ch": 2667,
      "Ho": 2668,
      "Néstor": 2669,
      "peli": 2670,
      "rel": 2671,
      "alco": 2672,
      "rece": 2673,
      "noches": 2674,
      "exci": 2675,
      "mark": 2676,
      "miser": 2677,
      "pensaba": 2678,
      "diversos": 2679,
      "caballero": 2680,
      "Izquierdo": 2681,
      "Lle": 2682,
      "TI": 2683,
      "jaba": 2684,
      "tell": 2685,
      "arco": 2686,
      "toma": 2687,
      "noticia": 2688,
      "costa": 2689,
      "hombros": 2690,
      "rarse": 2691,
      "vul": 2692,
      "templo": 2693,
      "cero": 2694,
      "món": 2695,
      "sú": 2696,
      "recor": 2697,
      "parar": 2698,
      "casco": 2699,
      "carn": 2700,
      "cense": 2701,
      "turba": 2702,
      "reno": 2703,
      "chiqui": 2704,
      "honra": 2705,
      "consider": 2706,
      "Book": 2707,
      "Chi": 2708,
      "Canto": 2709,
      "Ili": 2710,
      "Pen": 2711,
      "rando": 2712,
      "remo": 2713,
      "trai": 2714,
      "resplan": 2715,
      "hechos": 2716,
      "perder": 2717,
      "niños": 2718,
      "casas": 2719,
      "casti": 2720,
      "venía": 2721,
      "admira": 2722,
      "hubiese": 2723,
      "colás": 2724,
      "copyright": 2725,
      "Respon": 2726,
      "Cab": 2727,
      "lera": 2728,
      "queda": 2729,
      "doce": 2730,
      "dicha": 2731,
      "tira": 2732,
      "pitos": 2733,
      "podr": 2734,
      "terior": 2735,
      "primeros": 2736,
      "inclu": 2737,
      "enemigos": 2738,
      "Ella": 2739,
      "Pas": 2740,
      "apren": 2741,
      "ijo": 2742,
      "pru": 2743,
      "sel": 2744,
      "abun": 2745,
      "desper": 2746,
      "tumb": 2747,
      "soli": 2748,
      "preten": 2749,
      "gana": 2750,
      "urora": 2751,
      "derecho": 2752,
      "sombra": 2753,
      "Delf": 2754,
      "Padre": 2755,
      "acompañ": 2756,
      "ct": 2757,
      "ner": 2758,
      "mio": 2759,
      "estan": 2760,
      "...--": 2761,
      "nidad": 2762,
      "gio": 2763,
      "ofen": 2764,
      "Eneas": 2765,
      "osamente": 2766,
      "CANTO": 2767,
      "espacio": 2768,
      "polvo": 2769,
      "45": 2770,
      "CI": 2771,
      "Mon": 2772,
      "_r": 2773,
      "edifi": 2774,
      "semb": 2775,
      "coger": 2776,
      "mez": 2777,
      "meti": 2778,
      "voces": 2779,
      "acces": 2780,
      "carr": 2781,
      "superior": 2782,
      "piñá": 2783,
      "],": 2784,
      "fas": 2785,
      "oir": 2786,
      "pí": 2787,
      "tomó": 2788,
      "subir": 2789,
      "cador": 2790,
      "lida": 2791,
      "quitar": 2792,
      "verse": 2793,
      "experi": 2794,
      "malo": 2795,
      "tono": 2796,
      "inclin": 2797,
      "Estupiñá": 2798,
      "rodillas": 2799,
      "Baldo": 2800,
      "bru": 2801,
      "reso": 2802,
      "bot": 2803,
      "medios": 2804,
      "sentido": 2805,
      "XVII": 2806,
      "meses": 2807,
      "espada": 2808,
      "Quién": 2809,
      "número": 2810,
      "46": 2811,
      "48": 2812,
      "TH": 2813,
      "Tal": 2814,
      "dones": 2815,
      "ela": 2816,
      "pera": 2817,
      "ques": 2818,
      "arme": 2819,
      "dados": 2820,
      "propósi": 2821,
      "vaya": 2822,
      "mortal": 2823,
      "aguar": 2824,
      "guió": 2825,
      "horrible": 2826,
      "rápi": 2827,
      "ceremon": 2828,
      "veinte": 2829,
      "vergüenza": 2830,
      "ustedes": 2831,
      "Has": 2832,
      "If": 2833,
      "Ri": 2834,
      "cele": 2835,
      "tér": 2836,
      "teo": 2837,
      "cula": 2838,
      "descan": 2839,
      "mismos": 2840,
      "jada": 2841,
      "cencia": 2842,
      "llena": 2843,
      "raron": 2844,
      "vosotros": 2845,
      "asegu": 2846,
      "médico": 2847,
      "Villa": 2848,
      "Nicolás": 2849,
      "diferentes": 2850,
      "cta": 2851,
      "iones": 2852,
      "iéndose": 2853,
      "decer": 2854,
      "entu": 2855,
      "suya": 2856,
      "camb": 2857,
      "publi": 2858,
      "destru": 2859,
      "ñado": 2860,
      "dispu": 2861,
      "íase": 2862,
      "place": 2863,
      "miró": 2864,
      "Anti": 2865,
      "Archi": 2866,
      "expresión": 2867,
      "inteli": 2868,
      "Feijo": 2869,
      "escalera": 2870,
      "círculo": 2871,
      "Aunque": 2872,
      "Baldomero": 2873,
      "Feijoo": 2874,
      "uel": 2875,
      "ólo": 2876,
      "arios": 2877,
      "recono": 2878,
      "see": 2879,
      "dillos": 2880,
      "leguas": 2881,
      "silla": 2882,
      "país": 2883,
      "nación": 2884,
      "terary": 2885,
      "estamos": 2886,
      "salía": 2887,
      "nea": 2888,
      "vale": 2889,
      "Todos": 2890,
      "obscu": 2891,
      "Nueva": 2892,
      "Ilión": 2893,
      "Us": 2894,
      "_De": 2895,
      "caban": 2896,
      "ear": 2897,
      "feli": 2898,
      "gras": 2899,
      "ira": 2900,
      "zan": 2901,
      "debi": 2902,
      "encan": 2903,
      "contigo": 2904,
      "miradas": 2905,
      "hermosas": 2906,
      "necesidad": 2907,
      "vincia": 2908,
      "próxi": 2909,
      "penetr": 2910,
      "!».": 2911,
      "Ha": 2912,
      "jero": 2913,
      "stan": 2914,
      "ciertas": 2915,
      "repi": 2916,
      "dici": 2917,
      "direc": 2918,
      "culos": 2919,
      "cuello": 2920,
      "vil": 2921,
      "pura": 2922,
      "nura": 2923,
      "graph": 2924,
      "crea": 2925,
      "presu": 2926,
      "obras": 2927,
      "puedes": 2928,
      "interior": 2929,
      "hermoso": 2930,
      "ponerse": 2931,
      "Había": 2932,
      "encuentro": 2933,
      "Europa": 2934,
      "único": 2935,
      "hacian": 2936,
      "hierro": 2937,
      "curiosidad": 2938,
      "victoria": 2939,
      "términ": 2940,
      "Nep": 2941,
      "Plin": 2942,
      "Tu": 2943,
      "Tra": 2944,
      "cera": 2945,
      "feliz": 2946,
      "espi": 2947,
      "refle": 2948,
      "low": 2949,
      "cubri": 2950,
      "papel": 2951,
      "tratar": 2952,
      "peda": 2953,
      "bio": 2954,
      "perdido": 2955,
      "obje": 2956,
      "vestido": 2957,
      "buenas": 2958,
      "ligeros": 2959,
      "Archive": 2960,
      "36": 2961,
      "59": 2962,
      "atrás": 2963,
      "dal": 2964,
      "hen": 2965,
      "prue": 2966,
      "sto": 2967,
      "tun": 2968,
      "reír": 2969,
      "inta": 2970,
      "Estaba": 2971,
      "but": 2972,
      "vari": 2973,
      "quienes": 2974,
      "seguía": 2975,
      "deseos": 2976,
      "Papitos": 2977,
      "especial": 2978,
      "viejo": 2979,
      "Neptuno": 2980,
      "IX": 2981,
      "alar": 2982,
      "ÓN": 2983,
      "org": 2984,
      "infer": 2985,
      "lec": 2986,
      "cate": 2987,
      "pude": 2988,
      "buenos": 2989,
      "impul": 2990,
      "libros": 2991,
      "Satur": 2992,
      "magní": 2993,
      "embargo": 2994,
      "También": 2995,
      "_r_": 2996,
      "49": 2997,
      "ocho": 2998,
      "table": 2999,
      "alla": 3000,
      "ines": 3001,
      "rir": 3002,
      "gular": 3003,
      "perdon": 3004,
      "baja": 3005,
      "Escri": 3006,
      "poniendo": 3007,
      "minu": 3008,
      "espan": 3009,
      "ayu": 3010,
      "Dijo": 3011,
      "circun": 3012,
      "sacrificios": 3013,
      "céano": 3014,
      "signifi": 3015,
      "Rosario": 3016,
      "fícil": 3017,
      "Respondió": 3018,
      "Sus": 3019,
      "VIII": 3020,
      "áure": 3021,
      "repuso": 3022,
      "inete": 3023,
      "absolu": 3024,
      "diga": 3025,
      "mido": 3026,
      "log": 3027,
      "libre": 3028,
      "darse": 3029,
      "placer": 3030,
      "imper": 3031,
      "hallan": 3032,
      "posición": 3033,
      "ordinario": 3034,
      "general": 3035,
      "DI": 3036,
      "LE": 3037,
      "Océano": 3038,
      "ugh": 3039,
      "enor": 3040,
      "inar": 3041,
      "infi": 3042,
      "convi": 3043,
      "subi": 3044,
      "suyos": 3045,
      "tenemos": 3046,
      "pañ": 3047,
      "patria": 3048,
      "bierno": 3049,
      "moral": 3050,
      "Inca": 3051,
      "ninguno": 3052,
      "engañ": 3053,
      "DO": 3054,
      "cf": 3055,
      "eBook": 3056,
      "rab": 3057,
      "tel": 3058,
      "noble": 3059,
      "mico": 3060,
      "situa": 3061,
      "haga": 3062,
      "usa": 3063,
      "paragraph": 3064,
      "peor": 3065,
      "volviendo": 3066,
      "pueda": 3067,
      "Reino": 3068,
      "espera": 3069,
      "éndome": 3070,
      "compañero": 3071,
      "infeliz": 3072,
      "ocupa": 3073,
      "benefi": 3074,
      "Más": 3075,
      "Tór": 3076,
      "Val": 3077,
      "hos": 3078,
      "lé": 3079,
      "ojo": 3080,
      "under": 3081,
      "sufri": 3082,
      "siquiera": 3083,
      "ástima": 3084,
      "hablaba": 3085,
      "bil": 3086,
      "march": 3087,
      "gido": 3088,
      "herido": 3089,
      "cólera": 3090,
      "árbar": 3091,
      "anito": 3092,
      "sombr": 3093,
      "Usted": 3094,
      "Tórrida": 3095,
      "His": 3096,
      "Oli": 3097,
      "cán": 3098,
      "ii": 3099,
      "cola": 3100,
      "cuasi": 3101,
      "ramos": 3102,
      "paro": 3103,
      "lido": 3104,
      "estable": 3105,
      "hablando": 3106,
      "full": 3107,
      "hol": 3108,
      "grado": 3109,
      "primo": 3110,
      "quieren": 3111,
      "considera": 3112,
      "ejemp": 3113,
      "Islas": 3114,
      "Aquel": 3115,
      "Vol": 3116,
      "gencia": 3117,
      "alre": 3118,
      "elida": 3119,
      "lej": 3120,
      "supli": 3121,
      "mitad": 3122,
      "cap": 3123,
      "pudiera": 3124,
      "muro": 3125,
      "multi": 3126,
      "less": 3127,
      "gados": 3128,
      "hout": 3129,
      "cali": 3130,
      "señoras": 3131,
      "Castell": 3132,
      "Ba": 3133,
      "Jove": 3134,
      "gí": 3135,
      "didos": 3136,
      "dama": 3137,
      "verla": 3138,
      "verle": 3139,
      "terio": 3140,
      "ioso": 3141,
      "monta": 3142,
      "cincuenta": 3143,
      "sacó": 3144,
      "dejando": 3145,
      "lácido": 3146,
      "antigua": 3147,
      "indig": 3148,
      "XII": 3149,
      "amis": 3150,
      "ction": 3151,
      "peso": 3152,
      "vaba": 3153,
      "dedos": 3154,
      "set": 3155,
      "divi": 3156,
      "tates": 3157,
      "daño": 3158,
      "sigue": 3159,
      "habiendo": 3160,
      "pedir": 3161,
      "venes": 3162,
      "Maestro": 3163,
      "conocido": 3164,
      "Antí": 3165,
      "XVIII": 3166,
      "palo": 3167,
      "Literary": 3168,
      "compañeros": 3169,
      "siguió": 3170,
      "armadura": 3171,
      "sorpren": 3172,
      "tísimo": 3173,
      "alcoba": 3174,
      "cent": 3175,
      "ejer": 3176,
      "nal": 3177,
      "vé": 3178,
      "leo": 3179,
      "lecho": 3180,
      "conforme": 3181,
      "ved": 3182,
      "gida": 3183,
      "pastor": 3184,
      "inoc": 3185,
      "ganas": 3186,
      "alegre": 3187,
      "culpa": 3188,
      "mayores": 3189,
      "llamado": 3190,
      "XXIII": 3191,
      "maravillos": 3192,
      "árbol": 3193,
      "azogue": 3194,
      "costumbre": 3195,
      "CH": 3196,
      "Evar": 3197,
      "States": 3198,
      "bres": 3199,
      "guna": 3200,
      "tían": 3201,
      "yer": 3202,
      "óse": 3203,
      "escon": 3204,
      "vive": 3205,
      "duro": 3206,
      "dumbre": 3207,
      "torio": 3208,
      "tase": 3209,
      "imposi": 3210,
      "áronse": 3211,
      "Reyes": 3212,
      "visir": 3213,
      "caudillos": 3214,
      "tristeza": 3215,
      "íncipe": 3216,
      "United": 3217,
      "propósito": 3218,
      "Evaristo": 3219,
      ",'": 3220,
      "además": 3221,
      "illa": 3222,
      "illo": 3223,
      "íz": 3224,
      "dian": 3225,
      "hacían": 3226,
      "volu": 3227,
      "acaba": 3228,
      "cena": 3229,
      "señal": 3230,
      "Comp": 3231,
      "gusta": 3232,
      "jóvenes": 3233,
      "comida": 3234,
      "quisiera": 3235,
      "Isla": 3236,
      "juicio": 3237,
      "Olimpo": 3238,
      "Ig": 3239,
      "_CANTO": 3240,
      "edu": 3241,
      "anda": 3242,
      "aré": 3243,
      "orig": 3244,
      "domin": 3245,
      "alu": 3246,
      "about": 3247,
      "sed": 3248,
      "ticos": 3249,
      "nomb": 3250,
      "metal": 3251,
      "siones": 3252,
      "viuda": 3253,
      "ture": 3254,
      "pica": 3255,
      "pocos": 3256,
      "ruido": 3257,
      "adora": 3258,
      "clase": 3259,
      "conoce": 3260,
      "must": 3261,
      "57": 3262,
      "Aurora": 3263,
      "acep": 3264,
      "ef": 3265,
      "pesa": 3266,
      "determin": 3267,
      "ari": 3268,
      "copi": 3269,
      "cui": 3270,
      "sias": 3271,
      "verás": 3272,
      "llamaban": 3273,
      "caro": 3274,
      "dur": 3275,
      "ambas": 3276,
      "importa": 3277,
      "riqueza": 3278,
      "Hel": 3279,
      "Nos": 3280,
      "Sacer": 3281,
      "aman": 3282,
      "pl": 3283,
      "enti": 3284,
      "altar": 3285,
      "reve": 3286,
      "difícil": 3287,
      "miemb": 3288,
      "menor": 3289,
      "tenia": 3290,
      "llanura": 3291,
      "minas": 3292,
      "buey": 3293,
      "enemigo": 3294,
      "fortuna": 3295,
      "derra": 3296,
      "centro": 3297,
      "ity": 3298,
      "without": 3299,
      "Juanito": 3300,
      "blanco": 3301,
      "espalda": 3302,
      "quizás": 3303,
      "Sacerdo": 3304,
      "As": 3305,
      "Ex": 3306,
      "Plácido": 3307,
      "Sar": 3308,
      "Span": 3309,
      "amon": 3310,
      "edades": 3311,
      "oc": 3312,
      "udo": 3313,
      "demos": 3314,
      "encer": 3315,
      "redon": 3316,
      "recogi": 3317,
      "tida": 3318,
      "ticas": 3319,
      "motivo": 3320,
      "fuí": 3321,
      "carse": 3322,
      "misa": 3323,
      "primi": 3324,
      "parecido": 3325,
      "frío": 3326,
      "profundo": 3327,
      "ilustre": 3328,
      "Antiguos": 3329,
      "Gra": 3330,
      "ded": 3331,
      "dedor": 3332,
      "aría": 3333,
      "aspecto": 3334,
      "abras": 3335,
      "separa": 3336,
      "dimiento": 3337,
      "tilla": 3338,
      "rayos": 3339,
      "despo": 3340,
      "tuoso": 3341,
      "podido": 3342,
      "bai": 3343,
      "tara": 3344,
      "volvi": 3345,
      "tiende": 3346,
      "You": 3347,
      "nuestras": 3348,
      "gritó": 3349,
      "oyó": 3350,
      "broncí": 3351,
      "consejo": 3352,
      "pájar": 3353,
      "respeto": 3354,
      "imagina": 3355,
      "donations": 3356,
      "cuantos": 3357,
      "Spanish": 3358,
      "31": 3359,
      "alas": 3360,
      "apro": 3361,
      "lástima": 3362,
      "áis": 3363,
      "inmedia": 3364,
      "tomando": 3365,
      "capa": 3366,
      "meneo": 3367,
      "pito": 3368,
      "quis": 3369,
      "polí": 3370,
      "nado": 3371,
      "perros": 3372,
      "hojas": 3373,
      "gir": 3374,
      "cante": 3375,
      "cabell": 3376,
      "treinta": 3377,
      "hallar": 3378,
      "estrellas": 3379,
      "guerrero": 3380,
      "órdenes": 3381,
      "disimu": 3382,
      "21": 3383,
      "Pelida": 3384,
      "edi": 3385,
      "gentes": 3386,
      "iten": 3387,
      "mán": 3388,
      "was": 3389,
      "Él": 3390,
      "ída": 3391,
      "ener": 3392,
      "arle": 3393,
      "ind": 3394,
      "abrió": 3395,
      "take": 3396,
      "conci": 3397,
      "tic": 3398,
      "mean": 3399,
      "vidu": 3400,
      "main": 3401,
      "despa": 3402,
      "breve": 3403,
      "querida": 3404,
      "brillan": 3405,
      "individu": 3406,
      "segunda": 3407,
      "confianza": 3408,
      "cariño": 3409,
      "guerreros": 3410,
      "poderoso": 3411,
      "RA": 3412,
      "UN": 3413,
      "aus": 3414,
      "adas": 3415,
      "apla": 3416,
      "cto": 3417,
      "ocas": 3418,
      "selo": 3419,
      "zon": 3420,
      "reun": 3421,
      "abo": 3422,
      "tidad": 3423,
      "cambi": 3424,
      "gober": 3425,
      "pongo": 3426,
      "formar": 3427,
      "dormir": 3428,
      "volvía": 3429,
      "triz": 3430,
      "sospe": 3431,
      "constru": 3432,
      "aquéllos": 3433,
      "pusieron": 3434,
      "admirable": 3435,
      "Delfín": 3436,
      "miembros": 3437,
      "Ped": 3438,
      "apareció": 3439,
      "who": 3440,
      "eren": 3441,
      "orgu": 3442,
      "repu": 3443,
      "infa": 3444,
      "letras": 3445,
      "metió": 3446,
      "ced": 3447,
      "tano": 3448,
      "exhor": 3449,
      "duras": 3450,
      "hue": 3451,
      "lleno": 3452,
      "guien": 3453,
      "dejaba": 3454,
      "vinieron": 3455,
      "caballo": 3456,
      "Idomeneo": 3457,
      "última": 3458,
      "pelear": 3459,
      "solamente": 3460,
      "corriente": 3461,
      "recei": 3462,
      "Scha": 3463,
      "melo": 3464,
      "olor": 3465,
      "tter": 3466,
      "vera": 3467,
      "zaron": 3468,
      "detuvo": 3469,
      "quina": 3470,
      "ciertos": 3471,
      "sidad": 3472,
      "make": 3473,
      "muertos": 3474,
      "desnu": 3475,
      "trato": 3476,
      "habrá": 3477,
      "bia": 3478,
      "caron": 3479,
      "ventura": 3480,
      "mission": 3481,
      "sacu": 3482,
      "gica": 3483,
      "humil": 3484,
      "creía": 3485,
      "presencia": 3486,
      "cristi": 3487,
      "Demonio": 3488,
      "triun": 3489,
      "quierda": 3490,
      "chica": 3491,
      "nueve": 3492,
      "recibir": 3493,
      "izquierda": 3494,
      "Pobre": 3495,
      "escribir": 3496,
      "descubi": 3497,
      "árboles": 3498,
      "opinión": 3499,
      "demasiado": 3500,
      "situación": 3501,
      "Pri": 3502,
      "QU": 3503,
      "Santo": 3504,
      "ral": 3505,
      "ance": 3506,
      "asus": 3507,
      "ore": 3508,
      "tex": 3509,
      "mpa": 3510,
      "teniendo": 3511,
      "mandar": 3512,
      "roso": 3513,
      "Entre": 3514,
      "discre": 3515,
      "beber": 3516,
      "monios": 3517,
      "vuestro": 3518,
      "Cuán": 3519,
      "tín": 3520,
      "auxi": 3521,
      "grandeza": 3522,
      "Hija": 3523,
      "Tierra": 3524,
      "viaje": 3525,
      "region": 3526,
      "asunto": 3527,
      "cabellera": 3528,
      "ocasión": 3529,
      "Ea": 3530,
      "Tan": 3531,
      "VII": 3532,
      "if": 3533,
      "sho": 3534,
      "reino": 3535,
      "realidad": 3536,
      "sul": 3537,
      "matri": 3538,
      "usan": 3539,
      "pasando": 3540,
      "hermanos": 3541,
      "compaña": 3542,
      "éndola": 3543,
      "pensando": 3544,
      "nariz": 3545,
      "dirigió": 3546,
      "salud": 3547,
      "Schah": 3548,
      "Cau": 3549,
      "Du": 3550,
      "Her": 3551,
      "XXI": 3552,
      "gab": 3553,
      "ial": 3554,
      "ocasi": 3555,
      "tab": 3556,
      "will": 3557,
      "δης": 3558,
      "erdo": 3559,
      "argu": 3560,
      "tren": 3561,
      "rito": 3562,
      "caza": 3563,
      "sofo": 3564,
      "ángel": 3565,
      "servir": 3566,
      "sonrisa": 3567,
      "presa": 3568,
      "entraba": 3569,
      "trecho": 3570,
      "tiró": 3571,
      "dré": 3572,
      "sobrina": 3573,
      "arreba": 3574,
      "ordinaria": 3575,
      "norte": 3576,
      "sentimiento": 3577,
      "acostumb": 3578,
      "ttle": 3579,
      "Cabal": 3580,
      "Pedro": 3581,
      "32": 3582,
      "Jes": 3583,
      "OF": 3584,
      "aver": 3585,
      "dro": 3586,
      "santo": 3587,
      "vac": 3588,
      "yeron": 3589,
      "alguien": 3590,
      "cita": 3591,
      "temer": 3592,
      "truc": 3593,
      "nove": 3594,
      "guo": 3595,
      "guía": 3596,
      "destino": 3597,
      "tuve": 3598,
      "pico": 3599,
      "propor": 3600,
      "vapor": 3601,
      "saca": 3602,
      "sali": 3603,
      "numer": 3604,
      "calles": 3605,
      "its": 3606,
      "gante": 3607,
      "tona": 3608,
      "ayuda": 3609,
      "recibi": 3610,
      "ments": 3611,
      "Samani": 3612,
      "tranquilo": 3613,
      "murmu": 3614,
      "Bueno": 3615,
      "materia": 3616,
      "amena": 3617,
      "examin": 3618,
      "Bea": 3619,
      "Sal": 3620,
      "dísimo": 3621,
      "dísima": 3622,
      "gla": 3623,
      "ler": 3624,
      "pra": 3625,
      "demark": 3626,
      "altura": 3627,
      "cientos": 3628,
      "undo": 3629,
      "cobar": 3630,
      "cade": 3631,
      "vigor": 3632,
      "puro": 3633,
      "soci": 3634,
      "vecin": 3635,
      "versos": 3636,
      "habr": 3637,
      "fico": 3638,
      "exi": 3639,
      "your": 3640,
      "marcha": 3641,
      "pensó": 3642,
      "vuestra": 3643,
      "play": 3644,
      "sacerdo": 3645,
      "segura": 3646,
      "gritos": 3647,
      "echando": 3648,
      "llegaron": 3649,
      "univer": 3650,
      "solem": 3651,
      "zuma": 3652,
      "entusias": 3653,
      "inteligencia": 3654,
      "pañuelo": 3655,
      "Caudillo": 3656,
      "67": 3657,
      "Mir": 3658,
      "Son": 3659,
      "_Pi": 3660,
      "gaban": 3661,
      "arias": 3662,
      "alter": 3663,
      "rega": 3664,
      "infin": 3665,
      "sean": 3666,
      "rib": 3667,
      "estando": 3668,
      "patron": 3669,
      "padres": 3670,
      "través": 3671,
      "hice": 3672,
      "salieron": 3673,
      "valer": 3674,
      "inspi": 3675,
      "origen": 3676,
      "adelan": 3677,
      "cerebro": 3678,
      "negocio": 3679,
      "_Pitu": 3680,
      "CT": 3681,
      "Can": 3682,
      "brar": 3683,
      "yec": 3684,
      "zaban": 3685,
      "esfor": 3686,
      "estros": 3687,
      "ares": 3688,
      "onle": 3689,
      "cidas": 3690,
      "tezuma": 3691,
      "inde": 3692,
      "dices": 3693,
      "concep": 3694,
      "metales": 3695,
      "some": 3696,
      "patio": 3697,
      "podrá": 3698,
      "podían": 3699,
      "pedón": 3700,
      "tarle": 3701,
      "torias": 3702,
      "Está": 3703,
      "precio": 3704,
      "humo": 3705,
      "ándolo": 3706,
      "seguro": 3707,
      "animal": 3708,
      "visita": 3709,
      "pensamientos": 3710,
      "semejantes": 3711,
      "LAS": 3712,
      "declar": 3713,
      "llevado": 3714,
      "alcanzar": 3715,
      "maravilla": 3716,
      "tísima": 3717,
      "excelente": 3718,
      "espaldas": 3719,
      "Motezuma": 3720,
      "carrera": 3721,
      "Escritura": 3722,
      "Sarpedón": 3723,
      "Dé": 3724,
      "Sor": 3725,
      "flo": 3726,
      "hun": 3727,
      "what": 3728,
      "ων": 3729,
      "laguna": 3730,
      "conviene": 3731,
      "tieron": 3732,
      "coun": 3733,
      "copa": 3734,
      "cocina": 3735,
      "mida": 3736,
      "cuál": 3737,
      "vivi": 3738,
      "mató": 3739,
      "quita": 3740,
      "trademark": 3741,
      "hecha": 3742,
      "teros": 3743,
      "carros": 3744,
      "carác": 3745,
      "humano": 3746,
      "distancia": 3747,
      "hombro": 3748,
      "compla": 3749,
      "volví": 3750,
      "montes": 3751,
      "sentado": 3752,
      "parecían": 3753,
      "hallaba": 3754,
      "acerca": 3755,
      "caudillo": 3756,
      "españo": 3757,
      "abrir": 3758,
      "NOT": 3759,
      "equivo": 3760,
      "abundan": 3761,
      "Respondióle": 3762,
      "carácter": 3763,
      "41": 3764,
      "Cla": 3765,
      "Emp": 3766,
      "Pon": 3767,
      "Sólo": 3768,
      "aconse": 3769,
      "acompaña": 3770,
      "vían": 3771,
      "deri": 3772,
      "enes": 3773,
      "oscu": 3774,
      "esco": 3775,
      "repar": 3776,
      "repe": 3777,
      "infun": 3778,
      "inmortales": 3779,
      "abra": 3780,
      "separ": 3781,
      "toca": 3782,
      "confu": 3783,
      "sup": 3784,
      "such": 3785,
      "ribles": 3786,
      "chis": 3787,
      "vea": 3788,
      "verá": 3789,
      "hirió": 3790,
      "probar": 3791,
      "venga": 3792,
      "ofreci": 3793,
      "adqui": 3794,
      "tional": 3795,
      "sensa": 3796,
      "hacerlo": 3797,
      "Algun": 3798,
      "parecen": 3799,
      "fuerzas": 3800,
      "acercó": 3801,
      "comedor": 3802,
      "blanca": 3803,
      "contento": 3804,
      "defender": 3805,
      "prosi": 3806,
      "objeto": 3807,
      "Ad": 3808,
      "Ser": 3809,
      "boro": 3810,
      "vando": 3811,
      "encamin": 3812,
      "alboro": 3813,
      "cilla": 3814,
      "tem": 3815,
      "tema": 3816,
      "difun": 3817,
      "concer": 3818,
      "noti": 3819,
      "veras": 3820,
      "pecado": 3821,
      "llamó": 3822,
      "ista": 3823,
      "salvar": 3824,
      "nubes": 3825,
      "cable": 3826,
      "more": 3827,
      "bol": 3828,
      "saben": 3829,
      "esposo": 3830,
      "víc": 3831,
      "comuni": 3832,
      "Tenía": 3833,
      "enfermo": 3834,
      "satisfe": 3835,
      "eterna": 3836,
      "relu": 3837,
      "access": 3838,
      "alrededor": 3839,
      "Isab": 3840,
      "Ve": 3841,
      "aqui": 3842,
      "apare": 3843,
      "iza": 3844,
      "ús": 3845,
      "dejado": 3846,
      "orillas": 3847,
      "reales": 3848,
      "into": 3849,
      "didas": 3850,
      "time": 3851,
      "miendo": 3852,
      "puestos": 3853,
      "tuviera": 3854,
      "quito": 3855,
      "cargo": 3856,
      "carga": 3857,
      "prepar": 3858,
      "Nombre": 3859,
      "canóni": 3860,
      "comprar": 3861,
      "idola": 3862,
      "Guía": 3863,
      "eleo": 3864,
      "deseaba": 3865,
      "teucro": 3866,
      "License": 3867,
      "plantas": 3868,
      "asiento": 3869,
      "Tiene": 3870,
      "pueblos": 3871,
      "orilla": 3872,
      "libertad": 3873,
      "sombrero": 3874,
      "Antíloco": 3875,
      "AG": 3876,
      "MI": 3877,
      "beli": 3878,
      "espar": 3879,
      "tea": 3880,
      "represent": 3881,
      "suma": 3882,
      "medad": 3883,
      "descri": 3884,
      "most": 3885,
      "actitud": 3886,
      "corriendo": 3887,
      "rosa": 3888,
      "canto": 3889,
      "regres": 3890,
      "Idolos": 3891,
      "veloz": 3892,
      "dijeron": 3893,
      "nervi": 3894,
      "origin": 3895,
      "65": 3896,
      "apos": 3897,
      "avan": 3898,
      "etas": 3899,
      "fras": 3900,
      "uso": 3901,
      "udades": 3902,
      "refun": 3903,
      "inquie": 3904,
      "tiles": 3905,
      "cala": 3906,
      "robus": 3907,
      "pudi": 3908,
      "gué": 3909,
      "so_": 3910,
      "bajar": 3911,
      "pasaron": 3912,
      "llegaba": 3913,
      "dispuesto": 3914,
      "cualquiera": 3915,
      "prima": 3916,
      "presenta": 3917,
      "Incas": 3918,
      "pescador": 3919,
      "honrada": 3920,
      "fuertes": 3921,
      "interes": 3922,
      "pregunta": 3923,
      "busca": 3924,
      "consigo": 3925,
      "indicó": 3926,
      "arrojó": 3927,
      "necesario": 3928,
      "Señores": 3929,
      "llorando": 3930,
      "longa": 3931,
      "secreto": 3932,
      "vienen": 3933,
      "súbi": 3934,
      "semblante": 3935,
      "Saturnio": 3936,
      "imposible": 3937,
      "Caballu": 3938,
      "Beatriz": 3939,
      "Hoy": 3940,
      "Ino": 3941,
      "XXIV": 3942,
      "cle": 3943,
      "itas": 3944,
      "jando": 3945,
      "than": 3946,
      "ában": 3947,
      "desi": 3948,
      "delan": 3949,
      "ancia": 3950,
      "real": 3951,
      "retro": 3952,
      "dada": 3953,
      "tuvi": 3954,
      "pagar": 3955,
      "poli": 3956,
      "perten": 3957,
      "lanzas": 3958,
      "irse": 3959,
      "talento": 3960,
      "rump": 3961,
      "ponen": 3962,
      "decirle": 3963,
      "juz": 3964,
      "impro": 3965,
      "cuerda": 3966,
      "word": 3967,
      "combati": 3968,
      "sagrada": 3969,
      "repente": 3970,
      "70": 3971,
      "Jáure": 3972,
      "Meri": 3973,
      "acuerdo": 3974,
      "fér": 3975,
      "spe": 3976,
      "tones": 3977,
      "ímico": 3978,
      "deber": 3979,
      "ciden": 3980,
      "tró": 3981,
      "chan": 3982,
      "vivía": 3983,
      "tendrá": 3984,
      "verde": 3985,
      "habit": 3986,
      "fiera": 3987,
      "tertu": 3988,
      "terios": 3989,
      "acento": 3990,
      "taría": 3991,
      "dueño": 3992,
      "lucha": 3993,
      "empe": 3994,
      "admi": 3995,
      "ponga": 3996,
      "prisa": 3997,
      "monos": 3998,
      "Segun": 3999,
      "juntos": 4000,
      "señorita": 4001,
      "iglesia": 4002,
      "flecha": 4003,
      "distingu": 4004,
      "inmensa": 4005,
      "extremo": 4006,
      "empu": 4007,
      "experiencia": 4008,
      "Helena": 4009,
      "patronímico": 4010,
      "canónigo": 4011,
      "Jáuregui": 4012,
      "apli": 4013,
      "cra": 4014,
      "gn": 4015,
      "esfuer": 4016,
      "anterior": 4017,
      "ará": 4018,
      "quete": 4019,
      "dom": 4020,
      "ely": 4021,
      "rego": 4022,
      "recha": 4023,
      "reali": 4024,
      "abund": 4025,
      "condena": 4026,
      "mbo": 4027,
      "mbos": 4028,
      "terror": 4029,
      "provincia": 4030,
      "venta": 4031,
      "correspon": 4032,
      "humor": 4033,
      "nube": 4034,
      "bebi": 4035,
      "cultad": 4036,
      "Toda": 4037,
      "éndoles": 4038,
      "ignor": 4039,
      "XIX": 4040,
      "antiguo": 4041,
      "librar": 4042,
      "justo": 4043,
      "tivamente": 4044,
      "observa": 4045,
      "ocurrido": 4046,
      "Iglesia": 4047,
      "Caballuco": 4048,
      "itos": 4049,
      "ági": 4050,
      "artí": 4051,
      "onde": 4052,
      "ciudades": 4053,
      "redu": 4054,
      "abe": 4055,
      "abur": 4056,
      "mensa": 4057,
      "paciencia": 4058,
      "pocas": 4059,
      "fuga": 4060,
      "fija": 4061,
      "aces": 4062,
      "tores": 4063,
      "Estas": 4064,
      "fore": 4065,
      "donte": 4066,
      "prác": 4067,
      "cencio": 4068,
      "presentes": 4069,
      "Severi": 4070,
      "Dioses": 4071,
      "genes": 4072,
      "solía": 4073,
      "balcón": 4074,
      "Sabe": 4075,
      "pobres": 4076,
      "limpi": 4077,
      "suave": 4078,
      "www": 4079,
      "habitación": 4080,
      "inferior": 4081,
      "amistad": 4082,
      "Sacerdotes": 4083,
      "Inocencio": 4084,
      "Meriones": 4085,
      "58": 4086,
      "Asi": 4087,
      "Gri": 4088,
      "Man": 4089,
      "Tró": 4090,
      "].": 4091,
      "gé": 4092,
      "jan": 4093,
      "dele": 4094,
      "demonio": 4095,
      "endas": 4096,
      "engen": 4097,
      "tela": 4098,
      "reía": 4099,
      "tomado": 4100,
      "day": 4101,
      "tible": 4102,
      "mita": 4103,
      "sible": 4104,
      "mul": 4105,
      "mentira": 4106,
      "tual": 4107,
      "somos": 4108,
      "piel": 4109,
      "hijas": 4110,
      "llar": 4111,
      "acción": 4112,
      "paseo": 4113,
      "discur": 4114,
      "gantes": 4115,
      "nuevas": 4116,
      "anima": 4117,
      "Antes": 4118,
      "instru": 4119,
      "llevando": 4120,
      "compañía": 4121,
      "decían": 4122,
      "used": 4123,
      "leyes": 4124,
      "lenguaje": 4125,
      "Fué": 4126,
      "Hasta": 4127,
      "Villalonga": 4128,
      "imaginación": 4129,
      "Severiana": 4130,
      ",\"": 4131,
      "Cri": 4132,
      "ON": 4133,
      "besti": 4134,
      "ite": 4135,
      "iga": 4136,
      "jal": 4137,
      "wo": 4138,
      "where": 4139,
      "defec": 4140,
      "ensa": 4141,
      "estras": 4142,
      "ers": 4143,
      "once": 4144,
      "unció": 4145,
      "rever": 4146,
      "tiro": 4147,
      "rados": 4148,
      "mentar": 4149,
      "popu": 4150,
      "peces": 4151,
      "acciones": 4152,
      "exces": 4153,
      "seren": 4154,
      "sado": 4155,
      "rup": 4156,
      "herida": 4157,
      "comply": 4158,
      "mona": 4159,
      "neas": 4160,
      "basta": 4161,
      "cuerpos": 4162,
      "sentó": 4163,
      "Poco": 4164,
      "entrada": 4165,
      "distributing": 4166,
      "fruta": 4167,
      "sentimientos": 4168,
      "laws": 4169,
      "ceremonias": 4170,
      "see_": 4171,
      "ejerci": 4172,
      "Samaniego": 4173,
      "regoci": 4174,
      "ater": 4175,
      "own": 4176,
      "wri": 4177,
      "deras": 4178,
      "arru": 4179,
      "red": 4180,
      "ini": 4181,
      "abu": 4182,
      "date": 4183,
      "leza": 4184,
      "tirar": 4185,
      "tillo": 4186,
      "caído": 4187,
      "part": 4188,
      "menta": 4189,
      "quitó": 4190,
      "respecto": 4191,
      "peo": 4192,
      "zados": 4193,
      "prodi": 4194,
      "vener": 4195,
      "prepara": 4196,
      "claridad": 4197,
      "andro": 4198,
      "ferencia": 4199,
      "tiendas": 4200,
      "valientes": 4201,
      "turn": 4202,
      "conocía": 4203,
      "get": 4204,
      "Tetis": 4205,
      "partici": 4206,
      "entrado": 4207,
      "esperanza": 4208,
      "azu": 4209,
      "romper": 4210,
      "colores": 4211,
      "Tengo": 4212,
      "pequeña": 4213,
      "consul": 4214,
      "Virgen": 4215,
      "Historia": 4216,
      "retroce": 4217,
      "ME": 4218,
      "Otra": 4219,
      "Pr": 4220,
      "amo": 4221,
      "aca": 4222,
      "aprove": 4223,
      "bó": 4224,
      "c_": 4225,
      "tés": 4226,
      "tár": 4227,
      "enca": 4228,
      "ardor": 4229,
      "doc": 4230,
      "segui": 4231,
      "conquis": 4232,
      "timo": 4233,
      "coche": 4234,
      "nombres": 4235,
      "ritos": 4236,
      "mate": 4237,
      "mula": 4238,
      "sopor": 4239,
      "good": 4240,
      "respuesta": 4241,
      "hablado": 4242,
      "acaso": 4243,
      "corte": 4244,
      "hermanas": 4245,
      "distra": 4246,
      "varón": 4247,
      "jeros": 4248,
      "ganado": 4249,
      "mejillas": 4250,
      "éronse": 4251,
      "Levan": 4252,
      "entendimiento": 4253,
      "formation": 4254,
      "bondad": 4255,
      "estrella": 4256,
      "eblas": 4257,
      "pluma": 4258,
      "pública": 4259,
      "Ribot": 4260,
      "califa": 4261,
      "sociedad": 4262,
      "44": 4263,
      "68": 4264,
      "CE": 4265,
      "Evan": 4266,
      "Tla": 4267,
      "Vul": 4268,
      "bras": 4269,
      "eció": 4270,
      "fos": 4271,
      "my": 4272,
      "paba": 4273,
      "pales": 4274,
      "zoso": 4275,
      "uncia": 4276,
      "sever": 4277,
      "león": 4278,
      "pur": 4279,
      "gobierno": 4280,
      "entero": 4281,
      "acto": 4282,
      "bado": 4283,
      "proyec": 4284,
      "Estos": 4285,
      "salido": 4286,
      "huerta": 4287,
      "cantar": 4288,
      "fama": 4289,
      "cris": 4290,
      "conozco": 4291,
      "conocimiento": 4292,
      "ayer": 4293,
      "griegos": 4294,
      "junta": 4295,
      "fron": 4296,
      "primeras": 4297,
      "inclina": 4298,
      "state": 4299,
      "pienso": 4300,
      "manifestó": 4301,
      "términos": 4302,
      "Plinio": 4303,
      "especialmente": 4304,
      "idolatr": 4305,
      "Dí": 4306,
      "Gran": 4307,
      "Sali": 4308,
      "aves": 4309,
      "averi": 4310,
      "jor": 4311,
      "raban": 4312,
      "tate": 4313,
      "tades": 4314,
      "leer": 4315,
      "leña": 4316,
      "losof": 4317,
      "puse": 4318,
      "little": 4319,
      "solos": 4320,
      "respec": 4321,
      "poeta": 4322,
      "prome": 4323,
      "Estrecho": 4324,
      "predi": 4325,
      "forth": 4326,
      "daron": 4327,
      "negras": 4328,
      "varias": 4329,
      "quieras": 4330,
      "Cuzco": 4331,
      "tirse": 4332,
      "impa": 4333,
      "faltaba": 4334,
      "estudi": 4335,
      "interés": 4336,
      "Capi": 4337,
      "preguntas": 4338,
      "Arna": 4339,
      "Señora": 4340,
      "cré": 4341,
      "completamente": 4342,
      "Venus": 4343,
      "quizá": 4344,
      "Cal": 4345,
      "Flor": 4346,
      "Go": 4347,
      "Tor": 4348,
      "gón": 4349,
      "pese": 4350,
      "plá": 4351,
      "ábase": 4352,
      "deben": 4353,
      "cuesti": 4354,
      "siento": 4355,
      "vivos": 4356,
      "mpe": 4357,
      "mpi": 4358,
      "lita": 4359,
      "lico": 4360,
      "trata": 4361,
      "traje": 4362,
      "veci": 4363,
      "very": 4364,
      "tanes": 4365,
      "pecados": 4366,
      "filas": 4367,
      "vengan": 4368,
      "sonriendo": 4369,
      "faci": 4370,
      "negar": 4371,
      "seno": 4372,
      "seguido": 4373,
      "curgo": 4374,
      "Tela": 4375,
      "propios": 4376,
      "levantar": 4377,
      "Licurgo": 4378,
      "precipi": 4379,
      "acabó": 4380,
      "supersti": 4381,
      "llanto": 4382,
      "piernas": 4383,
      "oficio": 4384,
      "enteramente": 4385,
      "mezcla": 4386,
      "abundancia": 4387,
      "prosiguió": 4388,
      "Aris": 4389,
      "Mer": 4390,
      "Sec": 4391,
      "emo": 4392,
      "war": 4393,
      "úsi": 4394,
      "devo": 4395,
      "ladas": 4396,
      "ladr": 4397,
      "arla": 4398,
      "ardiente": 4399,
      "oriente": 4400,
      "cillo": 4401,
      "try": 4402,
      "subió": 4403,
      "midad": 4404,
      "med": 4405,
      "cadas": 4406,
      "port": 4407,
      "pay": 4408,
      "pado": 4409,
      "piso": 4410,
      "trado": 4411,
      "vemos": 4412,
      "profes": 4413,
      "isla": 4414,
      "éstas": 4415,
      "coron": 4416,
      "cortes": 4417,
      "poniéndose": 4418,
      "volvieron": 4419,
      "fee": 4420,
      "gase": 4421,
      "señores": 4422,
      "thro": 4423,
      "line": 4424,
      "hermosura": 4425,
      "principales": 4426,
      "encontraba": 4427,
      "error": 4428,
      "diferencia": 4429,
      "sacrificio": 4430,
      "azul": 4431,
      "Creo": 4432,
      "sirve": 4433,
      "cónca": 4434,
      "servicio": 4435,
      "existencia": 4436,
      "opinion": 4437,
      "aventura": 4438,
      "inmenso": 4439,
      "público": 4440,
      "criatura": 4441,
      "multitud": 4442,
      "gabinete": 4443,
      "Segunda": 4444,
      "Arnaiz": 4445,
      "Hace": 4446,
      "Pron": 4447,
      "afi": 4448,
      "cú": 4449,
      "fera": 4450,
      "fero": 4451,
      "olas": 4452,
      "rón": 4453,
      "útil": 4454,
      "encontra": 4455,
      "cima": 4456,
      "abas": 4457,
      "sepul": 4458,
      "cuad": 4459,
      "cuchi": 4460,
      "ricos": 4461,
      "capaz": 4462,
      "vias": 4463,
      "maíz": 4464,
      "gues": 4465,
      "mber": 4466,
      "pieza": 4467,
      "profi": 4468,
      "orado": 4469,
      "extran": 4470,
      "cerro": 4471,
      "tosí": 4472,
      "iré": 4473,
      "larse": 4474,
      "botica": 4475,
      "mone": 4476,
      "criado": 4477,
      "varios": 4478,
      "illos": 4479,
      "reyes": 4480,
      "propias": 4481,
      "mejores": 4482,
      "haberse": 4483,
      "trabajos": 4484,
      "siglo": 4485,
      "cogido": 4486,
      "ligero": 4487,
      "Estoy": 4488,
      "profunda": 4489,
      "rompió": 4490,
      "fresco": 4491,
      "comprender": 4492,
      "atrevi": 4493,
      "quedaron": 4494,
      "negocios": 4495,
      "obliga": 4496,
      "claramente": 4497,
      "disparates": 4498,
      "vulgar": 4499,
      "espiritu": 4500,
      "ejemplo": 4501,
      "descubierto": 4502,
      "Dis": 4503,
      "Mis": 4504,
      "PO": 4505,
      "Pin": 4506,
      "Peleo": 4507,
      "Sac": 4508,
      "ave": 4509,
      "bían": 4510,
      "arlo": 4511,
      "asso": 4512,
      "quedaba": 4513,
      "rein": 4514,
      "read": 4515,
      "recuerdo": 4516,
      "abs": 4517,
      "tocar": 4518,
      "dich": 4519,
      "conf": 4520,
      "supre": 4521,
      "ritus": 4522,
      "chó": 4523,
      "mago": 4524,
      "...?": 4525,
      "llamas": 4526,
      "llamaba": 4527,
      "perdón": 4528,
      "teras": 4529,
      "tará": 4530,
      "mismas": 4531,
      "serio": 4532,
      "adminis": 4533,
      "señales": 4534,
      "India": 4535,
      "malos": 4536,
      "andaba": 4537,
      "ciosas": 4538,
      "juro": 4539,
      "propiedades": 4540,
      "trabajar": 4541,
      "Potosí": 4542,
      "especie": 4543,
      "distribution": 4544,
      "Aquella": 4545,
      "echado": 4546,
      "admiración": 4547,
      "prueba": 4548,
      "refund": 4549,
      "Vulcano": 4550,
      "associa": 4551,
      "Soy": 4552,
      "TA": 4553,
      "aj": 4554,
      "ega": 4555,
      "jera": 4556,
      "tli": 4557,
      "tás": 4558,
      "doble": 4559,
      "requi": 4560,
      "intro": 4561,
      "abor": 4562,
      "leche": 4563,
      "cour": 4564,
      "medonte": 4565,
      "rayo": 4566,
      "modes": 4567,
      "chando": 4568,
      "vidad": 4569,
      "villa": 4570,
      "gutenberg": 4571,
      "sofá": 4572,
      "traía": 4573,
      "tradu": 4574,
      "naciones": 4575,
      "zadas": 4576,
      "perio": 4577,
      "castigo": 4578,
      "exha": 4579,
      "vencido": 4580,
      "lujo": 4581,
      "give": 4582,
      "pasión": 4583,
      "of_": 4584,
      "cantidad": 4585,
      "cabezas": 4586,
      "cenas": 4587,
      "creyó": 4588,
      "sabi": 4589,
      "new": 4590,
      "negros": 4591,
      "anoche": 4592,
      "juegos": 4593,
      "ándoles": 4594,
      "chicos": 4595,
      "regis": 4596,
      "llevaban": 4597,
      "apari": 4598,
      "razones": 4599,
      "espíritus": 4600,
      "intención": 4601,
      "Sabas": 4602,
      "capital": 4603,
      "pequeño": 4604,
      "ventana": 4605,
      "obedeci": 4606,
      "magnánimo": 4607,
      "mueve": 4608,
      "asombro": 4609,
      "Francis": 4610,
      "cambio": 4611,
      "repitió": 4612,
      "associated": 4613,
      "=)": 4614,
      "Am": 4615,
      "Bas": 4616,
      "ak": 4617,
      "ate": 4618,
      "clas": 4619,
      "ecido": 4620,
      "fol": 4621,
      "sano": 4622,
      "sele": 4623,
      "stru": 4624,
      "tho": 4625,
      "zi": 4626,
      "dedi": 4627,
      "repos": 4628,
      "sepa": 4629,
      "tomaba": 4630,
      "dime": 4631,
      "tax": 4632,
      "coge": 4633,
      "subli": 4634,
      "ratos": 4635,
      "respi": 4636,
      "resuel": 4637,
      "usaban": 4638,
      "fur": 4639,
      "fuesen": 4640,
      "fiel": 4641,
      "tario": 4642,
      "excep": 4643,
      "offi": 4644,
      "llevan": 4645,
      "creí": 4646,
      "rara": 4647,
      "pareci": 4648,
      "hacerle": 4649,
      "tini": 4650,
      "brilla": 4651,
      "auda": 4652,
      "virtu": 4653,
      "Poli": 4654,
      "uld": 4655,
      "sombras": 4656,
      "relacion": 4657,
      "phrase": 4658,
      "fruto": 4659,
      "olvidar": 4660,
      "aladas": 4661,
      "invierno": 4662,
      "evitar": 4663,
      "diciéndole": 4664,
      "losofía": 4665,
      "cóncavas": 4666,
      "Bel": 4667,
      "EL": 4668,
      "This": 4669,
      "Tide": 4670,
      "_see_": 4671,
      "aga": 4672,
      "bran": 4673,
      "bárbar": 4674,
      "hel": 4675,
      "músi": 4676,
      "pé": 4677,
      "erras": 4678,
      "alia": 4679,
      "contener": 4680,
      "sucu": 4681,
      "cuencia": 4682,
      "moder": 4683,
      "chaba": 4684,
      "simo": 4685,
      "murió": 4686,
      "tente": 4687,
      "trajo": 4688,
      "verano": 4689,
      "tarme": 4690,
      "cordia": 4691,
      "saliendo": 4692,
      "míos": 4693,
      "vuelo": 4694,
      "Siempre": 4695,
      "barba": 4696,
      "barbar": 4697,
      "sense": 4698,
      "gustaba": 4699,
      "sose": 4700,
      "igna": 4701,
      "escrito": 4702,
      "figuras": 4703,
      "extraña": 4704,
      "extraño": 4705,
      "digno": 4706,
      "arrepen": 4707,
      "ofrecer": 4708,
      "cariñ": 4709,
      "religión": 4710,
      "peligro": 4711,
      "prudente": 4712,
      "próxima": 4713,
      "reflexi": 4714,
      "pl_": 4715,
      "Gracias": 4716,
      "pájaros": 4717,
      "proporcion": 4718,
      "murmuró": 4719,
      "sacerdote": 4720,
      "introdu": 4721,
      "Tideo": 4722,
      "Alej": 4723,
      "Cay": 4724,
      "Eur": 4725,
      "NA": 4726,
      "PRO": 4727,
      "apun": 4728,
      "aparecer": 4729,
      "cándose": 4730,
      "dándose": 4731,
      "iva": 4732,
      "defin": 4733,
      "erna": 4734,
      "ancho": 4735,
      "ases": 4736,
      "doy": 4737,
      "ciario": 4738,
      "abraz": 4739,
      "dilig": 4740,
      "tris": 4741,
      "supi": 4742,
      "cuyos": 4743,
      "razada": 4744,
      "desen": 4745,
      "reson": 4746,
      "pegar": 4747,
      "carta": 4748,
      "caridad": 4749,
      "suspen": 4750,
      "corrió": 4751,
      "salían": 4752,
      "salida": 4753,
      "Eng": 4754,
      "derri": 4755,
      "compro": 4756,
      "eleva": 4757,
      "hacerse": 4758,
      "ciosos": 4759,
      "juven": 4760,
      "fundad": 4761,
      "ísimos": 4762,
      "Parece": 4763,
      "frio": 4764,
      "arrojar": 4765,
      "lógica": 4766,
      "encontró": 4767,
      "flechas": 4768,
      "uela": 4769,
      "dignidad": 4770,
      "ERO": 4771,
      "crí": 4772,
      "muralla": 4773,
      "completo": 4774,
      "Verdad": 4775,
      "piensa": 4776,
      "simple": 4777,
      "including": 4778,
      "matrimonio": 4779,
      "Schahrazada": 4780,
      "NOTAS": 4781,
      "Amparo": 4782,
      "Eurí": 4783,
      "'.": 4784,
      ".,": 4785,
      "55": 4786,
      "64": 4787,
      "Ben": 4788,
      "CU": 4789,
      "Emili": 4790,
      "aho": 4791,
      "gres": 4792,
      "teles": 4793,
      "quemada": 4794,
      "inven": 4795,
      "incen": 4796,
      "dilla": 4797,
      "conseguir": 4798,
      "caón": 4799,
      "muger": 4800,
      "menester": 4801,
      "like": 4802,
      "social": 4803,
      "tendría": 4804,
      "verme": 4805,
      "furi": 4806,
      "nacido": 4807,
      "bis": 4808,
      "perro": 4809,
      "bajó": 4810,
      "vaci": 4811,
      "singular": 4812,
      "duros": 4813,
      "premio": 4814,
      "poniente": 4815,
      "huir": 4816,
      "bul": 4817,
      "darme": 4818,
      "príncipe": 4819,
      "garon": 4820,
      "entraron": 4821,
      "griego": 4822,
      "estuvi": 4823,
      "pronunci": 4824,
      "honrado": 4825,
      "responder": 4826,
      "principi": 4827,
      "estreme": 4828,
      "riquezas": 4829,
      "soberbia": 4830,
      "refiere": 4831,
      "arrastr": 4832,
      "apetito": 4833,
      "autoridad": 4834,
      "montaña": 4835,
      "aproxi": 4836,
      "inmediatamente": 4837,
      "política": 4838,
      "itenciario": 4839,
      "_Pituso_": 4840,
      "abundante": 4841,
      "Francisco": 4842,
      "Cada": 4843,
      "Gal": 4844,
      "Lla": 4845,
      "Ramos": 4846,
      "UT": 4847,
      "_la": 4848,
      "cro": 4849,
      "eci": 4850,
      "fina": 4851,
      "isi": 4852,
      "jeron": 4853,
      "ks": 4854,
      "ático": 4855,
      "ñe": 4856,
      "ει": 4857,
      "depen": 4858,
      "enas": 4859,
      "espec": 4860,
      "lana": 4861,
      "qués": 4862,
      "quedado": 4863,
      "ties": 4864,
      "supo": 4865,
      "mia": 4866,
      "cuyas": 4867,
      "radas": 4868,
      "mozo": 4869,
      "siente": 4870,
      "sierra": 4871,
      "vigi": 4872,
      "mental": 4873,
      "hambre": 4874,
      "guen": 4875,
      "lica": 4876,
      "vocab": 4877,
      "persua": 4878,
      "termina": 4879,
      "tercera": 4880,
      "prob": 4881,
      "coro": 4882,
      "corpor": 4883,
      "corro": 4884,
      "discurso": 4885,
      "crees": 4886,
      "criada": 4887,
      "entran": 4888,
      "tonto": 4889,
      "tonta": 4890,
      "dirá": 4891,
      "piedad": 4892,
      "cuarenta": 4893,
      "expresó": 4894,
      "Casa": 4895,
      "esperar": 4896,
      "aquélla": 4897,
      "lugares": 4898,
      "diferencias": 4899,
      "conveniente": 4900,
      "golpes": 4901,
      "tranquila": 4902,
      "advertir": 4903,
      "Platón": 4904,
      "self": 4905,
      "PI": 4906,
      "call": 4907,
      "equ": 4908,
      "gin": 4909,
      "lés": 4910,
      "vora": 4911,
      "ábamos": 4912,
      "ende": 4913,
      "ansi": 4914,
      "asen": 4915,
      "citos": 4916,
      "recomen": 4917,
      "cones": 4918,
      "condición": 4919,
      "tivas": 4920,
      "cole": 4921,
      "milla": 4922,
      "cuente": 4923,
      "mode": 4924,
      "hago": 4925,
      "gozo": 4926,
      "mance": 4927,
      "maneras": 4928,
      "pear": 4929,
      "natur": 4930,
      "fiestas": 4931,
      "permission": 4932,
      "casos": 4933,
      "rano": 4934,
      "seri": 4935,
      "gios": 4936,
      "cana": 4937,
      "elita": 4938,
      "plaza": 4939,
      "espl": 4940,
      "estuve": 4941,
      "éndolo": 4942,
      "Paris": 4943,
      "hubieran": 4944,
      "divin": 4945,
      "oye": 4946,
      "guardar": 4947,
      "vini": 4948,
      "muchacho": 4949,
      "llevaron": 4950,
      "esperaba": 4951,
      "RIA": 4952,
      "relaciones": 4953,
      "NOCH": 4954,
      "escapar": 4955,
      "Rosar": 4956,
      "limpia": 4957,
      "cumplir": 4958,
      "impresión": 4959,
      "provide": 4960,
      "felicidad": 4961,
      "enorme": 4962,
      "noticias": 4963,
      "víctima": 4964,
      "jalá": 4965,
      "Evangel": 4966,
      "Pronto": 4967,
      ",[": 4968,
      "Ese": 4969,
      "MEN": 4970,
      "Ter": 4971,
      "apreci": 4972,
      "amado": 4973,
      "gis": 4974,
      "ible": 4975,
      "yu": 4976,
      "dedo": 4977,
      "deje": 4978,
      "demonios": 4979,
      "escar": 4980,
      "lago": 4981,
      "ern": 4982,
      "diab": 4983,
      "tamos": 4984,
      "consuelo": 4985,
      "copies": 4986,
      "notar": 4987,
      "cue": 4988,
      "--«": 4989,
      "sil": 4990,
      "haces": 4991,
      "descien": 4992,
      "lity": 4993,
      "traído": 4994,
      "manto": 4995,
      "mostraba": 4996,
      "fueran": 4997,
      "llave": 4998,
      "tropas": 4999,
      "acán": 5000,
      "case": 5001,
      "off": 5002,
      "estad": 5003,
      "rosas": 5004,
      "adonde": 5005,
      "huesos": 5006,
      "formas": 5007,
      "inado": 5008,
      "genera": 5009,
      "sacaba": 5010,
      "feo": 5011,
      "juntamente": 5012,
      "ísimas": 5013,
      "soldados": 5014,
      "antiguos": 5015,
      "hará": 5016,
      "tista": 5017,
      "charge": 5018,
      "Casta": 5019,
      "engaño": 5020,
      "acabar": 5021,
      "espejo": 5022,
      "decente": 5023,
      "satisfac": 5024,
      "vestidos": 5025,
      "temblor": 5026,
      "descubrir": 5027,
      "eBooks": 5028,
      "Valencia": 5029,
      "tempor": 5030,
      "belicos": 5031,
      "tertulia": 5032,
      "Section": 5033,
      "tinieblas": 5034,
      "Emilio": 5035,
      "Basi": 5036,
      "Nor": 5037,
      "Ra": 5038,
      "avis": 5039,
      "pár": 5040,
      "well": 5041,
      "íale": 5042,
      "sex": 5043,
      "seda": 5044,
      "damos": 5045,
      "suele": 5046,
      "cua": 5047,
      "cuento": 5048,
      "moles": 5049,
      "caciones": 5050,
      "madera": 5051,
      "ónde": 5052,
      "muer": 5053,
      "mbra": 5054,
      "tendr": 5055,
      "pide": 5056,
      "acter": 5057,
      "exal": 5058,
      "how": 5059,
      "ceros": 5060,
      "toso": 5061,
      "torre": 5062,
      "corta": 5063,
      "corona": 5064,
      "before": 5065,
      "decido": 5066,
      "Remedios": 5067,
      "guila": 5068,
      "viste": 5069,
      "militar": 5070,
      "estuviera": 5071,
      "hallaron": 5072,
      "estilo": 5073,
      "compar": 5074,
      "compara": 5075,
      "llamada": 5076,
      "vincias": 5077,
      "dulces": 5078,
      "DEL": 5079,
      "presentó": 5080,
      "orient": 5081,
      "Sabes": 5082,
      "corredor": 5083,
      "única": 5084,
      "suspiros": 5085,
      "lluvias": 5086,
      "morada": 5087,
      "fácilmente": 5088,
      "Penitenciario": 5089,
      "indus": 5090,
      "fértil": 5091,
      "averiguar": 5092,
      "90": 5093,
      "Ital": 5094,
      "_not": 5095,
      "apu": 5096,
      "bí": 5097,
      "bale": 5098,
      "oía": 5099,
      "end": 5100,
      "enda": 5101,
      "ence": 5102,
      "laciones": 5103,
      "queza": 5104,
      "cimo": 5105,
      "reuni": 5106,
      "revés": 5107,
      "seas": 5108,
      "mió": 5109,
      "maestro": 5110,
      "trae": 5111,
      "entan": 5112,
      "mandado": 5113,
      "perci": 5114,
      "game": 5115,
      "procur": 5116,
      "empren": 5117,
      "pasan": 5118,
      "prece": 5119,
      "cree": 5120,
      "clavó": 5121,
      "varon": 5122,
      "valle": 5123,
      "genio": 5124,
      "ándolos": 5125,
      "funesto": 5126,
      "nuevos": 5127,
      "auri": 5128,
      "estuvieron": 5129,
      "virtió": 5130,
      "ESI": 5131,
      "ligera": 5132,
      "desagra": 5133,
      "consejos": 5134,
      "hiciera": 5135,
      "cuantas": 5136,
      "costumbres": 5137,
      "***": 5138,
      "miserable": 5139,
      "orgullo": 5140,
      "satisfecho": 5141,
      "doctr": 5142,
      "Telamonio": 5143,
      "Alejandro": 5144,
      "esplén": 5145,
      "Basilio": 5146,
      "YO": 5147,
      "apres": 5148,
      "fabri": 5149,
      "op": 5150,
      "over": 5151,
      "rán": 5152,
      "zones": 5153,
      "ίδης": 5154,
      "enos": 5155,
      "asión": 5156,
      "ordena": 5157,
      "dob": 5158,
      "down": 5159,
      "almor": 5160,
      "repren": 5161,
      "invent": 5162,
      "semos": 5163,
      "tomo": 5164,
      "dicos": 5165,
      "tré": 5166,
      "tillas": 5167,
      "now": 5168,
      "sive": 5169,
      "vicio": 5170,
      "licios": 5171,
      "pido": 5172,
      "procu": 5173,
      "promo": 5174,
      "aqueas": 5175,
      "susten": 5176,
      "hoja": 5177,
      "saltó": 5178,
      "ponían": 5179,
      "herir": 5180,
      "display": 5181,
      "daría": 5182,
      "pared": 5183,
      "hayan": 5184,
      "juntas": 5185,
      "Parecía": 5186,
      "imá": 5187,
      "necesita": 5188,
      "constante": 5189,
      "estómago": 5190,
      "línea": 5191,
      "diferente": 5192,
      "observó": 5193,
      "produce": 5194,
      "ocurrió": 5195,
      "navega": 5196,
      "céle": 5197,
      "sirven": 5198,
      "mandadero": 5199,
      "Natural": 5200,
      "increí": 5201,
      "public": 5202,
      "dirección": 5203,
      "Rosarito": 5204,
      "56": 5205,
      "Apar": 5206,
      "Bon": 5207,
      "Eran": 5208,
      "Hu": 5209,
      "Iris": 5210,
      "PE": 5211,
      "Tes": 5212,
      "Uno": 5213,
      "_etc": 5214,
      "apoder": 5215,
      "bella": 5216,
      "hin": 5217,
      "luna": 5218,
      "ps": 5219,
      "pér": 5220,
      "rin": 5221,
      "uco": 5222,
      "usu": 5223,
      "upon": 5224,
      "zona": 5225,
      "épito": 5226,
      "deten": 5227,
      "dece": 5228,
      "arca": 5229,
      "as_": 5230,
      "teza": 5231,
      "melan": 5232,
      "rate": 5233,
      "sill": 5234,
      "muche": 5235,
      "estes": 5236,
      "pilo": 5237,
      "picos": 5238,
      "reserva": 5239,
      "cela": 5240,
      "testi": 5241,
      "serán": 5242,
      "cesa": 5243,
      "humanas": 5244,
      "cabello": 5245,
      "grados": 5246,
      "garse": 5247,
      "creyendo": 5248,
      "famoso": 5249,
      "mías": 5250,
      "vano": 5251,
      "old": 5252,
      "juego": 5253,
      "brus": 5254,
      "grito": 5255,
      "anilla": 5256,
      ".--¿": 5257,
      "Todas": 5258,
      "recibido": 5259,
      "sentí": 5260,
      "contesté": 5261,
      "constitu": 5262,
      "Tidida": 5263,
      "semejanza": 5264,
      "sorpresa": 5265,
      "digna": 5266,
      "encuentra": 5267,
      "táculo": 5268,
      "estrépito": 5269,
      "héroes": 5270,
      "ovejas": 5271,
      "afirmó": 5272,
      "absolutamente": 5273,
      "léri": 5274,
      "bueyes": 5275,
      "aquivos": 5276,
      "original": 5277,
      "venerable": 5278,
      "música": 5279,
      ".[": 5280,
      "Eres": 5281,
      "Feli": 5282,
      "Gia": 5283,
      "cléri": 5284,
      "dándole": 5285,
      "eje": 5286,
      "fú": 5287,
      "jón": 5288,
      "pg": 5289,
      "tén": 5290,
      "tándole": 5291,
      "vaban": 5292,
      "égida": 5293,
      "ñar": 5294,
      "ον": 5295,
      "erías": 5296,
      "angus": 5297,
      "doma": 5298,
      "altas": 5299,
      "reo": 5300,
      "realmente": 5301,
      "inju": 5302,
      "inmó": 5303,
      "ditos": 5304,
      "diría": 5305,
      "damas": 5306,
      "put": 5307,
      "haz": 5308,
      "paid": 5309,
      "resu": 5310,
      "ped": 5311,
      "terías": 5312,
      "maron": 5313,
      "duría": 5314,
      "empres": 5315,
      "corría": 5316,
      "inglés": 5317,
      "formal": 5318,
      "disgusto": 5319,
      "prin": 5320,
      "derre": 5321,
      "caliente": 5322,
      "andan": 5323,
      "ezca": 5324,
      "queriendo": 5325,
      "cuerdas": 5326,
      "Cont": 5327,
      "trastor": 5328,
      "interrump": 5329,
      "keep": 5330,
      "efectos": 5331,
      "abilidad": 5332,
      "importancia": 5333,
      "álco": 5334,
      "comunmente": 5335,
      "capitán": 5336,
      "free": 5337,
      "ingeni": 5338,
      "ingenio": 5339,
      "apoy": 5340,
      "halló": 5341,
      "bolsi": 5342,
      "combatientes": 5343,
      "naturales": 5344,
      "Evangelio": 5345,
      "muchedumbre": 5346,
      "80": 5347,
      "Fé": 5348,
      "Religi": 5349,
      "ator": 5350,
      "dy": 5351,
      "eve": 5352,
      "foso": 5353,
      "farma": 5354,
      "lía": 5355,
      "már": 5356,
      "ous": 5357,
      "deidades": 5358,
      "enseña": 5359,
      "entiende": 5360,
      "ant": 5361,
      "anunci": 5362,
      "elle": 5363,
      "cier": 5364,
      "cifi": 5365,
      "conmo": 5366,
      "midones": 5367,
      "cumbre": 5368,
      "caía": 5369,
      "light": 5370,
      "usaron": 5371,
      "tern": 5372,
      "marchar": 5373,
      "duer": 5374,
      "say": 5375,
      "gia": 5376,
      "cordi": 5377,
      "discu": 5378,
      "graves": 5379,
      "botas": 5380,
      "compon": 5381,
      "sabemos": 5382,
      "jefe": 5383,
      "varones": 5384,
      "aguda": 5385,
      "jura": 5386,
      "Pue": 5387,
      "causas": 5388,
      "levantándose": 5389,
      "notable": 5390,
      "planta": 5391,
      "Cristi": 5392,
      "débil": 5393,
      "influ": 5394,
      "comercio": 5395,
      "bajeles": 5396,
      "piración": 5397,
      "ilusión": 5398,
      "apaci": 5399,
      "cubrió": 5400,
      "magnífi": 5401,
      "broncínea": 5402,
      "humilde": 5403,
      "vecindad": 5404,
      "Isabelita": 5405,
      "cuestión": 5406,
      "Giafar": 5407,
      "54": 5408,
      "Ning": 5409,
      "Pre": 5410,
      "Sent": 5411,
      "ag": 5412,
      "agar": 5413,
      "away": 5414,
      "dár": 5415,
      "fino": 5416,
      "fren": 5417,
      "frase": 5418,
      "pali": 5419,
      "relo": 5420,
      "eses": 5421,
      "ang": 5422,
      "altos": 5423,
      "seca": 5424,
      "sedu": 5425,
      "too": 5426,
      "dic": 5427,
      "conta": 5428,
      "curas": 5429,
      "cuentas": 5430,
      "cated": 5431,
      "mad": 5432,
      "mulo": 5433,
      "guis": 5434,
      "desvan": 5435,
      "tulo": 5436,
      "pia": 5437,
      "quio": 5438,
      "quite": 5439,
      "furor": 5440,
      "zapa": 5441,
      "perver": 5442,
      "proces": 5443,
      "chocola": 5444,
      "same": 5445,
      "they": 5446,
      "calma": 5447,
      "chado": 5448,
      "doras": 5449,
      "sabido": 5450,
      "face": 5451,
      "merece": 5452,
      "tremen": 5453,
      "sacando": 5454,
      "brado": 5455,
      "culp": 5456,
      "culto": 5457,
      "recibió": 5458,
      "sentarse": 5459,
      "cogiendo": 5460,
      "haré": 5461,
      "encontré": 5462,
      "cause": 5463,
      "contestar": 5464,
      "broma": 5465,
      "there": 5466,
      "acababa": 5467,
      "bonita": 5468,
      "distribute": 5469,
      "ocupar": 5470,
      "enfermedad": 5471,
      "géneros": 5472,
      "envidia": 5473,
      "nuevamente": 5474,
      "provecho": 5475,
      "hábi": 5476,
      "resistir": 5477,
      "cuánto": 5478,
      "belleza": 5479,
      "peligros": 5480,
      "stancias": 5481,
      "pedazo": 5482,
      "pedazos": 5483,
      "brillantes": 5484,
      "entusiasmo": 5485,
      "emoción": 5486,
      "follow": 5487,
      "imágenes": 5488,
      "76": 5489,
      "Dama": 5490,
      "TY": 5491,
      "etano": 5492,
      "jaque": 5493,
      "opera": 5494,
      "ÍA": 5495,
      "ιος": 5496,
      "detener": 5497,
      "demostr": 5498,
      "enfa": 5499,
      "estri": 5500,
      "arena": 5501,
      "artifi": 5502,
      "alum": 5503,
      "ciento": 5504,
      "recomp": 5505,
      "inqui": 5506,
      "confun": 5507,
      "colle": 5508,
      "chura": 5509,
      "side": 5510,
      "muerta": 5511,
      "deso": 5512,
      "descar": 5513,
      "lide": 5514,
      "liter": 5515,
      "solas": 5516,
      "picar": 5517,
      "quise": 5518,
      "quitado": 5519,
      "manía": 5520,
      "perpe": 5521,
      "perfu": 5522,
      "terreno": 5523,
      "dase": 5524,
      "vendrá": 5525,
      "lance": 5526,
      "gió": 5527,
      "empi": 5528,
      "derro": 5529,
      "compasión": 5530,
      "monstru": 5531,
      "Real": 5532,
      "cinto": 5533,
      "jarse": 5534,
      "espanto": 5535,
      "esplen": 5536,
      "ándolas": 5537,
      "impon": 5538,
      "propiedad": 5539,
      "dirse": 5540,
      "visible": 5541,
      "Quiero": 5542,
      "empezaba": 5543,
      "fresca": 5544,
      "Febo": 5545,
      "contemplar": 5546,
      "habitantes": 5547,
      "regiones": 5548,
      "Roma": 5549,
      "muebles": 5550,
      "plumas": 5551,
      "atravesó": 5552,
      "ilumin": 5553,
      "verdaderamente": 5554,
      "asuntos": 5555,
      "cubierto": 5556,
      "China": 5557,
      "miseria": 5558,
      "rabia": 5559,
      "Criador": 5560,
      "Cayetano": 5561,
      "fundadora": 5562,
      "principios": 5563,
      "YOU": 5564,
      "=).": 5565,
      "Aqué": 5566,
      "Bárbar": 5567,
      "Imp": 5568,
      "Jer": 5569,
      "Mundo": 5570,
      "_w": 5571,
      "a_": 5572,
      "aje": 5573,
      "fría": 5574,
      "our": 5575,
      "st": 5576,
      "στ": 5577,
      "enre": 5578,
      "artes": 5579,
      "onte": 5580,
      "ciales": 5581,
      "teers": 5582,
      "recido": 5583,
      "insig": 5584,
      "dichos": 5585,
      "tama": 5586,
      "condi": 5587,
      "cuentos": 5588,
      "ricas": 5589,
      "raza": 5590,
      "chador": 5591,
      "vientre": 5592,
      "puente": 5593,
      "hado": 5594,
      "hagas": 5595,
      "despren": 5596,
      "tuosa": 5597,
      "limos": 5598,
      "license": 5599,
      "tratado": 5600,
      "verb": 5601,
      "poe": 5602,
      "peñas": 5603,
      "perió": 5604,
      "casar": 5605,
      "casta": 5606,
      "caras": 5607,
      "exper": 5608,
      "vencer": 5609,
      "corrup": 5610,
      "salen": 5611,
      "pones": 5612,
      "cannot": 5613,
      "callar": 5614,
      "dormido": 5615,
      "medida": 5616,
      "merca": 5617,
      "entrando": 5618,
      "diós": 5619,
      "olvida": 5620,
      "Guar": 5621,
      "dremos": 5622,
      "mirmidones": 5623,
      "amigas": 5624,
      "vuelven": 5625,
      "dró": 5626,
      "echaba": 5627,
      "zarse": 5628,
      "recibe": 5629,
      "igno": 5630,
      "preguntar": 5631,
      "respondí": 5632,
      "enamora": 5633,
      "visitar": 5634,
      "estima": 5635,
      "común": 5636,
      "entrañas": 5637,
      "infla": 5638,
      "abierta": 5639,
      "ordenó": 5640,
      "delicado": 5641,
      "comenzó": 5642,
      "...!».": 5643,
      "appear": 5644,
      "hácia": 5645,
      "eterno": 5646,
      "irritado": 5647,
      "fatiga": 5648,
      "Virgi": 5649,
      "afecto": 5650,
      "destruir": 5651,
      "término": 5652,
      "sufrir": 5653,
      "auxili": 5654,
      "ocasion": 5655,
      "Jesús": 5656,
      "vapores": 5657,
      "eximio": 5658,
      "improvi": 5659,
      "Aristó": 5660,
      "diligencia": 5661,
      "//": 5662,
      "77": 5663,
      "://": 5664,
      "Además": 5665,
      "Bri": 5666,
      "Dos": 5667,
      "Esa": 5668,
      "Gi": 5669,
      "Voy": 5670,
      "amas": 5671,
      "geles": 5672,
      "hand": 5673,
      "htt": 5674,
      "ices": 5675,
      "king": 5676,
      "och": 5677,
      "sando": 5678,
      "uti": 5679,
      "íos": 5680,
      "ñó": 5681,
      "debo": 5682,
      "envió": 5683,
      "doctor": 5684,
      "ciar": 5685,
      "regular": 5686,
      "abis": 5687,
      "diese": 5688,
      "dichas": 5689,
      "letra": 5690,
      "conso": 5691,
      "look": 5692,
      "metido": 5693,
      "riente": 5694,
      "lasti": 5695,
      "roqui": 5696,
      "malas": 5697,
      "madres": 5698,
      "menores": 5699,
      "menudo": 5700,
      "tuviese": 5701,
      "doso": 5702,
      "tenta": 5703,
      "pap": 5704,
      "vela": 5705,
      "vete": 5706,
      "velas": 5707,
      "hechi": 5708,
      "casarse": 5709,
      "prohi": 5710,
      "proper": 5711,
      "luces": 5712,
      "gico": 5713,
      "correc": 5714,
      "poni": 5715,
      "obtain": 5716,
      "Infi": 5717,
      "crip": 5718,
      "bara": 5719,
      "aguja": 5720,
      "querían": 5721,
      "historias": 5722,
      "entamente": 5723,
      "vaso": 5724,
      "banquete": 5725,
      "trono": 5726,
      "bené": 5727,
      "observar": 5728,
      "convento": 5729,
      "obedecer": 5730,
      "defensa": 5731,
      "llenos": 5732,
      "significa": 5733,
      "imagin": 5734,
      "conserva": 5735,
      "conservar": 5736,
      "salvaje": 5737,
      "sucedió": 5738,
      "resplandor": 5739,
      "rápidamente": 5740,
      "establecimiento": 5741,
      "véase": 5742,
      "inoccial": 5743,
      "occiden": 5744,
      "texto": 5745,
      "amenaza": 5746,
      "Torquemada": 5747,
      "fúne": 5748,
      "derredor": 5749,
      "Contestó": 5750,
      "Virgilio": 5751,
      "Cer": 5752,
      "Dante": 5753,
      "HIS": 5754,
      "Nu": 5755,
      "RAN": 5756,
      "Tras": 5757,
      "]:": 5758,
      "_t": 5759,
      "alab": 5760,
      "atur": 5761,
      "cy": 5762,
      "cár": 5763,
      "emin": 5764,
      "físi": 5765,
      "jab": 5766,
      "rest": 5767,
      "sm": 5768,
      "vío": 5769,
      "wi": 5770,
      "zuela": 5771,
      "águila": 5772,
      "éc": 5773,
      "éramos": 5774,
      "εύ": 5775,
      "defi": 5776,
      "debes": 5777,
      "aren": 5778,
      "reza": 5779,
      "conden": 5780,
      "local": 5781,
      "medo": 5782,
      "meta": 5783,
      "roca": 5784,
      "partido": 5785,
      "muere": 5786,
      "desgar": 5787,
      "sobres": 5788,
      "traen": 5789,
      "resto": 5790,
      "peca": 5791,
      "furia": 5792,
      "fil": 5793,
      "him": 5794,
      "pere": 5795,
      "casu": 5796,
      "proble": 5797,
      "duró": 5798,
      "sacado": 5799,
      "estación": 5800,
      "ponian": 5801,
      "huyendo": 5802,
      "donos": 5803,
      "sabio": 5804,
      "sín": 5805,
      "itaba": 5806,
      "andando": 5807,
      "seguían": 5808,
      "cional": 5809,
      "iló": 5810,
      "éronle": 5811,
      "horribles": 5812,
      "contrarios": 5813,
      "cultades": 5814,
      "echan": 5815,
      "Micae": 5816,
      "celos": 5817,
      "aliento": 5818,
      "regalo": 5819,
      "expresar": 5820,
      "TOR": 5821,
      "TORIA": 5822,
      "familiar": 5823,
      "sueños": 5824,
      "lími": 5825,
      "Ayaces": 5826,
      "abierto": 5827,
      "troyano": 5828,
      "tranquili": 5829,
      "enferma": 5830,
      "ademán": 5831,
      "grupo": 5832,
      "Corte": 5833,
      "campos": 5834,
      "aventa": 5835,
      "soledad": 5836,
      "impetuoso": 5837,
      "suspiro": 5838,
      "nieto": 5839,
      "located": 5840,
      "violencia": 5841,
      "Hombre": 5842,
      "solici": 5843,
      "volviéndose": 5844,
      "means": 5845,
      "individual": 5846,
      "reluciente": 5847,
      "idolatría": 5848,
      "increíble": 5849,
      "ingeniero": 5850,
      "tamaño": 5851,
      "Aristóteles": 5852,
      "Micaelas": 5853,
      "Cá": 5854,
      "Jun": 5855,
      "MA": 5856,
      "TRI": 5857,
      "Vé": 5858,
      "ambi": 5859,
      "dme": 5860,
      "dalo": 5861,
      "emba": 5862,
      "gesto": 5863,
      "palma": 5864,
      "tl": 5865,
      "tly": 5866,
      "vest": 5867,
      "temo": 5868,
      "techo": 5869,
      "reconocer": 5870,
      "invo": 5871,
      "insis": 5872,
      "abismo": 5873,
      "tiros": 5874,
      "sube": 5875,
      "cule": 5876,
      "ramas": 5877,
      "viven": 5878,
      "parroqui": 5879,
      "muestra": 5880,
      "destina": 5881,
      "lito": 5882,
      "lidos": 5883,
      "pain": 5884,
      "veían": 5885,
      "mananti": 5886,
      "fuente": 5887,
      "perfecta": 5888,
      "perecer": 5889,
      "tropa": 5890,
      "tercio": 5891,
      "tercero": 5892,
      "niñ": 5893,
      "existe": 5894,
      "lumin": 5895,
      "luchar": 5896,
      "gidos": 5897,
      "jados": 5898,
      "addi": 5899,
      "canas": 5900,
      "monía": 5901,
      "monjas": 5902,
      "faz": 5903,
      "mali": 5904,
      "vara": 5905,
      "sentada": 5906,
      "agudo": 5907,
      "decirme": 5908,
      "renda": 5909,
      "seguridad": 5910,
      "these": 5911,
      "danza": 5912,
      "Jacinto": 5913,
      "mesas": 5914,
      "escribe": 5915,
      "mérito": 5916,
      "pensado": 5917,
      "sueña": 5918,
      "bromas": 5919,
      "últimos": 5920,
      "produjo": 5921,
      "importante": 5922,
      "XXII": 5923,
      "movido": 5924,
      "dificultad": 5925,
      "agradable": 5926,
      "suelen": 5927,
      "lish": 5928,
      "estancia": 5929,
      "ceremonia": 5930,
      "impulso": 5931,
      "Volvió": 5932,
      "yerba": 5933,
      "effor": 5934,
      "sensato": 5935,
      "Griego": 5936,
      "espiritual": 5937,
      "HISTORIA": 5938,
      "Abri": 5939,
      "FI": 5940,
      "Iba": 5941,
      "Plu": 5942,
      "Río": 5943,
      "Vit": 5944,
      "amento": 5945,
      "jé": 5946,
      "úl": 5947,
      "deidad": 5948,
      "ladri": 5949,
      "quen": 5950,
      "quedé": 5951,
      "tividad": 5952,
      "comb": 5953,
      "losa": 5954,
      "curio": 5955,
      "ridí": 5956,
      "portal": 5957,
      "menu": 5958,
      "mbar": 5959,
      "sollo": 5960,
      "traían": 5961,
      "vehe": 5962,
      "fui": 5963,
      "niñas": 5964,
      "vengo": 5965,
      "dudas": 5966,
      "llegue": 5967,
      "sales": 5968,
      "salto": 5969,
      "ponto": 5970,
      "dará": 5971,
      "gargan": 5972,
      "compli": 5973,
      "Quiz": 5974,
      "bienaventura": 5975,
      "cinas": 5976,
      "Segis": 5977,
      "tremo": 5978,
      "sacan": 5979,
      "instin": 5980,
      "señorito": 5981,
      "estuviese": 5982,
      "levantarse": 5983,
      "ign": 5984,
      "cómoda": 5985,
      "oyendo": 5986,
      "volverse": 5987,
      "cuartos": 5988,
      "muchachos": 5989,
      "siguiendo": 5990,
      "extraordinaria": 5991,
      "blancos": 5992,
      "Quieres": 5993,
      "LOS": 5994,
      "rueda": 5995,
      "crines": 5996,
      "Tampoco": 5997,
      "encargo": 5998,
      "conducta": 5999,
      "lluvia": 6000,
      "Carlos": 6001,
      "oídos": 6002,
      "serenidad": 6003,
      "Príncipe": 6004,
      "facilidad": 6005,
      "Aparisi": 6006,
      "Bárbara": 6007,
      "mercader": 6008,
      "Infierno": 6009,
      "Segismundo": 6010,
      "43": 6011,
      "Crey": 6012,
      "GESI": 6013,
      "Luna": 6014,
      "Ojalá": 6015,
      "PRI": 6016,
      "SI": 6017,
      "_La": 6018,
      "ach": 6019,
      "acomo": 6020,
      "aparecía": 6021,
      "adentro": 6022,
      "bren": 6023,
      "grar": 6024,
      "hero": 6025,
      "ico": 6026,
      "ivo": 6027,
      "jaban": 6028,
      "plor": 6029,
      "rinc": 6030,
      "época": 6031,
      "ñaba": 6032,
      "debían": 6033,
      "cimientos": 6034,
      "cientas": 6035,
      "reas": 6036,
      "iness": 6037,
      "inmortal": 6038,
      "innumer": 6039,
      "dif": 6040,
      "tamiento": 6041,
      "timi": 6042,
      "mici": 6043,
      "cato": 6044,
      "caja": 6045,
      "chor": 6046,
      "piente": 6047,
      "using": 6048,
      "manjar": 6049,
      "verdes": 6050,
      "bilidad": 6051,
      "hir": 6052,
      "tercer": 6053,
      "caracter": 6054,
      "exce": 6055,
      "lanes": 6056,
      "seria": 6057,
      "Estás": 6058,
      "pasiones": 6059,
      "disposición": 6060,
      "grato": 6061,
      "dentes": 6062,
      "sable": 6063,
      "labor": 6064,
      "cualidades": 6065,
      "medicina": 6066,
      "medium": 6067,
      "maldita": 6068,
      "fines": 6069,
      "barra": 6070,
      "tontería": 6071,
      "Provincia": 6072,
      "vuelva": 6073,
      "coraza": 6074,
      "Anton": 6075,
      "sostener": 6076,
      "dejan": 6077,
      "celesti": 6078,
      "igh": 6079,
      "regal": 6080,
      "signo": 6081,
      "hermosos": 6082,
      "escribi": 6083,
      "found": 6084,
      "187": 6085,
      "Quiere": 6086,
      "glori": 6087,
      "abrigo": 6088,
      "sentidos": 6089,
      "veloces": 6090,
      "campamento": 6091,
      "permanecer": 6092,
      "Allá": 6093,
      "recoger": 6094,
      "gravedad": 6095,
      "íncipes": 6096,
      "carnes": 6097,
      "carneros": 6098,
      "repugn": 6099,
      "Cuánto": 6100,
      "Durante": 6101,
      "esforzado": 6102,
      "Clara": 6103,
      "Mercurio": 6104,
      "require": 6105,
      "apariencia": 6106,
      "modelo": 6107,
      "Tesalia": 6108,
      "clérigo": 6109,
      "chocolate": 6110,
      "ochenta": 6111,
      "Vitzi": 6112,
      "GESIMO": 6113,
      "Cha": 6114,
      "Gener": 6115,
      "Har": 6116,
      "Ida": 6117,
      "Mal": 6118,
      "dle": 6119,
      "glo": 6120,
      "hí": 6121,
      "imi": 6122,
      "idio": 6123,
      "non": 6124,
      "nere": 6125,
      "pt": 6126,
      "saba": 6127,
      "wh": 6128,
      "yen": 6129,
      "ztli": 6130,
      "αι": 6131,
      "decla": 6132,
      "aro": 6133,
      "orbe": 6134,
      "temiendo": 6135,
      "reñ": 6136,
      "refu": 6137,
      "reconci": 6138,
      "representa": 6139,
      "indeci": 6140,
      "indul": 6141,
      "inútil": 6142,
      "tomas": 6143,
      "trá": 6144,
      "tral": 6145,
      "trab": 6146,
      "tidas": 6147,
      "tifica": 6148,
      "codi": 6149,
      "sudor": 6150,
      "cules": 6151,
      "mete": 6152,
      "rieron": 6153,
      "caen": 6154,
      "cavi": 6155,
      "desarro": 6156,
      "jovi": 6157,
      "fis": 6158,
      "ecen": 6159,
      "carle": 6160,
      "taré": 6161,
      "excu": 6162,
      "mare": 6163,
      "mares": 6164,
      "sintiendo": 6165,
      "sereno": 6166,
      "tory": 6167,
      "torios": 6168,
      "masa": 6169,
      "llevas": 6170,
      "ruego": 6171,
      "grandísima": 6172,
      "largas": 6173,
      "hur": 6174,
      "cantando": 6175,
      "heridas": 6176,
      "dista": 6177,
      "bienes": 6178,
      "mono": 6179,
      "vestir": 6180,
      "playa": 6181,
      "bró": 6182,
      "tinos": 6183,
      "causó": 6184,
      "cellas": 6185,
      "imán": 6186,
      "Cierto": 6187,
      "hubieron": 6188,
      "notables": 6189,
      "sentar": 6190,
      "regla": 6191,
      "buscando": 6192,
      "haría": 6193,
      "sesenta": 6194,
      "escudos": 6195,
      "asilo": 6196,
      "Ruiz": 6197,
      "cruz": 6198,
      "blancas": 6199,
      "apartar": 6200,
      "empezar": 6201,
      "empezaron": 6202,
      "esperando": 6203,
      "engaña": 6204,
      "víos": 6205,
      "narra": 6206,
      "ocurre": 6207,
      "tilde": 6208,
      "permitía": 6209,
      "obstante": 6210,
      "bonito": 6211,
      "ofrece": 6212,
      "tranquilidad": 6213,
      "corrido": 6214,
      "vieja": 6215,
      "dirigir": 6216,
      "cuidados": 6217,
      "ocultar": 6218,
      "franqueza": 6219,
      "procede": 6220,
      "oficios": 6221,
      "veinti": 6222,
      "resultado": 6223,
      "chiquilla": 6224,
      "Chile": 6225,
      "circuns": 6226,
      "infame": 6227,
      "received": 6228,
      "Algunos": 6229,
      "frases": 6230,
      "Gobierno": 6231,
      "equinoccial": 6232,
      "oriental": 6233,
      "célebre": 6234,
      "Naturaleza": 6235,
      "catedral": 6236,
      "small": 6237,
      "εύς": 6238,
      "garganta": 6239,
      "rincón": 6240,
      "nereidas": 6241,
      "87": 6242,
      "92": 6243,
      "=>": 6244,
      "Apenas": 6245,
      "Dónde": 6246,
      "Ger": 6247,
      "Gob": 6248,
      "Hér": 6249,
      "Men": 6250,
      "Ol": 6251,
      "_c_": 6252,
      "aparte": 6253,
      "atribu": 6254,
      "cciones": 6255,
      "gr": 6256,
      "igo": 6257,
      "ken": 6258,
      "naba": 6259,
      "ving": 6260,
      "when": 6261,
      "íso": 6262,
      "determina": 6263,
      "escán": 6264,
      "esfera": 6265,
      "aran": 6266,
      "armar": 6267,
      "alí": 6268,
      "almen": 6269,
      "rez": 6270,
      "recia": 6271,
      "abre": 6272,
      "digas": 6273,
      "conde": 6274,
      "tiera": 6275,
      "tiran": 6276,
      "tical": 6277,
      "cobre": 6278,
      "novel": 6279,
      "miel": 6280,
      "purifi": 6281,
      "mencion": 6282,
      "desespera": 6283,
      "desventura": 6284,
      "tumba": 6285,
      "tumul": 6286,
      "socorrer": 6287,
      "tendido": 6288,
      "trataba": 6289,
      "rescate": 6290,
      "vedo": 6291,
      "manz": 6292,
      "mandaba": 6293,
      "podemos": 6294,
      "fig": 6295,
      "perdió": 6296,
      "provo": 6297,
      "taria": 6298,
      "exterior": 6299,
      "marti": 6300,
      "misterios": 6301,
      "lum": 6302,
      "giendo": 6303,
      "pasaban": 6304,
      "pasillo": 6305,
      "cortar": 6306,
      "corren": 6307,
      "precia": 6308,
      "salian": 6309,
      "forni": 6310,
      "herencia": 6311,
      "disgus": 6312,
      "lló": 6313,
      "presteza": 6314,
      "entregar": 6315,
      "Information": 6316,
      "Matilde": 6317,
      "elegante": 6318,
      "desea": 6319,
      "caminos": 6320,
      "siglos": 6321,
      "Quevedo": 6322,
      "anyone": 6323,
      "aires": 6324,
      "Quien": 6325,
      "glorios": 6326,
      "naran": 6327,
      "fábri": 6328,
      "permite": 6329,
      "ofreció": 6330,
      "quince": 6331,
      "mostró": 6332,
      "cadáveres": 6333,
      "satisf": 6334,
      "afirma": 6335,
      "desgraciado": 6336,
      "círculos": 6337,
      "sucesos": 6338,
      "criaturas": 6339,
      "fantas": 6340,
      "resplandeci": 6341,
      "resolu": 6342,
      "copia": 6343,
      "redondo": 6344,
      "broncíneas": 6345,
      "auxilio": 6346,
      "cobarde": 6347,
      "esfuerzo": 6348,
      "domés": 6349,
      "encontrado": 6350,
      "juventud": 6351,
      "Norte": 6352,
      "Italia": 6353,
      "auriga": 6354,
      "doctrina": 6355,
      "apresur": 6356,
      "bolsillo": 6357,
      "reloj": 6358,
      "Hércules": 6359,
      "\"¡": 6360,
      "=;": 6361,
      "Bi": 6362,
      "Beo": 6363,
      "Gla": 6364,
      "Há": 6365,
      "Nunca": 6366,
      "Otro": 6367,
      "Pú": 6368,
      "Pob": 6369,
      "TES": 6370,
      "ame": 6371,
      "adere": 6372,
      "amante": 6373,
      "eu": 6374,
      "even": 6375,
      "hú": 6376,
      "vina": 6377,
      "»,": 6378,
      "endere": 6379,
      "anhe": 6380,
      "organ": 6381,
      "reto": 6382,
      "return": 6383,
      "indu": 6384,
      "diéndose": 6385,
      "ledo": 6386,
      "legí": 6387,
      "mila": 6388,
      "ratito": 6389,
      "siva": 6390,
      "parientes": 6391,
      "desas": 6392,
      "despreci": 6393,
      "tuya": 6394,
      "pidió": 6395,
      "resol": 6396,
      "cetro": 6397,
      "cejas": 6398,
      "usar": 6399,
      "verte": 6400,
      "vergon": 6401,
      "hable": 6402,
      "marse": 6403,
      "marqués": 6404,
      "due": 6405,
      "land": 6406,
      "lanzó": 6407,
      "serlo": 6408,
      "rumor": 6409,
      "prefer": 6410,
      "salvo": 6411,
      "grano": 6412,
      "sono": 6413,
      "hués": 6414,
      "daré": 6415,
      "dario": 6416,
      "creas": 6417,
      "lable": 6418,
      "labrado": 6419,
      "ñoz": 6420,
      "presto": 6421,
      "falan": 6422,
      "fatal": 6423,
      "nega": 6424,
      "maldito": 6425,
      "Deí": 6426,
      "dioso": 6427,
      "vuestros": 6428,
      "May": 6429,
      "ablemente": 6430,
      "decirse": 6431,
      "plato": 6432,
      "conoces": 6433,
      "miraban": 6434,
      "banse": 6435,
      "estudio": 6436,
      "París": 6437,
      "interpre": 6438,
      "solí": 6439,
      "izquierdo": 6440,
      "Polida": 6441,
      "comía": 6442,
      "siguientes": 6443,
      "máquina": 6444,
      "dejaron": 6445,
      "especi": 6446,
      "navegar": 6447,
      "contenta": 6448,
      "Muñoz": 6449,
      "volunteers": 6450,
      "aceite": 6451,
      "pusiera": 6452,
      "hábil": 6453,
      "salvación": 6454,
      "retirarse": 6455,
      "perfectamente": 6456,
      "arreglar": 6457,
      "llegamos": 6458,
      "nieve": 6459,
      "honradez": 6460,
      "redonda": 6461,
      "disimular": 6462,
      "energía": 6463,
      "goberna": 6464,
      "ocasiones": 6465,
      "prac": 6466,
      "reverencia": 6467,
      "Capitan": 6468,
      "through": 6469,
      "dichoso": 6470,
      "sabiduría": 6471,
      "satisfacción": 6472,
      "almorzar": 6473,
      "inmóvil": 6474,
      "insigne": 6475,
      "tremolante": 6476,
      "General": 6477,
      "satisfacer": 6478,
      "Polidamante": 6479,
      "FOR": 6480,
      "Janto": 6481,
      "Ne": 6482,
      "OS": 6483,
      "Otras": 6484,
      "Otros": 6485,
      "_Del": 6486,
      "air": 6487,
      "cés": 6488,
      "jac": 6489,
      "mel": 6490,
      "mni": 6491,
      "ní": 6492,
      "opor": 6493,
      "rían": 6494,
      "she": 6495,
      "αλ": 6496,
      "ρι": 6497,
      "esquina": 6498,
      "lavar": 6499,
      "also": 6500,
      "reir": 6501,
      "revolu": 6502,
      "secu": 6503,
      "da_": 6504,
      "cayendo": 6505,
      "rojo": 6506,
      "made": 6507,
      "puer": 6508,
      "lip": 6509,
      "sois": 6510,
      "pata": 6511,
      "pados": 6512,
      "paja": 6513,
      "entar": 6514,
      "veje": 6515,
      "mane": 6516,
      "mantón": 6517,
      "verlos": 6518,
      "hablaban": 6519,
      "pez": 6520,
      "terrán": 6521,
      "venían": 6522,
      "tosa": 6523,
      "seré": 6524,
      "llegando": 6525,
      "jame": 6526,
      "dispuesta": 6527,
      "dent": 6528,
      "Qued": 6529,
      "creen": 6530,
      "volencia": 6531,
      "tóse": 6532,
      "vanidad": 6533,
      "casado": 6534,
      "renta": 6535,
      "Mejor": 6536,
      "grebas": 6537,
      "corazon": 6538,
      "Anten": 6539,
      "Toledo": 6540,
      "personal": 6541,
      "dejé": 6542,
      "Dice": 6543,
      "Dicen": 6544,
      "150": 6545,
      "látigo": 6546,
      "Hipó": 6547,
      "visión": 6548,
      "guarda": 6549,
      "formado": 6550,
      "ánimos": 6551,
      "dirige": 6552,
      "narices": 6553,
      "besos": 6554,
      "sacrificar": 6555,
      "alcance": 6556,
      "Mucho": 6557,
      "contemplando": 6558,
      "ingenios": 6559,
      "linage": 6560,
      "próji": 6561,
      "principalmente": 6562,
      "ataque": 6563,
      "existen": 6564,
      "ministros": 6565,
      "soberano": 6566,
      "despidió": 6567,
      "afligido": 6568,
      "vienes": 6569,
      "disparate": 6570,
      "THIS": 6571,
      "circunstancias": 6572,
      "maravillosa": 6573,
      "Compañ": 6574,
      "editions": 6575,
      "triunfo": 6576,
      "delanteros": 6577,
      "ágiles": 6578,
      "days": 6579,
      "people": 6580,
      "severidad": 6581,
      "feroz": 6582,
      "empresa": 6583,
      "esplendor": 6584,
      "Aquél": 6585,
      "improviso": 6586,
      "Beocia": 6587,
      "Glauco": 6588,
      "91": 6589,
      "Ambos": 6590,
      "ECT": 6591,
      "Fue": 6592,
      "Filó": 6593,
      "Tru": 6594,
      "_in": 6595,
      "amp": 6596,
      "api": 6597,
      "dras": 6598,
      "epi": 6599,
      "gándose": 6600,
      "ici": 6601,
      "ling": 6602,
      "ote": 6603,
      "run": 6604,
      "rendo": 6605,
      "zándose": 6606,
      "Éste": 6607,
      "íces": 6608,
      "declara": 6609,
      "entien": 6610,
      "esmer": 6611,
      "escena": 6612,
      "anta": 6613,
      "quedad": 6614,
      "quedan": 6615,
      "alzó": 6616,
      "recinto": 6617,
      "insignifi": 6618,
      "insul": 6619,
      "total": 6620,
      "leal": 6621,
      "contras": 6622,
      "sumer": 6623,
      "cuanti": 6624,
      "mozos": 6625,
      "caell": 6626,
      "partir": 6627,
      "meno": 6628,
      "gula": 6629,
      "destro": 6630,
      "desple": 6631,
      "desprecio": 6632,
      "lios": 6633,
      "teni": 6634,
      "paño": 6635,
      "papá": 6636,
      "gobi": 6637,
      "fuentes": 6638,
      "nacimiento": 6639,
      "acía": 6640,
      "accep": 6641,
      "bada": 6642,
      "baño": 6643,
      "cartas": 6644,
      "ángeles": 6645,
      "susto": 6646,
      "venera": 6647,
      "veneran": 6648,
      "sing": 6649,
      "cesar": 6650,
      "samente": 6651,
      "pasados": 6652,
      "jate": 6653,
      "forzoso": 6654,
      "Quer": 6655,
      "entregó": 6656,
      "posted": 6657,
      "claras": 6658,
      "idado": 6659,
      "diosas": 6660,
      "pareja": 6661,
      "tonterías": 6662,
      "valles": 6663,
      "jugar": 6664,
      "juez": 6665,
      "túni": 6666,
      "great": 6667,
      "horiz": 6668,
      "horror": 6669,
      "inst": 6670,
      "mayormente": 6671,
      "ating": 6672,
      "hubieras": 6673,
      "pregunté": 6674,
      "escritura": 6675,
      "escudero": 6676,
      "charla": 6677,
      "cuarta": 6678,
      "diversidad": 6679,
      "extrañas": 6680,
      "after": 6681,
      "iguales": 6682,
      "besó": 6683,
      "borde": 6684,
      "gordo": 6685,
      "dolores": 6686,
      "intento": 6687,
      "capitanes": 6688,
      "únicamente": 6689,
      "Verás": 6690,
      "llenas": 6691,
      "long": 6692,
      "linaje": 6693,
      "imaginar": 6694,
      "extensión": 6695,
      "burla": 6696,
      "manifestar": 6697,
      "referir": 6698,
      "suceder": 6699,
      "edificio": 6700,
      "educación": 6701,
      "orgullos": 6702,
      "averigu": 6703,
      "trucción": 6704,
      "habrían": 6705,
      "support": 6706,
      "difunto": 6707,
      "súbito": 6708,
      "condenados": 6709,
      "ventaja": 6710,
      "Tlacaell": 6711,
      "Salió": 6712,
      "against": 6713,
      "help": 6714,
      "tristes": 6715,
      "NOCHE": 6716,
      "ejecu": 6717,
      "angeli": 6718,
      "limosna": 6719,
      "Vitzili": 6720,
      "75": 6721,
      "Ave": 6722,
      "Azca": 6723,
      "Haz": 6724,
      "Mano": 6725,
      "PA": 6726,
      "Spain": 6727,
      "Tales": 6728,
      "ajus": 6729,
      "apresu": 6730,
      "dales": 6731,
      "ft": 6732,
      "fy": 6733,
      "fosa": 6734,
      "gent": 6735,
      "gna": 6736,
      "gían": 6737,
      "kes": 6738,
      "ld": 6739,
      "plen": 6740,
      "ry": 6741,
      "vá": 6742,
      "ze": 6743,
      "decora": 6744,
      "desig": 6745,
      "debió": 6746,
      "espu": 6747,
      "aste": 6748,
      "domain": 6749,
      "civi": 6750,
      "redi": 6751,
      "retiró": 6752,
      "indo": 6753,
      "insol": 6754,
      "absor": 6755,
      "seco": 6756,
      "seida": 6757,
      "tom": 6758,
      "didad": 6759,
      "contienda": 6760,
      "timiento": 6761,
      "cogía": 6762,
      "suyas": 6763,
      "cuándo": 6764,
      "riendas": 6765,
      "rama": 6766,
      "modos": 6767,
      "moverse": 6768,
      "dest": 6769,
      "desli": 6770,
      "estor": 6771,
      "estúpi": 6772,
      "paga": 6773,
      "piados": 6774,
      "trató": 6775,
      "resi": 6776,
      "ceñ": 6777,
      "veremos": 6778,
      "tant": 6779,
      "name": 6780,
      "fijo": 6781,
      "terribles": 6782,
      "accor": 6783,
      "aqueo": 6784,
      "ism": 6785,
      "marca": 6786,
      "vengar": 6787,
      "emplo": 6788,
      "often": 6789,
      "Entró": 6790,
      "hueso": 6791,
      "humanos": 6792,
      "fortal": 6793,
      "cabellos": 6794,
      "darte": 6795,
      "calde": 6796,
      "boda": 6797,
      "compa": 6798,
      "sabios": 6799,
      "Inter": 6800,
      "Reinos": 6801,
      "República": 6802,
      "cintura": 6803,
      "gancia": 6804,
      "Cuál": 6805,
      "vales": 6806,
      "tirando": 6807,
      "Algo": 6808,
      "funesta": 6809,
      "vuelvo": 6810,
      "gritando": 6811,
      "faltas": 6812,
      "Tebas": 6813,
      "estará": 6814,
      "alimento": 6815,
      "soltar": 6816,
      "frica": 6817,
      "vision": 6818,
      "harto": 6819,
      "necesito": 6820,
      "necesitaba": 6821,
      "colora": 6822,
      "pantal": 6823,
      "piece": 6824,
      "Juanín": 6825,
      "siguieron": 6826,
      "adoraban": 6827,
      "partida": 6828,
      "exclamé": 6829,
      "mático": 6830,
      "ísmo": 6831,
      "céu": 6832,
      "ERG": 6833,
      "igualmente": 6834,
      "quinto": 6835,
      "Muchas": 6836,
      "llamaron": 6837,
      "material": 6838,
      "donate": 6839,
      "penetra": 6840,
      "veleras": 6841,
      "esclavos": 6842,
      "afirman": 6843,
      "religiosa": 6844,
      "secretos": 6845,
      "refieren": 6846,
      "cubierta": 6847,
      "selva": 6848,
      "edificios": 6849,
      "rápida": 6850,
      "felices": 6851,
      "infierno": 6852,
      "multipli": 6853,
      "brillante": 6854,
      "oreja": 6855,
      "orejas": 6856,
      "universal": 6857,
      "valeroso": 6858,
      "confusión": 6859,
      "Será": 6860,
      "Trópicos": 6861,
      "owner": 6862,
      "pesetas": 6863,
      "Pinzón": 6864,
      "aborre": 6865,
      "sublime": 6866,
      "defini": 6867,
      "mugeres": 6868,
      "espectáculo": 6869,
      "farmacéu": 6870,
      "collection": 6871,
      "fúnebres": 6872,
      "falanges": 6873,
      "Tlacaellél": 6874,
      "99": 6875,
      "Ber": 6876,
      "HI": 6877,
      "It": 6878,
      "Psal": 6879,
      "Thar": 6880,
      "apara": 6881,
      "cles": 6882,
      "dano": 6883,
      "eto": 6884,
      "sy": 6885,
      "sá": 6886,
      "sun": 6887,
      "tten": 6888,
      "ídos": 6889,
      "lation": 6890,
      "lament": 6891,
      "artista": 6892,
      "only": 6893,
      "cigar": 6894,
      "ciego": 6895,
      "teatro": 6896,
      "incomo": 6897,
      "insigni": 6898,
      "abru": 6899,
      "ditas": 6900,
      "lector": 6901,
      "sumo": 6902,
      "notas": 6903,
      "cuña": 6904,
      "raíces": 6905,
      "caña": 6906,
      "sienten": 6907,
      "sillas": 6908,
      "puz": 6909,
      "pudiendo": 6910,
      "menes": 6911,
      "quista": 6912,
      "usado": 6913,
      "poquito": 6914,
      "fieras": 6915,
      "hilo": 6916,
      "llanos": 6917,
      "trope": 6918,
      "terra": 6919,
      "acari": 6920,
      "ecé": 6921,
      "vada": 6922,
      "mara": 6923,
      "marin": 6924,
      "sincer": 6925,
      "preocupa": 6926,
      "admirar": 6927,
      "sonido": 6928,
      "human": 6929,
      "been": 6930,
      "bola": 6931,
      "primor": 6932,
      "meri": 6933,
      "lori": 6934,
      "parezca": 6935,
      "vuestras": 6936,
      "barro": 6937,
      "Cual": 6938,
      "valent": 6939,
      "decirlo": 6940,
      "falda": 6941,
      "aumen": 6942,
      "institu": 6943,
      "Toma": 6944,
      "pronuncia": 6945,
      "within": 6946,
      "lenguas": 6947,
      "interro": 6948,
      "estaría": 6949,
      "enojo": 6950,
      "visiones": 6951,
      "Licaón": 6952,
      "tronco": 6953,
      "particula": 6954,
      "Vira": 6955,
      "engañado": 6956,
      "ruegos": 6957,
      "convencer": 6958,
      "fuertemente": 6959,
      "profundamente": 6960,
      "obscura": 6961,
      "cienda": 6962,
      "Cortés": 6963,
      "continuó": 6964,
      "ebla": 6965,
      "excelentes": 6966,
      "Sobre": 6967,
      "Francia": 6968,
      "súpli": 6969,
      "chiquillos": 6970,
      "podrás": 6971,
      "despertar": 6972,
      "obscuridad": 6973,
      "inocente": 6974,
      "deriva": 6975,
      "distinguir": 6976,
      "Asia": 6977,
      "cuchillo": 6978,
      "desciende": 6979,
      "belicosos": 6980,
      "recompensa": 6981,
      "papeles": 6982,
      "innumerables": 6983,
      "tumulto": 6984,
      "Azcapuz": 6985,
      "Tharsis": 6986,
      "78": 6987,
      "Acu": 6988,
      "BI": 6989,
      "BERG": 6990,
      "Jo": 6991,
      "Ob": 6992,
      "TRA": 6993,
      "_pl_": 6994,
      "baba": 6995,
      "belo": 6996,
      "dín": 6997,
      "eos": 6998,
      "eti": 6999,
      "rabi": 7000,
      "stu": 7001,
      "saban": 7002,
      "shar": 7003,
      "yan": 7004,
      "zura": 7005,
      "ñana": 7006,
      "asis": 7007,
      "orio": 7008,
      "remedi": 7009,
      "repli": 7010,
      "replace": 7011,
      "dieran": 7012,
      "lección": 7013,
      "contes": 7014,
      "tidos": 7015,
      "nobles": 7016,
      "mill": 7017,
      "misión": 7018,
      "cuñado": 7019,
      "momentos": 7020,
      "chec": 7021,
      "paró": 7022,
      "matado": 7023,
      "mail": 7024,
      "pudieron": 7025,
      "tuas": 7026,
      "limi": 7027,
      "pater": 7028,
      "hablan": 7029,
      "podian": 7030,
      "nació": 7031,
      "bille": 7032,
      "hiere": 7033,
      "ecían": 7034,
      "gadas": 7035,
      "bate": 7036,
      "casó": 7037,
      "ángu": 7038,
      "sini": 7039,
      "tose": 7040,
      "seres": 7041,
      "corto": 7042,
      "llegan": 7043,
      "their": 7044,
      "cansa": 7045,
      "darles": 7046,
      "príncipes": 7047,
      "gradas": 7048,
      "calla": 7049,
      "labrar": 7050,
      "montón": 7051,
      "male": 7052,
      "crimin": 7053,
      "finalmente": 7054,
      "Mañana": 7055,
      "Segu": 7056,
      "senten": 7057,
      "sentados": 7058,
      "sensible": 7059,
      "funda": 7060,
      "tinas": 7061,
      "bastar": 7062,
      "geo": 7063,
      "words": 7064,
      "falsa": 7065,
      "banda": 7066,
      "levanta": 7067,
      "acercaba": 7068,
      "visitas": 7069,
      "arroja": 7070,
      "necesi": 7071,
      "guardia": 7072,
      "compu": 7073,
      "common": 7074,
      "crueles": 7075,
      "vine": 7076,
      "entrambos": 7077,
      "dulzura": 7078,
      "comerci": 7079,
      "comiendo": 7080,
      "atentamente": 7081,
      "ruedas": 7082,
      "Ahí": 7083,
      "quini": 7084,
      "pobla": 7085,
      "agradeci": 7086,
      "contemplación": 7087,
      "pequeños": 7088,
      "Fuera": 7089,
      "Buena": 7090,
      "oculta": 7091,
      "DAM": 7092,
      "esclarecido": 7093,
      "simpático": 7094,
      "suceso": 7095,
      "sagrado": 7096,
      "Tambien": 7097,
      "meterse": 7098,
      "THE": 7099,
      "descansar": 7100,
      "disputa": 7101,
      "próximo": 7102,
      "pruebas": 7103,
      "minutos": 7104,
      "despojos": 7105,
      "ausencia": 7106,
      "Algunas": 7107,
      "inquietud": 7108,
      "bestia": 7109,
      "vecinos": 7110,
      "venganza": 7111,
      "cortesía": 7112,
      "profirió": 7113,
      "extranjero": 7114,
      "course": 7115,
      "resuelto": 7116,
      "sucumb": 7117,
      "calló": 7118,
      "yugo": 7119,
      "sillón": 7120,
      "enamorado": 7121,
      ".)": 7122,
      "Ab": 7123,
      "BE": 7124,
      "Oi": 7125,
      "TER": 7126,
      "_P": 7127,
      "_or": 7128,
      "afortuna": 7129,
      "ebre": 7130,
      "efica": 7131,
      "flu": 7132,
      "fór": 7133,
      "lú": 7134,
      "lentamente": 7135,
      "nó": 7136,
      "nes": 7137,
      "oli": 7138,
      "odio": 7139,
      "pón": 7140,
      "ptas": 7141,
      "sha": 7142,
      "ámida": 7143,
      "ρα": 7144,
      "envía": 7145,
      "escan": 7146,
      "andu": 7147,
      "arqu": 7148,
      "astu": 7149,
      "ascen": 7150,
      "does": 7151,
      "cientes": 7152,
      "reme": 7153,
      "recla": 7154,
      "dica": 7155,
      "trio": 7156,
      "taciones": 7157,
      "leones": 7158,
      "contó": 7159,
      "contaba": 7160,
      "confir": 7161,
      "timos": 7162,
      "cojo": 7163,
      "colum": 7164,
      "novia": 7165,
      "midos": 7166,
      "rapi": 7167,
      "caían": 7168,
      "site": 7169,
      "muros": 7170,
      "lit": 7171,
      "...!,": 7172,
      "padecer": 7173,
      "gozar": 7174,
      "ently": 7175,
      "veta": 7176,
      "habido": 7177,
      "pechos": 7178,
      "nace": 7179,
      "fisono": 7180,
      "high": 7181,
      "perform": 7182,
      "ack": 7183,
      "niebla": 7184,
      "bata": 7185,
      "prot": 7186,
      "tardó": 7187,
      "vados": 7188,
      "vence": 7189,
      "vencidos": 7190,
      "durar": 7191,
      "hogar": 7192,
      "cercano": 7193,
      "serpiente": 7194,
      "Esper": 7195,
      "talle": 7196,
      "ingles": 7197,
      "dormía": 7198,
      "presenci": 7199,
      "posses": 7200,
      "merced": 7201,
      "jefes": 7202,
      "trigo": 7203,
      "aguer": 7204,
      "jaron": 7205,
      "jardín": 7206,
      "decirte": 7207,
      "rencor": 7208,
      "conocida": 7209,
      "sacaban": 7210,
      "árabe": 7211,
      "contraria": 7212,
      "pronunció": 7213,
      "temprano": 7214,
      "200": 7215,
      "pinas": 7216,
      "volvería": 7217,
      "anything": 7218,
      "extrava": 7219,
      "naturalmente": 7220,
      "manifi": 7221,
      "tomaron": 7222,
      "Domin": 7223,
      "púztli": 7224,
      "status": 7225,
      "movimientos": 7226,
      "distributed": 7227,
      "comprende": 7228,
      "mostrando": 7229,
      "ANY": 7230,
      "completa": 7231,
      "favorable": 7232,
      "freely": 7233,
      "llenó": 7234,
      "servido": 7235,
      "simpa": 7236,
      "dijera": 7237,
      "concluir": 7238,
      "benevolencia": 7239,
      "apete": 7240,
      "turbación": 7241,
      "considerar": 7242,
      "Delfina": 7243,
      "CIMO": 7244,
      "Saturno": 7245,
      "magnífico": 7246,
      "hold": 7247,
      "antiguamente": 7248,
      "QUE": 7249,
      "universo": 7250,
      "solemne": 7251,
      "concepto": 7252,
      "country": 7253,
      "Empez": 7254,
      "juzgar": 7255,
      "esfuerzos": 7256,
      "suavemente": 7257,
      "cristal": 7258,
      "ward": 7259,
      "supremo": 7260,
      "furioso": 7261,
      "desagradable": 7262,
      "jaqueca": 7263,
      "Plutón": 7264,
      "Olmedo": 7265,
      "escándalo": 7266,
      "resolución": 7267,
      "Aca": 7268,
      "Dura": 7269,
      "GUT": 7270,
      "JECT": 7271,
      "Oriente": 7272,
      "WAR": 7273,
      "cás": 7274,
      "cella": 7275,
      "gall": 7276,
      "hallá": 7277,
      "jinete": 7278,
      "mpara": 7279,
      "sh": 7280,
      "star": 7281,
      "tch": 7282,
      "tora": 7283,
      "tted": 7284,
      "ught": 7285,
      "νη": 7286,
      "ωρ": 7287,
      "dejo": 7288,
      "delidad": 7289,
      "enar": 7290,
      "entado": 7291,
      "entiendo": 7292,
      "ertes": 7293,
      "anu": 7294,
      "arti": 7295,
      "online": 7296,
      "asal": 7297,
      "aldos": 7298,
      "teme": 7299,
      "rea": 7300,
      "reina": 7301,
      "ink": 7302,
      "tome": 7303,
      "leta": 7304,
      "leve": 7305,
      "conte": 7306,
      "copas": 7307,
      "sutil": 7308,
      "miso": 7309,
      "cumbres": 7310,
      "custo": 7311,
      "capri": 7312,
      "chin": 7313,
      "chac": 7314,
      "siti": 7315,
      "situ": 7316,
      "vimos": 7317,
      "tuyo": 7318,
      "erador": 7319,
      "tengan": 7320,
      "patas": 7321,
      "piezas": 7322,
      "quilla": 7323,
      "jole": 7324,
      "tradi": 7325,
      "tratando": 7326,
      "veas": 7327,
      "pozo": 7328,
      "point": 7329,
      "voto": 7330,
      "nacion": 7331,
      "fix": 7332,
      "file": 7333,
      "filosofía": 7334,
      "gala": 7335,
      "tesoro": 7336,
      "saco": 7337,
      "given": 7338,
      "empecé": 7339,
      "salón": 7340,
      "forman": 7341,
      "formaban": 7342,
      "disco": 7343,
      "discla": 7344,
      "cabe": 7345,
      "gratitud": 7346,
      "mortifi": 7347,
      "derse": 7348,
      "nosotras": 7349,
      "cualidad": 7350,
      "net": 7351,
      "crimen": 7352,
      "parecieron": 7353,
      "barrio": 7354,
      "ándote": 7355,
      "conocí": 7356,
      "impri": 7357,
      "fees": 7358,
      "vuelves": 7359,
      "santos": 7360,
      "falle": 7361,
      "vasta": 7362,
      "dejaban": 7363,
      "!...--": 7364,
      "puntos": 7365,
      "haberme": 7366,
      "igé": 7367,
      "soltó": 7368,
      "oyeron": 7369,
      "cogida": 7370,
      "tismo": 7371,
      "escuela": 7372,
      "cometido": 7373,
      "format": 7374,
      "170": 7375,
      "bendito": 7376,
      "desapareció": 7377,
      "Ayer": 7378,
      "borra": 7379,
      "sacrificaban": 7380,
      "observando": 7381,
      "ENBERG": 7382,
      "pálida": 7383,
      "relato": 7384,
      "states": 7385,
      "copying": 7386,
      "balbu": 7387,
      "capilla": 7388,
      "amable": 7389,
      "subs": 7390,
      "esclava": 7391,
      "arrancó": 7392,
      "things": 7393,
      "juicios": 7394,
      "llueve": 7395,
      "providing": 7396,
      "Autor": 7397,
      "repent": 7398,
      "obscuro": 7399,
      "convicción": 7400,
      "beneficio": 7401,
      "holder": 7402,
      "consideracion": 7403,
      "Priámida": 7404,
      "argumento": 7405,
      "aconsejar": 7406,
      "popular": 7407,
      "written": 7408,
      "vecino": 7409,
      "virtudes": 7410,
      "barbaridad": 7411,
      "PROJECT": 7412,
      "English": 7413,
      "Benigna": 7414,
      "bispo": 7415,
      "persuadir": 7416,
      "displaying": 7417,
      "perpetu": 7418,
      "compliance": 7419,
      "requirements": 7420,
      "Población": 7421,
      "Mayor": 7422,
      "Antenor": 7423,
      "Vitzilipúztli": 7424,
      "sinceridad": 7425,
      "lorigas": 7426,
      "below": 7427,
      "computer": 7428,
      "GUTENBERG": 7429,
      "WARRAN": 7430,
      ".:": 7431,
      ".).": 7432,
      "66": 7433,
      "Ilía": 7434,
      "Jus": 7435,
      "Pé": 7436,
      "Pol": 7437,
      "_Platón": 7438,
      "bof": 7439,
      "dén": 7440,
      "gg": 7441,
      "iles": 7442,
      "izas": 7443,
      "itencia": 7444,
      "lón": 7445,
      "ná": 7446,
      "opri": 7447,
      "paban": 7448,
      "pgla": 7449,
      "vás": 7450,
      "yal": 7451,
      "λος": 7452,
      "dei": 7453,
      "devor": 7454,
      "estru": 7455,
      "anzas": 7456,
      "armonía": 7457,
      "ondas": 7458,
      "aspi": 7459,
      "quedaban": 7460,
      "alzando": 7461,
      "ciles": 7462,
      "temi": 7463,
      "absur": 7464,
      "sela": 7465,
      "tocando": 7466,
      "dier": 7467,
      "trar": 7468,
      "lea": 7469,
      "congo": 7470,
      "convul": 7471,
      "timas": 7472,
      "comedi": 7473,
      "supuesto": 7474,
      "cuesta": 7475,
      "cubre": 7476,
      "metía": 7477,
      "rias": 7478,
      "rillo": 7479,
      "ramo": 7480,
      "mover": 7481,
      "modifi": 7482,
      "caca": 7483,
      "cation": 7484,
      "vido": 7485,
      "videncia": 7486,
      "roto": 7487,
      "matando": 7488,
      "puerto": 7489,
      "muera": 7490,
      "menti": 7491,
      "licor": 7492,
      "life": 7493,
      "liger": 7494,
      "lista": 7495,
      "socorro": 7496,
      "tendré": 7497,
      "patri": 7498,
      "pillo": 7499,
      "quitaba": 7500,
      "traves": 7501,
      "veos": 7502,
      "manes": 7503,
      "hear": 7504,
      "hechas": 7505,
      "mosa": 7506,
      "pedes": 7507,
      "fila": 7508,
      "hipo": 7509,
      "dadas": 7510,
      "perlas": 7511,
      "actos": 7512,
      "gamos": 7513,
      "carca": 7514,
      "prolon": 7515,
      "extin": 7516,
      "exclu": 7517,
      "vai": 7518,
      "dula": 7519,
      "cerrar": 7520,
      "certain": 7521,
      "samo": 7522,
      "torres": 7523,
      "empo": 7524,
      "empeño": 7525,
      "llegué": 7526,
      "ruina": 7527,
      "salí": 7528,
      "canes": 7529,
      "cansan": 7530,
      "dispuso": 7531,
      "graciosa": 7532,
      "habíamos": 7533,
      "bea": 7534,
      "body": 7535,
      "compra": 7536,
      "compras": 7537,
      "facultad": 7538,
      "Indio": 7539,
      "vana": 7540,
      "entraban": 7541,
      "quísi": 7542,
      "senci": 7543,
      "generos": 7544,
      "seguí": 7545,
      "vuelvas": 7546,
      "corazones": 7547,
      "Despues": 7548,
      "animaba": 7549,
      "causado": 7550,
      "honrar": 7551,
      "recién": 7552,
      "Dicho": 7553,
      "levantaron": 7554,
      "acercarse": 7555,
      "guapa": 7556,
      "Cava": 7557,
      "Superi": 7558,
      "fria": 7559,
      "León": 7560,
      "amores": 7561,
      "llamamos": 7562,
      "ponerme": 7563,
      "fobo": 7564,
      "Argos": 7565,
      "tributo": 7566,
      "ability": 7567,
      "ocurría": 7568,
      "pálido": 7569,
      "permiso": 7570,
      "outside": 7571,
      "appli": 7572,
      "ofrecía": 7573,
      "enfermos": 7574,
      "viejos": 7575,
      "mostrar": 7576,
      "región": 7577,
      "esclavas": 7578,
      "proceder": 7579,
      "facciones": 7580,
      "resistencia": 7581,
      "perfecto": 7582,
      "emplear": 7583,
      "ríos": 7584,
      "vivamente": 7585,
      "Homero": 7586,
      "Llegó": 7587,
      "recordar": 7588,
      "podré": 7589,
      "prudencia": 7590,
      "mezc": 7591,
      "aseguro": 7592,
      "impertin": 7593,
      "subiendo": 7594,
      "consideración": 7595,
      "hueco": 7596,
      "español": 7597,
      "policía": 7598,
      "acaece": 7599,
      "moneda": 7600,
      "reposo": 7601,
      "Eurípilo": 7602,
      "seriedad": 7603,
      "melancó": 7604,
      "bruscamente": 7605,
      "apacible": 7606,
      "following": 7607,
      "jabalí": 7608,
      "tlán": 7609,
      "timidez": 7610,
      "fábrica": 7611,
      "Deífobo": 7612,
      "esmeral": 7613,
      "veneranda": 7614,
      "_Platón_": 7615,
      "pglaf": 7616,
      "vásta": 7617,
      "Superiora": 7618,
      "52": 7619,
      "86": 7620,
      "?\"": 7621,
      "Acaso": 7622,
      "Fin": 7623,
      "NI": 7624,
      "Oc": 7625,
      "Veo": 7626,
      "Vigé": 7627,
      "_G": 7628,
      "bell": 7629,
      "cál": 7630,
      "emi": 7631,
      "eves": 7632,
      "ff": 7633,
      "fad": 7634,
      "freno": 7635,
      "greso": 7636,
      "oían": 7637,
      "stri": 7638,
      "umb": 7639,
      "áles": 7640,
      "ñando": 7641,
      "úcar": 7642,
      "ας": 7643,
      "ός": 7644,
      "dea": 7645,
      "dela": 7646,
      "derico": 7647,
      "lack": 7648,
      "anh": 7649,
      "arra": 7650,
      "onia": 7651,
      "quebran": 7652,
      "alqui": 7653,
      "altera": 7654,
      "cian": 7655,
      "cidente": 7656,
      "tear": 7657,
      "teando": 7658,
      "unless": 7659,
      "retir": 7660,
      "information": 7661,
      "abriendo": 7662,
      "tol": 7663,
      "tomedonte": 7664,
      "diencia": 7665,
      "tapi": 7666,
      "tamoso": 7667,
      "legal": 7668,
      "contribu": 7669,
      "tierno": 7670,
      "coman": 7671,
      "subía": 7672,
      "mios": 7673,
      "mito": 7674,
      "curar": 7675,
      "meto": 7676,
      "vios": 7677,
      "vidas": 7678,
      "puño": 7679,
      "muestras": 7680,
      "had": 7681,
      "gual": 7682,
      "desorden": 7683,
      "turo": 7684,
      "trampa": 7685,
      "trajeron": 7686,
      "resta": 7687,
      "ceme": 7688,
      "usaba": 7689,
      "many": 7690,
      "tana": 7691,
      "mostra": 7692,
      "future": 7693,
      "zación": 7694,
      "llaba": 7695,
      "perez": 7696,
      "tarios": 7697,
      "exac": 7698,
      "expec": 7699,
      "venda": 7700,
      "raso": 7701,
      "lumbre": 7702,
      "Estaban": 7703,
      "iron": 7704,
      "estamp": 7705,
      "taste": 7706,
      "ingente": 7707,
      "advi": 7708,
      "Encar": 7709,
      "sonreía": 7710,
      "humedad": 7711,
      "number": 7712,
      "formando": 7713,
      "heraldo": 7714,
      "disper": 7715,
      "dispen": 7716,
      "cabras": 7717,
      "graf": 7718,
      "both": 7719,
      "botón": 7720,
      "llora": 7721,
      "labra": 7722,
      "volvían": 7723,
      "señas": 7724,
      "money": 7725,
      "cious": 7726,
      "meros": 7727,
      "obrar": 7728,
      "paredes": 7729,
      "Retamoso": 7730,
      "Según": 7731,
      "agui": 7732,
      "valen": 7733,
      "valía": 7734,
      "hacerme": 7735,
      "Altísimo": 7736,
      "túmulo": 7737,
      "brada": 7738,
      "Conse": 7739,
      "faltó": 7740,
      "ily": 7741,
      "illu": 7742,
      "Jamás": 7743,
      "echaron": 7744,
      "bancos": 7745,
      "Mire": 7746,
      "causar": 7747,
      "then": 7748,
      "dós": 7749,
      "!...».": 7750,
      "reciente": 7751,
      "Diana": 7752,
      "levantado": 7753,
      "tempera": 7754,
      "trabaja": 7755,
      "palos": 7756,
      "?...».": 7757,
      "necesaria": 7758,
      "prendas": 7759,
      "entendía": 7760,
      "adorar": 7761,
      "esposas": 7762,
      "144": 7763,
      "apartó": 7764,
      "manifiesta": 7765,
      "195": 7766,
      "DECIMO": 7767,
      "troyanas": 7768,
      "transpor": 7769,
      "comunic": 7770,
      "Muy": 7771,
      "year": 7772,
      "batallas": 7773,
      "Federico": 7774,
      "gruesa": 7775,
      "corrían": 7776,
      "protección": 7777,
      "permaneció": 7778,
      "cumplido": 7779,
      "bajando": 7780,
      "INDI": 7781,
      "soberbio": 7782,
      "ilustres": 7783,
      "Filosofía": 7784,
      "Plaza": 7785,
      "Automedonte": 7786,
      "CON": 7787,
      "penetrar": 7788,
      "magnífica": 7789,
      "engañar": 7790,
      "Jesu": 7791,
      "avergon": 7792,
      "infinita": 7793,
      "Todavía": 7794,
      "supersticion": 7795,
      "εια": 7796,
      "Puede": 7797,
      "PRIM": 7798,
      "farmacéutico": 7799,
      "humanidad": 7800,
      "Azcapuzálco": 7801,
      "Obser": 7802,
      "Oileo": 7803,
      "93": 7804,
      "94": 7805,
      "Ale": 7806,
      "Adiós": 7807,
      "Os": 7808,
      "RES": 7809,
      "Salo": 7810,
      "Tez": 7811,
      "_esp": 7812,
      "aparece": 7813,
      "avai": 7814,
      "bría": 7815,
      "bello": 7816,
      "cén": 7817,
      "eme": 7818,
      "ever": 7819,
      "fall": 7820,
      "iás": 7821,
      "sk": 7822,
      "ván": 7823,
      "álo": 7824,
      "ñal": 7825,
      "λε": 7826,
      "deo": 7827,
      "deu": 7828,
      "enen": 7829,
      "enfad": 7830,
      "asper": 7831,
      "almuer": 7832,
      "cimos": 7833,
      "ciana": 7834,
      "ciste": 7835,
      "recre": 7836,
      "rector": 7837,
      "inco": 7838,
      "infal": 7839,
      "dimos": 7840,
      "led": 7841,
      "levi": 7842,
      "contain": 7843,
      "tie": 7844,
      "tita": 7845,
      "tiéndose": 7846,
      "sufi": 7847,
      "curi": 7848,
      "cuero": 7849,
      "risueña": 7850,
      "raíz": 7851,
      "mous": 7852,
      "modera": 7853,
      "catar": 7854,
      "camisa": 7855,
      "chón": 7856,
      "sical": 7857,
      "sierras": 7858,
      "mados": 7859,
      "puestas": 7860,
      "desdén": 7861,
      "licio": 7862,
      "lipinas": 7863,
      "soplo": 7864,
      "pausa": 7865,
      "quises": 7866,
      "hablo": 7867,
      "head": 7868,
      "pedos": 7869,
      "llaves": 7870,
      "carri": 7871,
      "mari": 7872,
      "miseri": 7873,
      "cost": 7874,
      "cerrado": 7875,
      "cerró": 7876,
      "serás": 7877,
      "saeta": 7878,
      "Espí": 7879,
      "pastos": 7880,
      "lleve": 7881,
      "llevo": 7882,
      "largos": 7883,
      "force": 7884,
      "heraldos": 7885,
      "disposi": 7886,
      "doncellas": 7887,
      "doncella": 7888,
      "book": 7889,
      "ceniza": 7890,
      "peniten": 7891,
      "presun": 7892,
      "Lao": 7893,
      "obse": 7894,
      "entré": 7895,
      "finca": 7896,
      "olón": 7897,
      "Mag": 7898,
      "Sevilla": 7899,
      "turb": 7900,
      "Provincias": 7901,
      "Providencia": 7902,
      "histó": 7903,
      "gastar": 7904,
      "deseando": 7905,
      "desempe": 7906,
      "Tepan": 7907,
      "horrenda": 7908,
      "Comba": 7909,
      "eché": 7910,
      "Anda": 7911,
      "Anquises": 7912,
      "causaba": 7913,
      "hallado": 7914,
      "hallaban": 7915,
      "Dime": 7916,
      "Santísima": 7917,
      "levantaba": 7918,
      "temple": 7919,
      "Sueño": 7920,
      "responde": 7921,
      "libres": 7922,
      "volverá": 7923,
      "Palas": 7924,
      "recto": 7925,
      "cauti": 7926,
      "caudal": 7927,
      "llevarle": 7928,
      "145": 7929,
      "familias": 7930,
      "pelos": 7931,
      "RIS": 7932,
      "encuentran": 7933,
      "superfi": 7934,
      "phy": 7935,
      "quisieron": 7936,
      "población": 7937,
      "Menetio": 7938,
      "contempla": 7939,
      "pequeñ": 7940,
      "Creer": 7941,
      "gallar": 7942,
      "longi": 7943,
      "escaleras": 7944,
      "muslos": 7945,
      "amada": 7946,
      "protect": 7947,
      "amarga": 7948,
      "mueven": 7949,
      "bosque": 7950,
      "impedir": 7951,
      "encendido": 7952,
      "Filipinas": 7953,
      "sujeto": 7954,
      "impresion": 7955,
      "acometida": 7956,
      "ofender": 7957,
      "Monte": 7958,
      "quitarle": 7959,
      "debilidad": 7960,
      "variedad": 7961,
      "iii": 7962,
      "montañas": 7963,
      "acabado": 7964,
      "humildad": 7965,
      "cristiano": 7966,
      "should": 7967,
      "declaró": 7968,
      "Isabel": 7969,
      "cristales": 7970,
      "impaciencia": 7971,
      "crédito": 7972,
      "monedas": 7973,
      "Sacra": 7974,
      "modestia": 7975,
      "official": 7976,
      "Feliciana": 7977,
      "influencia": 7978,
      "madru": 7979,
      "culpable": 7980,
      "olvidado": 7981,
      "http": 7982,
      "hechiceros": 7983,
      "occidentales": 7984,
      "peregr": 7985,
      "casualidad": 7986,
      "Véase": 7987,
      "solípedos": 7988,
      "aguerrido": 7989,
      "ligereza": 7990,
      "available": 7991,
      "Espíritu": 7992,
      "42": 7993,
      "Agus": 7994,
      "Africa": 7995,
      "Ifi": 7996,
      "_Que": 7997,
      "bón": 7998,
      "back": 7999
    },
    "merges": [
      "d e",
      "e n",
      "o s",
      "e s",
      "l a",
      "e r",
      "q u",
      "a n",
      "a r",
      "o n",
      "a s",
      "qu e",
      "o r",
      "d o",
      "a l",
      "e l",
      "c i",
      "t e",
      "u n",
      "r e",
      "i n",
      "a b",
      "s e",
      "t o",
      "d i",
      "t r",
      "t a",
      "d a",
      "l e",
      "c on",
      "t i",
      "c o",
      "l os",
      "s u",
      "n o",
      "m i",
      ". .",
      "l o",
      "c u",
      "í a",
      "m e",
      "r i",
      "r a",
      "m o",
      "c a",
      "p or",
      "c h",
      "la s",
      "- -",
      "s i",
      "v i",
      "r o",
      "p ar",
      "m a",
      "p u",
      "ó n",
      "m u",
      "m p",
      "m en",
      "h a",
      "g u",
      "de s",
      "t u",
      "d os",
      "l i",
      "ab a",
      "m b",
      "s o",
      "de l",
      "un a",
      "es t",
      "er a",
      ".. .",
      "t en",
      "er o",
      "an do",
      "á s",
      "p a",
      "g o",
      "p i",
      "qu i",
      "j o",
      "tr a",
      "r es",
      "en t",
      "c e",
      "u s",
      "v e",
      "m an",
      "par a",
      "v er",
      "t an",
      "h ab",
      "p o",
      "h e",
      "co mo",
      "v o",
      "m os",
      "m ás",
      "p e",
      "ci a",
      "f u",
      "n a",
      "f i",
      "b i",
      "h i",
      "z a",
      "da d",
      "l la",
      "p er",
      "tr o",
      "t er",
      "a c",
      "n i",
      "e c",
      "l es",
      "g a",
      "b a",
      "men te",
      "c as",
      "c ar",
      "p ro",
      "or a",
      "á n",
      "a que",
      "i s",
      "ci ón",
      "d as",
      "t ar",
      "su s",
      "r an",
      "e x",
      "v a",
      "ch o",
      "y o",
      "en do",
      "m ar",
      "v en",
      "mi s",
      "c os",
      "s in",
      "d u",
      "h o",
      "c er",
      "t os",
      "t es",
      "la n",
      "r as",
      "y a",
      "s er",
      "l u",
      "c es",
      "s a",
      "g i",
      "é n",
      "t or",
      "e mp",
      "é s",
      "en te",
      "E s",
      "p as",
      "te d",
      "o f",
      "ab an",
      "i a",
      "i r",
      "es ta",
      "m as",
      "t al",
      "t as",
      "c or",
      "l le",
      "ñ a",
      "t he",
      "r os",
      "r u",
      "j a",
      "in g",
      "qu é",
      "p re",
      "s al",
      "a d",
      "p on",
      "g ran",
      "al l",
      "E n",
      "er on",
      "s on",
      "la r",
      "N o",
      "í an",
      "p ero",
      "h u",
      "i o",
      "b re",
      "m in",
      "c an",
      "on es",
      "b u",
      "di jo",
      "mu y",
      "n u",
      "en e",
      "f or",
      "h er",
      "es to",
      "di s",
      "por que",
      "d on",
      "aque l",
      "c ab",
      "j os",
      "d ar",
      "us ted",
      "cu ando",
      "el la",
      "el o",
      "p r",
      "g ra",
      "hab ía",
      "de n",
      "m or",
      "de r",
      "c al",
      "» .",
      "o tr",
      "ho mb",
      "g ar",
      "g un",
      "é l",
      "ch a",
      "b e",
      "en to",
      "b o",
      "i os",
      "c en",
      "to do",
      "l l",
      "I I",
      "n os",
      "d or",
      "co mp",
      "i do",
      "p en",
      "Q u",
      "h as",
      "c re",
      "z o",
      "s ab",
      "la b",
      "ñ o",
      "vo l",
      "se ñ",
      "E l",
      "cu al",
      "d ía",
      "bi en",
      "p ri",
      "m on",
      "in a",
      "es te",
      "p res",
      "P ero",
      "L a",
      "t ó",
      "ci o",
      "f a",
      "n e",
      "me di",
      "ent re",
      "s í",
      "m í",
      "p os",
      "r ar",
      "m er",
      "c la",
      "pu es",
      "de ci",
      "i t",
      "o b",
      "in o",
      "pu e",
      "ti on",
      "I n",
      "as í",
      "es e",
      "i da",
      "er ra",
      "j e",
      "v es",
      "m al",
      "c ri",
      "l or",
      "v an",
      "mb i",
      "c ó",
      "e go",
      "pu és",
      "b er",
      "en tr",
      "cas a",
      "di ó",
      "en cia",
      "dos e",
      "_ f",
      "v ar",
      "to dos",
      "D e",
      "P or",
      "e za",
      "di os",
      "h ora",
      "f in",
      "par e",
      "otr os",
      "_ m",
      "don de",
      "_f _",
      "ha y",
      "o tra",
      "so bre",
      "has ta",
      "r ía",
      "v u",
      "o l",
      "R e",
      "est aba",
      "b le",
      "an d",
      "o tro",
      "ch e",
      "G u",
      "est á",
      "un o",
      "ci n",
      "_m _",
      "mis mo",
      "j er",
      "an o",
      "qu í",
      "M a",
      "S e",
      "i dad",
      "c ía",
      "ú n",
      "S i",
      "er te",
      "a un",
      "m un",
      "tr i",
      "b ar",
      "el e",
      "a do",
      "pa lab",
      "el i",
      "í as",
      "s en",
      "ab le",
      "f er",
      "a gu",
      "ti en",
      "bu en",
      "man o",
      "mi ento",
      "ta do",
      "aque lla",
      "D ios",
      ". »",
      "g an",
      "qui er",
      "j ar",
      "ci ones",
      "ti emp",
      "C u",
      "t on",
      "ent es",
      "d re",
      "v al",
      "ta mbi",
      "gu i",
      "me j",
      "tu r",
      "ha cer",
      "deci r",
      "er to",
      "t re",
      "p la",
      "vi s",
      "hi jo",
      "e z",
      "g en",
      "mu cho",
      "qui en",
      "« ¡",
      "ci os",
      "an te",
      "o jos",
      "to da",
      "ti erra",
      "l lo",
      "es p",
      "x i",
      "j u",
      "c tor",
      "e d",
      "er an",
      "na da",
      "mu ch",
      "ti r",
      "an tes",
      "án do",
      "r en",
      "con o",
      "ten ía",
      "f ec",
      "an to",
      "a quí",
      "g os",
      "tiemp o",
      "s ac",
      "z ón",
      "vi da",
      "Y o",
      "t í",
      "ch i",
      "M e",
      "i mp",
      "mu jer",
      "a ñ",
      "t aba",
      "des pués",
      "qu er",
      "homb re",
      "es o",
      "po co",
      "A l",
      "t una",
      "mi r",
      "an a",
      "b r",
      ") :",
      "es a",
      "er ta",
      "se gu",
      "t ú",
      "ci on",
      "f un",
      "t _",
      "ti ene",
      "á r",
      "ar on",
      "est as",
      "cos a",
      "tan to",
      "al e",
      "F or",
      "mb re",
      "al gun",
      "P u",
      "t in",
      "cos as",
      "P ro",
      "nu es",
      "mo do",
      "sin o",
      "all í",
      "par ec",
      "_ t_",
      "a mi",
      "al es",
      "b as",
      "cu r",
      "homb res",
      "í n",
      "ha cia",
      "el los",
      "cab eza",
      "For tuna",
      "cu er",
      "mun do",
      "par te",
      "v os",
      "fu é",
      "Fortuna ta",
      "g re",
      "g e",
      "án dose",
      "hi s",
      "u c",
      "emp re",
      "a hora",
      "palab ras",
      "ci as",
      "h an",
      "f e",
      "g as",
      "i de",
      "en ta",
      "vu el",
      "a y",
      "ma y",
      "aun que",
      "Qu é",
      "w or",
      "b ra",
      "c ora",
      "to das",
      "no che",
      "g ri",
      "ci endo",
      "ca da",
      "-- ¡",
      "man os",
      "de se",
      "m ó",
      "d r",
      "C on",
      "s an",
      "tr as",
      "tambi én",
      "a tro",
      "f al",
      "mb a",
      "i l",
      "ve z",
      "os o",
      "é r",
      "mi li",
      "si empre",
      "ent os",
      "i ta",
      "j un",
      "L u",
      "b ri",
      "u r",
      "do ña",
      "ci do",
      "p li",
      "v as",
      "la do",
      "tr es",
      "T e",
      "vi ó",
      "a da",
      "h or",
      "nu e",
      "D es",
      "est os",
      "medi o",
      "u dad",
      "tu ra",
      "C o",
      "j ec",
      "w it",
      "con tr",
      "an i",
      ". --",
      "otr as",
      "J a",
      "os a",
      "cu l",
      "des de",
      "señ ora",
      "e ch",
      "gu s",
      "í si",
      "-- .",
      "ri s",
      "ber g",
      "ci ó",
      "ten berg",
      "a u",
      "A n",
      "Pu es",
      "in s",
      "lan te",
      "b an",
      "H é",
      "p es",
      "tr an",
      "señ or",
      "jec t",
      "T o",
      "ten er",
      "con tra",
      "s os",
      "t ía",
      "es tu",
      "al ma",
      "j i",
      "z ar",
      "re y",
      "al g",
      "per son",
      "M i",
      "er os",
      "di do",
      "ca us",
      "P er",
      "M ar",
      "t h",
      "de j",
      "c el",
      "men os",
      "di a",
      "én do",
      "Hé ctor",
      "m ero",
      "men to",
      "d ó",
      "pro pi",
      "pr on",
      "Gu tenberg",
      "Pro ject",
      "ar io",
      "may or",
      "cora zón",
      "! ...",
      "L os",
      "p un",
      "wor k",
      "J u",
      "co mba",
      "d aba",
      "al go",
      "-- ¿",
      "z os",
      "h on",
      "h al",
      "i ón",
      "in ci",
      "re ci",
      "Cu ando",
      "wit h",
      "mej or",
      "d an",
      "-- --",
      "de más",
      "Re y",
      "vi r",
      "Ja cin",
      "A qui",
      "l en",
      "D i",
      "L o",
      "P ar",
      "S an",
      "tal es",
      "Aqui les",
      "hab er",
      "i m",
      "j as",
      "le van",
      "ar se",
      "ha ce",
      "fu e",
      "i g",
      "s ó",
      "z as",
      "or o",
      "a t",
      "n ing",
      "di r",
      "te mp",
      "hi zo",
      "fu er",
      "C i",
      "in ter",
      "ú pi",
      "1 0",
      "1 5",
      "ac er",
      "v ía",
      "mis ma",
      "est ar",
      "en o",
      ") .",
      "ca min",
      "hu bi",
      "pa dre",
      "Ma xi",
      "l los",
      "di cho",
      "pue de",
      "gu a",
      "gran de",
      "d in",
      "ve ces",
      "í o",
      "C a",
      "ta d",
      "al i",
      "có mo",
      "Y a",
      "el las",
      "ci udad",
      "da do",
      "l in",
      "no t",
      "pu so",
      "fu era",
      "s é",
      "mi ra",
      "he cho",
      "f r",
      "so l",
      "J úpi",
      "Júpi ter",
      "Jacin ta",
      "í r",
      "g ó",
      "te uc",
      "ti ó",
      "car a",
      "S u",
      "i endo",
      "mi l",
      "tan te",
      "pare ce",
      "tu d",
      "2 0",
      "di v",
      "II I",
      "= :",
      "pre gun",
      "s ent",
      "di as",
      "res pon",
      "ca do",
      "ec es",
      "en a",
      "tr aba",
      "i an",
      "re g",
      "se a",
      "si g",
      "all á",
      "A sí",
      "as e",
      "men t",
      "ver dad",
      "ti do",
      "her mos",
      "f ri",
      "O h",
      "X V",
      "ta mente",
      "lle v",
      "cu anto",
      "ent on",
      "X I",
      "e mb",
      "l á",
      "e mos",
      "g ente",
      "! ,",
      "H i",
      "jo ven",
      "agu a",
      "l y",
      "p al",
      "de lante",
      "o y",
      "entr as",
      "Es pa",
      "i ó",
      "ra do",
      "vo z",
      "min a",
      "lu ego",
      "Lu pe",
      "mp o",
      "m es",
      "co gi",
      "vi si",
      "an ti",
      "el lo",
      "cal le",
      "i z",
      "b us",
      "con si",
      "ri ó",
      "én dose",
      "li b",
      "t ando",
      "much os",
      "L e",
      "p in",
      "ma g",
      "un os",
      "in di",
      "h ar",
      "mu erte",
      "aque os",
      "yo u",
      "i ba",
      "? ...",
      "ar ro",
      "hi ja",
      "enton ces",
      "P o",
      "d á",
      "de cía",
      "na ves",
      "pen s",
      "ti s",
      "pi es",
      "pr inci",
      "teuc ros",
      "a mor",
      "d ón",
      "g h",
      "-- ,",
      "En ton",
      "Enton ces",
      "vis to",
      "tr u",
      "ba jo",
      "2 5",
      "gu e",
      "L i",
      "í do",
      "es ti",
      "si do",
      "In dios",
      "i ll",
      "parec ía",
      "vol ver",
      "n eces",
      "s es",
      "gu ar",
      "r ó",
      "ga do",
      "much as",
      "co l",
      "co m",
      "lla ma",
      "comp añ",
      "Des pués",
      "pron to",
      "p lan",
      "ñ as",
      "añ os",
      "tu s",
      "pu esto",
      "pon er",
      "er as",
      "tr on",
      "ti o",
      "fi r",
      "l ti",
      "es cri",
      "pu erta",
      "Qu e",
      "tur al",
      "pos i",
      "f o",
      "el l",
      "tr os",
      "i as",
      "de ra",
      "is te",
      "d ías",
      "u t",
      "« ¿",
      "es cu",
      "só lo",
      "p an",
      "co me",
      "3 0",
      "gran des",
      "pr en",
      "C ris",
      "i or",
      "lan za",
      "ci al",
      "P a",
      "un ca",
      "tu vo",
      "t y",
      "di o",
      "ch ar",
      "ma ñ",
      "C A",
      "hab lar",
      "u l",
      "as i",
      "ten go",
      "pi e",
      "fi gu",
      "ch as",
      "cuer po",
      "1 8",
      "r á",
      "pre ci",
      "i to",
      "ti ca",
      "en ten",
      "Ju an",
      "cu ar",
      "In dias",
      "de re",
      "la ba",
      "ta da",
      "for ma",
      "R u",
      "A r",
      "b li",
      "ma dre",
      "c ru",
      "an y",
      "ti co",
      "lle gar",
      "d ando",
      "v in",
      "ch os",
      "i ente",
      "l ó",
      "da des",
      "mu erto",
      "S ol",
      "tri bu",
      "mu cha",
      "ha cía",
      "man era",
      "Co mo",
      "de ro",
      "di ce",
      "alg una",
      "caus a",
      "en contr",
      "po día",
      "ex pres",
      "re c",
      "cab al",
      "man a",
      "sab er",
      "Se ñ",
      "tien en",
      "b y",
      "m é",
      "ca u",
      "I do",
      "a i",
      "ñ os",
      "di ver",
      "pri mer",
      "k e",
      "buen a",
      "m ía",
      "lu z",
      "L as",
      "l las",
      "si gui",
      "cer ca",
      "lle var",
      "ad or",
      "e o",
      "... ».",
      "á ni",
      "con t",
      "pe c",
      "di go",
      "con s",
      "par ti",
      "ándo le",
      "n unca",
      "t m",
      "ide a",
      "mañ ana",
      "es pa",
      "ex cla",
      "E S",
      "d é",
      "in c",
      "g ro",
      "est ó",
      "T O",
      "vi eron",
      "és te",
      "a ún",
      "su elo",
      "cu atro",
      "ha t",
      "y ó",
      "g er",
      "t his",
      "un as",
      "ex tra",
      "e t",
      "na tural",
      "gra cia",
      "V i",
      "el es",
      "m á",
      "p ó",
      "on a",
      "b lan",
      "en tra",
      "es pos",
      "in f",
      "ri tu",
      "par tes",
      "1 4",
      "po bre",
      "du l",
      "nos otros",
      "algun os",
      "a f",
      "a par",
      "mar ido",
      "T i",
      "si ón",
      "vi a",
      "pen sa",
      "quier e",
      "camin o",
      "jun to",
      "den tro",
      "Por que",
      "a mb",
      "ra z",
      "er e",
      "cu enta",
      "ce p",
      "ri fi",
      "vol vió",
      "V a",
      "di e",
      "e dad",
      "di ri",
      "so lo",
      "j ó",
      "di ciendo",
      "pu l",
      "man i",
      "Qu i",
      "e te",
      "i gu",
      "no mbre",
      "1 7",
      "j us",
      "co mer",
      "bi r",
      "sab e",
      "se gun",
      "mi entras",
      "t aban",
      "pi ed",
      "cas o",
      "emp ez",
      "pas ar",
      "fa mili",
      "medi a",
      ") ,",
      "as o",
      "fu ego",
      "palab ra",
      "lan do",
      "su e",
      "li dad",
      "so y",
      "est aban",
      "dor es",
      "N i",
      "b ro",
      "de jar",
      "se mej",
      "or es",
      "ho y",
      "dios es",
      "f le",
      "des cu",
      "l í",
      "ci encia",
      "vis ta",
      "S a",
      "b en",
      "an os",
      "li g",
      "qui era",
      "ami go",
      "1 9",
      "C as",
      "g lor",
      "t ina",
      "ó r",
      "on e",
      "ci erto",
      "est án",
      "fuer za",
      "er tas",
      "to mar",
      "es per",
      "lla man",
      "nue vo",
      "mi entos",
      "hab ían",
      "sal ir",
      "pe cho",
      "aquel los",
      "ú lti",
      "ri endo",
      "des a",
      "esp í",
      "fu eron",
      "aquel las",
      "Per ú",
      "vi ene",
      "qui ero",
      "D E",
      "p ele",
      "m era",
      "co mi",
      "so la",
      "algun as",
      "1 2",
      "a qué",
      "t her",
      "1 6",
      "tor ia",
      "pue b",
      "P e",
      "c lo",
      "v or",
      "en ga",
      "di endo",
      "br on",
      "v í",
      "el ec",
      "ci r",
      "vo y",
      "er es",
      "a vi",
      "ra da",
      "lu gar",
      "ill er",
      "e a",
      "en ci",
      "hi jos",
      "tambi en",
      "1 3",
      "a ña",
      "t é",
      "so mb",
      "Gu iller",
      "gh t",
      "m aba",
      "nues tro",
      "L A",
      "ar ri",
      "na die",
      "ac ab",
      "i c",
      "y os",
      "es pe",
      "es tro",
      "mo mento",
      "vi endo",
      "Ru b",
      "L O",
      "ar ma",
      "con se",
      "su erte",
      "mi go",
      "e fec",
      "n ar",
      "bo ca",
      "Guiller mina",
      "u e",
      "mí o",
      "Espa ña",
      "ci elo",
      ".. ..",
      "pri mero",
      "nues tra",
      "! --",
      "t ón",
      "vi o",
      "E ra",
      "b es",
      "de c",
      "hab ia",
      "mon io",
      "comba te",
      "A y",
      "ab i",
      "di da",
      "ver da",
      "cas i",
      "Rub ín",
      "D o",
      "S í",
      "s or",
      "s as",
      "er r",
      "ti va",
      "person a",
      "a ten",
      "di eron",
      "di fer",
      "esto y",
      "b or",
      "p el",
      "v ino",
      "so br",
      "ll or",
      "sac rifi",
      "m ando",
      "hi ci",
      "ale g",
      "fr ente",
      "d í",
      "ob ser",
      "es en",
      "ci l",
      "pro du",
      "C ru",
      "l us",
      "M as",
      "con ver",
      "tar de",
      "E N",
      "ο ς",
      "du ra",
      "her mano",
      "a z",
      "e j",
      "er no",
      "San ta",
      "R I",
      "ab les",
      "cual es",
      "san gre",
      "ai re",
      "? --",
      "a ño",
      "mi rar",
      "lle va",
      "tien da",
      "g or",
      "i _",
      "o cur",
      "t hat",
      "ab ri",
      "ro pa",
      "car ro",
      "an za",
      "pres ent",
      "Maxi mili",
      "f ro",
      "Maximili ano",
      "a tra",
      "ísi mo",
      "d ría",
      "f á",
      "or den",
      "Ci elo",
      "si on",
      "ru e",
      "quer ía",
      "ti l",
      "ri ble",
      "qui én",
      "na ve",
      "entr ar",
      "b les",
      "í s",
      "con ven",
      "im por",
      "p á",
      "p ú",
      "cabal los",
      "Cru z",
      "X X",
      "di g",
      "per mi",
      "du da",
      "Es to",
      "tien es",
      "o h",
      "tion s",
      "P atro",
      "c é",
      "ti vo",
      "fu erte",
      "pun to",
      "Par a",
      "á l",
      "ta dos",
      "ri os",
      "= .",
      "po der",
      "hubi era",
      "de li",
      "tr iste",
      "alg ún",
      "H ab",
      "p y",
      "su r",
      "pri mera",
      "gus to",
      "p le",
      "tr ás",
      "excla mó",
      "z ó",
      "do lor",
      "un da",
      "in t",
      "espí ritu",
      "Patro clo",
      "f es",
      "ar e",
      "al to",
      "ma do",
      "pro fun",
      "Es ta",
      "éndo le",
      "( =",
      "? ».",
      "a dos",
      "en cu",
      "ti cia",
      "su per",
      "pas o",
      "ser á",
      "sal ió",
      "áni mo",
      "M é",
      "t á",
      "co men",
      "tra ción",
      "tro y",
      "famili a",
      "A h",
      "es os",
      "... !",
      "2 3",
      "tran s",
      "A ga",
      "al o",
      "cu lo",
      "ro mp",
      "o ut",
      "ri o",
      "ha cen",
      "B ar",
      "ami gos",
      "or i",
      "pen as",
      "ob s",
      "er va",
      "con fi",
      "go l",
      "po lo",
      "E R",
      "c aba",
      "f en",
      "al can",
      "ad ri",
      "g ún",
      "ar re",
      "di je",
      "ma la",
      "tan ta",
      "tar on",
      "pare ció",
      "igu al",
      "arri ba",
      "b on",
      "b ía",
      "er ía",
      "pa la",
      "dr á",
      "e ta",
      "u se",
      "co mun",
      "vi era",
      "ha ciendo",
      "O r",
      "es tr",
      "re la",
      "fal ta",
      "ísi ma",
      "N O",
      "s ta",
      "z co",
      "es as",
      "es tra",
      "con ten",
      "mo vi",
      "M in",
      "men ón",
      "work s",
      "Señ or",
      "Aga menón",
      "a p",
      "f res",
      "ar te",
      "ci to",
      "co lor",
      "dis tribu",
      "o cu",
      "p h",
      "er tos",
      "co py",
      "of re",
      "a cu",
      "b al",
      "ci da",
      "ran te",
      "s ti",
      "or din",
      "di fi",
      "Hi jo",
      "f ru",
      "u ra",
      "ci en",
      "le y",
      "di ez",
      "ven ir",
      "pla ta",
      "bra zos",
      "de be",
      "qu in",
      "in ten",
      "za do",
      "segu ida",
      "M u",
      "pueb lo",
      "fro m",
      "D el",
      "c r",
      "vol un",
      "a gre",
      "u da",
      "si tio",
      "ja do",
      "eli gi",
      "val or",
      "cuar to",
      "f lor",
      "g aba",
      "y e",
      "comp ren",
      "tran qui",
      "T en",
      "de ros",
      "da mente",
      "ros tro",
      "ji co",
      "es ca",
      "espos a",
      "S ab",
      "Ca p",
      "i en",
      "pu do",
      "qui si",
      "cor re",
      "cor ri",
      "pes ar",
      "m s",
      "ti er",
      "Mé jico",
      "_ i_",
      "le jos",
      "mu r",
      "men tos",
      "ba tal",
      "dese o",
      "T U",
      "n or",
      "si s",
      "pue do",
      "M adri",
      "a h",
      "c ción",
      "m aban",
      "en fer",
      "con tin",
      "sen ti",
      "len gua",
      "ning una",
      "dón de",
      "= --",
      "ci miento",
      "un i",
      "pu esta",
      "po b",
      "person as",
      "A S",
      "ti ma",
      "vi e",
      "aba jo",
      "entr ó",
      "fec ta",
      "I s",
      "mos tr",
      "hu bo",
      "ob ra",
      "I lus",
      "a de",
      "a tre",
      "ra zón",
      "mujer es",
      "F e",
      "es s",
      "an ci",
      "ti go",
      "ra to",
      "ha ya",
      "div ino",
      "diri gi",
      "c í",
      "can os",
      "eli z",
      "A N",
      "A ya",
      "L I",
      "e ce",
      "fi ca",
      "pas a",
      "Pe pe",
      "g ru",
      "t ing",
      "é ro",
      "ma tar",
      "pas ado",
      "E u",
      "y endo",
      "Me ji",
      "amb os",
      "Aya x",
      "m esa",
      "cu ya",
      "bi ó",
      "tron ic",
      "elec tronic",
      "Madri d",
      "A la",
      "A hora",
      "C or",
      "M ene",
      "T a",
      "en car",
      "la o",
      "er i",
      "cu mp",
      "ca pi",
      "mar avi",
      "mal es",
      "2 2",
      "a mente",
      "a gra",
      "pa z",
      "tar se",
      "his toria",
      "h éro",
      "v ó",
      "ar a",
      "cu ra",
      "r aba",
      "ten ido",
      "et c",
      "con temp",
      "pe que",
      "esta do",
      "parec er",
      "din ero",
      "Ilus tración",
      "C re",
      "P ría",
      "tí si",
      "dej ó",
      "Pría mo",
      "é is",
      "di cen",
      "li o",
      "tan cia",
      "comp le",
      "segu ir",
      "cer e",
      "sab ía",
      "v elo",
      "ca dá",
      "gu erra",
      "ac os",
      "bron ce",
      "cadá ver",
      "? »",
      "d aban",
      "d ían",
      "cu ida",
      "gu as",
      "ec er",
      "pala cio",
      "g ros",
      "v ent",
      "al mente",
      "se gún",
      "ti ve",
      "mb res",
      "ja más",
      ") ;",
      "ú ni",
      "ha ci",
      "efec to",
      "! »",
      "F u",
      "e do",
      "f on",
      "o k",
      "o ír",
      "si r",
      "dis tin",
      "posi ble",
      "T ro",
      "e p",
      "g ü",
      "g én",
      "ar mas",
      "car i",
      "cin co",
      "T he",
      "c lu",
      "o be",
      "s ar",
      "lla n",
      "fa vor",
      "pli có",
      "raz on",
      "3 3",
      "T ú",
      "est re",
      "lla mar",
      "H e",
      "f re",
      "g al",
      "la da",
      "que dar",
      "di era",
      "cor r",
      "ide as",
      "M or",
      "con du",
      "hab ló",
      "cre o",
      "g ando",
      "en vi",
      "Ala h",
      "2 4",
      "c ón",
      "de fen",
      "ar ia",
      "mag n",
      "pens ar",
      "Cris tina",
      "glor ia",
      "J os",
      "V er",
      "vi ento",
      "ten ían",
      "res pe",
      "ll en",
      "propi o",
      "pied ra",
      "= ,",
      "B u",
      "ta ción",
      "fu ese",
      "ins tante",
      "2 7",
      "2 8",
      "l on",
      "ab lo",
      "za da",
      "ser ía",
      "lle gó",
      "lar go",
      "de bajo",
      "tu ras",
      "ten cia",
      "és ta",
      "toda vía",
      "il las",
      "Do ña",
      "A que",
      "c k",
      "d ora",
      "o cul",
      "y as",
      "un d",
      "ri dad",
      "est er",
      "hab ría",
      "Es te",
      "ida des",
      "S r",
      "es cal",
      "di llo",
      "sa tis",
      "ing en",
      "cab all",
      "agre e",
      "l ina",
      "u ri",
      "mu s",
      "pi o",
      "pr ó",
      "mpo co",
      "princi pal",
      "P Í",
      "que dó",
      "ci erta",
      "ch u",
      "den te",
      "cono cer",
      "sig ni",
      "semej ante",
      "F o",
      "ri sa",
      "hab i",
      "ser vi",
      "sal u",
      "Espa ño",
      "Min erva",
      "2 6",
      "A polo",
      "c ando",
      "i eron",
      "i mag",
      "ri que",
      "lab an",
      "U n",
      "mi edo",
      "ma ter",
      "ni ño",
      "her e",
      "XI V",
      "Meji canos",
      "C ó",
      "a ma",
      "t s",
      "ca mp",
      "si endo",
      "pro te",
      "don a",
      "figu ra",
      "U na",
      "re gi",
      "li ses",
      "contin u",
      "3 4",
      "P i",
      "e b",
      "e qui",
      "ar y",
      "ci na",
      "me mor",
      "cor cel",
      "aquel lo",
      ". '",
      "2 9",
      "O R",
      "a mar",
      "la ción",
      "ca mente",
      "per man",
      "mir ando",
      "Mar te",
      "respon dió",
      "CA PÍ",
      "TU LO",
      "CAPÍ TULO",
      "U lises",
      "a ce",
      "d ri",
      "preci so",
      "dul ce",
      "empez ó",
      "Bar bar",
      "o ve",
      "r on",
      "al idad",
      "ro de",
      "po l",
      "den cia",
      "nues tros",
      "estu vo",
      "cont estó",
      "sue ño",
      ". \"",
      "D io",
      "a m",
      "w hi",
      "di to",
      "co lo",
      "cu lar",
      "ex ten",
      "Ma uri",
      "ár bo",
      "nue va",
      "lá gri",
      "i on",
      "pi en",
      "man da",
      "pro ve",
      "bas e",
      "traba jo",
      "unda tion",
      "e as",
      "i ban",
      "z ca",
      "con migo",
      "me des",
      "buen o",
      "gen er",
      "Mene lao",
      "Fo undation",
      "Có mo",
      "Mauri cia",
      "A ll",
      "R os",
      "di ente",
      "gu err",
      "ter min",
      "bu r",
      "a ta",
      "os os",
      "ti endo",
      "cu yo",
      "pu si",
      "ex is",
      "pas ó",
      "ne gro",
      "Va ya",
      "Barbar ita",
      "H ay",
      "e gos",
      "o ther",
      "ar gi",
      "pon ía",
      "d res",
      "i d",
      "cu an",
      "ch es",
      "ve ía",
      "ac á",
      "chi co",
      "Te uc",
      "Per fecta",
      "batal la",
      "R o",
      "V I",
      "a penas",
      "f ran",
      "i ma",
      "ci ente",
      "si len",
      "li mp",
      "ga da",
      "san ta",
      "volun tad",
      "Teuc ro",
      "f ar",
      "n as",
      "o pin",
      "ti tu",
      "lo co",
      "ex cel",
      "a ven",
      "g el",
      "w n",
      "con ser",
      "aleg ría",
      "p ene",
      "in e",
      "mu e",
      "man te",
      "he mos",
      "quier es",
      "esp al",
      "pregun tó",
      "corcel es",
      "v el",
      "ah í",
      "N a",
      "u p",
      "su b",
      "ca dos",
      "est ás",
      "per i",
      "div ina",
      "emb ar",
      "lágri mas",
      "a pre",
      "b os",
      "To do",
      "pec to",
      "anci ano",
      "D A",
      "d ing",
      "h á",
      "es cla",
      "ri ght",
      "ca yó",
      "for me",
      "4 0",
      "t án",
      "ve o",
      "tí o",
      "cogi ó",
      "Jos é",
      "u m",
      "ca mpo",
      "pon e",
      "ech ar",
      "XV I",
      "mani f",
      ", --",
      "T E",
      "a zo",
      "g ía",
      "ti tud",
      "si mp",
      "si ete",
      "sal va",
      "pos e",
      "últi mo",
      "sobr ino",
      "héro e",
      "a fir",
      "r ío",
      "re fer",
      "cal or",
      "vuel ta",
      "bra zo",
      "enci ma",
      "re plicó",
      "des pe",
      "pi er",
      "car ne",
      "cre er",
      "sab es",
      "sac ar",
      "ning ún",
      "enten der",
      "J uno",
      "V en",
      "a gi",
      "r eligi",
      "al ta",
      "re co",
      "ón i",
      "tu a",
      "és tos",
      "hermos a",
      "pensa miento",
      "cump li",
      "I S",
      "R es",
      "ca er",
      "tor no",
      "e ter",
      "f ra",
      "ar ran",
      "on se",
      "di entes",
      "ver i",
      "pro ce",
      "ras e",
      "pas os",
      "gra ve",
      "ol vi",
      "sent ía",
      "Tro ya",
      "A L",
      "_ ad",
      "de bía",
      "in men",
      "des cen",
      "des pues",
      "sin tió",
      "cab o",
      "mor ir",
      "Lu ego",
      "th ing",
      "B o",
      "t era",
      "in as",
      "se cre",
      "di co",
      "des gracia",
      "hi er",
      "quier do",
      "aqué l",
      "argi vos",
      "1 1",
      "A R",
      "a delante",
      "o fi",
      "r or",
      "á c",
      "ci e",
      "in os",
      "ri co",
      "hab la",
      "dios a",
      "troy anos",
      "f ac",
      "o ído",
      "re ti",
      "su a",
      "su yo",
      "ca ción",
      "qui z",
      "sa la",
      "sa ción",
      "Dio medes",
      "f é",
      "i dos",
      "p lu",
      "s te",
      "al do",
      "se is",
      "ten ian",
      "ve in",
      "ter rible",
      "ór den",
      "de na",
      "en tro",
      "an as",
      "tr ia",
      "vi vir",
      "qui so",
      "min is",
      "cuer do",
      "Ci udad",
      "di j",
      "ta das",
      "con su",
      "con tar",
      "tan tos",
      "ba j",
      "cos tu",
      "du rante",
      "can o",
      "gra cias",
      "algun o",
      "natural eza",
      "pú bli",
      "ima gen",
      "= ----",
      "A quí",
      "en señ",
      "su ce",
      "ri do",
      "res is",
      "ba jos",
      "her mana",
      "w e",
      "di ción",
      "ca e",
      "mor tales",
      "ami ga",
      "Españo les",
      "B ien",
      "I N",
      "P ablo",
      "p ros",
      "ta mpoco",
      "pi ra",
      "corr er",
      "whi ch",
      "E so",
      "R E",
      "con ciencia",
      "ri a",
      "so ber",
      "cios a",
      "quer ido",
      "vir tud",
      "hici eron",
      "tier ras",
      "5 0",
      "A tr",
      "c á",
      "c ír",
      "f í",
      "z ando",
      "su ces",
      "so le",
      "ves ti",
      "ándo me",
      "vuel ve",
      "atra ves",
      "Atr ida",
      "a po",
      "el os",
      "ti to",
      "ca ma",
      "ad ver",
      "lar on",
      "ne go",
      "dá na",
      "fir me",
      "R O",
      "c ían",
      "e fri",
      "i entes",
      "j es",
      "r é",
      "en za",
      "cu án",
      "ac or",
      "cual quier",
      "imp e",
      "mira da",
      "Mor eno",
      "de trás",
      "en cen",
      "se ña",
      "gu os",
      "ent as",
      "po ca",
      "fu l",
      "ec ía",
      "ju i",
      "ándo la",
      "memor ia",
      "? ,",
      "un ci",
      "con clu",
      "tra er",
      "ech ó",
      "comba tir",
      "_ad v",
      "z aba",
      "os e",
      "la dos",
      "la bi",
      "al mas",
      "te mb",
      "ter ms",
      "ex pli",
      "lle gado",
      "il us",
      "gol pe",
      "F i",
[...]
