<unk>	0
<s>	0
</s>	0
,	-2.88762
▁de	-3.44566
.	-3.59874
s	-3.62868
▁y	-3.79568
▁que	-3.79672
▁la	-3.91689
▁el	-4.3331
▁en	-4.34822
▁a	-4.40624
▁	-4.66034
▁se	-4.7221
▁los	-4.72354
▁no	-4.86733
▁con	-4.92794
;	-5.03205
n	-5.08097
▁á	-5.08473
▁su	-5.12702
▁por	-5.15359
r	-5.28173
▁las	-5.28503
▁un	-5.32742
▁lo	-5.36738
▁=	-5.40091
▁del	-5.40149
▁_	-5.44339
=	-5.45811
▁le	-5.46098
▁me	-5.48635
▁al	-5.49648
_	-5.50275
▁es	-5.5738
:	-5.59926
▁una	-5.65828
a	-5.72054
...	-5.72101
▁para	-5.75613
▁como	-5.78701
do	-5.82176
▁más	-5.98348
m	-6.02794
o	-6.02946
es	-6.07068
t	-6.073
f	-6.08242
▁--	-6.09087
le	-6.13032
se	-6.13443
e	-6.16131
da	-6.22034
▁si	-6.22405
ba	-6.22475
▁sus	-6.24204
▁mi	-6.25033
ó	-6.27725
▁te	-6.32555
!	-6.36075
▁Y	-6.38177
--	-6.38531
▁¡	-6.4142
la	-6.41652
▁¿	-6.43135
?	-6.43343
▁the	-6.44133
te	-6.48715
me	-6.51206
lo	-6.52037
d	-6.52118
▁in	-6.53395
▁ha	-6.54423
▁tan	-6.54827
ra	-6.5547
▁era	-6.55975
▁re	-6.58421
▁«	-6.59024
▁pero	-6.61211
▁muy	-6.61276
▁(	-6.61747
▁yo	-6.6178
▁A	-6.62509
▁porque	-6.64748
▁usted	-6.66892
▁había	-6.67539
▁cuando	-6.67766
ta	-6.6841
mente	-6.69765
▁of	-6.6996
ar	-6.69998
▁ni	-6.70512
▁o	-6.71102
▁sin	-6.71808
c	-6.72029
▁esta	-6.74159
ndo	-6.75159
é	-6.77781
▁todo	-6.78321
re	-6.78411
▁él	-6.80065
▁ella	-6.8217
ca	-6.83106
l	-6.83224
de	-6.85058
i	-6.85839
u	-6.86588
to	-6.90397
▁to	-6.91435
▁qué	-6.91717
▁bien	-6.91746
p	-6.94348
▁No	-6.96085
▁este	-6.96343
er	-6.97165
ía	-6.97172
▁El	-6.97244
g	-6.97401
▁ya	-6.97668
▁dijo	-6.98148
y	-6.98387
▁La	-7.00938
ro	-7.03068
en	-7.03277
▁casa	-7.0364
▁así	-7.03782
á	-7.04399
▁En	-7.0567
sa	-7.06347
co	-7.06755
no	-7.07953
b	-7.08156
ri	-7.08349
mos	-7.08803
▁entre	-7.10126
▁esto	-7.10223
▁he	-7.10414
-	-7.10475
▁dos	-7.12178
▁sobre	-7.13147
ron	-7.14057
▁otra	-7.14333
▁pues	-7.14438
▁aquel	-7.14497
▁ser	-7.14942
▁todos	-7.16733
al	-7.17069
ción	-7.17258
▁gran	-7.17388
▁hasta	-7.17431
▁otro	-7.17822
▁son	-7.17947
▁donde	-7.18283
ado	-7.19096
▁mas	-7.19526
▁está	-7.20313
▁ó	-7.2063
os	-7.20643
ban	-7.20795
▁mismo	-7.21637
▁Pero	-7.21655
▁ver	-7.2224
▁estaba	-7.22507
▁hay	-7.22579
▁tu	-7.23961
so	-7.25623
í	-7.25756
as	-7.26653
▁aquella	-7.27173
».	-7.27337
▁cual	-7.28097
dos	-7.28228
.»	-7.28924
an	-7.29944
li	-7.31179
ce	-7.3233
vi	-7.32792
ci	-7.33713
▁D	-7.35124
go	-7.35324
▁hijo	-7.36116
▁mí	-7.36427
▁mucho	-7.36579
▁tierra	-7.37957
aba	-7.38592
in	-7.38636
▁«¡	-7.39217
ido	-7.3958
▁poco	-7.39885
ti	-7.40269
E	-7.40657
▁Dios	-7.40694
▁ojos	-7.42083
A	-7.42489
▁fin	-7.43015
▁or	-7.43128
na	-7.43511
1	-7.43512
▁tiempo	-7.43971
▁be	-7.4421
▁tal	-7.44494
2	-7.45721
▁De	-7.45785
ando	-7.46088
▁hombre	-7.46138
▁decir	-7.4696
ma	-7.47069
▁sí	-7.47234
▁después	-7.47496
▁aquí	-7.4789
que	-7.4801
7	-7.4845
▁and	-7.4862
▁mar	-7.48931
▁tenía	-7.49508
▁quien	-7.49584
):	-7.49681
▁les	-7.49967
▁cosa	-7.51906
▁vi	-7.52139
di	-7.52329
▁tanto	-7.52644
za	-7.52721
▁nada	-7.52859
▁modo	-7.53717
▁cabeza	-7.53956
ir	-7.54491
ada	-7.55331
▁día	-7.55464
ga	-7.56013
▁vida	-7.56686
▁allí	-7.57055
mi	-7.57122
z	-7.57297
▁cosas	-7.57876
3	-7.57908
▁tiene	-7.58026
▁sino	-7.58082
rse	-7.58354
]	-7.58826
▁toda	-7.59618
ed	-7.60154
das	-7.6027
pe	-7.60313
▁hacia	-7.60551
▁tú	-7.61084
No	-7.62002
cu	-7.62739
▁fué	-7.6281
▁Fortunata	-7.63048
▁hombres	-7.63243
▁ahora	-7.63734
gu	-7.64234
▁palabras	-7.6463
pi	-7.64786
Qué	-7.64908
▁parte	-7.64914
▁mundo	-7.6532
▁aunque	-7.65527
▁hacer	-7.6606
▁noche	-7.6626
▁uno	-7.66437
ve	-7.66931
tu	-7.66937
ing	-7.67209
▁Si	-7.67352
on	-7.68372
▁todas	-7.68444
0	-7.68855
▁también	-7.68884
▁Al	-7.6931
▁vez	-7.69905
▁otros	-7.6994
mo	-7.70156
'	-7.70206
▁va	-7.70472
tra	-7.70557
▁siempre	-7.7062
▁--¡	-7.70676
▁mano	-7.71255
ne	-7.71995
▁mujer	-7.72278
idad	-7.72506
▁ellos	-7.72662
▁c	-7.72699
▁ca	-7.73615
▁antes	-7.74048
▁Yo	-7.74284
▁doña	-7.74329
v	-7.75167
▁e	-7.75212
▁E	-7.75867
▁señora	-7.76366
va	-7.76604
ten	-7.7661
dijo	-7.77246
▁han	-7.77428
bo	-7.77605
)	-7.77615
9	-7.78484
▁desde	-7.78673
▁mis	-7.78917
▁C	-7.78988
6	-7.79667
▁ti	-7.7993
▁estas	-7.80012
ja	-7.8167
▁P	-7.8262
▁eso	-7.82712
C	-7.83301
res	-7.83618
ge	-7.83627
pa	-7.83921
nd	-7.84727
▁mal	-7.85074
les	-7.85628
▁contra	-7.85819
▁hace	-7.86342
8	-7.86938
po	-7.8731
▁pro	-7.87553
ría	-7.882
▁nos	-7.8862
▁corazón	-7.88965
▁menos	-7.89053
ré	-7.89132
▁alma	-7.89354
▁Por	-7.89424
▁dar	-7.89466
nte	-7.90781
▁misma	-7.90859
▁Me	-7.90947
Y	-7.91118
▁manos	-7.91394
▁medio	-7.9148
--.	-7.91688
▁fue	-7.92376
▁Héctor	-7.92378
▁tres	-7.92497
▁otras	-7.92508
4	-7.9292
▁dicho	-7.9303
▁causa	-7.93109
▁algo	-7.93212
▁--¿	-7.93293
je	-7.9388
!...	-7.93986
▁Aquiles	-7.94209
qui	-7.94466
5	-7.94684
▁Project	-7.94904
ón	-7.94963
án	-7.95086
w	-7.95312
is	-7.95369
ncia	-7.95385
▁co	-7.95614
▁cada	-7.95915
gi	-7.96126
▁Se	-7.96273
▁da	-7.96288
vo	-7.96348
ándose	-7.97213
▁Gutenberg	-7.97429
▁puede	-7.97472
▁padre	-7.97603
▁eran	-7.97803
.--	-7.97901
▁hizo	-7.9793
or	-7.98254
▁Es	-7.98291
▁Los	-7.98653
▁with	-7.99033
._	-7.99404
▁Cuando	-7.99496
jo	-8.00194
▁veces	-8.00264
ter	-8.01026
los	-8.01278
▁ciudad	-8.01877
▁agua	-8.02087
▁hecho	-8.02119
▁fuera	-8.02721
▁Con	-8.0274
▁mejor	-8.02915
▁rey	-8.02951
el	-8.04033
ly	-8.04255
▁pre	-8.04496
nos	-8.045
▁Júpiter	-8.04729
▁haber	-8.0473
▁parece	-8.05287
▁Jacinta	-8.05799
▁for	-8.06189
▁mayor	-8.06266
▁'	-8.06417
▁estos	-8.06629
▁T	-8.06938
▁hija	-8.07252
ida	-8.07772
▁cuanto	-8.08245
tó	-8.0898
ru	-8.09216
▁Lo	-8.09463
ll	-8.09484
rá	-8.09941
j	-8.09969
Oh	-8.10153
▁Rey	-8.10328
I	-8.1046
▁lanza	-8.10777
ió	-8.10839
=:	-8.11078
▁p	-8.11803
▁joven	-8.11826
ieron	-8.12394
lu	-8.12832
▁voz	-8.12966
▁is	-8.13041
▁calle	-8.13131
cia	-8.13198
▁Lupe	-8.1354
iendo	-8.13563
▁so	-8.13735
▁luego	-8.13925
ciones	-8.14077
T	-8.14136
O	-8.14359
▁I	-8.14765
▁Así	-8.14972
tas	-8.15156
▁[	-8.15203
▁gente	-8.15219
▁muerte	-8.1548
▁verdad	-8.15725
▁sé	-8.15792
▁sea	-8.15819
▁per	-8.16062
▁cuerpo	-8.16069
us	-8.16155
▁iba	-8.16271
cha	-8.16366
).	-8.17011
S	-8.1711
▁you	-8.17123
▁grande	-8.17237
▁ir	-8.17328
ña	-8.17336
▁aqueos	-8.17646
▁man	-8.17669
tion	-8.1791
si	-8.18014
be	-8.18107
▁cara	-8.18183
cer	-8.18672
▁pi	-8.18782
▁entonces	-8.18866
▁allá	-8.19109
▁demás	-8.19217
▁naves	-8.19753
▁ese	-8.20095
las	-8.20357
▁teucros	-8.20737
tar	-8.21052
▁II	-8.2133
▁visto	-8.21334
De	-8.21549
qué	-8.21677
▁pa	-8.21839
ch	-8.22186
▁muchos	-8.22264
zo	-8.22712
▁cómo	-8.23351
ros	-8.23357
▁amor	-8.23432
era	-8.23432
ñ	-8.23451
ían	-8.23452
▁Indios	-8.23602
Pero	-8.23771
▁madre	-8.24279
▁Entonces	-8.24308
▁pronto	-8.24519
?...	-8.24581
▁manera	-8.24737
▁pe	-8.2488
▁dis	-8.25039
----	-8.25249
▁sido	-8.25255
▁b	-8.25293
▁mo	-8.25379
osa	-8.26201
▁esa	-8.26538
nt	-8.26657
▁muchas	-8.26759
▁"	-8.26894
▁tener	-8.26927
con	-8.26966
▁unos	-8.27081
▁Después	-8.27341
▁puerta	-8.27614
▁años	-8.27734
oso	-8.2818
▁cerca	-8.28276
R	-8.28364
ur	-8.28635
▁Su	-8.28977
▁di	-8.2901
▁sólo	-8.29099
▁idea	-8.29266
car	-8.29365
bra	-8.29438
▁hablar	-8.29762
▁forma	-8.29819
▁parecía	-8.30063
▁Sol	-8.3023
dor	-8.30264
▁mil	-8.30653
▁has	-8.30682
▁«¿	-8.30708
▁ve	-8.30881
un	-8.31199
▁nombre	-8.32038
▁muerto	-8.32458
▁grandes	-8.32642
▁Indias	-8.32703
...».	-8.32763
cion	-8.32898
ul	-8.3302
▁solo	-8.33172
ú	-8.33194
▁Ya	-8.33423
▁alguna	-8.33457
ver	-8.33614
▁hacía	-8.3363
ita	-8.34405
▁mañana	-8.34408
▁podía	-8.34513
bi	-8.34965
k	-8.35331
▁V	-8.35346
▁tengo	-8.35375
▁pies	-8.35883
▁camino	-8.36071
▁ex	-8.36139
ras	-8.36235
ados	-8.36496
ble	-8.36656
▁buena	-8.37266
▁oro	-8.374
▁O	-8.37589
aban	-8.38039
▁señor	-8.38285
▁saber	-8.38415
ven	-8.38481
ia	-8.38646
nes	-8.38962
▁Juan	-8.38963
tm	-8.39389
▁luz	-8.39499
rme	-8.39744
▁aun	-8.40063
▁días	-8.40117
▁Pues	-8.40135
par	-8.40136
▁marido	-8.40153
▁nuevo	-8.40248
▁mu	-8.4041
▁work	-8.40424
M	-8.40504
▁w	-8.40603
▁falta	-8.40951
▁nunca	-8.41004
ito	-8.41066
ación	-8.41338
P	-8.416
▁dice	-8.41626
▁é	-8.41707
▁buen	-8.42291
ste	-8.42303
ent	-8.42502
▁aún	-8.42541
lla	-8.42644
▁ce	-8.42726
il	-8.42792
▁éste	-8.42817
tro	-8.43096
▁this	-8.43565
▁puso	-8.43708
▁pie	-8.44195
▁tienen	-8.44237
des	-8.44261
▁1.	-8.44315
ran	-8.44432
▁llama	-8.44585
▁Te	-8.44645
▁f	-8.44882
tor	-8.44971
▁nosotros	-8.45133
por	-8.45225
st	-8.46172
▁algunos	-8.46315
▁decía	-8.46433
▁duda	-8.46473
llo	-8.46769
▁d	-8.46831
▁ellas	-8.47018
▁par	-8.47102
▁digo	-8.47371
▁mío	-8.47677
▁fuego	-8.47917
▁ro	-8.48029
▁Como	-8.48292
▁palabra	-8.48444
▁ra	-8.48459
Por	-8.48474
ces	-8.48873
Si	-8.48899
ica	-8.48917
▁delante	-8.49272
▁junto	-8.49324
▁on	-8.49409
▁can	-8.49451
▁quiere	-8.49508
▁not	-8.49674
▁llaman	-8.49685
▁cuatro	-8.49716
▁diciendo	-8.49726
▁boca	-8.49914
cho	-8.49983
▁sabe	-8.50246
▁mientras	-8.5027
▁caso	-8.50462
▁hoy	-8.50653
▁partes	-8.50764
▁do	-8.50766
▁ma	-8.50903
▁by	-8.50943
▁tía	-8.51004
U	-8.5111
▁amigo	-8.51283
▁momento	-8.51396
▁dioses	-8.52108
bri	-8.52158
▁pobre	-8.52178
▁soy	-8.52367
▁fuerza	-8.52442
▁Le	-8.52577
▁F	-8.52941
Pues	-8.52995
ha	-8.53062
▁N	-8.53123
▁ven	-8.53353
ion	-8.53371
▁combate	-8.53688
per	-8.53881
▁at	-8.53908
▁suerte	-8.53949
adas	-8.54339
rio	-8.54354
▁pecho	-8.54547
cor	-8.54634
▁familia	-8.54855
▁suelo	-8.5512
▁están	-8.55577
▁salir	-8.55947
▁Ca	-8.5597
▁Perú	-8.55984
▁volver	-8.56096
▁espíritu	-8.56271
▁fueron	-8.56426
▁aquellos	-8.56484
▁pasar	-8.56604
▁com	-8.57053
pre	-8.57277
▁estaban	-8.57405
▁li	-8.57406
▁sa	-8.5743
cas	-8.57929
▁(_	-8.57974
th	-8.57995
▁quiero	-8.58062
tos	-8.58075
▁lado	-8.58266
▁cuenta	-8.58355
▁cor	-8.58534
▁habían	-8.58586
ad	-8.58641
▁dentro	-8.58683
ión	-8.588
▁cielo	-8.58958
"	-8.59214
ni	-8.59219
cio	-8.59219
▁Mi	-8.59269
!,	-8.59298
▁nuestro	-8.59369
▁volvió	-8.59419
▁debe	-8.59433
▁tambien	-8.5987
ria	-8.59885
▁llegar	-8.59993
nce	-8.60019
▁voy	-8.60178
▁nuestra	-8.6031
▁algunas	-8.60558
▁vista	-8.60623
sen	-8.60952
▁Las	-8.61096
▁nadie	-8.61099
▁cierto	-8.61578
▁any	-8.61822
▁hubiera	-8.62035
▁persona	-8.62036
fa	-8.62337
▁dió	-8.62344
▁figura	-8.62415
▁cu	-8.62562
▁fe	-8.62685
▁primero	-8.62701
▁tarde	-8.62723
--,	-8.62964
▁dia	-8.62973
▁habia	-8.63341
du	-8.63452
▁Guillermina	-8.63603
ng	-8.63612
▁tra	-8.63884
▁punto	-8.64287
▁Rubín	-8.64558
▁Re	-8.64638
ν	-8.64858
ante	-8.64901
▁G	-8.65
▁daba	-8.65401
!--	-8.6554
N	-8.65641
id	-8.65871
▁estoy	-8.65957
chi	-8.65975
▁hermano	-8.66146
ρ	-8.66485
▁Cielo	-8.66497
▁aire	-8.66554
▁ri	-8.66656
▁llevar	-8.66722
▁aquellas	-8.66733
ue	-8.66911
miento	-8.67144
▁estar	-8.67312
▁dado	-8.67343
▁bo	-8.67346
D	-8.67536
ntes	-8.67579
▁carro	-8.67585
ísima	-8.6784
▁Maxi	-8.68144
▁Porque	-8.6816
▁Era	-8.68209
▁Santa	-8.68266
nto	-8.68911
tado	-8.69055
?--	-8.69322
▁hijos	-8.69323
▁ante	-8.69326
▁sangre	-8.69477
▁pu	-8.69551
▁Pa	-8.69569
▁Mas	-8.69841
it	-8.69846
▁v	-8.69965
▁año	-8.7002
▁cuales	-8.70122
F	-8.70176
tre	-8.70227
man	-8.70281
ísimo	-8.70301
cen	-8.70304
▁vino	-8.70575
cos	-8.70746
▁sol	-8.70876
▁imp	-8.7127
▁rato	-8.71498
▁Maximiliano	-8.71515
ment	-8.71516
▁obra	-8.71573
▁mía	-8.71659
▁os	-8.71754
▁tuvo	-8.7201
▁exp	-8.72031
▁tomar	-8.72223
▁tras	-8.72252
endo	-8.72418
ina	-8.7265
▁será	-8.72682
▁that	-8.72896
_.	-8.73046
ones	-8.73127
emos	-8.73151
aron	-8.73209
able	-8.73425
▁hora	-8.73659
▁primera	-8.73663
▁tus	-8.73751
▁caballos	-8.73756
▁alto	-8.73764
▁San	-8.73874
che	-8.73889
▁Cruz	-8.73945
▁cuya	-8.73962
L	-8.74008
gar	-8.74026
x	-8.74053
▁Esta	-8.74354
▁ab	-8.74463
▁entrar	-8.74536
ño	-8.74668
▁cuarto	-8.74701
tes	-8.74716
▁lleva	-8.74791
ás	-8.74793
remos	-8.74838
▁mucha	-8.7492
▁it	-8.74979
▁dejar	-8.74981
▁algún	-8.75005
ig	-8.75307
rte	-8.75394
▁Cap	-8.75597
Es	-8.75716
▁carne	-8.75862
▁frente	-8.76455
▁esposa	-8.76812
▁mala	-8.7693
▁salió	-8.77237
ente	-8.77347
▁hu	-8.77442
▁Patroclo	-8.77524
▁historia	-8.77525
ut	-8.77595
rle	-8.77844
),	-8.78072
▁sitio	-8.78303
▁rostro	-8.79005
arse	-8.79109
▁quería	-8.79122
▁arriba	-8.79362
▁efecto	-8.79366
▁tanta	-8.79739
▁lugar	-8.79869
▁H	-8.80006
▁Di	-8.80489
ándole	-8.80647
▁(=	-8.80918
▁comp	-8.81031
▁viene	-8.8112
▁B	-8.81406
▁paso	-8.81574
té	-8.81717
Que	-8.81808
G	-8.81808
ín	-8.81952
iente	-8.82282
▁sola	-8.82283
▁pasa	-8.82484
▁hi	-8.8279
▁Co	-8.82852
▁amigos	-8.82901
▁Agamenón	-8.83143
ico	-8.83256
▁dije	-8.83257
▁fa	-8.83364
▁plata	-8.8353
▁haciendo	-8.83604
▁pueblo	-8.8361
▁hacen	-8.83858
▁seguida	-8.84307
▁igual	-8.84332
ian	-8.84486
▁car	-8.8452
▁deseo	-8.84617
▁He	-8.84694
▁bajo	-8.84703
ol	-8.84712
▁l	-8.84732
▁ga	-8.84776
▁habría	-8.85091
▁valor	-8.85112
▁fuerte	-8.85125
▁comer	-8.85294
men	-8.85471
▁haya	-8.85577
▁puesto	-8.85795
▁ap	-8.85838
io	-8.85855
▁dando	-8.86083
Ah	-8.86156
▁diez	-8.86294
...!	-8.86336
cía	-8.86711
gue	-8.86762
?».	-8.86811
▁works	-8.86851
▁brazos	-8.86946
▁tienes	-8.86968
▁em	-8.87129
▁media	-8.87332
▁guerra	-8.87475
▁dulce	-8.87475
▁pudo	-8.8766
ho	-8.87742
▁S	-8.88135
▁poner	-8.88173
▁R	-8.88443
der	-8.88572
nas	-8.8858
▁cuyo	-8.88704
▁Vi	-8.88864
rec	-8.89188
▁cal	-8.89223
▁pasado	-8.89369
▁palacio	-8.89507
▁sabía	-8.89507
▁ninguna	-8.89543
ío	-8.89684
▁Que	-8.89707
▁Méjico	-8.89919
▁puedo	-8.8992
▁gusto	-8.89926
▁chico	-8.89931
Yo	-8.90031
ero	-8.90133
▁M	-8.9036
▁pesar	-8.90623
▁tienda	-8.90717
▁from	-8.90747
▁quién	-8.9095
Ay	-8.91275
▁dolor	-8.91355
▁divino	-8.91582
▁hubo	-8.91631
▁mira	-8.91729
▁entró	-8.92005
▁are	-8.92193
ate	-8.92237
▁The	-8.92347
[15]	-8.92426
ya	-8.92436
cido	-8.92533
im	-8.92542
um	-8.92554
▁lejos	-8.92687
▁mujeres	-8.92787
ς	-8.92838
[5]	-8.92852
[20]	-8.92852
▁vio	-8.92889
▁mirar	-8.92945
pl	-8.93002
am	-8.93183
▁n	-8.93437
tal	-8.93629
▁instante	-8.93701
[10]	-8.93705
▁abajo	-8.93708
▁razón	-8.93709
▁poder	-8.93716
La	-8.93959
▁llena	-8.94131
amente	-8.942
▁Señor	-8.9427
▁personas	-8.94331
có	-8.94462
tir	-8.94519
[25]	-8.94561
▁eres	-8.94735
B	-8.94953
▁tales	-8.9524
▁ambos	-8.95429
▁dios	-8.95532
he	-8.95706
▁g	-8.9574
▁batalla	-8.95873
»	-8.96084
▁héroe	-8.96304
?»	-8.96307
Ilustración	-8.96744
▁dinero	-8.9675
▁10	-8.96766
▁Pepe	-8.96784
▁largo	-8.96794
▁baja	-8.97079
▁gloria	-8.97188
Sí	-8.97283
ific	-8.97325
▁=--	-8.97341
ck	-8.97477
!»	-8.97567
▁Madrid	-8.97631
▁posible	-8.97637
ος	-8.97727
ber	-8.97802
rla	-8.97875
▁color	-8.97894
▁Príamo	-8.98078
▁estado	-8.98142
▁dejó	-8.98299
▁bronce	-8.98526
día	-8.98551
taba	-8.98933
▁ánimo	-8.98986
cre	-8.99269
iéndose	-8.99303
▁ju	-8.99364
▁Ayax	-8.99429
▁campo	-8.99429
[30]	-8.99429
ano	-8.99631
▁pensar	-8.99924
pro	-9.00021
▁último	-9.0034
▁casi	-9.00425
▁po	-9.00475
▁mata	-9.00486
ista	-9.00773
iera	-9.00778
▁ta	-9.00913
▁[1	-9.01039
▁corre	-9.01063
▁ama	-9.01077
▁según	-9.0126
▁jamás	-9.01261
▁dicen	-9.01577
▁electronic	-9.01723
▁piedra	-9.01882
▁propio	-9.01891
[1	-9.02014
▁ho	-9.02163
▁matar	-9.0218
▁gu	-9.02374
▁Hijo	-9.02433
▁oír	-9.02496
▁one	-9.02548
▁habló	-9.02655
▁sueño	-9.02657
tr	-9.02802
En	-9.02824
bre	-9.02839
▁primer	-9.0287
8.	-9.03138
▁armas	-9.03209
6.	-9.03448
▁arte	-9.03576
▁an	-9.03589
▁amiga	-9.03601
hi	-9.03639
▁fuese	-9.03681
▁mesa	-9.03759
ε	-9.03787
▁gana	-9.03851
▁fi	-9.03991
▁sería	-9.0405
h	-9.04185
▁dónde	-9.04259
V	-9.04467
▁all	-9.0453
▁pl	-9.04616
▁oído	-9.04914
▁llegó	-9.05025
▁semejante	-9.05278
mu	-9.05285
▁viento	-9.05313
▁anciano	-9.05515
▁orden	-9.05584
α	-9.05844
▁ello	-9.0587
η	-9.05961
▁23	-9.05991
▁debajo	-9.06007
▁España	-9.06019
ity	-9.06181
ud	-9.06254
▁todavía	-9.06474
tica	-9.06496
▁Para	-9.06576
stru	-9.06752
est	-9.06893
▁cierta	-9.07275
ive	-9.07277
ay	-9.07372
▁lengua	-9.07417
▁niño	-9.07446
▁13	-9.07488
▁quedó	-9.07518
ting	-9.07531
▁ideas	-9.07593
▁9	-9.07864
▁pelea	-9.07919
▁Cristina	-9.07945
▁Troya	-9.07945
▁santa	-9.07948
eta	-9.0805
▁creo	-9.08133
▁habla	-9.08277
▁van	-9.08432
▁Minerva	-9.0844
▁terrible	-9.08442
▁miedo	-9.08455
▁J	-9.08838
▁triste	-9.0888
mar	-9.09011
cción	-9.092
▁trabajo	-9.09354
▁Apolo	-9.09438
▁divina	-9.09441
▁Alah	-9.09449
▁Mejicanos	-9.0958
▁L	-9.09761
▁sal	-9.09839
▁junta	-9.09864
ase	-9.09875
▁preciso	-9.09967
▁larga	-9.10013
▁aquello	-9.10353
▁ropa	-9.10586
▁siendo	-9.10812
▁To	-9.10912
▁CAPÍTULO	-9.10952
▁género	-9.10952
▁12	-9.10973
▁tenido	-9.11002
▁gracia	-9.11104
▁cinco	-9.11463
tiva	-9.11625
▁bueno	-9.11872
▁venir	-9.11894
zar	-9.1194
dic	-9.11952
▁halla	-9.1196
▁estuvo	-9.11976
▁Marte	-9.12091
▁Sr	-9.12112
El	-9.12148
adv	-9.12339
▁Esto	-9.12413
▁vuelve	-9.12837
ez	-9.12951
▁negro	-9.13024
▁19	-9.13032
tivo	-9.13036
▁alta	-9.13173
[	-9.13183
oh	-9.13198
cla	-9.13214
▁crea	-9.13231
gó	-9.13464
▁Foundation	-9.1353
▁alegría	-9.1353
▁virtud	-9.1353
Cómo	-9.13534
▁Ni	-9.13664
illa	-9.13773
▁manda	-9.13784
▁contrario	-9.13828
▁inter	-9.13997
▁principio	-9.14055
▁conmigo	-9.14056
."	-9.14096
▁veía	-9.14175
▁Barbarita	-9.1458
▁siguiente	-9.1458
▁Doña	-9.14688
jar	-9.1481
▁pena	-9.14878
▁11	-9.15142
▁podría	-9.15246
▁iban	-9.15367
);	-9.15424
▁18	-9.15567
▁DE	-9.15609
▁Menelao	-9.15641
▁Ulises	-9.15641
▁voluntad	-9.15641
▁encontrar	-9.15688
▁4	-9.1569
▁calor	-9.15728
▁mirando	-9.15804
▁Teucro	-9.16175
▁humana	-9.16176
et	-9.16236
exclamó	-9.16302
▁Perfecta	-9.16305
▁esas	-9.16427
▁nuestros	-9.16521
ation	-9.16566
▁part	-9.16566
▁14	-9.16573
▁dio	-9.16578
ect	-9.16712
▁ayuda	-9.16714
▁vol	-9.16763
▁echar	-9.17234
▁apenas	-9.17255
▁22	-9.17367
▁sacar	-9.17423
ismo	-9.17443
yo	-9.17528
▁ahí	-9.17744
▁corceles	-9.17813
▁Pe	-9.17831
▁Mauricia	-9.17836
▁empezó	-9.17857
▁pasó	-9.17995
▁acaba	-9.18086
for	-9.1809
4.	-9.18092
▁toma	-9.18165
tura	-9.18188
▁go	-9.18231
▁vale	-9.18562
ure	-9.18757
mor	-9.1881
▁sobrino	-9.18893
5.	-9.18895
▁hemos	-9.19029
▁lágrimas	-9.1905
▁come	-9.19054
▁cadáver	-9.19207
▁20	-9.19401
μ	-9.19445
▁silencio	-9.19446
▁21	-9.19449
▁acá	-9.19458
▁tenían	-9.19512
▁contestó	-9.19517
ine	-9.19654
▁other	-9.20053
▁hermosa	-9.2016
▁desp	-9.20274
▁razon	-9.20306
▁deja	-9.20343
.'	-9.20415
▁sentía	-9.20461
Me	-9.20543
▁pan	-9.20675
▁brazo	-9.20737
▁ley	-9.20964
ted	-9.20987
▁pas	-9.21097
▁río	-9.21132
▁grave	-9.21155
▁sala	-9.21205
▁Este	-9.21208
den	-9.21227
▁pensamiento	-9.2131
gan	-9.21343
▁rep	-9.21401
▁creer	-9.21443
ness	-9.21611
▁entender	-9.21688
▁Un	-9.21848
▁cabo	-9.21879
▁niña	-9.21891
▁ésta	-9.21897
ible	-9.21899
of	-9.21912
▁etc	-9.21977
▁natural	-9.22027
▁cayó	-9.22256
▁escudo	-9.22272
▁unas	-9.22306
▁veo	-9.2231
▁Una	-9.22416
su	-9.22484
ese	-9.22492
H	-9.22581
amos	-9.22603
▁salud	-9.22727
ció	-9.22807
ura	-9.22815
▁ningún	-9.22828
▁encima	-9.22832
imos	-9.23068
▁Ha	-9.23075
ic	-9.23302
▁emp	-9.23367
▁José	-9.23401
▁memoria	-9.23402
▁éstos	-9.23402
▁desea	-9.23402
replicó	-9.23557
▁lib	-9.23642
▁15	-9.23676
▁tenga	-9.23717
▁movimiento	-9.23979
▁naturaleza	-9.23986
▁siete	-9.24147
▁17	-9.24152
▁cama	-9.24204
ye	-9.24405
idas	-9.24446
Te	-9.24524
tía	-9.24597
rás	-9.24761
▁cuidado	-9.24763
▁i	-9.24998
▁despues	-9.25164
lí	-9.25217
Lo	-9.25268
▁querido	-9.25309
▁dan	-9.25422
▁propia	-9.25497
▁particular	-9.2551
▁cura	-9.25656
jas	-9.25691
▁debía	-9.25728
▁argivos	-9.25733
▁espacio	-9.2574
▁morir	-9.25786
hu	-9.25789
▁diosa	-9.25872
▁contar	-9.25949
▁qui	-9.25983
eo	-9.25998
cal	-9.26065
▁don	-9.26102
▁Sa	-9.26118
▁quiera	-9.2612
▁Mo	-9.26199
▁Á	-9.2629
▁haga	-9.26307
▁33	-9.26329
▁cha	-9.26607
▁dura	-9.26652
▁hermana	-9.26665
▁alguno	-9.26762
▁gusta	-9.26769
▁pasaba	-9.26848
▁carga	-9.26875
▁Moreno	-9.2692
▁Ma	-9.2693
▁troyanos	-9.27026
▁aquél	-9.27104
dita	-9.27159
▁llega	-9.27253
via	-9.27262
▁conoce	-9.27309
zca	-9.27428
▁señal	-9.27478
pare	-9.27505
▁Ciudad	-9.27519
▁Luego	-9.27519
▁adelante	-9.27591
▁_¡	-9.27597
▁venga	-9.27687
▁principal	-9.27768
▁miraba	-9.27777
▁sale	-9.28069
▁conciencia	-9.28122
▁quiso	-9.282
▁Ahora	-9.28495
▁llegado	-9.28575
▁costa	-9.28599
tin	-9.28668
▁XVI	-9.2872
▁Diomedes	-9.28728
▁horrible	-9.28728
▁pasos	-9.28786
▁acompaña	-9.29098
▁XI	-9.29309
rán	-9.29331
▁34	-9.29341
▁vivir	-9.29358
▁durante	-9.29376
▁bastante	-9.29419
▁sub	-9.29452
ona	-9.29518
▁quieres	-9.29662
eron	-9.29666
Ya	-9.29699
▁Juno	-9.29951
▁honor	-9.29954
▁suyo	-9.30457
tico	-9.30462
▁corta	-9.30502
▁separa	-9.30535
▁diga	-9.3057
▁Españoles	-9.30587
ex	-9.30853
▁=----	-9.30891
ear	-9.3113
▁caer	-9.31158
▁tampoco	-9.31189
▁Pablo	-9.31189
▁hubiese	-9.31189
ñas	-9.31453
plica	-9.31513
▁ves	-9.31519
▁tenian	-9.31582
iga	-9.31645
▁café	-9.31815
▁24	-9.31818
▁sintió	-9.31922
▁cre	-9.32265
▁pregunta	-9.32336
ο	-9.32419
ί	-9.32431
τ	-9.32434
▁hicieron	-9.32443
▁pueda	-9.32448
ice	-9.32486
▁vuelta	-9.32548
▁vió	-9.32686
▁Hay	-9.32742
▁col	-9.32896
▁importa	-9.32902
▁sentido	-9.33106
ke	-9.3317
▁seis	-9.33187
dura	-9.33281
▁cualquier	-9.33381
bar	-9.33454
▁Pi	-9.33603
▁efrit	-9.33713
▁28	-9.33719
▁combatir	-9.3375
vol	-9.3393
▁golpe	-9.34286
▁bu	-9.34323
▁echó	-9.34355
▁31	-9.34357
▁esos	-9.34363
▁detrás	-9.34364
▁fiesta	-9.34366
▁mirada	-9.34606
▁marcha	-9.34652
▁In	-9.34683
mpa	-9.34766
ario	-9.34807
▁caballero	-9.34999
▁hermoso	-9.35
▁terms	-9.35
▁Ar	-9.35022
▁casco	-9.35031
▁fija	-9.35046
▁ponía	-9.35075
▁up	-9.35408
▁llamar	-9.35497
én	-9.3558
ea	-9.35588
▁círculo	-9.35649
▁general	-9.35649
▁tío	-9.35652
▁which	-9.35654
▁paz	-9.35811
▁suya	-9.35963
σ	-9.36108
éis	-9.36143
ena	-9.36181
υ	-9.36302
▁vaya	-9.36388
ería	-9.36445
▁punta	-9.36487
▁Ve	-9.36499
▁tri	-9.36499
▁res	-9.36645
▁use	-9.36666
▁llevaba	-9.36705
._)	-9.36708
rón	-9.36837
mento	-9.36906
▁we	-9.36909
iza	-9.37026
▁Atrida	-9.37109
▁vivo	-9.37194
▁entra	-9.37196
▁levantó	-9.37623
▁26	-9.37629
▁torno	-9.37629
▁pica	-9.37708
▁Ba	-9.37974
▁16	-9.38077
λ	-9.3813
▁U	-9.38141
▁ejército	-9.38289
▁remedio	-9.38289
▁30	-9.38292
▁XIII	-9.3831
▁fu	-9.38493
ana	-9.38497
stro	-9.3853
aciones	-9.38583
▁fr	-9.38755
▁nueva	-9.38891
▁29	-9.38963
▁polvo	-9.38977
▁valiente	-9.39019
▁monte	-9.39078
▁viendo	-9.39131
▁dánaos	-9.39133
▁pal	-9.39143
▁may	-9.39206
▁respondió	-9.39265
at	-9.39273
▁venía	-9.3932
imiento	-9.39507
▁templo	-9.39636
▁prepara	-9.39674
▁Po	-9.39713
▁acerca	-9.39746
tic	-9.39864
iste	-9.39942
▁libre	-9.40159
▁aparta	-9.40201
▁escalera	-9.40316
▁27	-9.4032
▁venido	-9.40468
▁form	-9.40783
▁32	-9.41004
▁diversas	-9.41016
ino	-9.4105
▁pone	-9.41062
▁tira	-9.41179
▁negra	-9.41229
▁If	-9.41465
▁desgracia	-9.41583
dar	-9.41656
▁Reino	-9.4171
tan	-9.41872
▁mente	-9.41889
ega	-9.42151
▁Tú	-9.4225
▁vestido	-9.42386
▁toca	-9.42399
▁verdadero	-9.42503
▁estás	-9.42619
▁sabes	-9.42709
ub	-9.42787
▁have	-9.42788
▁inf	-9.43121
▁Todo	-9.4331
rar	-9.43339
▁libro	-9.43372
cur	-9.43373
▁hablaba	-9.43644
▁favor	-9.43661
tada	-9.4374
▁habian	-9.43793
▁viejo	-9.43825
ju	-9.43915
▁acud	-9.43915
▁out	-9.44047
nio	-9.44127
▁segundo	-9.44196
▁ch	-9.44215
▁pelo	-9.44323
áis	-9.44474
▁seguir	-9.44504
▁derecho	-9.44508
▁conversación	-9.44525
cl	-9.44823
▁visita	-9.44873
▁conocer	-9.44877
ES	-9.44896
Ha	-9.4492
ete	-9.4503
▁tantas	-9.45124
▁blanco	-9.45212
▁25	-9.45218
▁arco	-9.4535
▁darle	-9.45389
▁Idolo	-9.45558
tur	-9.45705
ous	-9.45807
▁puertas	-9.45831
▁fondo	-9.46037
▁querer	-9.46063
ctor	-9.46096
▁dama	-9.46163
▁arma	-9.46269
▁tantos	-9.46291
!_	-9.4653
tera	-9.46645
▁gra	-9.46664
▁agreement	-9.46666
▁espada	-9.46822
▁animales	-9.46825
lic	-9.46958
cito	-9.46977
ándola	-9.4712
▁silla	-9.47203
▁necesidad	-9.47386
▁asunto	-9.47387
▁mandó	-9.47387
▁lleno	-9.47388
▁pareció	-9.47397
▁derecha	-9.47401
▁Allí	-9.47443
illo	-9.475
▁parecer	-9.47621
if	-9.47703
▁mamá	-9.47721
ι	-9.47738
dora	-9.47968
ábase	-9.47981
cita	-9.48005
▁deseos	-9.48049
▁médico	-9.48121
▁pudiera	-9.48122
▁país	-9.48147
▁Cu	-9.48168
▁esp	-9.4819
▁podrá	-9.48259
▁vea	-9.48319
idades	-9.4836
▁pueden	-9.48685
▁llevó	-9.48862
▁número	-9.48862
▁moral	-9.48891
rí	-9.49013
iz	-9.49098
▁observa	-9.49496
▁atención	-9.49614
▁juicio	-9.4962
▁buscar	-9.49784
zos	-9.49798
▁levanta	-9.4981
▁llorar	-9.49828
▁Estaba	-9.49868
▁Do	-9.50053
▁Mientras	-9.5036
▁arroja	-9.50438
▁confi	-9.50559
▁almas	-9.50672
▁noticia	-9.50752
▁saca	-9.50764
▁busca	-9.50828
▁traer	-9.50889
▁papel	-9.509
▁viaje	-9.50912
uda	-9.50993
▁tierras	-9.50996
ciendo	-9.51072
▁Ballester	-9.51118
▁Orbajosa	-9.51118
▁labios	-9.51153
ales	-9.51155
und	-9.51181
rían	-9.51287
▁flores	-9.51348
▁Qui	-9.51401
▁temor	-9.51766
▁basta	-9.51778
...--	-9.51875
▁Izquierdo	-9.51881
▁Martí	-9.51882
▁diversos	-9.51898
ér	-9.51915
ándome	-9.51976
bilidad	-9.52017
▁aguas	-9.52106
ry	-9.52315
jos	-9.52407
▁Tra	-9.52467
▁presente	-9.52494
cero	-9.52506
▁na	-9.5255
▁pos	-9.52552
▁ob	-9.52602
▁Había	-9.52651
▁Mar	-9.52838
▁sur	-9.52869
org	-9.52968
▁dé	-9.5315
▁horas	-9.53167
▁culpa	-9.53402
▁vuestro	-9.53426
▁muro	-9.53704
▁cogió	-9.53793
sh	-9.53849
▁sombra	-9.53913
▁cap	-9.54041
iese	-9.54074
▁nave	-9.54179
▁inclina	-9.54207
ANTO	-9.54208
udo	-9.5427
▁peor	-9.54363
AS	-9.54476
▁Sal	-9.54516
▁ten	-9.54604
▁bas	-9.54776
▁Néstor	-9.54994
▁victoria	-9.54994
▁perdido	-9.54996
▁2)	-9.54998
▁1)	-9.55068
▁dicha	-9.55096
▁ido	-9.55104
▁hombros	-9.55114
ose	-9.55399
▁tono	-9.55422
▁piedras	-9.55516
▁viva	-9.55534
Mi	-9.55613
Vaya	-9.55634
esta	-9.55678
▁ilustre	-9.55788
▁quisiera	-9.55792
▁herido	-9.55855
eros	-9.55872
▁perder	-9.5589
▁reun	-9.55956
▁VI	-9.56324
▁doce	-9.56565
δ	-9.56588
▁ruido	-9.5659
▁rodea	-9.56663
▁quita	-9.56695
▁grado	-9.5675
eza	-9.56892
▁pase	-9.569
▁enemigos	-9.57079
▁Aquel	-9.57135
▁XX	-9.57362
▁alegre	-9.57395
▁cuello	-9.57395
▁voces	-9.57395
rios	-9.57406
ere	-9.5743
val	-9.57435
▁andar	-9.57664
dores	-9.57814
▁Estupiñá	-9.58207
▁blanca	-9.58207
▁único	-9.58207
▁rodillas	-9.58208
▁habrá	-9.58211
▁tomó	-9.58214
ento	-9.58259
▁subir	-9.58414
▁niños	-9.58504
▁hor	-9.58692
▁edad	-9.58844
▁llamado	-9.5889
▁Ro	-9.58968
▁XIV	-9.59043
▁Desde	-9.59053
Quién	-9.59061
▁IV	-9.59077
▁gracias	-9.59173
▁oir	-9.59296
▁peso	-9.59375
puesto	-9.59378
▁vientos	-9.59415
▁ja	-9.59527
dida	-9.59643
ard	-9.59648
▁verdadera	-9.59846
▁profundo	-9.59854
▁hierro	-9.59854
torio	-9.5986
▁clase	-9.59864
▁motivo	-9.59895
▁40	-9.59925
▁segun	-9.60019
▁guarda	-9.60043
▁menor	-9.60098
▁salía	-9.60406
--;	-9.60448
Se	-9.60475
▁fo	-9.60576
▁superior	-9.60687
▁vosotros	-9.60687
▁vuestra	-9.60687
▁dejaba	-9.6069
▁copyright	-9.60693
rías	-9.60812
▁ofreci	-9.60879
óse	-9.60918
▁miró	-9.60957
ful	-9.61155
▁vela	-9.61216
▁cariño	-9.61331
ish	-9.61366
▁XV	-9.61505
▁Feijoo	-9.61527
▁Nicolás	-9.61527
▁última	-9.61527
▁veinte	-9.61528
▁admirable	-9.61552
▁santo	-9.61587
▁43	-9.61633
▁justicia	-9.61709
ula	-9.61818
▁diferentes	-9.6186
▁Bien	-9.61909
▁primeros	-9.61979
pt	-9.62008
nada	-9.62076
▁Baldomero	-9.62375
▁Nueva	-9.62375
▁curiosidad	-9.62375
▁excelente	-9.62375
▁Ilión	-9.62375
▁expresión	-9.62378
▁pluma	-9.6238
5;	-9.62411
cien	-9.62483
▁LA	-9.62517
▁diré	-9.62518
▁anda	-9.62526
dio	-9.6254
▁agita	-9.62543
table	-9.62599
Con	-9.62616
▁leguas	-9.62874
▁preguntó	-9.62909
▁penetra	-9.63041
▁claro	-9.63233
▁coloca	-9.63244
▁malo	-9.63286
▁Cristo	-9.63389
▁vueltas	-9.6339
▁Sin	-9.63439
▁sentado	-9.63467
▁Inca	-9.63484
cé	-9.63563
mbre	-9.6358
▁hallan	-9.63714
the	-9.63944
▁meses	-9.63992
▁encuentro	-9.64091
▁presencia	-9.64092
▁contigo	-9.64096
▁ira	-9.64214
▁tiempos	-9.64217
pas	-9.64507
▁lucha	-9.64629
LA	-9.64676
▁cruel	-9.64735
▁conserva	-9.64739
cier	-9.6494
▁Archive	-9.64961
▁Europa	-9.64961
▁interior	-9.64961
▁Eneas	-9.64966
▁neg	-9.64991
▁tristeza	-9.65101
▁sentir	-9.65331
gado	-9.65645
▁entraba	-9.65773
▁Neptuno	-9.65838
▁breve	-9.65839
▁propósito	-9.65849
▁vuelto	-9.65883
▁oye	-9.65925
icio	-9.66041
▁poca	-9.66053
▁her	-9.66131
▁patria	-9.66155
RA	-9.66253
▁pecado	-9.66446
▁ligeros	-9.66474
tero	-9.66601
España	-9.66666
▁cumpl	-9.66719
▁significa	-9.66723
▁secreto	-9.66729
▁atrás	-9.66762
▁miradas	-9.66921
▁esté	-9.66987
▁risa	-9.67007
▁ustedes	-9.67009
▁hermosas	-9.67362
▁gr	-9.67503
pero	-9.67516
prim	-9.67583
▁pen	-9.67607
▁feliz	-9.67616
▁provincia	-9.67616
▁humano	-9.67617
▁35	-9.6762
▁corriente	-9.67628
tener	-9.67631
▁embargo	-9.67648
▁maravilla	-9.67705
▁firme	-9.678
▁hechos	-9.67861
▁pude	-9.67895
▁quienes	-9.67916
▁Ella	-9.67998
end	-9.68114
▁verla	-9.68158
▁copa	-9.68233
3;	-9.68445
ight	-9.68456
▁comun	-9.68456
AL	-9.68494
▁fee	-9.68504
▁Respondió	-9.68517
▁enfermo	-9.68517
▁armadura	-9.68528
▁IX	-9.68531
▁visir	-9.68534
▁ninguno	-9.68577
OS	-9.68582
▁declara	-9.68593
▁Dijo	-9.68598
▁compañero	-9.68599
▁daño	-9.68616
lado	-9.68823
▁Hi	-9.68873
▁María	-9.68903
ty	-9.68911
▁hacian	-9.68925
▁daban	-9.68972
▁compra	-9.68976
▁trata	-9.69017
▁sigue	-9.69028
▁enseña	-9.69047
tando	-9.6915
bil	-9.69156
▁vamos	-9.69174
▁sacrificios	-9.69195
▁impe	-9.69361
▁Océano	-9.69426
▁difícil	-9.69426
▁vergüenza	-9.69426
▁VIII	-9.69453
dito	-9.69489
til	-9.69528
▁oficio	-9.69558
▁herida	-9.69623
▁Ch	-9.69643
▁ciertas	-9.69758
repuso	-9.69813
▁but	-9.69819
▁placer	-9.69896
▁adora	-9.69906
▁honra	-9.70055
▁libros	-9.70153
qu	-9.7016
▁Tu	-9.70224
▁obras	-9.70228
▁obliga	-9.70266
lor	-9.70294
▁Castell	-9.70343
▁infeliz	-9.70343
▁paragraph	-9.70343
▁XVII	-9.70359
▁mitad	-9.70365
▁make	-9.70374
▁42	-9.70443
▁canto	-9.70448
▁pinta	-9.70482
▁comida	-9.7056
▁must	-9.70596
▁ocho	-9.70758
not	-9.70875
▁arrastra	-9.71214
▁Papitos	-9.71269
▁peligro	-9.71269
▁pedir	-9.71285
▁tenemos	-9.71295
▁primo	-9.71305
▁fiera	-9.71373
▁extraña	-9.71388
▁gua	-9.71513
8]	-9.71592
=)	-9.71683
var	-9.71705
▁hallaba	-9.7173
▁cien	-9.71787
▁cho	-9.71859
▁Aquí	-9.71862
▁Ci	-9.71885
▁noches	-9.72053
irse	-9.72061
▁creía	-9.72076
ever	-9.72096
▁cólera	-9.72204
▁Jove	-9.72204
▁cuasi	-9.72205
▁azogue	-9.72205
▁fruta	-9.72206
▁alcoba	-9.72215
tiene	-9.7223
▁pr	-9.72233
rito	-9.72366
ece	-9.72408
▁hablando	-9.72428
▁ci	-9.72435
!».	-9.72478
9]	-9.72481
▁Canto	-9.72483
IO	-9.72508
▁buenos	-9.72621
Ó	-9.72661
lia	-9.72821
▁siente	-9.7291
▁entera	-9.72962
▁ojo	-9.73087
▁verle	-9.73102
arro	-9.73125
▁provide	-9.73148
▁abandona	-9.73149
▁39	-9.73151
▁who	-9.732
illas	-9.73336
▁Padre	-9.73425
tiendo	-9.73489
▁verde	-9.73497
ant	-9.73664
▁Mira	-9.7367
terra	-9.7398
▁admira	-9.74036
▁cincuenta	-9.741
▁objeto	-9.741
▁fatiga	-9.74101
▁tendrá	-9.74105
▁criatura	-9.7411
▁take	-9.74122
▁esposo	-9.74137
▁viuda	-9.74172
▁apoy	-9.74183
▁Tal	-9.74262
▁costumbre	-9.74333
▁Islas	-9.74353
▁suyos	-9.74384
▁dejando	-9.74461
▁estamos	-9.74859
hor	-9.75016
ά	-9.75025
▁Literary	-9.75061
▁ordinario	-9.75061
▁siquiera	-9.75061
▁habiendo	-9.75062
▁aspecto	-9.75065
▁procede	-9.75066
▁retira	-9.75079
TO	-9.75084
▁sacó	-9.75105
▁turba	-9.7514
▁pastor	-9.75143
▁coche	-9.75165
▁Fi	-9.75177
▁trans	-9.75493
▁tratar	-9.75909
▁pañuelo	-9.76032
▁bondad	-9.76033
▁XXIII	-9.76046
▁laguna	-9.76061
▁cuál	-9.76064
▁chica	-9.76068
▁cria	-9.76264
▁tuvieron	-9.76322
vas	-9.76348
▁hecha	-9.76439
▁K	-9.76493
RO	-9.76495
▁siglo	-9.76542
▁lecho	-9.76589
▁pura	-9.7673
▁árbol	-9.76775
▁Todos	-9.76915
▁Evaristo	-9.77012
▁United	-9.77012
▁States	-9.77013
▁escrito	-9.77013
▁prueba	-9.77017
áronse	-9.77026
▁frío	-9.77034
dri	-9.77035
▁calla	-9.77142
▁44	-9.77148
▁state	-9.77206
▁conforme	-9.77252
zas	-9.7727
▁mayores	-9.77332
▁vas	-9.77428
gio	-9.77822
tona	-9.77873
▁compañeros	-9.77912
▁jóvenes	-9.78003
▁word	-9.78003
▁suceso	-9.78069
▁Reyes	-9.78276
▁his	-9.78335
▁espalda	-9.7836
▁im	-9.78456
▁Ido	-9.78456
▁anima	-9.78573
▁place	-9.78678
▁puedes	-9.7897
▁Olimpo	-9.79003
▁además	-9.79003
▁tuviera	-9.79004
▁50	-9.79006
▁51	-9.79006
▁38	-9.79008
▁XII	-9.79022
▁cuento	-9.79029
▁traje	-9.79038
▁muchacho	-9.79062
Á	-9.79063
▁buenas	-9.79079
▁rica	-9.79079
▁oh	-9.79095
▁plan	-9.79161
▁caudillos	-9.79211
▁cruz	-9.79331
▁riqueza	-9.79386
▁enemigo	-9.79395
▁viera	-9.79525
▁usan	-9.79553
tilla	-9.79913
eb	-9.79958
▁determina	-9.80013
▁public	-9.80013
▁respeto	-9.80013
▁pequeña	-9.80015
▁ambas	-9.80015
▁access	-9.80018
▁antigua	-9.80033
▁poderoso	-9.80074
cta	-9.80177
▁ocupa	-9.80198
▁querida	-9.80213
▁indica	-9.80223
zó	-9.80344
▁pensaba	-9.80424
▁tenia	-9.80452
▁quedar	-9.80526
▁llamaban	-9.80708
▁materia	-9.80766
▁vive	-9.80934
▁copy	-9.80986
▁llanura	-9.81033
▁piensa	-9.81037
▁noble	-9.81271
▁oculta	-9.81314
▁barba	-9.8132
▁procura	-9.8135
ál	-9.81368
▁criado	-9.81604
▁meter	-9.81642
▁cae	-9.81679
▁hacían	-9.81683
▁metal	-9.81796
▁coger	-9.81946
▁trabaja	-9.81975
Eso	-9.82044
▁eterna	-9.82064
▁oyó	-9.82069
▁centro	-9.82101
▁excita	-9.82106
iéndole	-9.82165
▁fuí	-9.82166
▁tiro	-9.82192
▁funda	-9.82225
▁librar	-9.8224
▁Antiguos	-9.82275
▁Aunque	-9.82278
ies	-9.82402
▁Per	-9.8245
ense	-9.82527
▁guerrero	-9.82552
▁deseaba	-9.82559
use	-9.82662
▁Li	-9.82719
▁Ver	-9.83031
▁capa	-9.8305
ándolo	-9.83096
▁recibir	-9.83106
▁extremo	-9.83107
▁pequeño	-9.83108
▁dientes	-9.8311
▁donations	-9.8311
▁podido	-9.83144
▁permit	-9.83157
▁full	-9.83163
É	-9.83201
añadió	-9.83201
▁47	-9.83216
▁46	-9.83256
▁ganas	-9.83334
Pobre	-9.8335
▁grandeza	-9.83468
Al	-9.83497
▁bi	-9.83624
▁duro	-9.83643
ign	-9.83764
▁Fue	-9.83844
▁altura	-9.83903
▁quizás	-9.83948
decía	-9.84101
▁lástima	-9.84158
▁Plácido	-9.84158
▁encuentra	-9.84158
▁Aurora	-9.84158
▁without	-9.84159
▁37	-9.84163
▁ciencia	-9.84193
▁flor	-9.84199
▁vencido	-9.84212
▁tomando	-9.84398
▁quieren	-9.84413
▁segunda	-9.8446
▁Pro	-9.84505
▁acto	-9.84517
▁asi	-9.84517
romp	-9.84542
▁carta	-9.84636
dió	-9.84691
ador	-9.84747
▁Be	-9.84863
▁llevado	-9.84879
▁correr	-9.84985
▁calma	-9.85043
rum	-9.85066
cua	-9.85157
▁circu	-9.85213
/	-9.85222
▁Demonio	-9.85222
▁sobrina	-9.85222
▁36	-9.85228
▁revela	-9.85229
▁estima	-9.85251
▁respond	-9.85257
▁reír	-9.85295
▁1	-9.85297
▁Juanito	-9.85319
poner	-9.85327
▁humo	-9.8535
▁reino	-9.85447
▁gasta	-9.85456
▁estrellas	-9.85645
▁verás	-9.85696
▁caballo	-9.85889
▁Ga	-9.85969
▁indi	-9.8597
▁exclamó	-9.86043
▁cabellera	-9.86297
▁miembros	-9.86297
▁vivía	-9.86302
▁alter	-9.8631
▁abrió	-9.86314
▁contento	-9.86318
▁oí	-9.86322
▁aquéllos	-9.86365
▁torre	-9.86383
ima	-9.86418
▁paseo	-9.86463
▁Otra	-9.86501
▁siguió	-9.86545
ult	-9.86684
▁hojas	-9.86749
▁X	-9.8679
▁pieza	-9.86873
▁vicio	-9.86989
▁mozo	-9.86998
ier	-9.87018
▁rayos	-9.87021
▁Tan	-9.87264
▁Sus	-9.87307
▁Delfín	-9.87384
▁Spanish	-9.87384
▁príncipe	-9.87384
▁treinta	-9.87384
▁mentira	-9.87385
▁about	-9.87386
▁escucha	-9.87391
▁volviendo	-9.87398
▁poeta	-9.87414
▁give	-9.87498
▁fiel	-9.87499
▁dieron	-9.87562
▁órdenes	-9.87565
▁poniendo	-9.87645
iv	-9.87829
▁seguía	-9.87871
▁solía	-9.87909
ís	-9.8793
▁guerreros	-9.87967
itos	-9.87982
▁broma	-9.88058
▁quedaba	-9.88175
▁goza	-9.88192
lio	-9.88199
sola	-9.88251
▁fácil	-9.88358
▁celebra	-9.88438
▁llegaba	-9.88443
▁Escritura	-9.88483
▁Pelida	-9.88484
▁sonrisa	-9.88484
▁conocido	-9.88488
▁detuvo	-9.88493
vil	-9.88506
▁valle	-9.88514
▁dispuesto	-9.88519
▁XVIII	-9.88521
▁echa	-9.88528
▁destino	-9.88568
▁letras	-9.88587
▁norte	-9.88704
▁dirigió	-9.88721
▁árboles	-9.8875
▁representa	-9.88879
▁solamente	-9.8889
ph	-9.89018
▁corte	-9.89089
▁perros	-9.89139
▁salta	-9.89144
▁dormir	-9.89186
▁anunci	-9.89264
▁necesita	-9.89315
▁escribir	-9.89345
▁region	-9.89358
▁compar	-9.8938
Ve	-9.89463
▁Tierra	-9.89594
▁alrededor	-9.89594
▁broncínea	-9.89594
▁demasiado	-9.89594
▁izquierda	-9.89594
▁opinión	-9.89594
▁confianza	-9.89594
▁situación	-9.89595
▁apareció	-9.89595
▁60	-9.89599
▁patio	-9.89614
▁comunica	-9.89624
▁realidad	-9.89706
dera	-9.89725
▁vieron	-9.89803
▁Rosario	-9.89825
▁Roma	-9.90059
llar	-9.90329
uro	-9.90332
▁bar	-9.90373
side	-9.90569
cab	-9.90584
▁most	-9.90592
▁fal	-9.90621
▁inteligencia	-9.90718
▁necesario	-9.90718
▁nueve	-9.90718
▁orgullo	-9.90718
▁ocasión	-9.90718
▁pensando	-9.9072
▁69	-9.90721
▁asiento	-9.90726
▁frase	-9.90753
▁talento	-9.90806
▁servir	-9.90823
▁45	-9.9086
▁pelear	-9.90888
▁beber	-9.90899
▁También	-9.90972
▁extend	-9.90979
Quiere	-9.91096
dad	-9.91157
bia	-9.91316
5=	-9.91479
▁consejo	-9.91517
▁notable	-9.91818
▁nariz	-9.91854
▁XXI	-9.91855
▁azul	-9.91858
▁logra	-9.91923
ábamos	-9.91934
▁montaña	-9.91938
▁49	-9.91943
▁olor	-9.92078
▁III	-9.92159
▁corona	-9.92208
▁Bu	-9.9234
▁Santo	-9.92346
▁cru	-9.92406
bal	-9.92485
less	-9.92487
▁nuestras	-9.92497
▁pata	-9.92513
zón	-9.92541
▁more	-9.92556
ejo	-9.92561
pel	-9.92563
ivo	-9.92721
▁ángel	-9.92765
▁ganado	-9.92818
▁clara	-9.92899
▁Idomeneo	-9.93004
▁imposible	-9.93004
▁magnánimo	-9.93004
▁amistad	-9.93004
▁mezcla	-9.93004
▁carrera	-9.93005
▁respira	-9.93005
▁cabello	-9.93015
▁vigor	-9.93017
▁extraño	-9.9302
cí	-9.93033
▁extra	-9.9308
fund	-9.93155
▁dirigi	-9.93166
éndose	-9.93223
illos	-9.93255
tino	-9.93265
▁abrir	-9.93389
▁hablado	-9.93417
▁Tiene	-9.93475
IT	-9.93536
▁pasando	-9.93669
▁Don	-9.93672
▁ponerse	-9.93739
col	-9.93791
_...	-9.9385
▁Isla	-9.93889
xi	-9.93927
red	-9.94017
▁ingenio	-9.94085
▁señoras	-9.94157
▁Caudillo	-9.94167
▁alguien	-9.94167
▁amenaza	-9.94167
▁especie	-9.94167
▁iglesia	-9.94167
▁ignora	-9.94167
▁esperanza	-9.94167
▁Pedro	-9.94167
▁espanto	-9.94169
▁dueño	-9.9418
▁VII	-9.94181
▁Tenía	-9.94185
▁pescador	-9.94189
▁caza	-9.94212
▁libertad	-9.94272
▁espera	-9.94275
▁real	-9.94325
▁clava	-9.94334
▁48	-9.94361
▁llegaron	-9.94512
age	-9.94591
▁was	-9.94595
▁piel	-9.94693
IS	-9.94768
tina	-9.94823
▁navega	-9.94846
teo	-9.94906
cimiento	-9.94917
▁Él	-9.94931
▁puro	-9.94942
▁negocio	-9.95061
▁hacerlo	-9.95102
▁sepa	-9.95216
Pitus	-9.95343
▁cerebro	-9.95343
▁ejemplo	-9.95343
▁sombrero	-9.95343
▁través	-9.95343
▁fruto	-9.95345
▁ventana	-9.95345
▁conquista	-9.95347
▁sierra	-9.95361
▁fresco	-9.95362
▁limpia	-9.95387
▁distancia	-9.95392
▁Más	-9.95396
▁salieron	-9.95422
ines	-9.9543
▁velo	-9.95437
▁tranquilo	-9.95444
▁casas	-9.95574
▁echando	-9.95612
▁conviene	-9.95638
▁gritos	-9.9566
▁palo	-9.95676
▁recorr	-9.957
▁Sí	-9.95756
▁mismos	-9.95789
Del	-9.958
▁rico	-9.96046
itas	-9.96098
ara	-9.96165
ji	-9.96184
▁entero	-9.96186
sum	-9.96228
▁caudillo	-9.96286
▁Sor	-9.96344
▁cuán	-9.96362
Pa	-9.9639
▁pega	-9.96415
▁reina	-9.9651
▁Motezuma	-9.96533
▁semblante	-9.96533
▁ardiente	-9.96534
▁origen	-9.96534
▁cocina	-9.96534
▁will	-9.96534
▁llave	-9.96536
▁seguro	-9.96554
▁OF	-9.96616
▁hice	-9.9674
imagen	-9.96786
▁É	-9.96816
▁metales	-9.96819
▁mató	-9.96911
▁tomaba	-9.96913
▁pon	-9.96916
▁sacaba	-9.97218
▁decirle	-9.97361
▁cerro	-9.97393
▁conocía	-9.97413
▁volvía	-9.97457
▁Bo	-9.97516
cup	-9.97653
▁cost	-9.97662
▁trag	-9.97696
▁creí	-9.9771
posición	-9.97718
▁Iglesia	-9.97738
▁Sarpedón	-9.97738
▁arranca	-9.97739
▁vinieron	-9.9774
▁camina	-9.97745
▁Nombre	-9.97875
▁sentimiento	-9.97929
▁cargo	-9.97948
siones	-9.98003
Vamos	-9.9803
Sabe	-9.98038
char	-9.98059
▁aleja	-9.98129
uch	-9.98155
▁rama	-9.98175
▁uso	-9.98325
¿	-9.98332
▁colg	-9.98388
▁cambia	-9.98537
mada	-9.98584
▁dias	-9.98586
▁mat	-9.98689
▁flecha	-9.98736
▁condena	-9.98766
▁hombro	-9.98773
▁teucro	-9.98779
▁alas	-9.98783
▁Tórrida	-9.98958
▁carácter	-9.98958
▁experiencia	-9.98958
▁sociedad	-9.98958
▁acercó	-9.98959
▁hirió	-9.98959
▁pusieron	-9.98961
▁acento	-9.98976
▁verá	-9.9898
▁cumbre	-9.98985
▁Guía	-9.99046
▁inmortales	-9.99076
▁comedor	-9.99097
▁produce	-9.9912
▁your	-9.99135
Ju	-9.99146
▁under	-9.99301
▁corri	-9.99327
▁sali	-9.99431
ser	-9.99618
▁minas	-9.99638
▁podían	-9.99725
▁espaldas	-9.99748
▁imagen	-9.99932
ella	-9.99985
ist	-10.0011
▁orilla	-10.0018
▁estuviera	-10.0019
▁llamó	-10.0019
▁jefe	-10.0019
▁disputa	-10.0019
▁nombra	-10.002
▁alcanza	-10.0025
▁versos	-10.0026
▁hermanos	-10.0029
▁habita	-10.0031
ual	-10.0036
▁Historia	-10.0039
▁mortales	-10.0042
▁volví	-10.0048
▁Maestro	-10.0051
▁presenta	-10.0051
▁asombro	-10.0061
▁cuantos	-10.0064
▁ciertos	-10.0076
▁honrada	-10.0078
Í	-10.008
pg	-10.0101
umb	-10.0111
IN	-10.0118
▁combat	-10.0127
éndole	-10.0128
▁License	-10.0144
▁opinion	-10.0144
▁muestra	-10.0144
▁conocimiento	-10.0144
▁thing	-10.0144
▁sabio	-10.0146
▁animal	-10.016
▁atraves	-10.0168
▁pico	-10.0169
dón	-10.0172
▁defender	-10.0172
cómo	-10.0189
▁sentó	-10.0194
▁reales	-10.0194
0]	-10.0195
▁paga	-10.0221
quí	-10.0228
▁pensamientos	-10.0228
ance	-10.023
▁puesta	-10.0241
OR	-10.0248
▁humor	-10.0259
▁termina	-10.0271
▁inmensa	-10.0271
▁59	-10.0271
▁agree	-10.0272
▁mueve	-10.0272
▁nubes	-10.0273
▁abrasa	-10.0276
▁vuelva	-10.0276
▁dirá	-10.0279
▁Gu	-10.0284
▁señorita	-10.0287
▁supo	-10.0294
_)	-10.0295
▁saben	-10.03
emp	-10.0304
▁muertos	-10.0307
▁rob	-10.0323
▁semejantes	-10.0331
▁bur	-10.0336
▁entiende	-10.0339
para	-10.0341
▁Com	-10.0354
▁quitar	-10.0375
▁mol	-10.0378
▁pide	-10.0382
▁Saturnio	-10.0399
▁línea	-10.0399
▁arrojó	-10.0399
▁estudia	-10.0399
▁tontería	-10.0399
▁premio	-10.0399
▁53	-10.04
▁corriendo	-10.0401
eri	-10.0402
▁plantas	-10.0403
▁veloz	-10.0405
cent	-10.0408
▁llorando	-10.0409
▁time	-10.0416
▁orillas	-10.0424
▁Cal	-10.0428
▁Entre	-10.0433
indicó	-10.0435
rias	-10.0435
lga	-10.0436
▁encontraba	-10.0439
▁burla	-10.0442
and	-10.0456
jó	-10.0463
▁entrega	-10.0465
▁cualquiera	-10.0466
▁sig	-10.0468
▁hallar	-10.047
ling	-10.0483
▁here	-10.0484
lón	-10.0488
▁dejado	-10.0502
▁mortal	-10.0505
▁alcanzar	-10.051
▁eleva	-10.0526
▁nube	-10.0526
▁acuerdo	-10.0529
▁entendimiento	-10.0529
▁sagrada	-10.0529
▁error	-10.0529
▁consigo	-10.0529
▁XXIV	-10.053
▁riendo	-10.0539
dul	-10.0545
lina	-10.0549
hí	-10.0556
▁dijeron	-10.0556
CO	-10.0557
▁fuente	-10.0559
▁probar	-10.0562
▁males	-10.0562
stancia	-10.0563
Para	-10.0585
rnos	-10.0591
ÓN	-10.0595
▁rosa	-10.0599
▁entrada	-10.0603
▁hará	-10.0603
bio	-10.0604
aje	-10.0615
ída	-10.0639
tem	-10.0648
▁Beatriz	-10.066
▁Jáuregui	-10.066
▁Samaniego	-10.066
▁compañía	-10.066
▁patronímico	-10.066
▁Helena	-10.0661
▁rueda	-10.0661
▁aprecia	-10.0661
▁than	-10.0661
▁respuesta	-10.0662
▁such	-10.0662
▁repente	-10.0664
▁digna	-10.0676
▁inspira	-10.0677
▁ocurrido	-10.0682
▁loca	-10.0687
▁faltaba	-10.0689
▁3.	-10.0692
dilla	-10.0699
▁hund	-10.0703
taban	-10.0706
▁tonto	-10.0706
▁ardor	-10.0711
▁laws	-10.0713
▁pasaron	-10.0715
▁padec	-10.0725
▁nacido	-10.0725
▁us	-10.0736
cado	-10.074
▁rem	-10.0745
▁avis	-10.0746
▁autor	-10.0749
▁comprar	-10.0762
▁Nada	-10.0764
edad	-10.0788
▁canónigo	-10.0794
▁víctima	-10.0794
▁examina	-10.0794
▁trademark	-10.0794
▁what	-10.0794
▁huerta	-10.0794
▁antiguo	-10.0798
▁caliente	-10.0799
▁botica	-10.0799
▁carros	-10.08
▁tonta	-10.08
▁planta	-10.08
▁Incas	-10.0807
azo	-10.0812
▁digno	-10.0816
dísimo	-10.0821
▁novel	-10.0824
▁Está	-10.0826
▁frio	-10.0827
▁montes	-10.083
▁Ven	-10.0835
▁volvi	-10.0842
ther	-10.0857
IDA	-10.0868
uc	-10.087
▁estrella	-10.0876
▁leyes	-10.0887
cle	-10.0887
luc	-10.0888
▁tomado	-10.0891
tería	-10.0902
▁diera	-10.0913
▁profunda	-10.0916
cide	-10.0919
▁Inocencio	-10.0929
▁Provincia	-10.0929
▁matrimonio	-10.0929
▁próxima	-10.0929
▁muralla	-10.0929
▁ruego	-10.0929
▁capital	-10.0929
▁dignidad	-10.0929
▁anterior	-10.0929
▁terror	-10.0932
▁id	-10.0936
▁diferencia	-10.0937
▁atrev	-10.0937
▁sujeta	-10.094
▁diciéndole	-10.0949
ww	-10.0952
▁cumplir	-10.0955
▁fuga	-10.0957
gada	-10.0958
cilla	-10.0964
▁2.	-10.0965
▁sufr	-10.0982
ático	-10.0984
cada	-10.0993
▁corría	-10.1
▁Señores	-10.1004
iesen	-10.1008
▁suma	-10.1013
act	-10.1016
▁entrado	-10.1017
▁cantar	-10.1025
▁sentar	-10.1027
▁pueblos	-10.1037
▁considera	-10.1037
▁Villalonga	-10.1066
▁adquiri	-10.1066
▁inferior	-10.1066
▁phrase	-10.1066
▁sacerdote	-10.1066
▁balcón	-10.1066
▁servicio	-10.1066
▁caído	-10.1066
▁52	-10.1066
▁gozo	-10.1067
▁provecho	-10.1068
▁existencia	-10.1069
▁abundante	-10.1074
▁encarga	-10.1074
▁lenguaje	-10.1076
▁habitación	-10.1076
▁mostrar	-10.1076
▁hacerle	-10.1076
▁sacr	-10.1077
▁Otro	-10.1079
uela	-10.1097
▁justo	-10.1098
▁fuerzas	-10.1101
▁Ce	-10.1106
▁afirma	-10.1118
▁ciudades	-10.1119
▁sospecha	-10.1123
▁escond	-10.1129
▁its	-10.1134
▁Casa	-10.1138
Porque	-10.1139
▁isla	-10.1143
▁presta	-10.1146
NO	-10.1151
▁person	-10.1154
▁pronuncia	-10.1154
▁aquélla	-10.1154
▁Sacerdotes	-10.1154
▁Eso	-10.1162
fig	-10.1163
inar	-10.1166
▁parecían	-10.1167
▁calles	-10.1173
▁amar	-10.1179
▁echaba	-10.12
▁54	-10.1201
▁esfuerzo	-10.1205
▁paciencia	-10.1205
▁público	-10.1205
▁recuerdo	-10.1205
▁califa	-10.1205
▁Sólo	-10.1205
▁engaño	-10.1205
▁indigna	-10.1205
▁XIX	-10.1206
▁edificio	-10.1206
▁imaginación	-10.1207
▁prima	-10.1208
▁enorme	-10.1208
▁copie	-10.1211
▁contenta	-10.1212
▁simple	-10.1212
▁adorn	-10.1213
▁Antíloco	-10.1215
▁comply	-10.1217
▁peces	-10.122
▁regal	-10.1223
él	-10.1229
▁caro	-10.124
▁sense	-10.1246
Di	-10.1259
▁Man	-10.1263
izo	-10.1263
▁trae	-10.1265
▁salido	-10.1268
Tú	-10.1268
ieran	-10.1275
▁ví	-10.1278
▁llevando	-10.1278
▁Son	-10.1279
▁existe	-10.1283
IA	-10.1292
▁vienen	-10.1295
uelo	-10.1302
▁fuertes	-10.1302
▁Idolos	-10.1304
▁some	-10.1318
▁derram	-10.1323
▁Vamos	-10.1328
▁sent	-10.1328
ave	-10.1332
tillo	-10.1333
▁acc	-10.1339
zaba	-10.1343
▁Severiana	-10.1346
▁gobierno	-10.1346
▁prudente	-10.1346
▁cambio	-10.1346
▁prisa	-10.1346
▁claridad	-10.1346
▁bestia	-10.1346
▁tendría	-10.1346
▁castiga	-10.1346
▁acciones	-10.1347
▁oreja	-10.1347
▁off	-10.135
LO	-10.1353
▁quitó	-10.1353
▁Caballuco	-10.1355
▁ancho	-10.1356
▁demonio	-10.1366
▁ceremonias	-10.1371
iéndola	-10.1396
▁cesa	-10.1398
▁due	-10.1404
▁somos	-10.141
▁colores	-10.1421
▁present	-10.1424
▁amo	-10.1429
▁cur	-10.1429
▁trato	-10.1436
puesta	-10.1439
▁cerr	-10.1446
▁figur	-10.1461
▁órden	-10.1465
▁comen	-10.1465
▁Fué	-10.1466
onia	-10.147
▁continua	-10.1472
▁respecto	-10.1489
▁actitud	-10.1489
▁domina	-10.1489
▁cuerda	-10.1489
▁cantidad	-10.1489
▁social	-10.149
▁escribe	-10.1491
EO	-10.1493
▁tren	-10.1494
▁teniendo	-10.1495
ille	-10.1495
▁misa	-10.1502
EN	-10.1503
▁preci	-10.1504
▁merece	-10.1507
▁pol	-10.1509
▁apret	-10.1513
▁sentimientos	-10.1515
spect	-10.1518
see	-10.1523
▁ponga	-10.1527
▁labor	-10.1529
▁salva	-10.1533
▁Aquella	-10.1539
▁sean	-10.1551
0=	-10.1556
▁echado	-10.1561
▁criada	-10.1565
jado	-10.1569
esto	-10.157
▁sirve	-10.1572
▁presentes	-10.1573
▁caía	-10.1577
▁mejillas	-10.1577
bus	-10.1621
▁nuevas	-10.1621
▁padres	-10.1623
▁sano	-10.1625
▁castigo	-10.1633
▁ligera	-10.1634
▁llanto	-10.1634
▁57	-10.1634
▁anoche	-10.1634
▁Tetis	-10.1634
▁Plinio	-10.1634
▁asusta	-10.1634
▁escribi	-10.1636
▁olvid	-10.1641
▁varón	-10.1644
▁sp	-10.1656
▁quizá	-10.1662
▁andaba	-10.1667
▁corredor	-10.1678
▁odio	-10.1679
tric	-10.1682
▁dices	-10.1692
▁Usted	-10.1693
izar	-10.1722
▁contesta	-10.1724
cillo	-10.1743
▁salvar	-10.1744
bida	-10.1744
▁loco	-10.1749
▁oía	-10.177
▁romper	-10.1779
▁aguarda	-10.178
▁Cuzco	-10.1781
▁Estrecho	-10.1781
▁Meriones	-10.1781
▁multitud	-10.1781
▁llegue	-10.1781
▁inmenso	-10.1781
▁exhorta	-10.1781
▁maravillosa	-10.1781
▁receive	-10.1782
▁regalo	-10.1786
▁muere	-10.1788
▁completamente	-10.179
▁especialmente	-10.1792
neo	-10.1794
▁forth	-10.1796
▁tarda	-10.1812
▁India	-10.1815
▁términos	-10.1815
▁bella	-10.1819
TA	-10.182
▁far	-10.1828
▁autoridad	-10.1836
▁polo	-10.1849
▁arena	-10.1852
▁asom	-10.1858
▁mandar	-10.1863
▁griegos	-10.1868
neg	-10.1882
▁preguntar	-10.1892
▁esperaba	-10.1894
▁Ja	-10.1894
▁cree	-10.1898
▁defend	-10.1901
▁expresar	-10.1913
▁valientes	-10.1917
▁estando	-10.1925
▁manto	-10.1926
▁hermosura	-10.193
▁impulso	-10.193
▁miserable	-10.193
▁parecido	-10.193
▁medicina	-10.193
▁acepta	-10.193
▁hiciera	-10.193
▁pienso	-10.193
▁interés	-10.1931
▁acaso	-10.1934
▁way	-10.1937
▁how	-10.1941
just	-10.1942
▁filas	-10.1942
▁refund	-10.1948
▁mancha	-10.1954
▁Poco	-10.1955
▁esperar	-10.1957
ative	-10.1958
▁sacrificio	-10.1968
▁siento	-10.1968
CA	-10.1973
inas	-10.1973
▁gustaba	-10.1983
2=	-10.1984
prosiguió	-10.1984
▁engaña	-10.1987
▁prometi	-10.1988
▁roca	-10.1991
preguntó	-10.2003
▁despert	-10.2003
▁red	-10.2015
▁juntos	-10.2017
▁piernas	-10.203
▁Arnaiz	-10.2081
▁descubierto	-10.2081
▁gabinete	-10.2081
▁tertulia	-10.2081
▁abierta	-10.2081
▁apetito	-10.2081
▁mérito	-10.2081
▁estudio	-10.2081
▁maestro	-10.2081
▁menester	-10.2081
▁apresur	-10.2081
▁abundancia	-10.2083
▁alegra	-10.2083
▁charla	-10.2085
▁subió	-10.2089
▁tema	-10.2093
▁fre	-10.2095
▁enteramente	-10.2102
▁oriente	-10.2105
▁dime	-10.2115
▁used	-10.2122
▁ligero	-10.2124
▁mon	-10.2125
manifestó	-10.2128
▁varias	-10.2131
▁levantar	-10.2133
IL	-10.2135
Ahora	-10.214
▁principales	-10.2142
▁hermanas	-10.2147
▁tirar	-10.215
▁Dioses	-10.2167
Mira	-10.2169
▁once	-10.2183
▁manifest	-10.2188
▁Mu	-10.2211
Cree	-10.2219
▁care	-10.2225
▁Ab	-10.2229
▁señores	-10.223
▁Licurgo	-10.2235
▁Segunda	-10.2235
▁Virgen	-10.2235
▁enfermedad	-10.2235
▁ilumina	-10.2235
▁evitar	-10.2235
▁maíz	-10.2235
▁exclama	-10.2235
▁rompió	-10.2235
▁reserva	-10.2235
▁good	-10.2235
▁tuviese	-10.2235
▁bonita	-10.2235
▁sonriendo	-10.2235
▁proporcion	-10.2236
▁64	-10.2236
▁little	-10.2236
▁débil	-10.2237
▁espejo	-10.2237
▁especial	-10.2237
▁aumenta	-10.2238
▁Venus	-10.2239
▁Gua	-10.2243
▁varios	-10.2245
Esta	-10.225
esp	-10.2251
▁claramente	-10.2252
▁quedaron	-10.2254
▁For	-10.2256
▁lamenta	-10.226
▁veras	-10.2263
▁madera	-10.2265
tia	-10.2266
▁Vaya	-10.2267
▁partida	-10.227
▁cuida	-10.2279
tain	-10.2285
▁llamaba	-10.2289
▁borra	-10.2298
▁piso	-10.2301
1=	-10.2304
▁contraria	-10.2315
gal	-10.2329
unt	-10.2329
iéndome	-10.2332
▁obedec	-10.2336
▁olas	-10.2347
J	-10.235
▁Pr	-10.2358
venir	-10.2362
▁gobern	-10.2369
▁negras	-10.237
▁traía	-10.2376
▁cena	-10.2381
▁segura	-10.2382
▁pecados	-10.2383
▁permanec	-10.2386
▁disparates	-10.2391
▁Potosí	-10.2391
▁discurso	-10.2391
▁singular	-10.2391
▁Section	-10.2391
▁completo	-10.2392
▁Peleo	-10.2392
▁bajó	-10.2392
▁56	-10.2392
▁61	-10.2392
▁espanta	-10.2392
▁prodigio	-10.2395
▁escapar	-10.2396
▁mona	-10.2399
▁escena	-10.2403
▁nace	-10.2405
▁doble	-10.2407
▁propiedades	-10.2408
▁So	-10.2416
▁deben	-10.2419
▁pobres	-10.2421
▁negar	-10.2433
aca	-10.2434
▁rayo	-10.245
▁mejores	-10.2451
▁suave	-10.2451
▁reyes	-10.2452
▁señales	-10.2454
▁preguntas	-10.2471
▁tuve	-10.2486
▁vend	-10.2496
Está	-10.2504
▁honrado	-10.2508
▁olvidar	-10.2511
izado	-10.2512
▁altar	-10.2546
▁ponen	-10.2546
utenberg	-10.2548
▁vivos	-10.255
▁associated	-10.255
▁conozco	-10.255
▁cubierto	-10.255
▁original	-10.255
▁abierto	-10.255
▁dificultad	-10.255
▁grupo	-10.255
repitió	-10.255
▁charge	-10.255
▁esclava	-10.255
▁plaza	-10.255
▁acabó	-10.255
▁admiración	-10.2564
▁naciones	-10.2578
▁verano	-10.2578
▁aves	-10.2586
▁negocios	-10.2588
▁haberse	-10.2595
▁empezaba	-10.2596
▁Chi	-10.26
▁comenza	-10.2621
▁quieras	-10.2623
▁Ea	-10.2623
▁acción	-10.263
▁dista	-10.2631
Nada	-10.2643
▁OR	-10.2654
Dios	-10.2656
iéndolo	-10.2684
▁resulta	-10.2685
▁llora	-10.269
▁Uno	-10.2707
▁belleza	-10.2711
▁cóncavas	-10.2711
▁equivoca	-10.2711
▁fértil	-10.2711
▁idolatría	-10.2711
▁invierno	-10.2711
▁lógica	-10.2711
▁política	-10.2711
▁creyó	-10.2711
▁intención	-10.2712
▁sofá	-10.2712
▁mostraba	-10.2712
▁volvieron	-10.2713
▁llano	-10.2717
▁fijo	-10.2717
▁pasión	-10.2717
▁pocas	-10.2718
▁get	-10.2718
light	-10.2731
▁vuelo	-10.2732
▁read	-10.2733
▁fama	-10.2736
▁llevaban	-10.2737
▁huir	-10.2738
▁hambre	-10.2739
▁leche	-10.2748
▁juegos	-10.2768
▁coge	-10.2774
▁Par	-10.2774
▁razones	-10.2781
▁temer	-10.2782
▁caridad	-10.2791
▁reduc	-10.2791
▁soñ	-10.2804
▁afecto	-10.2819
▁Real	-10.282
▁propios	-10.282
▁primeras	-10.2821
▁Estas	-10.2823
▁amante	-10.2829
▁descend	-10.2835
ding	-10.2838
▁acostumbr	-10.2845
▁rabia	-10.2846
▁refer	-10.2847
▁relacion	-10.2852
endi	-10.2853
▁puestos	-10.2875
▁Tideo	-10.2875
Gracias	-10.2875
▁avanza	-10.2875
▁envidia	-10.2875
▁vecino	-10.2876
▁disgusto	-10.2876
▁poniente	-10.2877
cogiendo	-10.2878
▁tax	-10.2882
▁LAS	-10.2883
▁arca	-10.2891
▁encontró	-10.2896
tio	-10.2897
▁usaban	-10.2915
▁salida	-10.2925
▁tiendas	-10.2931
▁guía	-10.2935
▁griego	-10.2944
▁Pu	-10.2944
▁propias	-10.2945
▁realiza	-10.2947
▁fuesen	-10.2951
▁Car	-10.2954
MA	-10.2957
▁Ne	-10.2967
▁llevan	-10.2969
▁algun	-10.2974
▁aladas	-10.2974
▁clav	-10.2975
▁hable	-10.2978
▁refiere	-10.2979
▁éstas	-10.2983
▁pájaros	-10.2986
▁much	-10.2987
bur	-10.2999
▁exist	-10.3008
▁fina	-10.3019
▁emple	-10.3022
▁Or	-10.3034
▁huye	-10.3038
▁respeta	-10.304
▁Vulcano	-10.3042
▁estuviese	-10.3042
▁including	-10.3042
▁religión	-10.3042
▁vulgar	-10.3042
▁Griego	-10.3042
▁Valencia	-10.3042
▁edition	-10.3042
▁funesto	-10.3042
▁Amparo	-10.3042
▁murió	-10.3042
▁NOTAS	-10.3042
▁67	-10.3043
▁esfera	-10.3043
▁luna	-10.3043
▁gesto	-10.3044
▁perdón	-10.3046
▁molesta	-10.3052
▁acabar	-10.3053
▁saliendo	-10.3054
▁yerba	-10.3055
▁mandado	-10.3056
▁gira	-10.3057
▁cima	-10.3061
▁agudo	-10.3062
▁verse	-10.3067
▁perdona	-10.3076
▁amado	-10.3076
adores	-10.3087
▁ocurre	-10.3093
adero	-10.3096
▁doy	-10.3105
▁Antes	-10.3115
▁precio	-10.3118
▁marea	-10.3126
▁tranquila	-10.3128
▁leer	-10.3129
▁pagar	-10.3137
▁ordena	-10.3138
murmuró	-10.3154
4=	-10.3168
▁posee	-10.3176
▁contener	-10.3181
▁salían	-10.3181
Le	-10.3192
▁escapa	-10.3208
▁Schahrazada	-10.3211
▁ordinaria	-10.3211
▁satisfecho	-10.3211
▁soberbia	-10.3211
▁chiquillo	-10.3211
▁espiritual	-10.3211
▁esclavo	-10.3212
▁recibe	-10.3212
▁traído	-10.3212
».--«	-10.3212
▁heraldo	-10.3212
▁famoso	-10.3212
▁tocar	-10.3212
▁Creo	-10.3212
▁encanta	-10.3213
ism	-10.3214
▁inmediatamente	-10.3214
▁abraza	-10.3216
put	-10.3218
ego	-10.322
▁personal	-10.3226
▁trajo	-10.323
▁pod	-10.323
▁usa	-10.323
▁direct	-10.3233
▁sacudi	-10.3236
▁leña	-10.3246
▁trabajar	-10.3248
▁labrado	-10.3258
▁entraron	-10.3258
Ven	-10.3261
rico	-10.3273
▁sombras	-10.3276
▁signo	-10.3276
▁vemos	-10.3285
abla	-10.3315
pregunt	-10.3334
fila	-10.3338
▁resta	-10.334
▁comprender	-10.3345
udi	-10.3351
▁única	-10.3371
▁rios	-10.3373
▁imagin	-10.3374
▁mag	-10.3381
gro	-10.3383
▁sutil	-10.3384
▁Francisco	-10.3384
▁advertir	-10.3384
▁apariencia	-10.3384
▁conseguir	-10.3384
Platón	-10.3384
▁estremec	-10.3384
▁miseria	-10.3385
▁rechaza	-10.3385
▁65	-10.3385
▁agradable	-10.3386
▁Sabas	-10.3386
▁vacil	-10.3387
▁consagr	-10.3388
▁salvaje	-10.3388
▁Va	-10.3389
▁ayer	-10.3389
▁regist	-10.339
▁vestir	-10.3391
▁puente	-10.3392
▁negros	-10.3402
▁past	-10.3403
▁vaga	-10.3405
▁tercera	-10.3408
▁China	-10.3408
▁flechas	-10.3412
▁Ex	-10.3412
▁llamada	-10.3417
▁ofrece	-10.343
▁quedado	-10.3433
ning	-10.3456
▁prop	-10.3464
RE	-10.347
▁lugares	-10.3495
▁aparecer	-10.3502
Señora	-10.3509
▁if	-10.3514
▁paja	-10.3522
▁NOCHE	-10.3559
▁administra	-10.3559
▁cuarenta	-10.3559
▁descubrir	-10.3559
▁permission	-10.3559
▁doncella	-10.3559
▁felicidad	-10.3559
▁humilde	-10.3559
▁dirige	-10.3559
▁muerta	-10.356
▁priva	-10.356
▁elegante	-10.356
▁árabe	-10.356
▁Hasta	-10.356
▁traduc	-10.3562
▁Paris	-10.3565
▁quinta	-10.3565
▁piedad	-10.3567
Esto	-10.3567
▁Ribot	-10.3581
▁pasillo	-10.3581
▁relaciones	-10.3585
▁abre	-10.3587
▁cobra	-10.3588
▁trabajos	-10.3593
▁Hoy	-10.3594
▁Estos	-10.3605
ary	-10.3608
▁horror	-10.3615
▁presentó	-10.3615
▁llevaron	-10.3627
ical	-10.363
▁caña	-10.3639
▁discurr	-10.3648
Aquí	-10.3651
▁resto	-10.366
▁riquezas	-10.367
▁puse	-10.3682
▁suele	-10.369
▁cola	-10.3695
hacer	-10.3695
▁malos	-10.3698
▁armado	-10.3713
Buen	-10.3714
▁diferencias	-10.3727
▁belicoso	-10.3738
▁cubierta	-10.3738
▁magnífica	-10.3738
▁GutenbergTM	-10.3738
▁mercader	-10.3738
▁inútil	-10.3738
▁exhala	-10.3738
▁Parecía	-10.3738
▁adonde	-10.3738
▁estuve	-10.3738
▁58	-10.3739
▁distributing	-10.3739
▁Capitan	-10.3739
▁62	-10.3739
▁condición	-10.3739
▁73	-10.3739
árselo	-10.3739
▁fresca	-10.3739
▁75	-10.374
▁Casta	-10.374
up	-10.3746
lita	-10.3754
MO	-10.3773
▁celos	-10.3774
▁foso	-10.3775
▁cariñosa	-10.378
▁juntamente	-10.3783
▁gen	-10.3799
▁pun	-10.3812
▁sentí	-10.3821
▁parecen	-10.3826
ough	-10.3826
▁soldados	-10.3829
▁Fe	-10.3835
titud	-10.3836
▁barra	-10.3849
▁produc	-10.3863
ué	-10.3868
▁ofrecer	-10.3877
▁acababa	-10.3894
▁qu	-10.39
▁terr	-10.3906
▁misterio	-10.3906
▁perfecta	-10.3908
dísima	-10.3908
▁huesos	-10.3909
▁hubieran	-10.3917
▁Remedios	-10.392
▁beneficio	-10.392
▁difunto	-10.392
▁magnífico	-10.392
▁recibido	-10.392
▁resplandor	-10.392
▁tinieblas	-10.392
▁recomend	-10.392
▁recobra	-10.392
▁eterno	-10.392
▁new	-10.392
▁Dama	-10.392
▁admit	-10.3921
▁70	-10.3921
▁perro	-10.3921
▁plato	-10.3921
güe	-10.3921
▁estilo	-10.3921
▁venerable	-10.3922
▁delicado	-10.3925
▁DEL	-10.3925
▁prenda	-10.393
▁maldita	-10.3932
▁period	-10.394
▁fácilmente	-10.394
▁Iba	-10.3944
▁corrió	-10.3948
▁tropas	-10.3948
▁sentada	-10.395
▁naci	-10.3951
▁tomo	-10.3954
▁hallaron	-10.3955
▁responder	-10.3972
▁eBooks	-10.3993
▁tela	-10.3994
.--¿	-10.4001
▁tiró	-10.4011
▁divert	-10.4016
▁vaca	-10.4029
▁into	-10.4034
▁vano	-10.4066
▁free	-10.4075
cara	-10.4075
▁demonios	-10.4079
▁antiguos	-10.4099
▁***	-10.4105
▁Alejandro	-10.4105
▁Basilio	-10.4105
▁Penitenciario	-10.4105
▁Telamonio	-10.4105
▁estómago	-10.4105
▁facultad	-10.4105
▁música	-10.4105
▁vieja	-10.4105
▁84	-10.4106
▁impresion	-10.4106
▁consulta	-10.4106
▁genio	-10.4107
▁peseta	-10.4107
▁temblor	-10.4107
▁cuantas	-10.4108
▁modern	-10.4108
▁ciego	-10.4109
cón	-10.4112
▁sufrir	-10.4113
▁capaz	-10.4114
▁dándole	-10.4116
▁Ramos	-10.4118
▁RE	-10.4121
▁muslo	-10.4121
Hombre	-10.4123
▁golpes	-10.4125
▁estuvieron	-10.4128
▁lluvias	-10.4129
▁decían	-10.4131
▁venera	-10.4131
ábale	-10.4131
▁vendrá	-10.4132
etc	-10.4139
ious	-10.4139
▁argumento	-10.4143
▁suspiros	-10.4144
pé	-10.4145
▁comprende	-10.4148
▁hacerse	-10.415
▁pesa	-10.4152
▁incita	-10.4154
▁playa	-10.4156
▁bajar	-10.4159
más	-10.4167
▁clavó	-10.4169
▁acometi	-10.4174
▁encontr	-10.4185
▁afligido	-10.4185
▁rio	-10.4188
Cuán	-10.4193
X	-10.4194
▁noticias	-10.4196
▁Pasa	-10.4197
gritó	-10.4198
▁callar	-10.4199
Todo	-10.42
▁made	-10.4204
▁resist	-10.4205
▁over	-10.4205
▁diferente	-10.4219
▁fingi	-10.4219
▁eBook	-10.4219
▁hago	-10.4224
▁hoja	-10.4235
toria	-10.4237
▁león	-10.4245
▁traba	-10.4254
Bueno	-10.426
▁averiguar	-10.4262
gna	-10.427
▁marchar	-10.4276
▁trá	-10.429
observó	-10.4294
▁increíble	-10.4294
▁oriental	-10.4294
▁reluciente	-10.4294
▁revés	-10.4294
▁semejanza	-10.4294
▁enferma	-10.4294
▁regresa	-10.4294
▁mandadero	-10.4294
▁aventura	-10.4294
▁terreno	-10.4294
▁acostar	-10.4294
▁aqueas	-10.4295
▁regla	-10.4296
▁down	-10.4296
▁Mucho	-10.4296
▁Llam	-10.4298
ah	-10.4301
ial	-10.4305
▁asesin	-10.4307
▁paño	-10.4309
▁ocurrió	-10.4312
▁ancha	-10.4314
Sabes	-10.4321
▁estrecha	-10.434
OU	-10.4349
▁concepto	-10.4357
▁irritado	-10.4357
▁pozo	-10.4358
▁pronunci	-10.4366
▁herir	-10.4367
▁vaso	-10.4371
▁Monte	-10.4376
▁sirven	-10.4376
Re	-10.4381
▁mord	-10.4389
▁medida	-10.439
▁duros	-10.4392
▁palma	-10.4398
own	-10.4409
▁barrio	-10.4412
net	-10.4413
▁haría	-10.443
▁fueran	-10.4433
▁explica	-10.4449
▁5.	-10.4465
▁permitía	-10.4466
▁pegar	-10.4471
▁permite	-10.4472
gran	-10.448
▁comía	-10.4481
▁sorprend	-10.4481
afirmó	-10.4486
▁Emilio	-10.4486
▁Evangelio	-10.4486
▁creyendo	-10.4486
▁diligencia	-10.4486
▁eximio	-10.4486
▁navío	-10.4486
▁sorpresa	-10.4486
▁Rosarito	-10.4486
▁aquivos	-10.4486
▁dirección	-10.4486
▁ovejas	-10.4486
▁expresó	-10.4486
▁aparecía	-10.4486
▁empeña	-10.4486
▁auriga	-10.4486
▁linage	-10.4486
▁impresión	-10.4486
▁desesper	-10.4486
▁coraza	-10.4486
▁halló	-10.4486
▁infame	-10.4486
▁71	-10.4487
▁aguja	-10.4488
▁Iris	-10.4488
▁absolutamente	-10.4492
▁reía	-10.4493
▁imaginar	-10.4495
reció	-10.4503
▁entusiasmo	-10.4505
▁bueyes	-10.4507
▁falsa	-10.4508
▁serio	-10.4521
uca	-10.4523
▁poniéndose	-10.4524
▁cabra	-10.4526
▁canta	-10.4538
▁consejos	-10.4549
▁ruina	-10.455
▁ocurri	-10.4566
▁old	-10.4568
▁pongo	-10.4572
▁contestar	-10.4573
▁salto	-10.4577
▁rojo	-10.4578
▁Hija	-10.458
▁Fu	-10.4584
▁monta	-10.4587
Hijo	-10.4587
Como	-10.4587
▁expresa	-10.459
▁danza	-10.4591
verdad	-10.4592
▁fino	-10.4593
▁pasan	-10.4599
▁juego	-10.4616
▁Pon	-10.4622
gente	-10.4629
▁costumbres	-10.4634
▁arregla	-10.4638
seguí	-10.4672
▁completa	-10.4672
▁educa	-10.4675
▁Príncipe	-10.4682
▁célebre	-10.4682
▁doctrina	-10.4682
▁esforzado	-10.4682
▁estrépito	-10.4682
▁impetuoso	-10.4682
▁muchedumbre	-10.4682
▁religiosa	-10.4682
▁Siempre	-10.4682
▁cubrió	-10.4682
▁fortuna	-10.4682
▁combatientes	-10.4682
▁égida	-10.4682
▁Autor	-10.4682
▁empresa	-10.4682
▁nieve	-10.4682
▁furor	-10.4683
▁encargo	-10.4683
▁74	-10.4683
▁72	-10.4683
▁convento	-10.4683
▁morada	-10.4683
▁76	-10.4684
▁like	-10.4688
▁imita	-10.4689
▁Corte	-10.4691
▁metido	-10.4691
▁Cada	-10.4694
▁queriendo	-10.4695
▁upon	-10.4697
▁paid	-10.4699
▁mando	-10.4702
▁realmente	-10.4704
▁Poli	-10.4706
▁pared	-10.4708
▁comunmente	-10.4709
▁importante	-10.4726
▁repara	-10.4743
▁apartar	-10.4748
▁It	-10.475
ize	-10.4757
▁naturales	-10.4765
▁manía	-10.4777
▁hayan	-10.4783
▁casta	-10.4785
K	-10.4787
(	-10.4787
cogió	-10.4788
▁presa	-10.4792
▁pose	-10.4797
quién	-10.4799
usto	-10.4813
▁prove	-10.4824
▁Fa	-10.4838
▁case	-10.4847
▁haz	-10.4859
8=	-10.4869
▁conversa	-10.488
▁Giafar	-10.4882
▁Trópico	-10.4882
▁banquete	-10.4882
▁bolsillo	-10.4882
▁clérigo	-10.4882
▁keep	-10.4882
▁vecindad	-10.4882
▁inmóvil	-10.4882
▁inocente	-10.4882
▁ministro	-10.4882
▁cobarde	-10.4882
▁desprecia	-10.4882
▁contesté	-10.4882
▁perform	-10.4882
▁Italia	-10.4882
▁ceniza	-10.4882
▁apodera	-10.4882
▁bonito	-10.4882
▁This	-10.4882
▁licios	-10.4882
▁varones	-10.4883
▁compadec	-10.4883
▁fundadora	-10.4884
▁metió	-10.4885
▁bajeles	-10.4885
▁haré	-10.4885
▁militar	-10.4887
▁comercio	-10.4892
▁importancia	-10.4893
▁banco	-10.4894
▁obscura	-10.4898
Cuánto	-10.4905
▁atravesó	-10.4912
▁Del	-10.4921
▁dormido	-10.4925
▁where	-10.4927
▁anti	-10.4936
▁aguard	-10.4939
▁ricos	-10.4943
▁caja	-10.4944
▁sabemos	-10.4945
▁gala	-10.4978
▁acost	-10.4991
cated	-10.5
Su	-10.5005
▁rara	-10.5009
▁visitar	-10.5014
ech	-10.5021
▁sacado	-10.5042
▁Ra	-10.5045
▁retroced	-10.5084
QUE	-10.5086
▁capitán	-10.5086
▁escritura	-10.5086
▁extranjero	-10.5086
▁ilusión	-10.5086
▁imágenes	-10.5086
▁individual	-10.5086
▁levantándose	-10.5086
▁violencia	-10.5086
▁época	-10.5086
▁alcance	-10.5086
▁seguido	-10.5087
▁lleve	-10.5087
▁Isabelita	-10.5088
▁tesoro	-10.5088
▁recibió	-10.509
AT	-10.5091
▁estatua	-10.5092
▁cuesta	-10.5092
▁varia	-10.5093
▁Eran	-10.5094
▁encontré	-10.5098
▁saltó	-10.5099
▁sereno	-10.5102
▁usaron	-10.5102
▁botas	-10.5107
▁crees	-10.5116
▁put	-10.5117
Puede	-10.5117
▁dormi	-10.5119
▁nuevamente	-10.5124
▁desgraciado	-10.5126
▁señorito	-10.5129
tical	-10.5133
▁juro	-10.5136
▁agarr	-10.5141
▁pensó	-10.5164
▁AL	-10.5164
▁quitado	-10.518
▁venia	-10.5183
▁alarg	-10.5195
cú	-10.5217
▁español	-10.522
▁techo	-10.5224
▁pedazo	-10.5239
▁grito	-10.5248
▁ocasion	-10.5271
▁brillantes	-10.5272
▁extraordinaria	-10.5294
▁ingeniero	-10.5294
▁supersticion	-10.5294
▁Criador	-10.5294
▁sublime	-10.5294
▁sabido	-10.5294
▁when	-10.5295
▁emoción	-10.5295
▁culto	-10.5295
▁disco	-10.5295
▁Alguna	-10.5295
▁baila	-10.5295
▁82	-10.5295
▁nieto	-10.5297
▁narra	-10.5297
▁distribution	-10.5297
▁interesa	-10.5297
▁repeti	-10.5298
▁Pronto	-10.5298
▁habitantes	-10.5299
▁resistir	-10.5301
▁curso	-10.5306
▁tributo	-10.5311
▁partido	-10.5319
▁redondo	-10.5322
9=	-10.5324
▁verdaderamente	-10.5326
▁sentarse	-10.5332
Toma	-10.5333
▁regiones	-10.534
▁Tengo	-10.534
▁tercero	-10.5341
▁pedazos	-10.5351
▁andan	-10.5354
▁sacando	-10.5354
▁Todas	-10.5355
▁aparece	-10.5369
como	-10.5375
▁irrita	-10.5407
Cuando	-10.5412
▁dichoso	-10.5418
ábanse	-10.542
▁aprovecha	-10.5448
▁término	-10.5457
▁arrebata	-10.546
▁contemplar	-10.5464
▁habit	-10.5472
▁grano	-10.5474
▁cuestión	-10.5507
▁mirmidones	-10.5507
▁volunteer	-10.5507
▁águila	-10.5507
▁compasión	-10.5507
▁alborota	-10.5507
▁amontona	-10.5507
Jesús	-10.5507
▁sofoc	-10.5507
▁ventaja	-10.5507
▁away	-10.5507
▁aspira	-10.5508
▁aburri	-10.5508
▁destruir	-10.5508
▁appear	-10.5508
▁55	-10.5508
▁68	-10.5508
▁hácia	-10.551
▁abismo	-10.5514
▁traza	-10.5515
▁grandísima	-10.5517
gué	-10.5517
▁well	-10.5517
▁puño	-10.5518
▁aguda	-10.552
▁say	-10.5521
▁corto	-10.5522
▁vapores	-10.5524
tente	-10.5532
quito	-10.5532
▁ciento	-10.5532
▁Estoy	-10.5546
▁divid	-10.5547
▁format	-10.5547
Quiero	-10.555
▁entrando	-10.5551
▁matado	-10.5551
▁grato	-10.5572
▁fij	-10.5586
cabe	-10.5597
▁cuánto	-10.5605
gracia	-10.5621
▁guardar	-10.5629
risti	-10.5638
▁confund	-10.5648
▁nació	-10.5651
▁falda	-10.5654
▁moza	-10.5655
▁suspiro	-10.5679
▁serán	-10.5683
▁propiedad	-10.5701
▁buey	-10.5701
nero	-10.5704
▁añadió	-10.5705
▁pira	-10.5705
VI	-10.5709
▁protect	-10.5716
://	-10.5725
▁http	-10.5725
▁Torquemada	-10.5725
▁through	-10.5725
▁Contestó	-10.5725
▁desventura	-10.5725
▁industria	-10.5725
▁regular	-10.5725
▁tamaño	-10.5725
▁Tidida	-10.5725
▁derredor	-10.5725
▁insigne	-10.5725
▁experiment	-10.5725
▁jaqueca	-10.5725
▁desciende	-10.5725
▁fabrica	-10.5725
▁inglés	-10.5725
▁zapat	-10.5725
▁hiciese	-10.5725
▁promesa	-10.5725
▁tendido	-10.5725
▁solicit	-10.5725
▁confesar	-10.5725
▁luces	-10.5725
▁establecimiento	-10.5725
▁menudo	-10.5725
▁moneda	-10.5725
▁comenzó	-10.5725
▁pensado	-10.5726
▁gordo	-10.5727
▁complace	-10.5727
▁baña	-10.5727
▁copia	-10.5727
▁entrañas	-10.5728
▁vientre	-10.5729
▁Llev	-10.5729
▁voto	-10.5729
▁Febo	-10.573
▁envió	-10.5732
▁ventura	-10.5733
▁infundi	-10.5733
▁ramo	-10.5734
▁rápidamente	-10.5736
▁consider	-10.5739
▁opera	-10.5745
▁cómoda	-10.5748
▁vencer	-10.5751
▁sobra	-10.5754
▁averigua	-10.5761
▁decente	-10.5762
DO	-10.5763
aría	-10.5767
▁Parece	-10.5767
▁salen	-10.5771
▁cortar	-10.5775
▁sucedió	-10.5782
pio	-10.5785
▁material	-10.5785
▁EL	-10.5791
▁tapa	-10.5804
▁quise	-10.5811
▁ordenó	-10.5812
cy	-10.5816
▁correspond	-10.582
▁fría	-10.5827
vuelve	-10.5852
Bien	-10.5852
▁our	-10.5853
▁list	-10.5856
...!».	-10.5861
ιος	-10.5867
respondió	-10.5868
▁portal	-10.5873
▁sta	-10.588
▁mandaba	-10.5881
▁dig	-10.5883
▁trataba	-10.5899
▁ceremonia	-10.5906
▁troyano	-10.5907
▁ponían	-10.5943
ίδης	-10.5947
▁Aristóteles	-10.5947
▁Virgilio	-10.5947
▁chocolate	-10.5947
▁consecuencia	-10.5947
▁energía	-10.5947
▁fúnebre	-10.5947
▁guardia	-10.5947
▁manifiesta	-10.5947
▁recompensa	-10.5947
▁popular	-10.5947
▁chiquilla	-10.5947
▁duró	-10.5947
▁sacrificar	-10.5947
▁común	-10.5947
▁adentro	-10.5947
▁papá	-10.5947
▁cogido	-10.5947
▁reloj	-10.5947
▁66	-10.5948
▁obtain	-10.5948
▁Plin	-10.5948
▁tumba	-10.5948
▁ponian	-10.595
▁comedia	-10.5951
▁guisa	-10.5951
▁acus	-10.5951
▁recrea	-10.5956
▁cabal	-10.5958
▁huyendo	-10.5963
nline	-10.5968
▁enfada	-10.5968
respondí	-10.5969
▁Go	-10.597
▁soltar	-10.5982
▁Toda	-10.5993
▁referir	-10.5996
▁perecer	-10.6002
▁doma	-10.6004
▁raza	-10.6013
PR	-10.6015
▁mono	-10.6017
▁resultado	-10.6037
▁subía	-10.6038
▁cuan	-10.6044
▁diría	-10.6057
▁Reg	-10.606
▁cabe	-10.6068
▁chill	-10.6078
▁constitu	-10.6091
▁banda	-10.61
▁templa	-10.6109
▁ocultar	-10.6118
▁estancia	-10.6123
▁tropa	-10.6139
▁traen	-10.6144
▁darse	-10.6151
cedió	-10.6153
▁record	-10.6161
anda	-10.6167
cioso	-10.6167
▁Cayetano	-10.6174
▁HISTORIA	-10.6174
▁addition	-10.6174
▁ademán	-10.6174
▁cristiano	-10.6174
▁effort	-10.6174
▁límite	-10.6174
▁muebles	-10.6174
▁aposento	-10.6174
▁gruesa	-10.6174
▁transforma	-10.6174
▁véase	-10.6174
▁defensa	-10.6174
▁infinita	-10.6174
▁before	-10.6174
▁conveniente	-10.6174
▁monstruo	-10.6174
▁puerto	-10.6174
▁63	-10.6175
▁right	-10.6175
▁flota	-10.6176
▁Aquél	-10.6177
▁soledad	-10.6177
▁XXII	-10.6177
▁selva	-10.6177
▁pierde	-10.6178
▁suelta	-10.6179
▁furia	-10.6183
▁convida	-10.6183
▁sienta	-10.6185
▁verme	-10.6187
▁semana	-10.619
▁apaga	-10.6195
▁dispara	-10.6204
▁means	-10.6206
▁tuya	-10.6215
▁Dante	-10.6222
Dice	-10.6227
▁emplear	-10.6244
▁suelen	-10.6255
▁Val	-10.6256
▁acompañ	-10.6264
Señor	-10.627
▁file	-10.6284
▁Bueno	-10.6291
▁lastim	-10.6306
ducir	-10.6311
Hija	-10.6311
Usted	-10.6312
▁doctor	-10.6317
▁monjas	-10.633
Tiene	-10.6337
▁domador	-10.6339
▁app	-10.6345
plicó	-10.6356
▁casarse	-10.636
▁EN	-10.637
▁bord	-10.6372
▁andando	-10.6374
dula	-10.6375
▁lluvia	-10.6376
▁temo	-10.6399
PE	-10.6403
▁observar	-10.6404
▁manifestar	-10.6406
Tampoco	-10.6407
▁Bárbara	-10.6407
▁Infierno	-10.6407
▁Micaelas	-10.6407
▁Segismundo	-10.6407
▁bárbaro	-10.6407
▁cultiva	-10.6407
▁infierno	-10.6407
▁manantial	-10.6407
▁máquina	-10.6407
▁sabiduría	-10.6407
▁seguridad	-10.6407
▁aceite	-10.6407
▁graciosa	-10.6407
▁funesta	-10.6407
▁crines	-10.6407
▁niebla	-10.6407
▁baile	-10.6407
▁great	-10.6407
▁goce	-10.6407
▁hábil	-10.6407
▁instrument	-10.6407
▁NO	-10.6408
▁aplaca	-10.6409
▁facilidad	-10.6409
▁sujeto	-10.641
▁elemento	-10.641
▁just	-10.6412
▁considerable	-10.6412
▁Río	-10.6415
▁cubre	-10.6416
▁sostener	-10.6416
▁saeta	-10.6417
▁vía	-10.6417
▁maldito	-10.6417
▁vara	-10.6423
▁him	-10.6424
▁participa	-10.6425
▁muchacha	-10.6426
▁empeza	-10.6427
iéronle	-10.6431
▁daría	-10.6462
▁cerrado	-10.6467
▁Verdad	-10.6471
▁quedé	-10.6476
▁veían	-10.6478
▁orbe	-10.6479
▁grita	-10.6486
▁adelanta	-10.6493
▁name	-10.6496
▁encendido	-10.6502
quilla	-10.6503
▁navegar	-10.6518
▁traían	-10.6521
▁gritó	-10.6526
idez	-10.6545
sabe	-10.6546
▁empezar	-10.6547
▁despertar	-10.6547
▁liso	-10.6567
▁sosten	-10.6568
dónde	-10.6571
prender	-10.6585
▁viven	-10.6604
▁crece	-10.6612
▁olvida	-10.6634
dina	-10.6643
Ojalá	-10.6645
▁Aparisi	-10.6645
▁Gobierno	-10.6645
▁República	-10.6645
▁auxilia	-10.6645
▁campamento	-10.6645
▁compañera	-10.6645
▁ejercicio	-10.6645
▁ochenta	-10.6645
▁parroquia	-10.6645
▁proyecto	-10.6645
▁próximo	-10.6645
▁solemne	-10.6645
▁troyana	-10.6645
▁universal	-10.6645
▁vocablo	-10.6645
▁catedral	-10.6645
▁engendra	-10.6645
▁produjo	-10.6645
▁triunfa	-10.6645
▁Además	-10.6645
▁Volvió	-10.6645
▁tronco	-10.6645
▁mancebo	-10.6645
▁atormenta	-10.6645
▁sucumbi	-10.6645
▁serpiente	-10.6645
▁conducta	-10.6645
▁medium	-10.6645
▁serenidad	-10.6645
▁dobla	-10.6645
▁aliento	-10.6645
▁Clara	-10.6645
▁alimento	-10.6645
▁esquina	-10.6646
▁soporta	-10.6646
▁trono	-10.6646
▁civil	-10.6647
▁sopla	-10.6648
▁Durante	-10.6648
▁consuelo	-10.6648
ECT	-10.6648
▁veloces	-10.6649
▁ahoga	-10.665
▁pasiones	-10.665
▁Carlos	-10.6651
▁linda	-10.6651
Quizá	-10.6651
▁harto	-10.6651
▁modera	-10.6653
▁using	-10.6654
▁echándo	-10.6662
▁Mundo	-10.6664
▁concede	-10.6665
Allá	-10.6667
▁cualidades	-10.6667
▁tru	-10.6668
▁ji	-10.6669
pensaba	-10.6671
▁hilo	-10.6673
▁faz	-10.6678
▁oyendo	-10.6678
▁tuyo	-10.668
▁estará	-10.6686
▁Tri	-10.669
▁permanecer	-10.6692
▁levantarse	-10.6697
▁hondo	-10.6713
▁volverá	-10.6722
▁barco	-10.6729
▁cuadr	-10.6738
▁pay	-10.6744
▁Ida	-10.6744
▁coro	-10.6751
▁contempla	-10.6758
▁cast	-10.6767
▁same	-10.6772
misión	-10.6773
▁mark	-10.6781
▁afligi	-10.6784
▁borde	-10.6787
▁brilla	-10.679
▁boda	-10.6793
nillo	-10.6795
tiende	-10.6796
▁tercer	-10.6803
pongo	-10.6803
▁iré	-10.6806
▁arreglar	-10.6811
▁sacan	-10.6812
▁tratado	-10.6813
▁cercano	-10.6814
▁regocij	-10.6845
▁marca	-10.6854
▁engañado	-10.686
▁inmortal	-10.6865
▁rápida	-10.6876
▁distribute	-10.6887
▁há	-10.6887
▁edific	-10.6887
▁auxilio	-10.6889
▁equinoccial	-10.6889
▁franqueza	-10.6889
▁garganta	-10.6889
▁necesaria	-10.6889
▁nereidas	-10.6889
▁obstante	-10.6889
▁penitencia	-10.6889
▁periódico	-10.6889
▁soberano	-10.6889
▁soberbio	-10.6889
▁socorrer	-10.6889
▁triunfo	-10.6889
▁Tesalia	-10.6889
▁aventaja	-10.6889
▁celestial	-10.6889
▁comprendí	-10.6889
▁hubieron	-10.6889
▁Algunos	-10.6889
▁jinete	-10.6889
▁limosna	-10.6889
▁causó	-10.6889
▁linaje	-10.6889
▁Luna	-10.6889
▁valeroso	-10.6889
▁Naturaleza	-10.6889
▁desnuda	-10.6889
▁mostró	-10.6889
▁hueco	-10.6889
▁temiendo	-10.6889
▁abrigo	-10.6889
▁retrato	-10.689
▁sesenta	-10.689
flexi	-10.689
▁found	-10.6891
▁ataque	-10.6893
▁nacimiento	-10.6893
▁enojo	-10.6895
▁quince	-10.6897
▁quinto	-10.6897
Volv	-10.6898
▁papa	-10.6899
▁cansado	-10.6899
▁empezaron	-10.6902
▁amable	-10.6905
▁debían	-10.6905
▁salvo	-10.6906
▁obedecer	-10.6906
▁cumplido	-10.6906
▁cetro	-10.691
▁cantando	-10.691
▁labrada	-10.691
▁falso	-10.6911
▁redonda	-10.6913
▁Dio	-10.6914
▁esperando	-10.6915
▁diversidad	-10.6917
▁Chile	-10.6921
▁mosca	-10.6925
▁buscando	-10.6928
▁dejan	-10.6928
▁Habla	-10.6929
▁aconseja	-10.6932
▁asilo	-10.6932
▁miel	-10.6941
▁fosa	-10.6949
He	-10.6953
▁eje	-10.6958
▁relato	-10.6961
NA	-10.6965
--¡	-10.6969
▁=15	-10.6978
▁luchar	-10.6984
▁salga	-10.6993
▁enseñar	-10.6996
minis	-10.7005
vista	-10.7009
▁reconocer	-10.701
▁servido	-10.7013
▁labrar	-10.7017
▁aproxima	-10.7028
▁estaría	-10.7034
ii	-10.7034
agre	-10.7043
▁turn	-10.7043
Project	-10.7044
▁vanidad	-10.7052
▁sana	-10.7059
▁dispone	-10.7087
▁mate	-10.7104
▁arrojar	-10.7113
▁postr	-10.7122
nformation	-10.7138
▁Hércules	-10.7139
▁Jacinto	-10.7139
▁individuo	-10.7139
▁látigo	-10.7139
▁esplendor	-10.7139
▁desprecio	-10.7139
▁hábito	-10.7139
▁juramento	-10.7139
▁rincón	-10.7139
▁dormía	-10.7139
▁Apenas	-10.7139
▁huevo	-10.7139
▁distinta	-10.7139
▁rescate	-10.7139
▁anyone	-10.7139
▁trastorna	-10.7139
▁novedad	-10.7139
▁tormento	-10.7139
▁return	-10.7139
▁bravo	-10.7139
▁rodela	-10.7139
▁pareja	-10.7139
Dónde	-10.7139
▁lujo	-10.714
▁tierno	-10.714
▁defini	-10.714
áronle	-10.714
▁bosque	-10.714
▁alumno	-10.714
▁83	-10.7141
▁look	-10.7141
▁gravedad	-10.7141
▁podemos	-10.7141
▁aparte	-10.7141
▁locura	-10.7146
▁perdió	-10.7146
▁invita	-10.7148
▁self	-10.7148
▁encontrado	-10.7149
idio	-10.715
▁cobre	-10.7158
▁adivina	-10.7159
▁salian	-10.7161
▁satisfacer	-10.7162
▁guapa	-10.7166
▁mencion	-10.7175
▁descansa	-10.7179
cogí	-10.7181
▁cesar	-10.7182
▁even	-10.7189
▁bola	-10.7191
▁pusiera	-10.7194
dillo	-10.7197
▁necesitaba	-10.7202
▁Norte	-10.7208
▁turb	-10.7225
▁habitacion	-10.7227
▁ofreció	-10.7235
▁cadáveres	-10.7248
▁echan	-10.7254
▁pesada	-10.7261
▁ataca	-10.7269
▁arm	-10.7277
▁consideracion	-10.7285
▁afect	-10.7298
pensó	-10.73
▁juzg	-10.731
▁pesca	-10.7321
▁quitaba	-10.7331
▁acercaba	-10.7339
▁fea	-10.7341
▁violent	-10.736
pón	-10.7368
▁gato	-10.738
▁visit	-10.7382
▁nacion	-10.7389
▁agrada	-10.7393
▁General	-10.7395
▁Mercurio	-10.7395
▁desagradable	-10.7395
▁escándalo	-10.7395
▁exterior	-10.7395
▁fábrica	-10.7395
▁inquietud	-10.7395
▁jovial	-10.7395
▁juventud	-10.7395
▁people	-10.7395
▁tremolante	-10.7395
▁Ruiz	-10.7395
▁artista	-10.7395
▁Ayaces	-10.7395
▁presteza	-10.7395
▁small	-10.7395
▁discreta	-10.7395
▁furioso	-10.7395
Muñoz	-10.7395
▁distinto	-10.7395
▁Quevedo	-10.7395
▁ocurría	-10.7395
▁intento	-10.7396
▁Llega	-10.7396
▁barbaridad	-10.7396
▁"¡	-10.7397
▁cogía	-10.7398
▁predica	-10.7399
▁dispuesta	-10.74
▁tolera	-10.7401
▁disposición	-10.7401
νη	-10.7405
▁fatal	-10.7405
▁recoger	-10.7405
▁bebida	-10.7407
▁retirarse	-10.7409
▁cause	-10.741
▁suspend	-10.741
Mejor	-10.7412
▁imperio	-10.7412
▁perfectamente	-10.7413
▁feo	-10.7418
▁acomod	-10.7419
▁preciosa	-10.742
▁ocasiones	-10.7425
▁sintiendo	-10.743
ement	-10.743
▁calent	-10.7431
▁confirm	-10.7431
▁llegamos	-10.7432
▁canno	-10.7432
▁sc	-10.7442
▁contienda	-10.7449
ving	-10.745
▁asombra	-10.745
▁arrebat	-10.7452
prendiendo	-10.7456
▁levantaba	-10.7461
iii	-10.7469
▁partir	-10.7471
▁caen	-10.7471
▁cuero	-10.7475
▁sabia	-10.7477
▁consta	-10.7498
▁=17	-10.7519
▁Luc	-10.7524
▁disimular	-10.7525
▁adelant	-10.753
▁pesado	-10.7549
▁considerar	-10.7558
▁afirman	-10.7559
Así	-10.7569
ward	-10.7569
▁atreve	-10.7583
▁local	-10.7604
media	-10.7631
▁demas	-10.7648
▁dijera	-10.7653
▁arrepent	-10.7657
IMER	-10.7658
▁dulzura	-10.7658
▁escudero	-10.7658
▁espectáculo	-10.7658
▁huésped	-10.7658
▁izquierdo	-10.7658
▁reverencia	-10.7658
▁support	-10.7658
▁despidió	-10.7658
▁empieza	-10.7658
▁grebas	-10.7658
▁anhela	-10.7658
▁honradez	-10.7658
▁acuerda	-10.7658
▁franca	-10.7658
▁recinto	-10.7658
▁cordial	-10.7658
▁forzoso	-10.7658
▁ratito	-10.7658
▁venganza	-10.7658
▁lectura	-10.7658
▁rumor	-10.7658
▁visible	-10.7659
▁ofrecía	-10.7659
▁vecina	-10.7659
▁severidad	-10.766
▁brisa	-10.766
▁París	-10.766
▁despoja	-10.766
▁marqués	-10.766
στ	-10.7662
IÓN	-10.7662
▁days	-10.7663
▁satisfacción	-10.7664
▁presto	-10.7664
▁salvación	-10.7672
▁contemplando	-10.7676
▁amarga	-10.7678
▁disparate	-10.7678
▁187	-10.7687
▁delanteros	-10.7687
▁roto	-10.7692
▁rasg	-10.7693
▁devora	-10.7695
▁dí	-10.7699
here	-10.77
▁cuarta	-10.7701
▁enviar	-10.7707
▁llegando	-10.7711
▁principalmente	-10.7714
▁sois	-10.7714
Cuál	-10.7715
▁dejé	-10.7717
▁bello	-10.7718
▁aparent	-10.7724
▁dará	-10.7725
▁fria	-10.7729
▁usar	-10.7732
▁verb	-10.7733
pugna	-10.7735
isma	-10.7735
▁dejaron	-10.7742
▁villa	-10.7745
▁rabi	-10.7765
Tu	-10.779
▁conservar	-10.7794
▁seguían	-10.7811
▁cuadro	-10.7826
volvió	-10.7828
▁jact	-10.7846
▁engañar	-10.7859
▁roga	-10.787
▁presentar	-10.7879
▁cent	-10.7884
▁sonido	-10.7889
▁corazon	-10.7905
▁pública	-10.7928
▁accept	-10.7928
▁angustia	-10.7928
▁capitanes	-10.7928
▁collection	-10.7928
▁práctica	-10.7928
▁pálida	-10.7928
▁párpado	-10.7928
▁súbito	-10.7928
▁encamina	-10.7928
▁purifica	-10.7928
▁recibía	-10.7928
▁Beocia	-10.7928
▁luciente	-10.7928
▁cintura	-10.7928
▁feroz	-10.7928
▁haciéndole	-10.7929
▁desdicha	-10.7929
▁pintura	-10.7929
▁license	-10.7929
▁almorzar	-10.7929
▁ausencia	-10.7929
▁owner	-10.7929
▁Entró	-10.7929
▁cuñado	-10.7929
▁fantas	-10.7929
▁yegua	-10.7929
▁retiró	-10.7929
▁inflama	-10.7929
▁Toledo	-10.7929
▁mantón	-10.7929
▁help	-10.7929
▁túnica	-10.7929
▁movía	-10.7929
▁teatro	-10.7929
▁volviéndose	-10.7929
▁interpret	-10.793
▁recelo	-10.793
▁tranquilidad	-10.7931
▁85	-10.7931
▁enderez	-10.7932
▁posted	-10.7932
▁derriba	-10.7932
▁supremo	-10.7933
▁pidió	-10.7936
▁herencia	-10.7936
▁inform	-10.7937
▁exalt	-10.7937
▁mover	-10.7939
▁besó	-10.7943
▁jugar	-10.7946
▁rompe	-10.7946
▁apunta	-10.7946
▁únicamente	-10.7948
▁severa	-10.7955
▁enamorado	-10.797
▁entregó	-10.7973
icie	-10.7981
▁ángeles	-10.7985
▁plant	-10.7998
▁legal	-10.8011
▁Soy	-10.8012
▁encendida	-10.8014
▁ocupaba	-10.8025
▁alzó	-10.8046
pues	-10.8055
▁estrech	-10.8064
▁invent	-10.8077
▁dolores	-10.8086
▁decoro	-10.809
▁iguales	-10.8098
▁poseía	-10.8116
▁encendi	-10.8143
αι	-10.8146
▁recia	-10.8147
▁adorar	-10.816
estar	-10.8175
iego	-10.8199
exclamé	-10.8206
▁Filósofo	-10.8206
▁Glauco	-10.8206
▁Tlacaellél	-10.8206
▁arremeti	-10.8206
▁bienaventurado	-10.8206
▁distinguir	-10.8206
▁extensión	-10.8206
▁falanges	-10.8206
▁mortifica	-10.8206
▁necesito	-10.8206
▁preocupa	-10.8206
▁práctico	-10.8206
▁know	-10.8206
▁llenó	-10.8206
▁Spain	-10.8206
▁desorden	-10.8206
▁Cierto	-10.8206
▁cayendo	-10.8206
▁veleras	-10.8206
▁escuela	-10.8206
▁protege	-10.8206
▁siguieron	-10.8206
▁Primer	-10.8206
▁ladrillo	-10.8206
▁vestida	-10.8207
▁86	-10.8207
▁servía	-10.8208
▁perfecto	-10.8209
▁suelto	-10.8209
▁supiera	-10.821
▁LOS	-10.821
▁sabor	-10.8211
▁duerme	-10.8211
▁Tebas	-10.8212
▁Éste	-10.8212
▁juez	-10.8213
▁trampa	-10.8214
▁improviso	-10.8215
▁culpable	-10.8215
▁educación	-10.8217
zuela	-10.8219
▁gritando	-10.8221
▁debió	-10.8221
▁mugeres	-10.8221
▁quite	-10.8223
▁salvado	-10.8224
▁hueso	-10.8224
▁dicta	-10.8227
▁moverse	-10.823
▁adoraban	-10.823
▁aqueo	-10.8234
▁trigo	-10.8234
▁Dura	-10.8237
bian	-10.8239
pule	-10.8243
▁recado	-10.8249
DE	-10.825
▁saque	-10.8263
▁convertir	-10.8285
▁veremos	-10.8289
▁brota	-10.8294
▁veta	-10.8305
▁refieren	-10.8312
▁llamaron	-10.8314
▁quitarle	-10.8325
sentimiento	-10.8327
▁maña	-10.833
▁verlos	-10.8345
ÍA	-10.8353
▁pescado	-10.8355
▁saco	-10.8359
▁cuidar	-10.836
▁creen	-10.8361
▁responde	-10.8363
RES	-10.8375
▁codo	-10.8381
▁represent	-10.8389
Héctor	-10.8397
puso	-10.842
▁asombr	-10.8421
Vi	-10.8428
▁conform	-10.8431
▁colm	-10.8435
▁barri	-10.8441
ρι	-10.8449
▁mensaje	-10.8454
▁bat	-10.8464
scribe	-10.8483
▁Matilde	-10.8492
▁Polidamante	-10.8492
▁Tharsis	-10.8492
▁confusión	-10.8492
▁esclarecido	-10.8492
▁innumerables	-10.8492
▁insignia	-10.8492
▁llueve	-10.8492
▁resuelto	-10.8492
▁Licaón	-10.8492
▁beneficia	-10.8492
▁cristiana	-10.8492
▁cuchillo	-10.8492
▁narices	-10.8492
▁sagrado	-10.8492
▁testigo	-10.8492
▁Ambos	-10.8492
▁raíces	-10.8492
▁Nunca	-10.8492
▁high	-10.8492
▁tropez	-10.8492
▁pudiendo	-10.8492
continuó	-10.8492
▁parezca	-10.8492
▁camisa	-10.8492
▁siguiendo	-10.8492
▁pudiese	-10.8492
▁bendito	-10.8492
▁ribera	-10.8492
▁manzana	-10.8492
▁robusto	-10.8493
▁derrota	-10.8493
▁sepult	-10.8493
▁79	-10.8493
▁78	-10.8493
λε	-10.8494
▁mostrado	-10.8494
▁poquito	-10.8494
▁substancia	-10.8494
▁impedir	-10.8494
▁pausa	-10.8494
▁vuelvo	-10.8495
▁Janto	-10.8496
▁prefer	-10.8496
▁Asia	-10.8497
▁envía	-10.8498
Amigo	-10.8498
▁delicada	-10.85
▁podré	-10.8501
▁traiga	-10.8501
▁obscuro	-10.8503
▁apura	-10.8504
▁persuadir	-10.8505
▁oprimi	-10.8505
▁inunda	-10.8506
▁capilla	-10.8506
dije	-10.8507
▁alarma	-10.8508
▁Juanín	-10.851
▁damage	-10.8513
▁raya	-10.8516
▁profundamente	-10.8519
▁muera	-10.8526
▁paloma	-10.854
▁calcul	-10.8549
▁cerrada	-10.8554
▁vengo	-10.8559
mol	-10.8575
Espera	-10.8579
▁fuertemente	-10.8585
▁igualmente	-10.8585
▁murmur	-10.8591
omb	-10.8596
▁usado	-10.8596
ον	-10.8602
ríamos	-10.8605
▁within	-10.8605
▁Mal	-10.8609
viene	-10.862
▁desprend	-10.863
HIS	-10.8637
old	-10.8641
▁dirigía	-10.8643
idia	-10.8667
▁vuel	-10.868
▁suceder	-10.8683
▁sostenía	-10.8707
▁pavo	-10.872
▁levantado	-10.8735
▁dirigir	-10.8752
▁abunda	-10.8766
▁tocaba	-10.8774
pósito	-10.8782
AND	-10.8783
oblación	-10.8783
▁Tambien	-10.8786
▁agujero	-10.8786
▁apacible	-10.8786
▁atentamente	-10.8786
▁concluye	-10.8786
▁domingo	-10.8786
▁filosofía	-10.8786
▁instinto	-10.8786
▁minutos	-10.8786
▁respectiva	-10.8786
▁simpático	-10.8786
▁súplica	-10.8786
▁tumulto	-10.8786
▁escrita	-10.8786
▁obscuridad	-10.8786
▁Pinzón	-10.8786
▁despojos	-10.8786
▁except	-10.8786
▁felices	-10.8786
▁problema	-10.8786
▁prohibi	-10.8786
▁pudieron	-10.8786
▁Francia	-10.8786
▁milagro	-10.8786
▁check	-10.8786
▁bruto	-10.8786
▁Voy	-10.8786
▁calló	-10.8786
▁finalmente	-10.8786
▁despedir	-10.8786
▁acaece	-10.8787
▁convencer	-10.8787
Mañana	-10.8787
▁limpio	-10.8787
▁tierna	-10.8787
▁pretende	-10.8787
▁habido	-10.8787
▁maravilloso	-10.8787
▁acordar	-10.8787
▁transport	-10.8787
▁incomod	-10.8788
▁insult	-10.8788
▁invoca	-10.8789
▁espesa	-10.879
▁conduce	-10.879
▁Psal	-10.8791
▁THE	-10.8791
▁exact	-10.8792
▁favorable	-10.8793
▁hiere	-10.8793
éronse	-10.8794
▁replace	-10.8794
▁perec	-10.8794
▁rastro	-10.8797
▁Salió	-10.8798
▁Dicho	-10.8803
▁mula	-10.8807
▁distribu	-10.8809
▁ingente	-10.881
Será	-10.8811
▁perra	-10.8812
disgust	-10.8815
TOR	-10.8815
▁90	-10.8815
▁vapor	-10.8816
▁184	-10.8819
▁tender	-10.882
▁only	-10.8824
▁gota	-10.8825
▁brillante	-10.8826
▁barro	-10.8828
▁podian	-10.8829
ρα	-10.883
▁=12	-10.8836
▁inventa	-10.8839
ólico	-10.8842
▁empleado	-10.8853
▁crueles	-10.8868
▁templada	-10.8871
▁Tales	-10.8874
▁=16	-10.8875
▁papeles	-10.8881
iéronse	-10.8882
▁Eres	-10.8885
divin	-10.8899
▁supera	-10.8902
manej	-10.891
▁temblaba	-10.8922
▁asegura	-10.8927
▁recio	-10.8932
▁ocupar	-10.8934
▁viaj	-10.8951
▁navegacion	-10.9
▁Cava	-10.9004
▁irrit	-10.9008
▁junt	-10.9016
▁picar	-10.9024
▁SE	-10.904
▁producía	-10.9046
▁cerrar	-10.9048
▁inspiraba	-10.9051
[19	-10.9057
aquel	-10.9058
▁Arg	-10.906
▁salí	-10.9075
▁Gran	-10.9088
▁Cortés	-10.9089
▁Olmedo	-10.9089
▁Plutón	-10.9089
▁Saturno	-10.9089
▁against	-10.9089
▁benevolencia	-10.9089
▁country	-10.9089
▁deshonra	-10.9089
▁entrambos	-10.9089
▁envuelto	-10.9089
▁farmacéutico	-10.9089
▁insignificante	-10.9089
▁jardín	-10.9089
▁number	-10.9089
▁recogida	-10.9089
▁should	-10.9089
▁universo	-10.9089
▁anything	-10.9089
▁rápido	-10.9089
▁embriag	-10.9089
▁policía	-10.9089
▁atropell	-10.9089
▁robusta	-10.9089
▁merced	-10.9089
▁lentamente	-10.9089
▁mostrando	-10.9089
▁sillón	-10.9089
▁status	-10.9089
▁link	-10.9089
▁cometido	-10.9089
▁resplandeciente	-10.9089
▁increpa	-10.9089
cultura	-10.909
▁despedía	-10.909
▁provision	-10.909
▁humill	-10.909
ología	-10.909
▁77	-10.9091
▁secreta	-10.9091
▁lustr	-10.9091
▁sonreía	-10.9092
▁freely	-10.9095
▁veneno	-10.9095
▁refleja	-10.9096
▁yugo	-10.9097
▁modest	-10.9097
▁contemplación	-10.9101
▁casó	-10.9103
▁dudo	-10.9105
▁ágiles	-10.9105
▁distributed	-10.9108
lanzó	-10.911
LL	-10.9113
▁suavemente	-10.9114
▁maldad	-10.9116
▁ríe	-10.9116
αλ	-10.9127
▁antiguamente	-10.9127
▁debido	-10.9131
λος	-10.9139
▁Latin	-10.9144
▁insist	-10.9145
▁ptas	-10.9146
▁habilidad	-10.9148
▁guardaba	-10.9155
▁naturalmente	-10.9157
▁explicar	-10.9158
▁Mayor	-10.917
▁serena	-10.9173
▁conocí	-10.9174
text	-10.9176
Pod	-10.9179
▁troc	-10.918
▁tomaron	-10.918
▁popa	-10.9181
▁cojo	-10.9186
▁volvería	-10.9191
▁española	-10.9199
entre	-10.9203
▁contempl	-10.9215
glori	-10.9222
▁sustancia	-10.9229
apunt	-10.923
▁disimula	-10.9246
mentar	-10.9255
mail	-10.927
▁justa	-10.9276
▁viese	-10.9288
vuelta	-10.9306
▁habitan	-10.9314
▁procur	-10.9333
▁descansar	-10.9351
▁true	-10.9365
▁propone	-10.937
Una	-10.9374
▁cristal	-10.9378
▁promov	-10.9379
▁persuad	-10.9388
ARRANT	-10.9402
▁Benigna	-10.9402
▁GUTENBERG	-10.9402
▁Vitzilipúztli	-10.9402
▁arrancó	-10.9402
▁artículo	-10.9402
▁concluir	-10.9402
▁criminal	-10.9402
▁desapareció	-10.9402
▁espléndido	-10.9402
▁fisonomía	-10.9402
▁multiplica	-10.9402
▁resolución	-10.9402
▁sacrificaban	-10.9402
▁temprano	-10.9402
▁Delfina	-10.9402
▁llegué	-10.9402
▁providing	-10.9402
▁requirements	-10.9402
▁licencia	-10.9402
▁prolonga	-10.9402
▁ANY	-10.9402
▁arroyo	-10.9402
▁computer	-10.9402
▁lorigas	-10.9402
▁montón	-10.9402
▁socorro	-10.9402
▁conocida	-10.9402
▁poema	-10.9402
▁lumbre	-10.9402
▁impulsa	-10.9402
▁below	-10.9402
▁combina	-10.9402
▁modelo	-10.9402
▁Plaza	-10.9402
▁sinceridad	-10.9402
▁veneranda	-10.9402
▁entendía	-10.9402
▁apartó	-10.9402
▁life	-10.9402
▁inicia	-10.9402
▁protesta	-10.9402
▁rencor	-10.9403
ability	-10.9403
▁compliance	-10.9403
▁gratitud	-10.9403
▁cordero	-10.9403
▁remota	-10.9404
▁contact	-10.9404
▁Oriente	-10.9404
▁displaying	-10.9405
▁favorece	-10.9406
▁cortina	-10.9408
▁valía	-10.9408
▁ill	-10.9408
▁shar	-10.9408
▁holder	-10.9409
▁referido	-10.9414
▁whi	-10.9415
▁copying	-10.9416
▁interesante	-10.9423
▁entregar	-10.9428
▁oyeron	-10.9431
▁soltó	-10.9431
▁subido	-10.9439
▁animaba	-10.944
▁abría	-10.9444
▁vana	-10.945
▁barre	-10.9451
▁bata	-10.9453
▁observando	-10.9453
▁Indio	-10.9461
▁fall	-10.9461
RIS	-10.9472
▁defect	-10.9474
▁face	-10.9478
Ni	-10.9478
▁apretó	-10.9481
ENT	-10.9507
intel	-10.9517
▁sort	-10.9518
▁sucede	-10.9526
▁tocan	-10.9532
▁brillaba	-10.9539
▁pillo	-10.9542
tuvieron	-10.9543
▁padecer	-10.9545
Don	-10.9557
▁elevada	-10.9578
▁pez	-10.9604
▁preso	-10.9605
Padre	-10.9629
tendiendo	-10.9658
▁peca	-10.9661
▁opone	-10.9674
▁arde	-10.9689
MEN	-10.9695
▁diciéndo	-10.9701
▁pretendi	-10.9714
▁both	-10.9721
▁Antenor	-10.9724
▁Azcapuzálco	-10.9724
▁Superiora	-10.9724
▁aguerrido	-10.9724
▁bruscamente	-10.9724
▁esmeralda	-10.9724
▁perpetua	-10.9724
▁written	-10.9724
▁grueso	-10.9724
▁jabalí	-10.9724
▁pálido	-10.9724
▁refresca	-10.9724
▁timidez	-10.9724
▁variedad	-10.9724
▁resistencia	-10.9724
▁cautiva	-10.9724
▁crimen	-10.9724
▁facciones	-10.9724
▁billete	-10.9724
▁comerciante	-10.9724
▁desierto	-10.9724
▁nosotras	-10.9724
▁culebra	-10.9724
▁encerrado	-10.9724
▁desmaya	-10.9724
Ilíada	-10.9724
▁Despues	-10.9724
ámonos	-10.9724
▁convicción	-10.9724
▁celeste	-10.9724
▁common	-10.9725
▁comarca	-10.9725
▁pleito	-10.9725
▁eleccion	-10.9725
▁cortesía	-10.9725
▁texto	-10.9725
▁gentil	-10.9726
▁sencilla	-10.9726
▁remove	-10.9726
▁=19	-10.9727
▁Sobre	-10.9727
▁following	-10.9727
TES	-10.9727
▁resign	-10.9729
▁cogiéndo	-10.973
▁asalta	-10.973
▁designa	-10.973
▁lloro	-10.973
▁baje	-10.9731
body	-10.9732
▁faltó	-10.9733
▁Argos	-10.9734
▁escala	-10.9736
▁abriga	-10.9737
▁subiendo	-10.974
▁temple	-10.9741
▁intim	-10.9743
▁aseguro	-10.9743
▁recordar	-10.9744
▁acercarse	-10.9749
▁licor	-10.9752
▁corazones	-10.9753
▁salón	-10.9753
▁front	-10.9758
▁gradas	-10.9758
▁León	-10.9767
▁levantaron	-10.977
▁vivamente	-10.9776
▁tirando	-10.9783
▁barca	-10.9785
▁vasta	-10.9802
▁tipo	-10.9821
acc	-10.9822
▁matando	-10.9834
▁juzgar	-10.9838
▁aprende	-10.9846
▁formaban	-10.9846
▁Tit	-10.9854
▁LI	-10.9882
ROJ	-10.9898
▁interrump	-10.9907
▁expresaba	-10.9925
▁asegurar	-10.9944
▁llegada	-10.9955
¡	-10.9979
▁Bri	-10.9981
▁permanecía	-10.9995
▁Bi	-11.0005
Hay	-11.0013
▁band	-11.0057
▁Africa	-11.0057
▁English	-11.0057
▁Eurípilo	-11.0057
▁Federico	-11.0057
▁Filosofía	-11.0057
▁Oileo	-11.0057
▁Priámida	-11.0057
▁Retamoso	-11.0057
▁Vigésimo	-11.0057
▁descanso	-11.0057
▁fórmula	-11.0057
▁influencia	-11.0057
▁vástago	-11.0057
DECIMO	-11.0057
▁armonía	-11.0057
▁simpatía	-11.0057
▁Llegó	-11.0058
▁columna	-11.0058
▁pendiente	-11.0058
▁empeño	-11.0058
▁gigante	-11.0058
▁future	-11.0058
▁túmulo	-11.0058
▁permiso	-11.0058
▁recurso	-11.0058
▁Altísimo	-11.0058
▁money	-11.0058
▁point	-11.0058
▁diestro	-11.0058
▁sabrá	-11.0058
▁desnudo	-11.0058
της	-11.0058
introduc	-11.0058
▁caudal	-11.0058
▁soplo	-11.0058
Todavía	-11.0058
▁absurd	-11.0058
▁Homero	-11.0058
▁hablo	-11.0059
▁liberal	-11.0059
▁tunante	-11.0059
εια	-11.0059
▁gracioso	-11.0059
▁pregunté	-11.0059
▁rigor	-11.0059
▁eché	-11.0059
▁alzando	-11.006
▁disipa	-11.006
▁office	-11.006
▁information	-11.006
▁descendiente	-11.006
▁dispuso	-11.0061
▁alimenta	-11.0062
▁suspira	-11.0062
▁permaneció	-11.0064
▁tranquiliza	-11.0068
▁sorprendido	-11.0069
▁reposo	-11.0073
▁sustenta	-11.0075
▁tardó	-11.0075
▁prepare	-11.0078
Acaso	-11.0079
▁consideración	-11.008
▁enviado	-11.0082
▁pedía	-11.0082
▁hucha	-11.0084
▁trajeron	-11.0085
▁trató	-11.0091
▁ritos	-11.0092
▁paredes	-11.0099
▁recto	-11.0101
▁violenta	-11.0111
▁echaron	-11.0114
▁regocijo	-11.0117
▁impone	-11.0118
▁olvidado	-11.0138
▁tocando	-11.015
▁ausent	-11.015
▁relat	-11.0155
▁consumi	-11.0196
▁corresponde	-11.023
▁servidor	-11.0235
▁elevado	-11.0242
cular	-11.0243
vane	-11.0245
▁atrevía	-11.0245
avor	-11.0248
▁grata	-11.025
▁viste	-11.0257
try	-11.0272
▁atravesar	-11.0285
▁reinaba	-11.0294
▁renunci	-11.0305
▁conserv	-11.0348
▁satisfac	-11.0362
iéramos	-11.0385
▁chist	-11.039
▁presentaba	-11.0399
▁usaba	-11.0399
▁Isabel	-11.04
▁Anquises	-11.0402
▁Automedonte	-11.0402
▁Deífobo	-11.0402
▁Feliciana	-11.0402
▁Filipinas	-11.0402
▁Menetio	-11.0402
▁Observ	-11.0402
▁balanza	-11.0402
▁carcajada	-11.0402
▁casualidad	-11.0402
▁comienza	-11.0402
▁conferencia	-11.0402
▁deiforme	-11.0402
▁encaminó	-11.0402
▁excelsa	-11.0402
▁horizonte	-11.0402
▁humildad	-11.0402
▁official	-11.0402
▁prudencia	-11.0402
▁pérdida	-11.0402
▁risueña	-11.0402
▁solípedos	-11.0402
▁desempeñ	-11.0402
▁despierta	-11.0402
▁empecé	-11.0402
▁hechura	-11.0402
▁pertenece	-11.0402
▁solemnidad	-11.0402
▁humedad	-11.0402
▁actual	-11.0402
▁convierte	-11.0402
▁Santísima	-11.0402
▁protección	-11.0402
▁recién	-11.0402
▁Sevilla	-11.0402
▁elegido	-11.0402
▁drama	-11.0402
▁uniform	-11.0402
▁sistema	-11.0403
▁tendré	-11.0403
▁región	-11.0403
▁quisieron	-11.0403
▁reciente	-11.0403
▁aparato	-11.0403
▁oscura	-11.0403
▁ofender	-11.0403
▁plomo	-11.0403
declaró	-11.0403
▁renova	-11.0404
▁=14	-11.0404
▁desplega	-11.0404
▁hincha	-11.0404
▁tigre	-11.0405
▁torpe	-11.0405
▁outside	-11.0405
▁Orden	-11.0405
▁sienes	-11.0406
▁abuelo	-11.0406
▁convertido	-11.0407
▁FOR	-11.0408
▁after	-11.0408
▁Diana	-11.0411
▁entré	-11.0411
▁gasto	-11.0413
▁continuaba	-11.0413
tribuye	-11.0415
▁my	-11.0415
▁occidentales	-11.0416
▁ingenioso	-11.0427
nuncia	-11.0428
▁cristales	-11.0429
▁turbación	-11.0434
▁Palas	-11.0437
▁arreglo	-11.0441
▁novio	-11.0445
▁ponto	-11.0445
▁trapo	-11.0447
▁recta	-11.0455
▁tratando	-11.0457
▁perlas	-11.0463
▁acostumbrado	-11.0467
Adiós	-11.0467
▁Caña	-11.0476
▁cambiar	-11.0524
▁PRO	-11.0587
tienda	-11.0591
decir	-11.0605
▁TH	-11.0607
Verdad	-11.0664
▁play	-11.067
▁NOT	-11.0682
▁lloraba	-11.0686
▁perdonar	-11.0687
Gall	-11.0731
Tie	-11.074
λα	-11.0744
▁Providencia	-11.0759
▁Trujillo	-11.0759
▁artificio	-11.0759
▁impaciencia	-11.0759
▁inclinó	-11.0759
▁ligereza	-11.0759
▁níveos	-11.0759
▁plátano	-11.0759
▁tímida	-11.0759
▁Antonio	-11.0759
▁VIGESIMO	-11.0759
▁humanidad	-11.0759
▁ejercita	-11.0759
▁poblado	-11.0759
▁gemido	-11.0759
▁glorioso	-11.0759
▁obsequi	-11.0759
▁anhelo	-11.076
▁raíz	-11.076
▁Manuel	-11.076
▁desdén	-11.076
▁despacho	-11.076
▁llevo	-11.076
▁certain	-11.076
▁ofrenda	-11.076
▁Muchas	-11.076
ocult	-11.076
▁course	-11.076
▁marchó	-11.076
▁botón	-11.076
▁abriendo	-11.076
▁seriedad	-11.076
▁Jamás	-11.076
▁sentencia	-11.076
▁aurora	-11.076
▁fresno	-11.0761
▁jeque	-11.0761
▁XXX	-11.0761
▁81	-11.0761
▁provoca	-11.0761
hostia	-11.0763
Cuidado	-11.0764
▁súbitamente	-11.0765
▁acercándose	-11.0765
▁destroza	-11.0766
▁Term	-11.0768
▁sentándose	-11.0769
▁extendió	-11.0769
▁Licia	-11.0769
▁Hacía	-11.0769
▁razonable	-11.077
▁clavos	-11.0778
▁arrastr	-11.0781
▁grandísimo	-11.0781
▁Reina	-11.0781
▁arque	-11.0787
▁gozoso	-11.0788
▁quedará	-11.079
▁200	-11.079
▁Crea	-11.0793
▁alcanzaron	-11.0797
▁acometida	-11.0798
▁cerró	-11.0807
▁vender	-11.0816
agua	-11.0816
▁azota	-11.0833
▁page	-11.0845
mple	-11.0849
▁estrecho	-11.0859
▁peine	-11.0859
▁cantaba	-11.0869
▁pecadora	-11.0899
▁armó	-11.0913
▁procedi	-11.0924
curren	-11.0944
▁tembl	-11.0945
currir	-11.0956
▁roja	-11.0972
▁moj	-11.0973
▁condenada	-11.0974
▁gritaba	-11.1004
levant	-11.1033
Maestro	-11.1035
natural	-11.1036
▁Mayo	-11.1038
llero	-11.1043
▁señalado	-11.1065
▁divide	-11.1069
▁enamora	-11.1073
▁aconsejar	-11.1095
▁particip	-11.11
▁admir	-11.1103
PER	-11.1104
▁numer	-11.113
▁Espíritu	-11.113
▁Religioso	-11.113
▁almuerzo	-11.113
▁azúcar	-11.113
▁balcones	-11.113
▁custodia	-11.113
▁cárcel	-11.113
▁francés	-11.113
▁inconveniente	-11.113
▁nerviosa	-11.113
▁prójima	-11.113
▁subject	-11.113
▁think	-11.113
▁trescientos	-11.113
▁compromiso	-11.113
▁diligente	-11.113
▁equivale	-11.113
▁frescura	-11.113
▁infernal	-11.113
▁insensato	-11.113
▁madrug	-11.113
▁suegra	-11.113
▁Belén	-11.113
▁doscientos	-11.113
lógico	-11.113
▁confuso	-11.113
▁cuantidad	-11.113
▁fulgor	-11.113
▁writing	-11.113
▁enfrente	-11.113
▁cayeron	-11.113
▁desaparece	-11.113
▁incorpor	-11.113
▁Sueño	-11.113
▁ladrones	-11.113
▁habéis	-11.113
▁perdición	-11.113
▁injuria	-11.113
▁cuestion	-11.113
▁levanté	-11.113
▁furiosa	-11.113
▁útil	-11.113
▁martirio	-11.113
▁maestra	-11.113
▁rebaño	-11.113
▁veinti	-11.113
▁acomete	-11.113
▁desgarra	-11.113
▁necio	-11.113
▁excede	-11.113
▁diablo	-11.113
▁prision	-11.113
▁Consejo	-11.1131
▁duque	-11.1131
▁alegro	-11.1131
▁precede	-11.1131
ándote	-11.1131
▁sendero	-11.1132
▁Intern	-11.1132
▁3)	-11.1132
ársela	-11.1133
▁ejecut	-11.1133
▁muchísimo	-11.1134
▁referente	-11.1134
▁población	-11.1134
▁leído	-11.1136
▁=11	-11.1136
▁constantemente	-11.1141
▁temblar	-11.1141
UND	-11.1141
▁consiste	-11.1142
▁traidor	-11.1142
▁discut	-11.1147
▁amarillo	-11.115
▁azote	-11.115
▁rule	-11.1151
Claro	-11.1151
▁debiera	-11.1151
▁cuente	-11.1153
▁revolvi	-11.1157
Tomo	-11.1157
▁atento	-11.1157
▁hube	-11.1159
▁seguramente	-11.116
Díga	-11.116
▁reposa	-11.1161
▁hallándo	-11.1162
▁continuamente	-11.1163
▁precioso	-11.1164
▁Haz	-11.1165
▁Española	-11.1165
▁Grande	-11.1166
▁institu	-11.1169
▁pasaje	-11.1171
prueb	-11.1174
▁grasa	-11.1179
▁she	-11.1193
▁perdía	-11.1199
▁contemplaba	-11.1218
parcial	-11.1222
▁Asio	-11.1229
▁bate	-11.1232
▁divers	-11.1244
▁atrever	-11.1244
▁144	-11.1266
▁Subi	-11.1293
ει	-11.1354
versión	-11.1357
Muy	-11.136
ardec	-11.137
Soy	-11.1419
▁result	-11.1433
▁esconde	-11.1453
▁morr	-11.1462
ολ	-11.151
▁derrib	-11.1512
limpi	-11.1514
balbuci	-11.1514
extraordinario	-11.1514
▁Barcelona	-11.1514
▁Cristianos	-11.1514
▁Décimo	-11.1514
▁Florencia	-11.1514
▁Galdós	-11.1514
▁Según	-11.1514
▁address	-11.1514
▁angelical	-11.1514
▁cansancio	-11.1514
▁construído	-11.1514
▁desconocido	-11.1514
▁descubrió	-11.1514
▁fortaleza	-11.1514
▁hecatombe	-11.1514
▁inocencia	-11.1514
▁inteligente	-11.1514
▁mármol	-11.1514
▁perseguir	-11.1514
▁religioso	-11.1514
▁ridículo	-11.1514
▁temperamento	-11.1514
▁testimonio	-11.1514
terminó	-11.1514
▁Gobernador	-11.1514
▁Tórridazona	-11.1514
▁continuo	-11.1514
▁crédito	-11.1514
▁disposicion	-11.1514
▁limpieza	-11.1514
▁obispo	-11.1514
▁sábana	-11.1514
▁capricho	-11.1514
▁preclaro	-11.1514
▁exagera	-11.1514
▁fiebre	-11.1514
▁infinito	-11.1514
▁síntoma	-11.1514
▁vejez	-11.1514
▁pretexto	-11.1514
▁colocó	-11.1515
▁manjares	-11.1515
▁profundidad	-11.1515
▁chispa	-11.1515
▁vacío	-11.1515
▁dinares	-11.1515
▁arruin	-11.1515
▁Sentía	-11.1515
▁arroz	-11.1515
▁movió	-11.1515
▁elegir	-11.1515
▁alcalde	-11.1515
▁audaz	-11.1515
▁quieto	-11.1515
▁materna	-11.1515
▁hielo	-11.1515
▁cueva	-11.1515
▁Acosta	-11.1515
▁Dichas	-11.1515
▁guiñ	-11.1515
▁=13	-11.1515
▁conozca	-11.1516
▁descarga	-11.1516
▁sencillo	-11.1516
▁back	-11.1516
▁mission	-11.1516
▁cuaja	-11.1517
▁baño	-11.1517
▁torva	-11.1517
áculo	-11.1517
position	-11.1517
▁setenta	-11.1518
▁start	-11.1519
▁levita	-11.1521
▁afán	-11.1522
ίη	-11.1522
▁flechador	-11.1523
▁court	-11.1525
mbró	-11.1526
▁producido	-11.1528
▁creencia	-11.1528
▁rebel	-11.1529
▁protector	-11.1531
▁advirtió	-11.1531
IES	-11.1532
▁atrevido	-11.1532
▁nobleza	-11.1536
▁Orco	-11.1536
▁enterarse	-11.1537
▁freno	-11.1537
▁facha	-11.1546
▁fecha	-11.1551
▁paper	-11.1552
▁comiendo	-11.1553
Bah	-11.1555
▁91	-11.1563
▁cazador	-11.1567
▁gobernador	-11.1571
▁fact	-11.1576
▁Lib	-11.1579
▁tard	-11.158
▁Villa	-11.1592
▁penetrante	-11.1601
▁pájaro	-11.1646
▁pierna	-11.1647
▁monja	-11.1656
▁Camp	-11.1663
▁brom	-11.1699
▁venida	-11.1701
▁dirigí	-11.1706
NES	-11.1712
BRE	-11.1714
ught	-11.1718
▁demand	-11.172
▁revis	-11.1733
▁facil	-11.1737
ook	-11.1752
Oye	-11.1755
cedieron	-11.1791
Canto	-11.182
María	-11.1824
▁ningun	-11.1852
TED	-11.1856
▁absoluta	-11.1902
▁libert	-11.1909
▁Finalmente	-11.1914
▁Fénix	-11.1914
▁Imperio	-11.1914
▁Nicanora	-11.1914
▁Sacramento	-11.1914
▁Satanás	-11.1914
▁Tezcuco	-11.1914
▁Villuendas	-11.1914
▁agradece	-11.1914
▁atraviesa	-11.1914
▁available	-11.1914
▁avergonza	-11.1914
▁crítico	-11.1914
▁defiende	-11.1914
▁descubierta	-11.1914
▁equipment	-11.1914
▁fenómeno	-11.1914
▁impertinente	-11.1914
▁llevándose	-11.1914
▁presuroso	-11.1914
▁quinientos	-11.1914
▁regreso	-11.1914
▁revolvía	-11.1914
▁íntima	-11.1914
▁Briseida	-11.1914
▁campanilla	-11.1914
▁distinguí	-11.1914
▁indecente	-11.1914
▁nervioso	-11.1914
▁oscuridad	-11.1914
▁perfume	-11.1914
▁puntual	-11.1914
▁shall	-11.1914
▁brutal	-11.1914
▁sollozos	-11.1914
▁gloriosa	-11.1914
▁sacrificado	-11.1914
▁copiosa	-11.1915
▁gallina	-11.1915
▁oficial	-11.1915
▁desarrolla	-11.1915
LIMI	-11.1915
▁nuera	-11.1915
▁perezca	-11.1915
▁funciones	-11.1915
▁epeos	-11.1915
▁first	-11.1915
▁haciéndose	-11.1915
▁poesía	-11.1915
▁santidad	-11.1915
▁remediar	-11.1915
▁hembra	-11.1915
▁aplaud	-11.1915
▁delibera	-11.1915
▁reflexion	-11.1915
▁parecia	-11.1915
▁limitation	-11.1915
▁viniendo	-11.1915
▁alumbra	-11.1915
▁mercado	-11.1915
▁movido	-11.1915
▁firma	-11.1915
▁arroba	-11.1915
▁circular	-11.1916
▁arrepentimiento	-11.1916
▁estábamos	-11.1916
▁tarea	-11.1916
▁pensé	-11.1916
▁87	-11.1916
▁Oyó	-11.1916
▁=18	-11.1916
▁decidir	-11.1916
▁braza	-11.1917
▁perdone	-11.1917
▁modestia	-11.1918
▁extiende	-11.1918
▁=10	-11.1919
▁creciendo	-11.1919
▁planeta	-11.192
▁tenéis	-11.192
▁lejano	-11.192
▁second	-11.1921
décimo	-11.1921
▁mental	-11.1921
▁descendió	-11.1922
▁pobrecito	-11.1926
▁saludable	-11.1926
▁guiar	-11.1927
▁mantener	-11.1928
▁madura	-11.1928
▁castillo	-11.1928
▁perdida	-11.1929
άρ	-11.193
▁dorada	-11.193
plicable	-11.1932
▁resonar	-11.1933
▁piense	-11.1934
▁firmeza	-11.1939
▁permitir	-11.194
▁maltrat	-11.1947
▁obligación	-11.1949
▁mensajero	-11.1968
▁derramar	-11.199
▁holg	-11.2
▁hurt	-11.201
▁harta	-11.201
▁tomándo	-11.2023
▁acera	-11.2027
▁docena	-11.2036
▁Sacerdote	-11.2063
siguió	-11.2084
▁hallába	-11.2092
plum	-11.2139
prendió	-11.2154
MENT	-11.2188
▁embarc	-11.2189
▁concept	-11.2193
US	-11.2194
▁existía	-11.2216
▁atrae	-11.2217
También	-11.2236
Atrida	-11.2236
▁frag	-11.224
▁adj	-11.225
▁asegur	-11.2251
▁Habl	-11.2277
pecial	-11.2293
▁precipita	-11.2295
▁hold	-11.2322
▁recei	-11.2327
BILITY	-11.2331
ografía	-11.2331
▁AGREE	-11.2331
▁América	-11.2331
▁DAMAGE	-11.2331
▁Encarnación	-11.2331
▁Magallanes	-11.2331
▁Rafaela	-11.2331
▁afortunado	-11.2331
▁bofetada	-11.2331
▁capellán	-11.2331
▁comprendido	-11.2331
▁concluyó	-11.2331
▁derivative	-11.2331
▁disclaimer	-11.2331
▁fábula	-11.2331
▁gerenio	-11.2331
▁gobierna	-11.2331
▁hospital	-11.2331
▁infantil	-11.2331
▁infelices	-11.2331
▁insolente	-11.2331
▁poblada	-11.2331
▁primitivo	-11.2331
▁recuerda	-11.2331
▁revestido	-11.2331
▁saaluk	-11.2331
▁something	-11.2331
▁tremendo	-11.2331
▁título	-11.2331
▁vendavales	-11.2331
▁Hacedor	-11.2331
▁Profeta	-11.2331
▁exclusi	-11.2331
▁gritería	-11.2331
▁impetuosa	-11.2331
▁infalible	-11.2331
▁plática	-11.2331
▁temporal	-11.2331
▁Pacheco	-11.2331
▁blanda	-11.2331
▁vulgo	-11.2331
▁construída	-11.2331
▁diván	-11.2331
▁vehemente	-11.2331
▁advertí	-11.2331
▁sabiendo	-11.2331
▁peñasco	-11.2331
▁payments	-11.2331
▁ángulo	-11.2331
feccion	-11.2331
▁encuentre	-11.2331
▁formalidad	-11.2331
▁probable	-11.2331
▁oscuro	-11.2331
▁sequedad	-11.2331
▁excusa	-11.2331
▁Enrique	-11.2331
▁view	-11.2331
▁condujo	-11.2331
▁Casino	-11.2331
▁redistribut	-11.2332
▁Banco	-11.2332
Combate	-11.2332
▁remain	-11.2332
▁garras	-11.2332
▁palpita	-11.2332
▁uñas	-11.2332
▁acertó	-11.2332
▁desvaneci	-11.2332
▁vivido	-11.2332
▁ofensa	-11.2332
▁Jesu	-11.2332
▁chupa	-11.2332
éndote	-11.2332
▁tabla	-11.2332
▁defective	-11.2333
▁escape	-11.2333
gruñ	-11.2333
▁propaga	-11.2333
ándonos	-11.2334
▁traspasa	-11.2334
▁entity	-11.2334
▁levante	-11.2335
▁sirva	-11.2335
▁ciega	-11.2335
cogieron	-11.2336
▁ansia	-11.2336
▁arenga	-11.2336
▁explicaciones	-11.2337
▁indicio	-11.2339
▁carry	-11.234
▁combatían	-11.234
▁included	-11.2341
▁permitió	-11.2343
▁infante	-11.2345
▁temía	-11.2348
▁constante	-11.2348
▁Hizo	-11.2348
▁pastel	-11.2353
▁report	-11.2357
▁poderosa	-11.236
▁tomé	-11.2366
▁amarilla	-11.2368
▁trueno	-11.2379
▁sentaba	-11.2381
▁protegi	-11.24
▁bram	-11.2449
perfect	-11.2488
▁mejilla	-11.2498
▁transcurr	-11.2517
▁reunió	-11.2533
▁cansar	-11.2537
▁convert	-11.2539
firme	-11.2633
hief	-11.2643
▁SU	-11.2654
NDO	-11.2658
Tengo	-11.2671
justicia	-11.2671
where	-11.2676
sistió	-11.2707
▁borr	-11.2716
poniendo	-11.2719
▁muger	-11.2745
▁advirti	-11.2747
atis	-11.2761
▁specifi	-11.2766
▁Agenor	-11.2766
▁Andrómaca	-11.2766
▁Creyentes	-11.2766
▁Domingo	-11.2766
▁Patricia	-11.2766
▁Polentinos	-11.2766
▁Tepanécas	-11.2766
▁Tróade	-11.2766
▁absoluto	-11.2766
▁bálsamo	-11.2766
▁crisis	-11.2766
▁crítica	-11.2766
▁disfruta	-11.2766
▁employee	-11.2766
▁excesivo	-11.2766
▁follaje	-11.2766
▁generosidad	-11.2766
▁homicida	-11.2766
▁inquieto	-11.2766
▁misericordia	-11.2766
▁relámpago	-11.2766
▁revólver	-11.2766
▁tempestad	-11.2766
▁terciopelo	-11.2766
▁world	-11.2766
▁ímpetu	-11.2766
▁pensativo	-11.2766
▁político	-11.2766
▁sombría	-11.2766
▁alegró	-11.2766
▁generoso	-11.2766
▁persigue	-11.2766
▁two	-11.2766
▁descubrí	-11.2766
▁descubre	-11.2766
▁halcón	-11.2766
▁suplicio	-11.2766
▁Puerta	-11.2766
▁naranja	-11.2766
▁umbral	-11.2766
▁vistió	-11.2766
▁Marcela	-11.2766
▁Puerto	-11.2766
▁botella	-11.2766
▁sólida	-11.2766
▁animoso	-11.2766
volución	-11.2766
▁sensible	-11.2766
▁futuro	-11.2766
▁show	-11.2766
▁abrazó	-11.2766
▁sosiego	-11.2766
▁repetía	-11.2766
▁adereza	-11.2766
▁calamidad	-11.2766
▁ofendido	-11.2766
▁paterna	-11.2766
▁huyó	-11.2766
▁Castilla	-11.2766
▁trecho	-11.2766
▁cuidadosamente	-11.2766
▁ayuna	-11.2766
▁llover	-11.2766
▁pondrá	-11.2766
▁exceso	-11.2766
▁agüero	-11.2767
▁interroga	-11.2767
▁sintieron	-11.2767
▁puñal	-11.2767
▁condiciones	-11.2767
▁oigo	-11.2767
▁mansión	-11.2767
▁atroz	-11.2767
▁altísimo	-11.2767
▁romano	-11.2767
▁alabanza	-11.2767
▁deteniéndose	-11.2767
▁conoció	-11.2767
▁cifra	-11.2767
▁cuerno	-11.2768
▁UNA	-11.2768
▁dirigiéndose	-11.2768
▁poniéndole	-11.2768
▁comprendió	-11.2768
▁Ayer	-11.2768
▁cabía	-11.2769
▁estanque	-11.2769
▁viniese	-11.2769
▁efectivamente	-11.277
▁obtener	-11.277
▁ceñi	-11.277
▁delirio	-11.277
▁plazo	-11.2771
fecto	-11.2771
▁aroma	-11.2771
▁crueldad	-11.2772
▁respetable	-11.2772
▁temeroso	-11.2773
▁áspero	-11.2775
▁bound	-11.2777
▁stand	-11.2777
▁descuida	-11.2777
tuvimos	-11.2777
Mamá	-11.2778
ttle	-11.2781
▁hogar	-11.2784
▁misteriosa	-11.2799
▁consolar	-11.2803
▁pinch	-11.2805
▁diese	-11.2807
▁galante	-11.281
ólid	-11.2812
▁brea	-11.2819
▁pelee	-11.2821
émonos	-11.2824
▁vendría	-11.2824
▁besar	-11.2825
Mujer	-11.2826
▁brill	-11.2837
▁traslad	-11.2902
▁producir	-11.2902
ship	-11.2913
Corre	-11.2933
▁enviaba	-11.2952
▁querrá	-11.2958
▁legua	-11.2959
▁guante	-11.2987
▁despej	-11.2989
trevió	-11.3007
▁ruin	-11.3085
ANTE	-11.3117
Rosario	-11.3125
Aunque	-11.3125
▁deshace	-11.3137
▁atribu	-11.3137
▁podia	-11.3164
▁entusiasm	-11.3174
▁aconsej	-11.3183
▁ágil	-11.3199
▁tribu	-11.321
▁princip	-11.321
▁despedaza	-11.322
▁Belerofonte	-11.322
▁Centauro	-11.322
▁Compañía	-11.322
▁Escamandro	-11.322
▁LIBRO	-11.322
▁MORAL	-11.322
▁Mardrus	-11.322
▁Religion	-11.322
▁Tafetán	-11.322
▁aborrece	-11.322
▁alcanzó	-11.322
▁anchuroso	-11.322
▁apoderó	-11.322
▁brigadier	-11.322
▁convirtió	-11.322
▁delicadeza	-11.322
▁dependiente	-11.322
▁desaparecido	-11.322
▁desconocida	-11.322
▁descubrimiento	-11.322
▁dragón	-11.322
▁garbanzo	-11.322
▁impaciente	-11.322
▁implacable	-11.322
▁indecible	-11.322
▁inexplicable	-11.322
▁lámpara	-11.322
▁method	-11.322
▁mudanza	-11.322
▁object	-11.322
▁observé	-11.322
▁penetró	-11.322
▁perseguido	-11.322
▁pertenecía	-11.322
▁pescuezo	-11.322
▁princesa	-11.322
▁préstamo	-11.322
▁página	-11.322
▁satisfecha	-11.322
▁tremenda	-11.322
▁valerosamente	-11.322
▁vivienda	-11.322
▁vosotras	-11.322
▁Olimpia	-11.322
▁expresiones	-11.322
▁molestia	-11.322
▁amanecer	-11.322
▁corrupt	-11.322
▁entendido	-11.322
▁procedía	-11.322
▁Palacio	-11.322
▁excitó	-11.322
Hermano	-11.3221
▁codicia	-11.3221
▁grosera	-11.3221
▁seductor	-11.3221
▁despecho	-11.3221
▁Adoración	-11.3221
▁cajón	-11.3221
▁Anoche	-11.3221
▁poseído	-11.3221
▁clamor	-11.3221
▁campana	-11.3221
▁Ofir	-11.3221
▁afeit	-11.3221
▁curioso	-11.3221
▁divinidad	-11.3221
▁Abril	-11.3221
juelos	-11.3221
▁encender	-11.3221
▁frasco	-11.3221
▁confieso	-11.3221
▁llevé	-11.3221
▁reproduc	-11.3221
▁destruye	-11.3221
▁each	-11.3221
▁extrema	-11.3221
▁paquete	-11.3221
▁calzado	-11.3221
▁áspera	-11.3221
▁trece	-11.3221
▁sazon	-11.3222
▁tapia	-11.3222
▁clear	-11.3222
▁oculto	-11.3222
▁acontec	-11.3223
▁enciende	-11.3223
▁vencedor	-11.3223
▁probado	-11.3223
▁poblaron	-11.3223
▁esencial	-11.3223
▁gorda	-11.3224
▁costura	-11.3225
▁nene	-11.3227
▁rubor	-11.3227
▁propuso	-11.3227
▁crecía	-11.3232
▁invencion	-11.3232
▁admiracion	-11.3232
▁cuántas	-11.3233
▁farol	-11.3236
▁mostrándo	-11.3238
▁encina	-11.324
▁run	-11.3245
▁harm	-11.3299
▁serie	-11.3311
▁Hart	-11.3312
σα	-11.3353
▁bald	-11.3423
Basta	-11.3467
Viene	-11.3487
Fuera	-11.3547
END	-11.3572
Hoy	-11.3601
▁cuart	-11.3602
puerta	-11.3603
▁August	-11.3614
pusiera	-11.3621
▁reconcili	-11.3651
vertida	-11.366
▁friend	-11.3674
▁adopt	-11.3682
person	-11.3686
▁display	-11.3692
Book	-11.3694
Francamente	-11.3697
άδης	-11.3697
▁Empezó	-11.3697
▁Mejicana	-11.3697
▁NATURAL	-11.3697
▁Púsose	-11.3697
▁abandonó	-11.3697
▁acaricia	-11.3697
▁actividad	-11.3697
▁aflicción	-11.3697
▁aparecieron	-11.3697
▁aspereza	-11.3697
▁bullicio	-11.3697
▁business	-11.3697
▁cinturón	-11.3697
▁cálculo	-11.3697
▁cúpula	-11.3697
▁disimulo	-11.3697
▁doméstico	-11.3697
▁espléndida	-11.3697
▁excesiva	-11.3697
▁filósofo	-11.3697
▁golfo	-11.3697
▁inmensidad	-11.3697
▁júbilo	-11.3697
▁legítimo	-11.3697
▁saalik	-11.3697
▁torbellino	-11.3697
▁trípode	-11.3697
▁vestiduras	-11.3697
▁zozobra	-11.3697
▁arranque	-11.3697
▁incendio	-11.3697
▁property	-11.3697
roofread	-11.3697
▁either	-11.3697
▁guardó	-11.3697
▁Macaón	-11.3697
▁niñez	-11.3697
▁éxito	-11.3697
▁desigual	-11.3697
▁logró	-11.3697
▁Paraíso	-11.3697
▁inquieta	-11.3697
▁rubio	-11.3697
▁espuma	-11.3697
▁traición	-11.3697
▁Yunán	-11.3697
▁pidiendo	-11.3697
▁profit	-11.3697
▁malicia	-11.3697
▁edición	-11.3697
▁cementerio	-11.3697
éptimo	-11.3697
▁gacela	-11.3697
▁Job	-11.3697
▁pondría	-11.3697
▁franco	-11.3697
▁diestra	-11.3697
▁Angel	-11.3697
▁bulto	-11.3697
▁ciñe	-11.3697
▁perturba	-11.3697
▁pilios	-11.3697
▁change	-11.3697
▁sentence	-11.3697
▁hacienda	-11.3697
▁mirándola	-11.3697
▁amparo	-11.3697
▁merecido	-11.3698
▁situada	-11.3698
▁reclama	-11.3698
▁89	-11.3698
▁famosa	-11.3698
▁ninfa	-11.3698
▁harina	-11.3698
fascina	-11.3698
▁menuda	-11.3699
díjole	-11.3699
▁arrim	-11.3699
▁visión	-11.3699
▁apercib	-11.37
▁Dolón	-11.37
▁printed	-11.37
▁sonrió	-11.37
august	-11.3701
▁pondera	-11.3701
▁exaltación	-11.3701
▁corrieron	-11.3701
▁tendió	-11.3701
▁demostrar	-11.3702
ábanle	-11.3703
▁retrocedió	-11.3704
▁sorprendió	-11.3704
▁pierda	-11.3704
▁require	-11.3705
obró	-11.3709
▁semilla	-11.371
▁clavel	-11.3712
▁ardía	-11.3715
▁quitándo	-11.3718
▁mísero	-11.3721
amonesta	-11.3731
moviendo	-11.3741
▁emprendi	-11.3753
simism	-11.382
ábala	-11.3829
▁aprovech	-11.3832
▁detenía	-11.3854
▁nací	-11.3909
scender	-11.3917
▁reconoce	-11.3949
ERI	-11.3962
▁compone	-11.4037
▁emprende	-11.4037
Parece	-11.4101
«	-11.4101
Cristo	-11.4101
scendía	-11.4103
poniéndose	-11.4104
[20	-11.4195
advertencia	-11.4197
▁Bonifacio	-11.4197
▁Ginés	-11.4197
▁INDIAS	-11.4197
▁Laomedonte	-11.4197
▁Levantóse	-11.4197
▁Pándaro	-11.4197
▁Sagrario	-11.4197
▁ambiente	-11.4197
▁ansiedad	-11.4197
▁antigüedad	-11.4197
▁caracteres	-11.4197
▁chulita	-11.4197
▁criterio	-11.4197
▁different	-11.4197
▁drogas	-11.4197
▁durmiendo	-11.4197
▁estúpido	-11.4197
▁immediate	-11.4197
▁indispensable	-11.4197
▁irresistible	-11.4197
▁lúgubre	-11.4197
▁muñeca	-11.4197
▁pedrada	-11.4197
▁perfección	-11.4197
▁refulgente	-11.4197
▁sepulcro	-11.4197
▁superficie	-11.4197
▁would	-11.4197
▁escandal	-11.4197
▁virgen	-11.4197
▁íntimo	-11.4197
Déjame	-11.4197
▁decorativa	-11.4197
▁further	-11.4197
▁vicuñas	-11.4197
▁volcanes	-11.4197
▁entristec	-11.4197
▁pondré	-11.4197
▁active	-11.4197
▁cigarro	-11.4197
▁pingüe	-11.4197
▁caballería	-11.4197
▁tarasca	-11.4197
▁hazañas	-11.4197
▁literal	-11.4197
▁XXVII	-11.4197
▁Élide	-11.4197
▁embuste	-11.4197
▁Gregor	-11.4197
▁embaraz	-11.4197
▁precisamente	-11.4197
▁infancia	-11.4197
▁abatido	-11.4197
▁hierba	-11.4197
alamero	-11.4197
▁dispersa	-11.4197
▁sacude	-11.4197
▁heredero	-11.4197
▁brío	-11.4197
▁bendita	-11.4197
▁muelle	-11.4197
▁uvas	-11.4197
▁pueril	-11.4197
▁piadoso	-11.4197
▁blandiendo	-11.4197
▁vencida	-11.4198
▁febril	-11.4198
▁treat	-11.4198
▁cadena	-11.4198
▁lecciones	-11.4198
▁CUA	-11.4198
▁acerqué	-11.4198
▁meaning	-11.4198
ársele	-11.4198
▁alhaja	-11.4199
▁peplo	-11.4199
agregó	-11.4199
▁estéril	-11.4199
▁town	-11.4199
▁HIP	-11.4199
▁encontramos	-11.4199
▁butaca	-11.42
▁mengua	-11.42
▁adormec	-11.42
▁cinta	-11.42
▁break	-11.42
▁eminent	-11.42
▁book	-11.42
▁molino	-11.42
▁trozo	-11.4201
▁etolo	-11.4201
▁aptitud	-11.4201
▁encierra	-11.4202
ING	-11.4202
▁postura	-11.4204
▁acecha	-11.4204
▁futura	-11.4204
▁almost	-11.4205
▁ajena	-11.4209
▁sincera	-11.4214
▁ajeno	-11.422
▁estableci	-11.4223
▁absten	-11.4229
mitted	-11.4245
uff	-11.4255
▁heredad	-11.426
▁renta	-11.4266
Christ	-11.4273
167	-11.4293
ascend	-11.4299
▁honr	-11.432
▁tranquil	-11.4387
▁Estuv	-11.4393
▁clari	-11.441
▁facilit	-11.4422
▁soldado	-11.4456
▁obscu	-11.4626
place	-11.4626
cuánto	-11.4628
▁menea	-11.4662
▁Hom	-11.469
▁hinc	-11.4708
scribir	-11.4716
ingún	-11.4722
▁prorrump	-11.4723
LEGÓ	-11.4723
▁Academy	-11.4723
▁Antártico	-11.4723
▁Cabañal	-11.4723
▁Cristóbal	-11.4723
▁Culhuacán	-11.4723
▁Diciembre	-11.4723
▁Except	-11.4723
▁Gumersindo	-11.4723
▁Hécuba	-11.4723
▁Jerusalén	-11.4723
▁Mediterráneo	-11.4723
▁Natividad	-11.4723
▁Viracócha	-11.4723
▁accordance	-11.4723
▁atmósfera	-11.4723
▁aturdido	-11.4723
▁bribona	-11.4723
▁cambió	-11.4723
▁cobardía	-11.4723
▁cuatrocientos	-11.4723
▁domicilio	-11.4723
▁engendró	-11.4723
▁explanation	-11.4723
▁físico	-11.4723
▁húmeda	-11.4723
▁indiferente	-11.4723
▁infieles	-11.4723
▁intellectual	-11.4723
▁invisible	-11.4723
▁kind	-11.4723
▁luminoso	-11.4723
▁lámina	-11.4723
▁obediencia	-11.4723
▁parentesco	-11.4723
▁physical	-11.4723
▁plegaria	-11.4723
▁pormenores	-11.4723
▁possession	-11.4723
▁presunción	-11.4723
▁primogénito	-11.4723
▁remordimiento	-11.4723
▁risueño	-11.4723
▁sucesivamente	-11.4723
▁suficiente	-11.4723
▁Felipe	-11.4723
▁Hacienda	-11.4723
▁centinela	-11.4723
▁donaire	-11.4723
▁ejemplar	-11.4723
▁escogida	-11.4723
▁estruendo	-11.4723
▁formidable	-11.4723
▁pretensiones	-11.4723
▁rapidez	-11.4723
▁resolver	-11.4723
▁sirvió	-11.4723
▁ternura	-11.4723
▁enseñó	-11.4723
▁plazuela	-11.4723
▁sucedido	-11.4723
▁afuera	-11.4723
▁articula	-11.4723
▁absorb	-11.4723
▁confesor	-11.4723
▁déjame	-11.4723
▁style	-11.4723
▁abissi	-11.4723
▁acordaba	-11.4723
▁sólido	-11.4723
▁trayendo	-11.4723
▁escalones	-11.4723
▁reanima	-11.4723
escribí	-11.4723
▁potencia	-11.4723
▁Miguel	-11.4723
▁idioma	-11.4723
▁obstina	-11.4723
▁conducido	-11.4723
▁Cuanto	-11.4723
▁anticipa	-11.4723
▁perseguía	-11.4723
▁crucifi	-11.4723
▁Heleno	-11.4723
▁invitó	-11.4723
▁vivimos	-11.4723
▁enseñanza	-11.4723
▁easy	-11.4723
▁llamándo	-11.4723
▁asimismo	-11.4723
▁retumb	-11.4723
▁cubría	-11.4723
▁Marqués	-11.4723
▁gorro	-11.4723
▁bezaar	-11.4723
▁osadía	-11.4723
▁profesa	-11.4724
▁felicit	-11.4724
▁suprema	-11.4724
▁concierto	-11.4724
▁servian	-11.4724
▁cebada	-11.4724
▁document	-11.4724
▁movida	-11.4724
▁convenía	-11.4724
▁despacha	-11.4725
▁alejó	-11.4725
▁begin	-11.4725
▁bastardo	-11.4725
▁Ideo	-11.4725
pequeñ	-11.4725
▁Guardia	-11.4725
▁destroy	-11.4726
Batalla	-11.4726
▁atrevimiento	-11.4726
▁agrav	-11.4727
▁hotel	-11.4727
▁deposit	-11.4727
▁jaula	-11.4728
▁Anfi	-11.473
▁áureo	-11.4731
▁sonora	-11.4731
▁viniera	-11.4732
▁acabo	-11.4732
▁COM	-11.4738
IND	-11.4739
▁tinta	-11.474
▁sonoro	-11.4741
▁sacándo	-11.4741
ábalo	-11.4741
▁desolla	-11.4744
▁Guard	-11.4747
▁tratándo	-11.4762
▁intencion	-11.4772
▁contenía	-11.4775
▁aproxim	-11.4963
interrumpió	-11.4968
cediendo	-11.4972
prendieron	-11.4976
153	-11.5023
▁sospech	-11.5045
sintió	-11.5184
Doña	-11.5184
buen	-11.5212
▁recoge	-11.5257
▁follow	-11.5274
▁practica	-11.5278
▁Figúr	-11.5278
▁diminut	-11.5278
DIRECT	-11.5279
ÍADA	-11.5279
▁Bagdad	-11.5279
▁Etiopia	-11.5279
▁Eácida	-11.5279
▁Fenelón	-11.5279
▁French	-11.5279
▁González	-11.5279
▁Inglaterra	-11.5279
▁Ministro	-11.5279
▁Villahorrenda	-11.5279
▁advertido	-11.5279
▁arrogante	-11.5279
▁bóveda	-11.5279
▁calumnia	-11.5279
▁consiguiente	-11.5279
▁cámara	-11.5279
▁desconsuelo	-11.5279
▁deslumbra	-11.5279
▁discordia	-11.5279
▁doméstica	-11.5279
▁durmió	-11.5279
▁frecuencia	-11.5279
▁física	-11.5279
▁húmedo	-11.5279
▁inclinándose	-11.5279
▁independen	-11.5279
▁indiferencia	-11.5279
▁infidelidad	-11.5279
▁jornada	-11.5279
▁legítima	-11.5279
▁municipal	-11.5279
▁obstáculo	-11.5279
▁oportuno	-11.5279
▁progreso	-11.5279
▁próvido	-11.5279
▁respectivos	-11.5279
▁sencillez	-11.5279
▁sonreír	-11.5279
▁thought	-11.5279
▁veinticinco	-11.5279
▁century	-11.5279
▁demuestra	-11.5279
▁dominio	-11.5279
▁equilibr	-11.5279
▁fervor	-11.5279
▁protegía	-11.5279
▁recogido	-11.5279
▁tambor	-11.5279
▁vidriera	-11.5279
▁almohada	-11.5279
▁poética	-11.5279
▁reflexive	-11.5279
▁Julio	-11.5279
▁Ramón	-11.5279
▁entierro	-11.5279
▁federal	-11.5279
▁judío	-11.5279
▁because	-11.5279
▁volumen	-11.5279
▁flexible	-11.5279
▁perteneci	-11.5279
▁requiere	-11.5279
▁compromet	-11.5279
▁decidido	-11.5279
▁modific	-11.5279
▁razonamiento	-11.5279
▁acequia	-11.5279
▁despabil	-11.5279
▁perverso	-11.5279
▁catorce	-11.5279
▁concerning	-11.5279
▁desbarata	-11.5279
▁incienso	-11.5279
▁hoguera	-11.5279
▁inmediato	-11.5279
▁construcción	-11.5279
▁escoger	-11.5279
▁botones	-11.5279
▁conjunto	-11.5279
▁varonil	-11.5279
▁despacio	-11.5279
▁tendremos	-11.5279
▁grosero	-11.5279
▁instiga	-11.5279
▁baúl	-11.5279
▁Lemnos	-11.5279
▁pulso	-11.5279
▁traigo	-11.5279
▁pureza	-11.5279
▁please	-11.5279
▁audacia	-11.5279
▁relativa	-11.5279
▁millones	-11.5279
▁type	-11.5279
▁bigote	-11.5279
▁comprendo	-11.5279
▁elegancia	-11.5279
▁estupor	-11.5279
▁apetece	-11.5279
▁nodriza	-11.5279
▁chillidos	-11.5279
▁vasija	-11.5279
▁lieu	-11.5279
▁suegro	-11.5279
▁cuñada	-11.5279
▁mediodia	-11.5279
Josef	-11.5279
▁fundó	-11.528
émona	-11.528
▁sastre	-11.528
▁crió	-11.528
▁mirándole	-11.528
▁Musas	-11.528
▁desatino	-11.528
▁perfil	-11.528
ánime	-11.528
▁Miró	-11.528
▁relación	-11.5281
▁señá	-11.5281
insinu	-11.5281
▁sustento	-11.5281
▁conjuro	-11.5281
Filome	-11.5281
▁need	-11.5281
▁hilera	-11.5281
▁afloj	-11.5281
▁cacao	-11.5281
▁tuerto	-11.5282
▁despide	-11.5282
▁letter	-11.5282
▁encerrar	-11.5282
▁establo	-11.5282
▁merecía	-11.5283
▁chasco	-11.5283
Piensa	-11.5283
▁confiesa	-11.5283
▁porfia	-11.5284
▁honda	-11.5287
▁cierra	-11.529
▁convuls	-11.529
▁escasa	-11.5294
Valiente	-11.5299
▁celebr	-11.5304
▁charit	-11.5311
presión	-11.5322
▁precipit	-11.5326
directly	-11.5328
▁moraba	-11.5333
▁correct	-11.5352
NER	-11.536
▁retoz	-11.5361
room	-11.5362
▁sermon	-11.538
▁alab	-11.548
173	-11.5496
ajita	-11.5511
▁arregl	-11.5526
▁sostenid	-11.5604
▁brot	-11.5609
▁Act	-11.5619
version	-11.5638
▁redond	-11.5738
rizada	-11.5765
Historia	-11.5771
▁occidental	-11.5843
▁include	-11.5852
opyright	-11.5862
ATION	-11.5867
QUI	-11.5867
SEGUNDO	-11.5867
▁Atlántida	-11.5867
▁Cordero	-11.5867
▁Egipto	-11.5867
▁Emperador	-11.5867
▁Gentiles	-11.5867
▁Inmediatamente	-11.5867
▁Schahriar	-11.5867
▁Tlepólemo	-11.5867
▁alboroto	-11.5867
▁alfombra	-11.5867
▁arboleda	-11.5867
▁artífice	-11.5867
▁ballena	-11.5867
▁bárbara	-11.5867
▁concluido	-11.5867
▁diálogo	-11.5867
▁eclesiástica	-11.5867
▁embajada	-11.5867
▁furibundo	-11.5867
▁inefable	-11.5867
▁infatigable	-11.5867
▁injuriosas	-11.5867
▁jueves	-11.5867
▁luminosa	-11.5867
▁matemático	-11.5867
▁melancolía	-11.5867
▁ministerio	-11.5867
▁pareciéndole	-11.5867
▁peldaños	-11.5867
▁prepotente	-11.5867
▁primitiva	-11.5867
▁profecía	-11.5867
▁recibimiento	-11.5867
▁recogimiento	-11.5867
▁regresó	-11.5867
▁royalties	-11.5867
▁simpática	-11.5867
▁sombrío	-11.5867
▁éxtasis	-11.5867
escrúpulo	-11.5867
▁Eetión	-11.5867
▁acordó	-11.5867
▁affect	-11.5867
▁afrenta	-11.5867
▁confesión	-11.5867
▁dijiste	-11.5867
▁obligó	-11.5867
▁poblacion	-11.5867
▁quisiere	-11.5867
▁sempitern	-11.5867
▁understand	-11.5867
ACH	-11.5867
▁cálido	-11.5867
▁despierto	-11.5867
▁juvenil	-11.5867
▁promoting	-11.5867
▁together	-11.5867
▁apresuradamente	-11.5867
▁arruga	-11.5867
▁exempt	-11.5867
▁funeral	-11.5867
▁escriba	-11.5867
▁montones	-11.5867
▁walk	-11.5867
proprietar	-11.5867
▁bruja	-11.5867
▁cálida	-11.5867
▁volcán	-11.5867
▁animó	-11.5867
▁colegio	-11.5867
incluso	-11.5867
▁hablándo	-11.5867
▁story	-11.5867
▁oficina	-11.5867
▁salvó	-11.5867
▁verdugo	-11.5867
▁Patria	-11.5867
▁comentario	-11.5867
▁Manila	-11.5867
▁Pintado	-11.5867
▁Divina	-11.5867
▁labriego	-11.5867
▁perdiendo	-11.5867
▁coronel	-11.5867
▁cimera	-11.5867
▁maquina	-11.5867
▁arrull	-11.5867
▁ruega	-11.5867
▁marfil	-11.5867
▁ternero	-11.5867
▁consigue	-11.5867
▁rendido	-11.5867
▁deliciosa	-11.5867
▁destinada	-11.5867
▁mueva	-11.5867
▁sostiene	-11.5867
▁Atreo	-11.5867
▁enternec	-11.5867
▁cortés	-11.5868
▁Creta	-11.5868
▁Destino	-11.5868
▁destinado	-11.5868
▁bring	-11.5868
▁Cuenta	-11.5868
▁=20	-11.5868
▁agitó	-11.5868
▁central	-11.5868
▁alquería	-11.5868
▁asemej	-11.5868
▁pedido	-11.5868
▁enriquec	-11.5868
▁cuchara	-11.5868
▁gusano	-11.5868
▁quebranta	-11.5869
▁llovi	-11.5869
▁envasó	-11.5869
▁imprimi	-11.5869
▁Quedó	-11.5869
▁Aún	-11.5869
▁contenido	-11.5869
▁paraíso	-11.5869
▁quisiese	-11.5869
▁urban	-11.5869
▁grabado	-11.587
▁comercial	-11.587
▁tradicion	-11.5871
▁remoto	-11.5871
▁guarde	-11.5871
precipitadamente	-11.5872
▁distrae	-11.5874
▁desliza	-11.5874
▁=21	-11.5874
▁carbon	-11.5875
Aguard	-11.588
▁promete	-11.5883
▁expedi	-11.5883
▁consume	-11.5883
ábanla	-11.5887
▁presidi	-11.5912
conciliación	-11.5923
Defect	-11.5956
▁limit	-11.5959
últ	-11.5968
idem	-11.6006
▁silb	-11.6018
▁docto	-11.6121
▁pomp	-11.6195
ιον	-11.6269
▁persist	-11.6272
156	-11.6358
congoj	-11.6372
work	-11.6397
limited	-11.6407
q	-11.6415
▁perdí	-11.642
robó	-11.6421
tribution	-11.6488
verosímil	-11.6492
▁ASCII	-11.6492
▁Asteropeo	-11.6492
▁Cartagena	-11.6492
▁Castelar	-11.6492
▁Cuyoacán	-11.6492
▁Euríalo	-11.6492
▁Gerónimo	-11.6492
▁LICENSE	-11.6492
▁Refugio	-11.6492
▁Royalty	-11.6492
▁Ruyán	-11.6492
▁START	-11.6492
▁Salomon	-11.6492
▁Viracocha	-11.6492
▁amedrenta	-11.6492
▁avaricia	-11.6492
▁benévolo	-11.6492
▁centellea	-11.6492
▁cubrieron	-11.6492
▁delincuente	-11.6492
▁eficaz	-11.6492
▁efusión	-11.6492
▁estimula	-11.6492
▁evidente	-11.6492
▁extrañeza	-11.6492
▁frecuenta	-11.6492
▁frialdad	-11.6492
▁generations	-11.6492
▁intrépido	-11.6492
▁melancólico	-11.6492
▁predilec	-11.6492
▁prominently	-11.6492
▁pulmones	-11.6492
▁purpose	-11.6492
▁resplandece	-11.6492
▁restrictions	-11.6492
▁ridícula	-11.6492
▁servidumbre	-11.6492
▁tiembla	-11.6492
▁tregua	-11.6492
▁DISTRIBUT	-11.6492
▁PARA	-11.6492
▁arrepient	-11.6492
▁conmovido	-11.6492
▁cuchiche	-11.6492
▁despidiendo	-11.6492
▁disponía	-11.6492
▁eclips	-11.6492
▁hammam	-11.6492
▁pedernal	-11.6492
▁proyecta	-11.6492
▁research	-11.6492
▁sultán	-11.6492
▁temporada	-11.6492
▁throw	-11.6492
▁íbamos	-11.6492
ergonzoso	-11.6492
▁Brasil	-11.6492
▁aborreci	-11.6492
▁distracción	-11.6492
▁excepcion	-11.6492
▁griega	-11.6492
▁procesión	-11.6492
IVE	-11.6492
▁César	-11.6492
▁Habiendo	-11.6492
▁Redistributi	-11.6492
▁bandeja	-11.6492
▁forastero	-11.6492
▁taberna	-11.6492
▁Produc	-11.6492
▁electronically	-11.6492
▁sanguin	-11.6492
▁translation	-11.6492
usually	-11.6492
▁astucia	-11.6492
▁carbón	-11.6492
▁golosina	-11.6492
▁solitario	-11.6492
▁aderezo	-11.6492
▁power	-11.6492
▁success	-11.6492
▁Londres	-11.6492
▁haciéndome	-11.6492
▁Grecia	-11.6492
▁consistía	-11.6492
▁discreto	-11.6492
▁encerrada	-11.6492
▁Hubo	-11.6492
▁amargura	-11.6492
▁numerosos	-11.6492
▁proponía	-11.6492
▁suplico	-11.6492
▁blow	-11.6492
▁resonó	-11.6492
▁rompiendo	-11.6492
▁Junto	-11.6492
▁eficac	-11.6492
▁rutina	-11.6492
▁emperador	-11.6492
▁jugando	-11.6492
▁bastón	-11.6492
▁solución	-11.6492
▁Esposa	-11.6492
▁desvanece	-11.6492
Plain	-11.6492
▁regazo	-11.6492
▁Manolo	-11.6492
▁saldría	-11.6492
▁procesion	-11.6492
▁ornato	-11.6492
▁sensación	-11.6492
▁seguimos	-11.6492
▁hostil	-11.6492
▁circo	-11.6492
▁hallé	-11.6492
▁saldrá	-11.6492
repliqué	-11.6492
▁manteca	-11.6492
▁descuido	-11.6492
Habrá	-11.6493
▁Adán	-11.6493
▁cavidad	-11.6493
Levanta	-11.6493
▁delicioso	-11.6493
▁palidec	-11.6493
▁calzada	-11.6493
▁llamo	-11.6493
▁estrago	-11.6493
▁Encontr	-11.6493
ICE	-11.6494
▁depende	-11.6494
▁fornido	-11.6494
▁acceso	-11.6494
▁abanico	-11.6494
▁fusil	-11.6494
▁junco	-11.6496
▁circunda	-11.6496
▁lejana	-11.6496
▁llana	-11.6498
▁tenedor	-11.6499
Respond	-11.65
▁jarro	-11.65
▁oyéndo	-11.6505
▁dilata	-11.6507
▁augur	-11.6508
▁ensalz	-11.6509
▁ESC	-11.6523
▁apretándo	-11.6636
stitución	-11.671
▁reprende	-11.6716
onations	-11.6746
▁CON	-11.6965
Entonces	-11.7064
▁maravill	-11.7085
▁embarg	-11.7135
▁reflej	-11.7143
Correspondencia	-11.7158
Insensato	-11.7158
▁Acamante	-11.7158
▁Apóstol	-11.7158
▁Candelaria	-11.7158
▁Chamberí	-11.7158
▁Esténelo	-11.7158
▁Guaynacápa	-11.7158
▁Hipóloco	-11.7158
▁Jesucristo	-11.7158
▁Olímpico	-11.7158
▁Traducida	-11.7158
▁antipatía	-11.7158
▁colloquial	-11.7158
▁cáscara	-11.7158
▁deplorable	-11.7158
▁descollaba	-11.7158
▁descompuesto	-11.7158
▁desengaña	-11.7158
▁desobedeció	-11.7158
▁diluvio	-11.7158
▁disculpa	-11.7158
▁elocuente	-11.7158
▁engañó	-11.7158
▁estúpida	-11.7158
▁exequias	-11.7158
▁fidelidad	-11.7158
▁flaqueza	-11.7158
▁histórico	-11.7158
▁incredulidad	-11.7158
▁increpó	-11.7158
▁indudable	-11.7158
▁indulgencia	-11.7158
▁indulgente	-11.7158
▁inhabitable	-11.7158
▁inquirir	-11.7158
▁longividente	-11.7158
▁olímpico	-11.7158
▁peregrino	-11.7158
▁pliegue	-11.7158
▁populosa	-11.7158
▁próceres	-11.7158
▁pícaro	-11.7158
▁recibieron	-11.7158
▁reconoció	-11.7158
▁reconozco	-11.7158
▁repentinamente	-11.7158
▁revuelto	-11.7158
▁transfigurado	-11.7158
▁transformó	-11.7158
▁trompeta	-11.7158
ngélico	-11.7158
▁Andrés	-11.7158
▁Florida	-11.7158
▁Nosotros	-11.7158
▁Pontejos	-11.7158
▁acometía	-11.7158
▁afectuosa	-11.7158
▁bendición	-11.7158
▁cerebral	-11.7158
▁competencia	-11.7158
▁conseguido	-11.7158
▁continúa	-11.7158
▁cítara	-11.7158
▁escapó	-11.7158
▁exhortó	-11.7158
▁flauta	-11.7158
▁gradual	-11.7158
▁parecieron	-11.7158
▁perfecciones	-11.7158
▁proveedora	-11.7158
▁repugnancia	-11.7158
▁Nuevo	-11.7158
▁concedido	-11.7158
▁conmovió	-11.7158
▁creyeron	-11.7158
▁desampara	-11.7158
▁dijimos	-11.7158
▁literaria	-11.7158
▁mutuamente	-11.7158
▁sabéis	-11.7158
judicial	-11.7158
▁esforzaba	-11.7158
ojalá	-11.7158
▁Micenas	-11.7158
▁congrega	-11.7158
▁desafia	-11.7158
▁inglesa	-11.7158
▁irradia	-11.7158
▁black	-11.7158
▁copioso	-11.7158
▁juguete	-11.7158
▁Cuatro	-11.7158
▁sabré	-11.7158
▁navaja	-11.7159
▁viviente	-11.7159
▁paciente	-11.7159
▁preserva	-11.7159
▁abandono	-11.7159
▁atónito	-11.7159
▁416	-11.7159
▁ironía	-11.7159
obeida	-11.7159
▁conducía	-11.7159
▁semejaba	-11.7159
▁confusa	-11.7159
▁bolsa	-11.7159
▁reñir	-11.7159
▁trastorno	-11.7159
▁claim	-11.7159
▁hocico	-11.7159
▁ocultó	-11.7159
▁apremia	-11.7159
▁recitó	-11.7159
▁escalón	-11.7159
▁rasguñ	-11.7159
▁locations	-11.7159
▁mosquito	-11.7159
▁abogado	-11.7159
▁fiscal	-11.7159
▁niegue	-11.7159
▁Creía	-11.7159
▁better	-11.7159
▁deleite	-11.7159
▁milicia	-11.7159
▁monument	-11.7159
▁imponía	-11.7159
▁normal	-11.7159
▁envenena	-11.7159
▁Siglo	-11.7159
▁delantal	-11.7159
▁remonta	-11.7159
▁reforma	-11.7159
▁primorosa	-11.7159
▁corbata	-11.716
▁espumos	-11.716
▁flaco	-11.716
▁escollo	-11.716
▁empuñ	-11.7161
▁resonaba	-11.7161
▁vidrio	-11.7162
▁ofusca	-11.7162
▁sembrad	-11.7164
▁saciar	-11.717
Ochoa	-11.7172
▁reparo	-11.7178
▁grow	-11.7184
▁reputaci	-11.7195
▁tenaz	-11.7229
▁Volvie	-11.7233
▁construct	-11.7237
NTI	-11.7364
AMI	-11.7449
NCE	-11.7512
repuse	-11.7665
▁comparacion	-11.7707
▁argument	-11.7726
named	-11.7768
contestó	-11.7778
with	-11.7779
acious	-11.7798
cibió	-11.7855
▁prodig	-11.7872
▁obedezco	-11.7873
▁peregrina	-11.7873
Cállate	-11.7873
Lléva	-11.7873
government	-11.7873
▁Adrasto	-11.7873
▁Agustín	-11.7873
▁Aragón	-11.7873
▁Arcadia	-11.7873
▁Argicida	-11.7873
▁Capricornio	-11.7873
▁Díjole	-11.7873
▁Euforbo	-11.7873
▁Farmacia	-11.7873
▁Febrero	-11.7873
▁Helesponto	-11.7873
▁Leopoldo	-11.7873
▁Mechoacán	-11.7873
▁Polipetes	-11.7873
▁Pédaso	-11.7873
▁Soleimán	-11.7873
▁aflige	-11.7873
▁already	-11.7873
▁antipático	-11.7873
▁argénte	-11.7873
▁atractivo	-11.7873
▁cavilaciones	-11.7873
▁civilización	-11.7873
▁coloquio	-11.7873
▁comandanta	-11.7873
▁conflicto	-11.7873
▁distraído	-11.7873
▁enérgica	-11.7873
▁excelencia	-11.7873
▁exquisito	-11.7873
▁extravagancia	-11.7873
▁francesa	-11.7873
▁fraude	-11.7873
▁himself	-11.7873
▁homicidio	-11.7873
▁idólatra	-11.7873
▁incomparable	-11.7873
▁infortunio	-11.7873
▁insoportable	-11.7873
▁introdujo	-11.7873
▁literary	-11.7873
▁llevársel	-11.7873
▁maintain	-11.7873
▁melancólica	-11.7873
▁móvil	-11.7873
▁músculo	-11.7873
▁néctar	-11.7873
▁pantalones	-11.7873
▁penitente	-11.7873
▁presurosa	-11.7873
▁profesión	-11.7873
▁puntiaguda	-11.7873
▁repartió	-11.7873
▁responsabilidad	-11.7873
▁resuelta	-11.7873
▁riquísimo	-11.7873
▁sartén	-11.7873
▁sobrinito	-11.7873
▁tálamo	-11.7873
▁ufano	-11.7873
▁variety	-11.7873
▁ventanilla	-11.7873
▁voraz	-11.7873
recibiera	-11.7873
▁ademanes	-11.7873
▁atambor	-11.7873
▁bajé	-11.7873
▁beocios	-11.7873
▁despobl	-11.7873
▁encadenado	-11.7873
▁grosería	-11.7873
▁incomplet	-11.7873
▁merezco	-11.7873
▁opulento	-11.7873
▁paisaje	-11.7873
▁prisión	-11.7873
▁pícara	-11.7873
▁trescientas	-11.7873
▁aguija	-11.7873
▁arbusto	-11.7873
▁argiva	-11.7873
▁arrojándo	-11.7873
▁prontamente	-11.7873
Pregunt	-11.7873
▁demasiada	-11.7873
▁despojó	-11.7873
▁group	-11.7873
▁preferencia	-11.7873
▁spirit	-11.7873
▁descendencia	-11.7873
▁humedec	-11.7873
Nuestra	-11.7873
dujeron	-11.7873
▁atraído	-11.7873
▁hiciste	-11.7873
▁priest	-11.7873
▁volvamos	-11.7873
▁cratera	-11.7873
▁Halló	-11.7873
▁botín	-11.7873
▁Agustin	-11.7873
▁cercior	-11.7873
▁memorable	-11.7873
ewby	-11.7873
▁prontitud	-11.7873
▁globo	-11.7873
▁destreza	-11.7873
▁generosa	-11.7873
▁fecundo	-11.7873
▁numerosas	-11.7873
▁draw	-11.7873
▁asqueros	-11.7873
▁Librada	-11.7873
▁conductor	-11.7873
▁contrista	-11.7873
▁buitre	-11.7873
▁those	-11.7873
▁Bastante	-11.7873
▁valiéndose	-11.7873
▁Neleo	-11.7873
▁Esceas	-11.7873
▁materno	-11.7873
▁415	-11.7873
▁usurpa	-11.7873
▁agasaj	-11.7873
▁galería	-11.7873
▁murieron	-11.7873
▁envejec	-11.7873
▁tapiz	-11.7873
▁primavera	-11.7874
▁transparent	-11.7874
▁pantano	-11.7874
▁infundía	-11.7874
▁permanent	-11.7874
▁maligna	-11.7874
▁piadosa	-11.7874
▁atenua	-11.7875
▁division	-11.7875
ONTE	-11.7876
intriga	-11.7876
▁traicion	-11.7878
▁infunde	-11.7878
Ignor	-11.7878
▁ejerce	-11.7879
▁rendir	-11.7882
▁frota	-11.7887
▁financi	-11.7888
▁Hallába	-11.7891
AVE	-11.7894
conduct	-11.7931
▁occur	-11.7942
▁ingrat	-11.8258
▁speak	-11.8341
▁Español	-11.8544
Ribot	-11.8546
cometiendo	-11.8553
III	-11.8554
▁improvis	-11.8617
▁corcel	-11.8619
▁inmediata	-11.863
▁poblar	-11.8637
▁print	-11.8641
▁TRIGESIMO	-11.8642
Lástima	-11.8642
▁Ascálafo	-11.8642
▁Bóreas	-11.8642
▁Caballeros	-11.8642
▁Compañia	-11.8642
▁Concepción	-11.8642
▁Creyó	-11.8642
▁Cualquier	-11.8642
▁Céfiro	-11.8642
▁David	-11.8642
▁Difícil	-11.8642
▁Discordia	-11.8642
▁Distributed	-11.8642
▁Doniazada	-11.8642
▁Facunda	-11.8642
▁Fernando	-11.8642
▁Frigia	-11.8642
▁Gibraltar	-11.8642
▁Horacio	-11.8642
▁Joaquín	-11.8642
▁Ninguno	-11.8642
▁Occidental	-11.8642
▁Panamá	-11.8642
▁Pedernero	-11.8642
▁Público	-11.8642
▁Salomón	-11.8642
▁Trigésimo	-11.8642
▁Universidad	-11.8642
▁adquiere	-11.8642
▁advierte	-11.8642
▁albedrío	-11.8642
▁aniquila	-11.8642
▁antepasados	-11.8642
▁argentados	-11.8642
▁artificial	-11.8642
▁azucar	-11.8642
▁benéfico	-11.8642
▁biblioteca	-11.8642
▁carnicero	-11.8642
▁circunstantes	-11.8642
▁coyuntura	-11.8642
▁descubrieron	-11.8642
▁desemboca	-11.8642
▁desfallec	-11.8642
▁elocuencia	-11.8642
▁embellec	-11.8642
▁estupefacto	-11.8642
▁exactitud	-11.8642
▁hemisferio	-11.8642
▁hipócrita	-11.8642
▁ignominia	-11.8642
▁insensible	-11.8642
▁longitud	-11.8642
▁manifieste	-11.8642
▁mercancía	-11.8642
▁método	-11.8642
▁oportuna	-11.8642
▁peculiar	-11.8642
▁perplejo	-11.8642
▁párrafo	-11.8642
▁pólvora	-11.8642
▁púsose	-11.8642
▁resplandecía	-11.8642
▁riquísima	-11.8642
▁siéntate	-11.8642
▁tímido	-11.8642
▁Antípodas	-11.8642
▁Japones	-11.8642
▁Leonteo	-11.8642
▁Manolita	-11.8642
▁Menesteo	-11.8642
▁POLI	-11.8642
▁Socorro	-11.8642
▁Símois	-11.8642
▁alfanje	-11.8642
▁anchura	-11.8642
▁ballesta	-11.8642
▁cosquillas	-11.8642
▁desmejora	-11.8642
▁determine	-11.8642
▁escarpada	-11.8642
▁escogido	-11.8642
▁extremidad	-11.8642
▁farmacia	-11.8642
▁intitula	-11.8642
▁pacífica	-11.8642
▁pandereta	-11.8642
▁pensativa	-11.8642
Escucho	-11.8642
▁contrariedad	-11.8642
▁dígame	-11.8642
▁festín	-11.8642
▁fundicion	-11.8642
▁preserve	-11.8642
▁refrena	-11.8642
▁Agosto	-11.8642
▁afición	-11.8642
▁distingue	-11.8642
▁dureza	-11.8642
▁luctuos	-11.8642
▁mundano	-11.8642
▁religion	-11.8642
▁tormenta	-11.8642
▁destruído	-11.8642
▁discreción	-11.8642
▁vasallos	-11.8642
▁velocidad	-11.8642
▁índole	-11.8642
▁itself	-11.8642
▁Crises	-11.8642
▁parecida	-11.8642
▁Luis	-11.8642
▁Silvia	-11.8642
▁ídolo	-11.8642
▁creciente	-11.8642
▁resuena	-11.8642
▁Mandarin	-11.8642
▁brasero	-11.8642
▁confesion	-11.8642
▁Palabra	-11.8642
▁extenso	-11.8642
▁images	-11.8642
▁repartir	-11.8642
▁acobard	-11.8642
▁soldier	-11.8642
▁desenvolv	-11.8642
▁tropel	-11.8642
▁jarrón	-11.8642
▁various	-11.8642
▁calabaza	-11.8642
▁apropia	-11.8642
▁Habría	-11.8642
▁gemir	-11.8642
▁puchero	-11.8642
▁diamante	-11.8642
▁doubt	-11.8642
account	-11.8642
▁TRAD	-11.8642
▁desencant	-11.8643
▁Poéta	-11.8643
▁introducir	-11.8643
generación	-11.8643
▁enrojec	-11.8643
▁tribunal	-11.8643
▁peinado	-11.8643
▁adapta	-11.8644
▁puñado	-11.8644
properly	-11.8645
pongamos	-11.8646
▁sagac	-11.8656
▁aplast	-11.8658
▁hiriéndo	-11.8677
▁obscureci	-11.8701
▁ardid	-11.8703
▁abalanz	-11.8808
Bendit	-11.882
▁obedecie	-11.8875
▁organiz	-11.8951
augm	-11.9044
▁compensa	-11.9052
patriarca	-11.9168
227	-11.93
▁obtuv	-11.9319
Calla	-11.9349
ntigua	-11.9355
empezó	-11.938
Jacinta	-11.938
Fortunata	-11.938
▁súbita	-11.9463
▁Natural	-11.9475
herramienta	-11.9475
▁acumula	-11.9475
▁insaciable	-11.9475
▁intercepta	-11.9475
▁profetiza	-11.9475
▁propietario	-11.9475
▁traditional	-11.9475
CUARTO	-11.9475
SEXTO	-11.9475
mártir	-11.9475
túvose	-11.9475
voluntariamente	-11.9475
▁Andalucía	-11.9475
▁Ayuntamiento	-11.9475
▁Cebrión	-11.9475
▁Dardánida	-11.9475
▁Epíteto	-11.9475
▁Eumelo	-11.9475
▁Gobernación	-11.9475
▁Guatemala	-11.9475
▁Jerónima	-11.9475
▁Kalendario	-11.9475
▁Levantose	-11.9475
▁Magdalena	-11.9475
▁Meleagro	-11.9475
▁Orsíloco	-11.9475
▁Sagrada	-11.9475
▁Schahzaman	-11.9475
▁Telamón	-11.9475
▁Yupángui	-11.9475
▁according	-11.9475
▁approach	-11.9475
▁ballad	-11.9475
▁between	-11.9475
▁bravura	-11.9475
▁candelabros	-11.9475
▁caractéres	-11.9475
▁chuletas	-11.9475
▁circunferencia	-11.9475
▁concordia	-11.9475
▁consternación	-11.9475
▁countries	-11.9475
▁dialéctica	-11.9475
▁discípulo	-11.9475
▁disfraza	-11.9475
▁dispensa	-11.9475
▁dátiles	-11.9475
▁easily	-11.9475
▁económica	-11.9475
▁envidioso	-11.9475
▁estiércol	-11.9475
▁eternidad	-11.9475
▁exquisita	-11.9475
▁gallego	-11.9475
▁glacial	-11.9475
▁guirnalda	-11.9475
▁hambriento	-11.9475
▁horrenda	-11.9475
▁literatura	-11.9475
▁líquido	-11.9475
▁medicamento	-11.9475
▁menudencias	-11.9475
▁occasion	-11.9475
▁olfato	-11.9475
▁ombligo	-11.9475
▁orbajosense	-11.9475
▁pabellón	-11.9475
▁pedrería	-11.9475
▁perfumado	-11.9475
▁perjuicio	-11.9475
▁pernicioso	-11.9475
▁perpetuo	-11.9475
▁pórtico	-11.9475
▁reconociendo	-11.9475
▁reconocimiento	-11.9475
▁recíprocamente	-11.9475
▁reflujo	-11.9475
▁resolvió	-11.9475
▁revolucionari	-11.9475
▁sacristán	-11.9475
▁sentimental	-11.9475
▁subterráneo	-11.9475
▁símbolo	-11.9475
▁terquedad	-11.9475
▁testamento	-11.9475
▁travesura	-11.9475
▁vehemencia	-11.9475
▁vestíbulo	-11.9475
▁vocerío	-11.9475
▁Ramona	-11.9475
▁Rubio	-11.9475
▁afectuoso	-11.9475
▁aparición	-11.9475
▁caballerito	-11.9475
▁codicioso	-11.9475
▁conocieron	-11.9475
▁desconfia	-11.9475
▁distraída	-11.9475
▁fraile	-11.9475
▁frenesí	-11.9475
▁ingleses	-11.9475
▁legumbres	-11.9475
▁pellejo	-11.9475
▁pequeñuelo	-11.9475
▁utilidad	-11.9475
▁Pensando	-11.9475
▁antorcha	-11.9475
▁demostrando	-11.9475
▁ducados	-11.9475
▁enemiga	-11.9475
▁fiereza	-11.9475
▁investig	-11.9475
▁mendigo	-11.9475
▁órgano	-11.9475
Vosotros	-11.9475
▁Michael	-11.9475
▁Supremo	-11.9475
▁radiante	-11.9475
▁solitaria	-11.9475
▁espesura	-11.9475
▁expresándose	-11.9475
▁suggest	-11.9475
▁ternera	-11.9475
▁jarabe	-11.9475
▁relucir	-11.9475
▁azahar	-11.9475
▁chifla	-11.9475
▁liberación	-11.9475
▁liviana	-11.9475
▁pradera	-11.9475
▁destellos	-11.9475
▁atrocidad	-11.9475
▁cajones	-11.9475
▁derived	-11.9475
▁repugnante	-11.9475
▁rocío	-11.9475
Silencio	-11.9475
▁encarnado	-11.9475
▁bizco	-11.9475
▁infiere	-11.9475
▁confusion	-11.9475
verídico	-11.9475
▁sabría	-11.9475
▁Templo	-11.9475
▁gemía	-11.9475
▁Dirigi	-11.9476
▁sucumba	-11.9476
ü	-12.1375
*	-13.4673
Q	-13.4674
